{"!":0,"\"":1,"#":2,"$":3,"%":4,"&":5,"'":6,"(":7,")":8,"*":9,"+":10,",":11,"-":12,".":13,"/":14,"0":15,"1":16,"2":17,"3":18,"4":19,"5":20,"6":21,"7":22,"8":23,"9":24,":":25,";":26,"<":27,"=":28,">":29,"?":30,"@":31,"A":32,"B":33,"C":34,"D":35,"E":36,"F":37,"G":38,"H":39,"I":40,"J":41,"K":42,"L":43,"M":44,"N":45,"O":46,"P":47,"Q":48,"R":49,"S":50,"T":51,"U":52,"V":53,"W":54,"X":55,"Y":56,"Z":57,"[":58,"\\":59,"]":60,"^":61,"_":62,"`":63,"a":64,"b":65,"c":66,"d":67,"e":68,"f":69,"g":70,"h":71,"i":72,"j":73,"k":74,"l":75,"m":76,"n":77,"o":78,"p":79,"q":80,"r":81,"s":82,"t":83,"u":84,"v":85,"w":86,"x":87,"y":88,"z":89,"{":90,"|":91,"}":92,"~":93,"¡":94,"¢":95,"£":96,"¤":97,"¥":98,"¦":99,"§":100,"¨":101,"©":102,"ª":103,"«":104,"¬":105,"®":106,"¯":107,"°":108,"±":109,"²":110,"³":111,"´":112,"µ":113,"¶":114,"·":115,"¸":116,"¹":117,"º":118,"»":119,"¼":120,"½":121,"¾":122,"¿":123,"À":124,"Á":125,"Â":126,"Ã":127,"Ä":128,"Å":129,"Æ":130,"Ç":131,"È":132,"É":133,"Ê":134,"Ë":135,"Ì":136,"Í":137,"Î":138,"Ï":139,"Ð":140,"Ñ":141,"Ò":142,"Ó":143,"Ô":144,"Õ":145,"Ö":146,"×":147,"Ø":148,"Ù":149,"Ú":150,"Û":151,"Ü":152,"Ý":153,"Þ":154,"ß":155,"à":156,"á":157,"â":158,"ã":159,"ä":160,"å":161,"æ":162,"ç":163,"è":164,"é":165,"ê":166,"ë":167,"ì":168,"í":169,"î":170,"ï":171,"ð":172,"ñ":173,"ò":174,"ó":175,"ô":176,"õ":177,"ö":178,"÷":179,"ø":180,"ù":181,"ú":182,"û":183,"ü":184,"ý":185,"þ":186,"ÿ":187,"Ā":188,"ā":189,"Ă":190,"ă":191,"Ą":192,"ą":193,"Ć":194,"ć":195,"Ĉ":196,"ĉ":197,"Ċ":198,"ċ":199,"Č":200,"č":201,"Ď":202,"ď":203,"Đ":204,"đ":205,"Ē":206,"ē":207,"Ĕ":208,"ĕ":209,"Ė":210,"ė":211,"Ę":212,"ę":213,"Ě":214,"ě":215,"Ĝ":216,"ĝ":217,"Ğ":218,"ğ":219,"Ġ":220,"ġ":221,"Ģ":222,"ģ":223,"Ĥ":224,"ĥ":225,"Ħ":226,"ħ":227,"Ĩ":228,"ĩ":229,"Ī":230,"ī":231,"Ĭ":232,"ĭ":233,"Į":234,"į":235,"İ":236,"ı":237,"Ĳ":238,"ĳ":239,"Ĵ":240,"ĵ":241,"Ķ":242,"ķ":243,"ĸ":244,"Ĺ":245,"ĺ":246,"Ļ":247,"ļ":248,"Ľ":249,"ľ":250,"Ŀ":251,"ŀ":252,"Ł":253,"ł":254,"Ń":255,"Ð¾":256,"ĠÐ":257,"Ðµ":258,"Ð¸":259,"Ð°":260,"ÑĤ":261,"Ð½":262,"Ñģ":263,"Ð¾Ð":264,"ÑĢ":265,"Ð»":266,"Ðº":267,"Ñĥ":268,"Ð²":269,"Ñı":270,"Ð¼":271,"Ñĭ":272,"ÑģÑĤ":273,"ĠÐ¿":274,"Ð´":275,"ÐµÐ½":276,"ÑĮ":277,"Ñĩ":278,"ĠÐ²":279,"ĠÑģ":280,"Ð¾Ð²":281,"ÑĢÐ°":282,"Ñħ":283,"ĠÐ¸":284,"Ð·":285,"ĠÐ½":286,"ÑĢÐµ":287,"Ð¿":288,"Ð½Ð¸":289,"Ð½Ñĭ":290,"ÑĨ":291,"ĠÐº":292,"Ð¹":293,"Ð½Ð¾":294,"Ñİ":295,"ÑĤÐµ":296,"Ð¾Ð»":297,"Ð¾Ð³":298,"ÐµÐ½Ð¸":299,"Ð³":300,"ÑĢÐ¸":301,"ĠÐ´":302,"Ð¾Ð´":303,"Ð»ÑĮ":304,"Ð¾ÑĤ":305,"Ð¾Ð±":306,"Ð¾Ð¼":307,"ÐµÑĤ":308,"ÑģÐº":309,"Ð»Ð¸":310,"Ð¾Ð¹":311,"ÑĨÐ¸":312,"Ð¾ÑĢ":313,"ÑģÑĤÐ²":314,"Ð½Ð°":315,"Ð¶":316,"ĠÐ½Ð°":317,"ÑĤÐ¸":318,"ĠÑ":319,"ĠÐ¼":320,"Ð±":321,"Ð¾Ñģ":322,"Ñī":323,"ÑĩÐµ":324,"Ð¾Ð³Ð¾":325,"ÑĪ":326,"ĠÑĤ":327,"ĠÑĥ":328,"Ð¾Ð²Ð°":329,"Ð¾Ð½":330,"Ð°Ðº":331,"ÑģÑı":332,"Ð»Ð°":333,"ÑģÑĤÐ¸":334,"Ð¼Ð¸":335,"ÐµÑĢ":336,"ĠÐ¾Ð±":337,"ÐµÐ¼":338,"ĠÐ·":339,"ĠÐ±":340,"čĊ":341,"ĠÐ½Ðµ":342,"ĠÑĢÐ°":343,"ÑĤÑĮ":344,"Ð²Ð°":345,"Ð½ÑĭÑħ":346,"ĠÐ¿ÑĢ":347,"Ð»Ñı":348,"Ð´Ð°":349,"ĠÐ³":350,"Ð»Ðµ":351,"ÑĢÑĥ":352,"ÐµÐ½Ð¸Ñı":353,"ÑĢÐµÐ´":354,"ÑģÑĤÐ°":355,"ÑĤÐ°":356,"ĠÑį":357,"ÑĦ":358,"ĠÐ°":359,"ÑĤÐ¾":360,"ÐºÐ°":361,"NU":362,"NUM":363,"Ð½Ð¾Ð¹":364,"ÑĩÐµÑģÐº":365,"Ð¸Ñħ":366,"ĠÑĩ":367,"Ð¾Ð¿":368,"ĠÐ¾ÑĤ":369,"ÑĤÐµÐ»ÑĮ":370,"ab":371,"ar":372,"arab":373,"ĠNUM":374,"Ð·Ð°":375,"ĠÐ¿ÑĢÐ¸":376,"ÐµÐ¹":377,"Ð½Ð¾Ð³Ð¾":378,"ĠÑĢÐµ":379,"Ð¾Ð·":380,"Ð¾Ðº":381,"Ð²Ð¸":382,"ÑģÐ¸":383,"Ð¾Ð¶":384,"ĠÐ¾":385,"ÑĩÐ¸":386,"Ð¼Ð°":387,"ĠÐ¿Ð¾":388,"ĠÐ·Ð°":389,"Ð¾Ð»ÑĮ":390,"Ð½ÑĭÐµ":391,"Ð½Ð¸Ñı":392,"ÑĩÐ°":393,"ĠÑģÐ¾":394,"ĠÑĦ":395,"ÑĨÐ¸Ð¸":396,"Ð¸Ð¼":397,"ÑģÑĤÑĮ":398,"Ð´Ðµ":399,"ÑİÑĤ":400,"ÐµÐ½Ð¸Ðµ":401,"ĠÐ»":402,"ĠÐ²Ñĭ":403,"ĠÑģÑĤ":404,"Ð½Ð¾ÑģÑĤÐ¸":405,"ÑīÐµ":406,"ÑĤÑĥ":407,"ÐºÐ¸":408,"âĢ":409,"ÑģÐ¿":410,"âĢĤ":411,"ĠÐ¿ÑĢÐ¾":412,"ÑģÑģ":413,"Ð³Ð¾":414,"ĠÐµ":415,"ÑĥÑİ":416,"ĠÑĢÐ°Ð·":417,"Ð°Ð»ÑĮ":418,"Ð¼ÐµÐ½":419,"Ð¸Ðµ":420,"ÐµÑĤÑģÑı":421,"ĠÐ¿ÑĢÐµÐ´":422,"ÑģÑĤÐ²ÐµÐ½":423,"ĠÐ¸Ð·":424,"ĠÐ¸Ð½":425,"Ð°Ð½":426,"ÑĢÐ°Ð²":427,"ĠÑĩÑĤÐ¾":428,"ÐµÐº":429,"ĠÑĤÐµ":430,"Ð´Ð¸":431,"ĠÑģÐ²":432,"ĠÐ¿Ð¾Ð»":433,"ÑħÐ¾Ð´":434,"ĠÐ±Ñĭ":435,"Ð»ÐµÐ´":436,"ĠÐĴ":437,"Ð½Ðµ":438,"ĠÐºÐ°Ðº":439,"ÑĢÐ¾Ð²Ð°":440,"ÑĭÑħ":441,"ÑĢÐ°Ð·":442,"Ð½Ð¾ÑģÑĤÑĮ":443,"ÑĤÐ¸Ð²":444,"ĠÐ¾Ñģ":445,"Ð»ÐµÐ½":446,"ÑģÑĤÐ²Ð°":447,"ÑģÑĤÐ¾":448,"ÑĨÐµ":449,"Ð½Ð¾Ð²":450,"Ð¾ÑĤÐ¾ÑĢ":451,"Ð½Ð¸Ðµ":452,"ĠÑĢ":453,"ĠÑĤÐ°Ðº":454,"Ð³Ð°":455,"ĠÐ¡":456,"Ð¼Ðµ":457,"ÐºÐ¾":458,"ĠÐºÐ¾Ð½":459,"ĠÑı":460,"ĠÐ¿Ð¾Ð´":461,"ÑģÐµ":462,"Ð½ÑĭÐ¼":463,"ĠÐ¼Ðµ":464,"Ġ-":465,"ĠÐ¾Ð¿":466,"Ð»Ð¾":467,"Ð½ÑĭÐ¹":468,"ĠÐ´Ðµ":469,"Ð¸Ð¹":470,"Ð½Ð¾Ð¼":471,"ÐĴ":472,"ĠÐºÐ¾ÑĤÐ¾ÑĢ":473,"ĠÐºÐ°":474,"ĠÐŁ":475,"ÑĤÑĭ":476,"Ð²Ð»Ñı":477,"ĠÐ´Ð»Ñı":478,"ĠÐ¿Ðµ":479,"Ð´Ñĥ":480,"Ð¸ÑĩÐµÑģÐº":481,"Ð¸Ñģ":482,"ĠÑģÑĥ":483,"ĠÐ¶":484,"Ð¾Ð½Ð°":485,"ĠÐ»Ð¸":486,"ĠÑģÑĤÐ°":487,"ÐºÐ¾Ð²":488,"ÑİÑī":489,"Ð¶Ðµ":490,"Ð»Ð¾Ð²":491,"Ð·Ñĭ":492,"ÑĢÐ°Ð½":493,"ÑĭÐµ":494,"Ð¸Ð·":495,"Ð½Ð¾Ðµ":496,"ĠÑģÐ¸":497,"ÑĤÐ¾Ð²":498,"Ð²Ðµ":499,"ÑģÑĮ":500,"ĠÐł":501,"ÑĢÐ¾Ð²":502,"Ð»Ñĥ":503,"ÑĢÐ¾":504,"Ð»ÐµÐ½Ð¸Ñı":505,"ĠÐļ":506,"ÐŁ":507,"ĠÐ¾Ð±ÑĢÐ°Ð·":508,"ĠÑģÐ¿":509,"Ð°Ð¼":510,"ĠÑįÑĤ":511,"Ð¾Ðµ":512,"Ð½Ñı":513,"ÑĤÐ¸ÑĩÐµÑģÐº":514,"Ð¡":515,"ĠÐ²Ð¾Ð·":516,"ÑĢÐ°Ðº":517,"Ð½Ð°Ñı":518,"Ð±Ð¾ÑĤ":519,"ĠÑħ":520,"ĠÐ¿ÑĢÐµ":521,"Ð¾ÐºÐ°":522,"ÑĥÐ»ÑĮ":523,"Ð³Ð¸":524,"Ð¾Ð²Ð°Ð½Ð¸Ñı":525,"ĠÐ´Ð¾":526,"Ð»Ñİ":527,"ÑĬ":528,"ÑĤÐ¾ÑĢ":529,"ÐµÐ½Ð¸Ð¹":530,"Ð¿Ð°":531,"ÑĨÐµÐ½":532,"Ð¾Ð´Ð°":533,"ÐºÑĥ":534,"ÑİÑĤÑģÑı":535,"ÐµÐµ":536,"Ð´ÐµÐ½":537,"Ð¾Ð»Ð¾Ð³":538,"ÑĨÐ¸Ð°Ð»ÑĮ":539,"ÑĨÐ¸Ñı":540,"ÑĥÑĩ":541,"Ð¶Ð°":542,"Ð¸ÑĤ":543,"Ð¸Ñı":544,"ĠÑįÐº":545,"ÑģÐºÐ¾Ð¹":546,"Ð´Ð°ÑĢ":547,"ĠÐ·Ð½Ð°":548,"ĠÑĩÐµ":549,"Ð½ÑĭÐ¼Ð¸":550,"ÑĥÑĤ":551,"ÐµÐ½Ð¸Ð¸":552,"ĠÐĿ":553,"ĠÐ¾Ð´":554,"ĠÐºÐ¾Ð¼":555,"ĠÐŀ":556,"ĠÐ²ÑģÐµ":557,"Ð²ÐµÑĢ":558,"Ð¾ÑģÑĥ":559,"ÑģÑĤÐ²Ð¾":560,"Ðŀ":561,"ÑĢÑĭ":562,"ÑĨÐ¸Ð¾Ð½":563,"ÑĪÐµ":564,"Ð¼Ñĭ":565,"ÐµÐ¹ÑģÑĤÐ²":566,"ĠÐľ":567,"ĠÐ¸Ð»Ð¸":568,"ĠÐ¼Ð°":569,"ĠÐ¿Ð¾Ñģ":570,"ĠÐ¿ÑĢÐ°Ð²":571,"ÑģÑģÐ»ÐµÐ´":572,"ĠÐ¼Ð¾Ð¶":573,"Ð¸Ð½":574,"ĠÑĪ":575,"ĠÐ¿ÐµÑĢÐµ":576,"ÑĢÐµÐ´Ðµ":577,"ÑģÐºÐ¾Ð³Ð¾":578,"Ð°Ñı":579,"Ð½Ð¸Ð¼Ð°":580,"ĠÐ·Ð°Ðº":581,"ÑĦÐ¸":582,"ĠÐĲ":583,"ĠÑģÐ¾Ð²":584,"Ð²Ð¾Ð´":585,"Ð·Ð¸":586,"Ð¾ÑģÑģÐ¸":587,"ĠÐ¸Ñħ":588,"ÐºÐµ":589,"Ð¾Ð½Ð°Ð»ÑĮ":590,"ĠÑĦÐ¾ÑĢ":591,"Ð½Ð¸Ð¸":592,"Ð½ÑĥÑİ":593,"Ð¾Ð½Ð¾Ð¼":594,"Ð¿ÑĢÐ°Ð²":595,"ÐµÐ½Ð¸Ñİ":596,"Ð°Ð»Ð¸":597,"ĠÐ¾ÑĢ":598,"Ð¼Ñĥ":599,"ĠÐ¢":600,"ĠÐ¸ÑģÑģÐ»ÐµÐ´":601,"ĠÑĩÐ°":602,"Ð»ÐµÐ¹":603,"ĠÐ´Ð°Ð½":604,"ĠÐĺ":605,"ĠÐ¾ÑĤÐ½Ð¾":606,"ÑĦÐ¾ÑĢ":607,"ÑĤÐµÑĢ":608,"ĠÐ´ÑĢÑĥ":609,"ĠÐµÐ³Ð¾":610,"ÑĢÐ¾Ñģ":611,"Ð¾ÑģÑĥÐ´Ð°ÑĢ":612,"ÑĤÐ¸Ñı":613,"ĠÑıÐ²Ð»Ñı":614,"ÑģÑĤÑĥ":615,"ĠÑĤÐ¾":616,"Ð»ÐµÐ¼":617,"ÑīÐµÑģÑĤÐ²":618,"ÐµÐ´":619,"Ð¾Ð»ÑĮÐºÐ¾":620,"ÐĿ":621,"Ð²ÐµÑĤ":622,"ĠÑģÐ²Ñı":623,"ĠÐ¸ÑģÐ¿":624,"Ð¾Ð»ÐµÐµ":625,"ÑıÑĤÐµÐ»ÑĮ":626,"ĠÑĢÐ°Ð·Ð²Ð¸":627,"Ð¾Ð¼Ñĥ":628,"ÑģÐ°":629,"ĠÐ¿ÑĢÐµÐ´ÑģÑĤÐ°":630,"ĠÐĶ":631,"ĠÑĢÐ°Ð±Ð¾ÑĤ":632,"ĠÐ´Ð¾Ð»":633,"ĠÑģÐµ":634,"ĠÑģÐ¾Ð±":635,"ĠÐ²Ð¾":636,"ÑĤÑĮÑģÑı":637,"ĠÐ¼ÐµÐ¶":638,"ĠÐ³Ð¾ÑģÑĥÐ´Ð°ÑĢ":639,"ĠÐ¿ÑĢÐ°":640,"ĠÐ¿Ð¾Ð·":641,"ÑģÑģÐ¸":642,"Ð¾Ð»ÑĮÐ·":643,"ĠÑģÐ¾ÑĨÐ¸Ð°Ð»ÑĮ":644,"ÑĩÐµÐ½":645,"Ðļ":646,"ÑĤÐµÑĢÐ¸":647,"ÑģÐºÐ¸Ñħ":648,"ĠÐ´Ð¸":649,"ĠÐ°Ðº":650,"Ð±Ð¾":651,"Ð½Ð¸Ð¹":652,"ÑĥÑĢ":653,"ÐµÐ·":654,"Ð½Ð¾ÑģÑĤ":655,"ĠÐ¿Ð¾Ð»Ð¸":656,"ĠÐ¿ÐµÑĢ":657,"Ð¸Ð²":658,"Ð¾Ð³ÑĢÐ°":659,"Ð¼ÐµÑĢ":660,"ÑĦÐµ":661,"Ð¿ÑĢÐ¸":662,"ĠÑģÑĢÐµÐ´":663,"ÑĢÐµÐ¼":664,"ÑģÑĤÐµÐ¼":665,"ĠÐ¼Ð¸":666,"ĠÑģÐ°Ð¼":667,"Ð°ÑĢ":668,"ĠÑģÐ»Ñĥ":669,"ĠÑĨÐµ":670,"ÑĢÐµÐ±":671,"Ð½Ð¸ÐºÐ°":672,"ÑıÑĤ":673,"Ð¿Ð¸":674,"Ð¶Ð´":675,"Ð¿Ð¾Ð»":676,"ĠÑģÐ²Ð¾":677,"Ð·ÑĭÐ²Ð°":678,"Ð»ÐµÐ½Ð¸Ðµ":679,"ĠÐ¾Ð±ÑĬ":680,"Ð·Ð°ÑĨÐ¸Ð¸":681,"ĠÑģÑĤÑĢÐ°":682,"ĠÐ¾Ð¿ÑĢÐµÐ´Ðµ":683,"ÑĥÑİÑī":684,"ÑĢÑĥÐ¿":685,"ĠÐ´ÑĢÑĥÐ³":686,"ĠÑĤÐ°ÐºÐ¶Ðµ":687,"Ð¼Ð¾Ð¶":688,"ĠÐ¾ÑģÐ½Ð¾Ð²":689,"ĠÐ½Ð¾":690,"Ñį":691,"ÑĨÐ¸Ð¹":692,"ĠÐ¶Ðµ":693,"ĠÐ¿Ð¾Ð²":694,"Ð°Ð»":695,"ÑĭÐ¹":696,"ĠÐ¼ÐµÐ¶Ð´Ñĥ":697,"ÑģÐ»Ð¾Ð²":698,"ĠÐ¾Ð±ÑīÐµ":699,"Ð»Ð¾Ð¶":700,"ĠÑģÐ¸ÑģÑĤÐµÐ¼":701,"ĠÐĵ":702,"ÑģÐ¾Ð²":703,"Ð»Ð¸ÑģÑĮ":704,"Ð¼ÐµÑĤ":705,"ÑĪÐµÐ½Ð¸Ñı":706,"Ðĺ":707,"Ð¢":708,"Ð¾ÐºÐ°Ð·Ð°":709,"ÑĢÐ°Ð¶":710,"ĠÑĢÐµÐ·":711,"ÑĤÐµÐ»ÐµÐ¹":712,"ĠÐ¾ÑĢÐ³Ð°":713,"ÑģÐ¿Ðµ":714,"Ð¾Ð»Ð¸":715,"ĠÑĢÑĥ":716,"Ð¶Ð¸":717,"ÑĥÐ»ÑĮÑĤÐ°":718,"ĠÐĳ":719,"ÑĥÐµÑĤ":720,"Ð°ÑĢÐ°Ðº":721,"Ð½Ð°Ð»Ð¸":722,"ĠÑįÐºÐ¾Ð½Ð¾Ð¼":723,"Ð¸Ð¼Ð¸":724,"ĠÐ¿ÑĢÐ¾ÑĨÐµ":725,"Ð±Ðµ":726,"ÑĢÐ¸Ð¸":727,"Ð»Ð¾Ñģ":728,"ĠÐ²Ð¸":729,"ÑĢÑı":730,"Ð¸Ð¸":731,"Ðł":732,"ĠÑįÑĤÐ¾":733,"ĠÐ¸Ð¼Ðµ":734,"ÑĢÐ¾Ð´":735,"ÑĢÐµÐ¼ÐµÐ½":736,"Ð¸Ð¼Ð¾":737,"ÑĤÐµÐ»ÑĮÐ½Ð¾":738,"ĠÑĥÑĢÐ¾Ð²":739,"ĠÐ´ÐµÐ¹ÑģÑĤÐ²":740,"ÐĲ":741,"ĠÑħÐ°ÑĢÐ°Ðº":742,"ĠÑįÑĤÐ¸":743,"Ð¾Ð»ÑĮÑĪ":744,"Ð»ÐµÐº":745,"ÐµÐ½Ð¸ÐµÐ¼":746,"ĠÐłÐ¾ÑģÑģÐ¸":747,"Ð¾ÑģÐ¾Ð±":748,"ĠÐ¸ÑģÑĤÐ¾":749,"Ð½Ð¸ÐºÐ¾Ð²":750,"ĠÐ´Ð°":751,"ĠÐ¸ÑģÐ¿Ð¾Ð»ÑĮÐ·":752,"ÑĢÑĥÐº":753,"ÑģÑĤÐ¸ÑĤÑĥ":754,"ĠÐ²ÑĢÐµÐ¼":755,"ĠÑĤÐ¾Ð»ÑĮÐºÐ¾":756,"ĠÑıÐ·Ñĭ":757,"ĠÑĥÑĩÐ°":758,"ÑĢÐµÐ½":759,"ÑģÑĤÐ¾Ñı":760,"Ð¸Ð½Ð°":761,"ÑĭÐ¼":762,"ĠÐ¼Ð½":763,"ĠÐ´ÐµÑıÑĤÐµÐ»ÑĮ":764,"ÑĤÑĢÐ¸":765,"ĠÐºÐ¾ÑĤÐ¾ÑĢÑĭÐµ":766,"Ð²Ð¾Ð»":767,"ĠÑģÐ»ÐµÐ´":768,"Ð¾ÑĢÐ°":769,"Ð»Ð¸Ñĩ":770,"ĠÐ²Ð¾Ð¿":771,"ÑģÑĤÐ²Ðµ":772,"ĠÑģÐ¾Ð·":773,"ĠÑıÐ²Ð»ÑıÐµÑĤÑģÑı":774,"ĠÐ²Ð¾Ð·Ð¼Ð¾Ð¶":775,"ĠÐ±Ñĥ":776,"ĠÐ±Ð¾Ð»ÐµÐµ":777,"ÐµÐºÑĤÐ¸Ð²":778,"ĠÐ¼Ð¾Ð¶ÐµÑĤ":779,"Ð»Ð¸ÑĩÐ¸":780,"ĠÐķ":781,"ĠÑĢÐ°ÑģÑģ":782,"ĠÑĤÐ¾Ð¼":783,"ÑģÑĤÐµ":784,"ĠÐ¿ÑĢÐ¾ÑĨÐµÑģÑģ":785,"ÑģÐ»Ð¸":786,"Ð¼Ð¾":787,"ĠÑĢÐµÐ·ÑĥÐ»ÑĮÑĤÐ°":788,"ĠÐ½Ð¾Ð²":789,"ĠÐ¾ÑĢÐ³Ð°Ð½Ð¸":790,"ÑĨÐ¸Ñİ":791,"ÑĤÐµÐ»Ñı":792,"ĠÐ¸Ð½ÑĤÐµ":793,"Ð¾Ð´Ðµ":794,"ĠÐ²Ðµ":795,"ĠÑĨÐµÐ½":796,"ÐĶ":797,"ĠÑĦÐ°Ðº":798,"Ð´Ð¾Ð²":799,"ÑİÑīÐ¸Ñħ":800,"Ð¾Ð»Ð¾Ð³Ð¸ÑĩÐµÑģÐº":801,"ĠÐ²Ð°":802,"ÑĥÐ½":803,"Ð¸ÑĤÑĮ":804,"ÑĥÐ±":805,"ĠÐ´Ð¾Ð»Ð¶":806,"Ð»Ð¾ÑģÑĮ":807,"Ð·Ð°Ð½":808,"ĠÑĪÐº":809,"ĠÑģÐ»ÑĥÑĩÐ°":810,"ĠÑģÐ¾Ð¾ÑĤ":811,"Ð²ÑĪ":812,"Ð½ÐµÐ¹":813,"ÑĩÐµÑĤ":814,"ĠÐ¤":815,"Ð¿Ðµ":816,"ĠÑįÑĤÐ¾Ð¼":817,"Ð´ÐµÑĢ":818,"ÑĨÐ°":819,"ĠÐ¿Ð¾ÑĤ":820,"ĠÐ¿ÑĢÐ¾Ð±":821,"ÑĨÐ¸Ð¾Ð½Ð°Ð»ÑĮ":822,"Ð¸Ð±":823,"ĠÐ¼Ð¾Ð³":824,"ÑĢÐ¾Ð²Ð°Ð½":825,"Ð½Ð°ÐºÐ¾":826,"ĠÐ¸ÑģÑģÐ»ÐµÐ´Ð¾Ð²Ð°":827,"ÑĦÐ¾ÑĢÐ¼Ð°":828,"Ð¾Ð±ÑħÐ¾Ð´":829,"Ð³Ñĥ":830,"Ð·Ð½Ð°":831,"ÑĤÑĥÑĢ":832,"ĠÐ¿ÑĢÐ¾Ð²":833,"ĠÐ³ÑĢÑĥÐ¿":834,"ÑĢÐ¾Ð²Ð°Ð½Ð¸Ñı":835,"ÑĦÑĦ":836,"Ð¼Ð¾ÑĤ":837,"ÐµÐ½ÑĮ":838,"ĠÑģÐ¿Ð¾ÑģÐ¾Ð±":839,"ĠÑĤÑĢÑĥ":840,"ĠÐ¼Ñĭ":841,"ÐºÐ¾Ð¼":842,"ĠÐ¼ÐµÑĤ":843,"ĠÐ¾Ð±ÑĢÐ°Ð·Ð¾Ð²Ð°":844,"Ð¾ÑģÑĤÐ°":845,"ĠÐ²ÑĭÑģ":846,"Ð¾ÑĢÐ¸":847,"ĠÐ²Ð¾Ð¿ÑĢÐ¾Ñģ":848,"Ð»Ð¸Ñı":849,"Ð½Ð¾Ð²Ð°":850,"Ð½Ñĥ":851,"ĠÐ¿ÑĢÐ¾Ð¸Ð·":852,"ĠÐºÐ°ÑĩÐµ":853,"ÑģÐºÐ°":854,"Ð³ÑĢÐ°":855,"ĠÐ¿ÑĢÐ°Ðº":856,"ĠÐ¿ÑĢÐ¾Ð±Ð»ÐµÐ¼":857,"ĠÐ¾ÑģÐ¾Ð±":858,"ĠÐ±ÑĭÑĤÑĮ":859,"ĠÑĤÐµÑħ":860,"ĠÐ°Ð½Ð°Ð»Ð¸":861,"ÑĩÐµÐ½Ð¸Ñı":862,"ĠÐĽ":863,"ĠÑģÐ¾ÑģÑĤÐ°":864,"ĠÐµÐµ":865,"Ð»Ð°ÑģÑĤÐ¸":866,"ÑĤÐ¾Ð¼":867,"Ð¾Ð´Ð¸":868,"ĠÐ±ÑĭÐ»Ð¾":869,"ĠÐŃ":870,"ĠÐ¿Ð°":871,"ĠÑĩÐµÐ»Ð¾Ð²":872,"ĠÐ¾ÑĤÐ½Ð¾ÑĪ":873,"ÑīÐ¸":874,"Ð²Ð°ÑĤÑĮ":875,"ĠÐ½ÐµÐ¾Ð±ÑħÐ¾Ð´":876,"Ð²Ñĭ":877,"ĠÐºÐ¾Ð¼Ð¿":878,"ĠÑĥÑģÐ»Ð¾Ð²":879,"ĠÑģÐ¾Ð·Ð´Ð°":880,"ĠÐ¾Ð½":881,"Ð½Ð¾Ð¼Ñĥ":882,"ĠÐ¸Ð¼":883,"ÑģÑĤÑĥÐ¿":884,"ĠÑĤÐ¾Ð³Ð¾":885,"ÑĩÐ½Ð¾":886,"ĠÑģÐ¿Ðµ":887,"ĠÐ¾Ð±Ñī":888,"ĠÐ°Ð²":889,"ĠÐ¿ÐµÑĢÐ²":890,"ÑģÐºÐ¸Ð¹":891,"ĠÐ±Ð¾Ð»ÑĮÑĪ":892,"Ð¾ÑĤÐ¸Ð²":893,"ĠÐ¼Ð¾Ð¶Ð½Ð¾":894,"ĠÑĤÐµÐ¼":895,"ĠÐ»Ñİ":896,"ĠÐ±ÑĭÐ»Ð¸":897,"ÑĤÑĢ":898,"ĠÐ¿Ð¾ÐºÐ°Ð·Ð°":899,"ĠÐ·Ð½Ð°ÑĩÐ¸":900,"ĠÑģÑĤÐ¾ÑĢ":901,"ĠÑĩÐ¸Ñģ":902,"ÑģÑĤÑĢÐ°Ð½":903,"ĠÐ¾Ð±Ðµ":904,"Ð»Ð°ÑģÑĮ":905,"ĠÐ·Ð°ÐºÐ¾Ð½":906,"ÑĤÑĢÐ°":907,"ĠÑĢÐ°ÑģÐ¿":908,"ĠÐ¿Ð¾Ð»Ð¸ÑĤÐ¸ÑĩÐµÑģÐº":909,"ĠÐºÐ¾ÑĢ":910,"ÑĩÐµÐ½Ð¸Ðµ":911,"ÑģÑĤÐ°Ð½Ð¾Ð²":912,"ÑĢÐ°Ð±Ð¾ÑĤ":913,"ĠÐ¿ÑĢÐ¾Ð´":914,"ĠÑģÐ¾Ð¾ÑĤÐ²ÐµÑĤ":915,"ĠÑĢÐ°Ð·Ð²Ð¸ÑĤÐ¸Ñı":916,"ĠÐ¾Ð±ÑĢÐ°Ð·Ð¾Ð¼":917,"ĠÐ£":918,"ĠÐ½Ð¸":919,"ĠÐ¶Ð¸Ð·":920,"ÑĪÐ°":921,"Ð¤":922,"ĠÐ²Ð¾Ñģ":923,"ÐºÐ°Ñħ":924,"ĠÐ¿ÑĢÐ¾ÑĦÐµ":925,"ÑģÑĤÐ²ÐµÐ½Ð½Ð¾":926,"ĠÑĢÐµÐ³Ð¸":927,"Ð±Ð¸":928,"Ðľ":929,"Ð¾Ð´ÐµÑĢ":930,"ĠÐºÑĥÐ»ÑĮ":931,"ÐŃ":932,"Ð¾Ð³Ð´Ð°":933,"ĠÐ´ÐµÑıÑĤÐµÐ»ÑĮÐ½Ð¾ÑģÑĤÐ¸":934,"Ð¾Ð³Ð»Ð°":935,"Ð»ÑģÑı":936,"Ð½Ð¾ÑģÑĤÑĮÑİ":937,"ÑĥÐ¶":938,"ĠÐ·Ð°Ð´Ð°":939,"Ð¸ÑĤÐµÐ»ÑĮ":940,"ĠÐ²Ð·Ð°":941,"Ð²Ð¾":942,"ĠÐ±ÐµÐ·":943,"ÑĤÑĥÐ°":944,"ĠÐ²ÑĢÐµÐ¼Ñı":945,"ĠÐ½Ð¾ÑĢ":946,"Ð´ÐµÑĤ":947,"ĠÐ¿Ð¾ÑģÐ»ÐµÐ´":948,"ÑģÑĤÑĢÐ°":949,"ĠÐ¾Ð½Ð¸":950,"ÐµÐ²":951,"Ð¾Ð³Ð¾Ð²":952,"ĠÐ¿Ð»Ð°":953,"ÑĥÐ½Ðº":954,"Ð½Ð¸Ñİ":955,"ĠÐ¿ÑĢÐ°Ð²Ð°":956,"ĠÑģÑĥÐ±":957,"ÑīÐ°":958,"ĠÐ¿ÑĢÐ°Ð²Ð¸":959,"Ð»Ð¾Ð¼":960,"ĠÑĢÐ°Ñģ":961,"ĠÐ³Ð¾ÑģÑĥÐ´Ð°ÑĢÑģÑĤÐ²ÐµÐ½":962,"ĠÐ¿Ð¾Ð¼":963,"ĠÐ²Ð½Ðµ":964,"Ð¼Ð°ÑĤÑĢÐ¸":965,"Ð²Ð»ÐµÐ½":966,"ĠÐ¾Ð±ÑĢÐ°Ð·Ð¾Ð²Ð°Ð½Ð¸Ñı":967,"ĠÐ³Ð»Ð°":968,"Ð¾ÑĢÐµ":969,"ĠÑįÑĦÑĦ":970,"at":971,"lat":972,"Ð¾ÑĢÑı":973,"ĠÐłÐ¾ÑģÑģÐ¸Ð¸":974,"ÑĩÐµÑģÐºÐ¾Ð¹":975,"ĠÐ¾Ðº":976,"ĠÑĪÐºÐ¾Ð»":977,"Ð¸ÑĢ":978,"ĠÐ¼Ð¾Ð´Ðµ":979,"ÑĪÐµÐ½":980,"ĠÑģÐ¾Ð¾ÑĤÐ²ÐµÑĤÑģÑĤÐ²":981,"ÑĩÐµÑģÐºÐ¸Ñħ":982,"Ð¾Ð·Ð½Ð°":983,"Ð²Ñĥ":984,"ĠÑģÐ¸ÑĤÑĥÐ°":985,"Ð´Ð°Ð½":986,"ÑĤÐµÐ»Ð¸":987,"Ð³Ð¾Ð²":988,"Ð¾ÐºÑĥ":989,"Ð¿ÑĢÐµ":990,"ĠÐºÐ»Ð°":991,"Ð¿Ñĥ":992,"ÑİÑīÐ¸Ðµ":993,"ÑĤÐ¾ÑĢÐ°":994,"Ð¾Ð½Ñĭ":995,"ÑīÐµÐ³Ð¾":996,"ÑĤÐ¸ÐºÐ¸":997,"ĠÐ¾ÑĨÐµÐ½":998,"ĠÐ½Ð°ÑĩÐ°":999,"ĠÐºÑĢÐ¸":1000,"Ð´Ð½Ð°ÐºÐ¾":1001,"Ð±Ð¾ÑĢ":1002,"ÐºÐ¾Ð¹":1003,"ĠÐ¿ÑĢÐ¾ÑĦÐµÑģÑģÐ¸":1004,"ĠÑģÐµÐ¼":1005,"ĠÐ¸Ð½ÑĦÐ¾ÑĢÐ¼Ð°":1006,"ĠÐ²Ð»Ð¸Ñı":1007,"ĠÑĩÐ°ÑģÑĤ":1008,"ĠÑĤÐµÑĢ":1009,"Ð½Ð¸ÐµÐ¼":1010,"ÑĢÐ¾Ð¼":1011,"ĠÐ²Ð°Ð¶":1012,"ĠÐĹ":1013,"ĠÑĢÐµÐ°Ð»Ð¸":1014,"Ð²Ð°ÐµÑĤ":1015,"ÑĤÐ¸Ðµ":1016,"ĠÐ²Ð·Ð°Ð¸Ð¼":1017,"ĠÐ½Ð°Ð¿ÑĢÐ°Ð²":1018,"ĠÐ¸Ð½ÑĤÐµÑĢÐµ":1019,"ĠÑģÑĥÑīÐµÑģÑĤÐ²":1020,"Ð¾Ð¿Ð¾Ð»":1021,"ĠÐ¾Ð±ÐµÑģÐ¿Ðµ":1022,"ĠÐ²Ðº":1023,"ĠÑįÐºÐ¾Ð½Ð¾Ð¼Ð¸ÑĩÐµÑģÐº":1024,"ĠÑĢÐ¾ÑģÑģÐ¸":1025,"ÑģÐºÐ¾Ð¼":1026,"Ð°Ð·":1027,"ĠÐ±ÑĭÐ»":1028,"Ð±Ñĭ":1029,"Ð°Ð¼Ð¸":1030,"Ð¾Ð±ÑĢÐ°Ð·":1031,"ĠÐ¸ÑģÑģÐ»ÐµÐ´Ð¾Ð²Ð°Ð½Ð¸Ñı":1032,"ÐµÐ½ÑĤÐ°":1033,"ÑģÐºÐ¸Ðµ":1034,"Ð¸ÑģÐ°":1035,"Ð¾ÑĤÐ¾Ð²":1036,"ÑĤÐ¸Ð¹":1037,"ÐµÐ½ÑĤ":1038,"ĠÐĿÐ°":1039,"ĠÑģÑĤÑĥ":1040,"ÑīÐ¸Ñħ":1041,"Ð»ÑĮÐ½ÑĭÑħ":1042,"ĠÑĢÑĭ":1043,"ÑĪÐµÐ½Ð¸Ðµ":1044,".,":1045,"Ð´Ñĭ":1046,"ĠÐ¼Ð¾Ð³ÑĥÑĤ":1047,"ĠÑĥÐ½Ð¸":1048,"ĠÐ¸Ð·Ð¼ÐµÐ½":1049,"Ð½ÑĥÑĤ":1050,"ÑĢÐ¾Ð²Ð°ÑĤÑĮ":1051,"ĠÑģÑĤÑĢÑĥÐº":1052,"ĠÑĤÑĢÐµÐ±":1053,"ĠÐ¿ÐµÑĢÐ¸":1054,"ĠÑĦÐ¾ÑĢÐ¼Ð¸":1055,"Ð½Ð¾ÑģÑĤÐµÐ¹":1056,"ÑģÑĥ":1057,"ĠÐ¢Ð°Ðº":1058,"ÑħÐ°":1059,"ÐµÐºÑĤÐ°":1060,"ĠÐ¿Ð¾Ð»Ð¾Ð¶":1061,"ĠÐ¿Ð¾Ð·Ð²Ð¾Ð»":1062,"ĠÑģÑĥÐ±ÑĬ":1063,"ĠÐ¿ÑĢÐ¾ÑĤÐ¸Ð²":1064,"ĠÑĥÑĩÐ¸":1065,"ĠÑģÐ¾ÑĨÐ¸":1066,"Ð¼ÐµÐ½ÑĤÐ°":1067,"ĠÑĤÐ¸":1068,"Ð¢Ð°Ðº":1069,"Ð±Ð°":1070,"Ð¾Ð±Ñĭ":1071,"ÑĥÑĩÐ°":1072,"ĠÐ¿ÑĢÐ°Ð²Ð¾Ð²":1073,"Ð½Ð³":1074,"ÑģÑĤÐ²Ð¾Ð¼":1075,"ĠÑĦÑĥÐ½Ðº":1076,"ÑĤÑĥÑĢÑĭ":1077,"ĠÑİ":1078,"ĠÐ³Ð¾ÑĢ":1079,"ÑıÑħ":1080,"ĠÐ¿ÑĢÐ¾Ð¸Ð·Ð²Ð¾Ð´":1081,"ĠÐºÐ¾ÑĤÐ¾ÑĢÑĭÑħ":1082,"ĠÐ°ÑĢ":1083,"Ð¿Ð¾":1084,"Ð²Ð°ÐµÑĤÑģÑı":1085,"Ð²Ñı":1086,"ĠÑĥÐ¿ÑĢÐ°Ð²":1087,"ĠÐ½Ð°ÑĥÑĩ":1088,"ĠÐ³ÑĢÑĥÐ¿Ð¿":1089,"Ð´ÐµÑĢÐ°":1090,"ÑĥÑīÐµÑģÑĤÐ²":1091,"ĠÐ¸ÑģÐ¿Ð¾Ð»ÑĮÐ·Ð¾Ð²Ð°":1092,"Ð½ÑĨÐ¸":1093,"ĠÐŁÑĢÐ¸":1094,"ÑģÑĤÐ¾Ð²":1095,"ĠÐ³ÑĢÐ°Ð¶":1096,"ĠÑĩÐµÐ¼":1097,"Ð²Ð¸ÑģÐ¸":1098,"Ð½Ð¸Ðº":1099,"ĠÑģÐ¾Ð´ÐµÑĢ":1100,"ĠÐ¼Ð°ÑĤÐµÑĢÐ¸":1101,"ĠÐ²ÐµÑĢ":1102,"Ð¸Ð½Ð°Ð½":1103,"ĠÑįÑĤÐ¾Ð³Ð¾":1104,"ÑĤÐµÐ»ÑĮÐ½ÑĭÑħ":1105,"ÑĤÐµÐ»ÑĮÐ½Ð¾Ð¹":1106,"ĠÑĢÐ¾ÑģÑģÐ¸Ð¹":1107,"Ð°Ð³Ð°":1108,"ÑĤÐµÐ¹":1109,"ĠÑĢÐ°Ð·Ð»Ð¸Ñĩ":1110,"ĠÐ¸ÑģÑĤÐ¾ÑĢÐ¸":1111,"ÑĢÐ¾Ð¿":1112,"Ð»ÑİÑĩÐ°":1113,"ÑĥÑĤÑģÑĤÐ²":1114,"ĠÐ¾ÑĤÐ²ÐµÑĤ":1115,"ĠÐ¾ÑģÐ¾Ð±ÐµÐ½":1116,"ĠÑģÐ¾Ð²ÑĢÐµÐ¼ÐµÐ½":1117,"ĠÑĩÐµÐ»Ð¾Ð²Ðµ":1118,"ÑģÑĤÐ²ÐµÐ½Ð½ÑĭÑħ":1119,"ĠÑģÐ¾Ð³Ð»Ð°":1120,"ĠÐµÐ´Ð¸":1121,"ÑĥÑģ":1122,"Ð¾ÐºÐ°Ð·ÑĭÐ²Ð°":1123,"ÑĥÐº":1124,"ÑĥÑĩÐµÐ½Ð¸Ñı":1125,"ĠÐ½Ð°ÑģÐµ":1126,"ĠÐ½ÐµÐ¾Ð±ÑħÐ¾Ð´Ð¸Ð¼Ð¾":1127,"Ð¼ÐµÐ½Ð½Ð¾":1128,"Ð²ÐµÐ´":1129,"ÐµÑĢÐ°":1130,"ĠÐ³ÑĢÐ°":1131,"ĠÐ¾ÑģÑĤÐ°":1132,"ĠÑĢÐ°ÑģÑģÐ¼Ð°ÑĤÑĢÐ¸":1133,"ĠÑģÑĤÑĥÐ´ÐµÐ½":1134,"ĠÐ²Ð·":1135,"Ð½ÐµÐµ":1136,"ÑĤÐ¾ÑĢÐ¸":1137,"ĠÐ¾Ð±Ñı":1138,"ĠÐ¾ÑĤÐ´Ðµ":1139,"ĠÐ¼ÐµÐ½":1140,"ĠÐ¿Ð°ÑĢ":1141,"ĠÑģÐº":1142,"ÑĢÐµÑĤ":1143,"Ð¸ÑĤÑģÑı":1144,"ĠÑĦÐ¸Ð½Ð°Ð½":1145,"Ðĵ":1146,"ĠÐ¾Ð¿ÑĢÐµÐ´ÐµÐ»ÐµÐ½":1147,"Ð²Ð°Ð»Ð¸":1148,"ÑĩÐ¸ÑĤÐ°":1149,"ÑĩÐµÑģÐºÐ¾Ð³Ð¾":1150,"ÑīÐµÐ½":1151,"ĠÐ¿Ð¾Ð·Ð¸":1152,"ÑģÑĭ":1153,"ĠÑĥÐ³":1154,"ĠÑģÐ°Ð¼Ð¾":1155,"ĠÐ¿Ð¾Ð´ÑħÐ¾Ð´":1156,"ĠÑĤÑĢÐ°":1157,"ĠÑģÐ»":1158,"ÑģÑĥÑĤÑģÑĤÐ²":1159,"ĠÑįÑĤÐ¾Ð¹":1160,"ĠÑģÐ»ÑĥÑĩÐ°Ðµ":1161,"ĠÐºÐ¾Ð»":1162,"ĠÐ¾Ð±ÑĢÐ°":1163,"ĠÑĥÑģÐ»Ð¾Ð²Ð¸Ñı":1164,"ĠÑĥÐºÐ°":1165,"ĠÐ¿Ð¾Ð·Ð²Ð¾Ð»Ñı":1166,"ÐĿÐ°":1167,"ĠÐ¿ÑĢÐ¸Ð·Ð½Ð°":1168,"Ð½ÐµÐ½Ð¸Ñı":1169,"Ð²ÐµÑĢÑģÐ¸":1170,"ÑĮÑİ":1171,"ÑģÐºÐ¾Ð»ÑĮ":1172,"ÑĥÑİÑĤ":1173,"ÑĪÐ¸":1174,"ÑīÐµÐµ":1175,"ĠÑĢÑĥÑģ":1176,"ĠÐ±ÑĭÐ»Ð°":1177,"ĠÐ³Ð¾Ð´":1178,"Ð½ÐµÐ½":1179,"ĠÐ¿ÑĢÐ¸Ð½ÑĨÐ¸":1180,"ĠÐ²ÑĭÑģÐ¾Ðº":1181,"Ð²Ð»ÐµÐ½Ð¸Ñı":1182,"ĠÐ°ÐºÑĤÐ¸Ð²":1183,"ĠÐ¼Ð½Ð¾Ð³":1184,"ĠÑįÐºÐ¾Ð½Ð¾Ð¼Ð¸":1185,"Ð¾ÐºÑĢÐ°":1186,"ĠÑĥÐ¿":1187,"ÐµÐ´ÐµÑĢÐ°":1188,"Ð¾Ð½Ð¸":1189,"ĠÑĥÐ¶Ðµ":1190,"ĠÐ½ÐµÐº":1191,"ĠÑĢÐ°Ð±Ð¾":1192,"ĠÐ¿ÑĢÐµÐ´ÑģÑĤÐ°Ð²Ð»Ñı":1193,"Ð°Ñħ":1194,"ĠÑĥÑĩ":1195,"ĠÐ³Ð¾Ð²":1196,"Ð¿Ð¸ÑĤÐ°":1197,"ĠÑģÐ¸ÑģÑĤÐµÐ¼Ñĭ":1198,"ÑĤÐ¾ÑĢÐ¾Ð²":1199,"ĠÑģÐ¿ÐµÑĨÐ¸":1200,"ĠÐ¸ÑģÐº":1201,"ĠÐ¿ÑĢÐ¸Ð½Ñı":1202,"ÑĨÐ¸ÐµÐ¹":1203,"ĠÐ²ÑģÐµÐ³Ð¾":1204,"Ð²Ð°ÐµÐ¼":1205,"Ð¾Ð½Ðµ":1206,"ÐŁÑĢÐ¸":1207,"Ð¸ÑĤÐ°":1208,"ÐµÐ¿":1209,"Ð¶ÐµÐ½Ð¸Ñı":1210,"ÑĪÐµÐ³Ð¾":1211,"ÑģÑĤÑĢÐ¾":1212,"ĠÑħÐ°ÑĢÐ°ÐºÑĤÐµÑĢÐ¸":1213,"Ð¾Ð»Ð¾Ð³Ð¸Ð¸":1214,"ĠÐ¾ÑģÑĥÑīÐµÑģÑĤÐ²":1215,"ÐµÐ¼Ñĥ":1216,"Ð¾Ð²Ð°Ð½":1217,"ĠÐ¸Ð´Ðµ":1218,"ĠÑĩÑĤ":1219,"ĠÐ´ÑĢÑĥÐ³Ð¸Ñħ":1220,"ĠÑĥÑĩÐµ":1221,"Ð¾Ð³ÑĢÐ°Ð¼":1222,"ÑĦÐ¸ÐºÐ°":1223,"ÑĥÐ±Ð»Ð¸":1224,"ÑĤÐµÐ»ÑĮÑģÑĤÐ²Ð°":1225,"ĠÑģÐ¾Ð´ÐµÑĢÐ¶Ð°":1226,"ĠÑĢÐ°Ð±Ð¾ÑĤÑĭ":1227,"ĠÐ½Ð¸Ñħ":1228,"ĠÐ¸Ð½Ð´Ð¸":1229,"ÑģÑĤÑĥÐ¿Ð°":1230,"ÑĥÐ·":1231,"ĠÐ²ÑģÐµÑħ":1232,"ĠÑĤÐµÐº":1233,"ĠÐ¶Ð¸Ð·Ð½Ð¸":1234,"ĠÑĢÐ¸":1235,"Ðķ":1236,"ĠÑģÑĤÐ¾ÑĢÐ¾Ð½Ñĭ":1237,"ĠÐ»Ðµ":1238,"ĠÐłÐ¤":1239,"ÑģÑĤÑĢÑĥÐº":1240,"Ð¾Ð³ÑĢÐ°Ð½Ð¸":1241,"ÑģÐ¸Ñħ":1242,"ÑģÑĤÐ²ÐµÐ½Ð½Ð¾Ð¹":1243,"Ð²Ð»":1244,"ĠÐ²Ñģ":1245,"ÑıÑģ":1246,"ĠÐµÑģÐ»Ð¸":1247,"ÑĤÑģÑı":1248,"ĠÑĥÑģÑĤÐ°Ð½Ð¾Ð²":1249,"ĠÑħÐ°ÑĢÐ°ÐºÑĤÐµÑĢ":1250,"ĠÐ²Ð½ÑĥÑĤ":1251,"ÑĢÐµÐ½Ð¸Ñı":1252,"ĠÑįÑĤÐ¸Ñħ":1253,"ĠÑĢÑı":1254,"ÑĨÑĭ":1255,"ĠÑģÐ²ÑıÐ·Ð¸":1256,"Ð²ÐµÑĢÑģÐ¸ÑĤÐµ":1257,"ĠÐ¸Ð½ÑģÑĤÐ¸ÑĤÑĥ":1258,"ĠÑĢÐ°Ð¼":1259,"ĠÐºÐ¾ÑĤ":1260,"ÑĢÐ¾Ð²Ð°Ð½Ð¸Ðµ":1261,"Ð´Ð¾":1262,"ĠÐ¿ÑĢÐ¾ÑĦÐµÑģÑģÐ¸Ð¾Ð½Ð°Ð»ÑĮ":1263,"Ð»ÑĮÐ½Ð¾":1264,"ĠÐ»Ð¸Ñĩ":1265,"ĠÑįÑĤÐ°":1266,"ĠÑįÑĦÑĦÐµÐºÑĤÐ¸Ð²":1267,"ÑĤÐµÑĢÐ°":1268,"ÑıÐ¼":1269,"ÑĤÐ²ÐµÑĢ":1270,"Ð¾Ð²Ð°ÑĤÑĮ":1271,"Ð²Ð°Ñı":1272,"ĠÐ¾ÑĢÐ³Ð°Ð½Ð¸Ð·Ð°":1273,"ĠÑģÑĤÐ°ÑĤÑĮ":1274,"ĠÐºÐ°ÑĩÐµÑģÑĤÐ²Ðµ":1275,"ÑĢÐµÐ·":1276,"ÐµÐºÑĤ":1277,"ĠÐ¼ÐµÑĤÐ¾Ð´":1278,"Ð²Ð°Ð½Ð¸Ñı":1279,"ĠÐºÐ¾Ð½ÑĨÐµ":1280,"Ð»Ð°Ð³":1281,"ĠÐ²Ð½Ð¸Ð¼Ð°":1282,"ĠÑĦÐ¸":1283,"Ð¾Ð´ÐµÐ¹ÑģÑĤÐ²":1284,"ĠÐ¿ÑĢÐµÐ´Ð¿Ð¾Ð»":1285,"ĠÐ¿Ð¾Ð¿":1286,"ÑĪÑĮ":1287,"Ð¾Ð»Ð¾Ð²":1288,"Ð½Ð¸Ð¼":1289,"ĠÑĢÑĭÐ½":1290,"Ð½Ð°ÑĢÐ¾Ð´":1291,"ĠÑģÐ»Ð¾Ð¶":1292,"Ð»Ð¸Ð·":1293,"ĠÐ·Ð°ÐºÐ¾Ð½Ð¾Ð´Ð°":1294,"ĠÐ¾ÑĩÐµ":1295,"ĠÐ³ÑĢÐ°Ð¶Ð´Ð°Ð½":1296,"ÑģÐºÐ°Ñı":1297,"ÑĭÐ¼Ð¸":1298,"Ð½Ð¸ÐºÐ¸":1299,"ĠÐ¿ÑĢÐµÐ´Ð¿ÑĢÐ¸":1300,"ĠÐ¿ÑĢÐ¾Ð³ÑĢÐ°Ð¼":1301,"ÑįÑĤ":1302,"Ð¸Ð±Ð¾Ð»ÐµÐµ":1303,"Ð½Ð°Ð¼Ð¸":1304,"Ð½Ð¸Ð·":1305,"ĠÑĢÐµÐ³Ñĥ":1306,"Ð¿ÑĢÐ¸Ð¼ÐµÑĢ":1307,"Ð»ÐµÑĤ":1308,"ĠÐ³Ð¾ÑģÑĥÐ´Ð°ÑĢÑģÑĤÐ²Ð°":1309,"Ð½Ð¸Ñħ":1310,"ĠÐ¾Ð³ÑĢÐ°Ð½Ð¸":1311,"ĠÑģÐ²Ð¾Ðµ":1312,"ĠÐ´Ð¾ÑģÑĤÐ¸":1313,"Ð¶ÐµÐ½":1314,"ĠÑĥÑĩÐ°ÑģÑĤ":1315,"Ð¼ÑĭÑģ":1316,"ĠÐ¿ÑĢÐ¸Ð¼ÐµÐ½":1317,"ĠÐºÐ°Ð¶Ð´":1318,"Ð´ÐµÐ¹":1319,"Ð£":1320,"ÑĤÐµÐº":1321,"Ð¾Ð³Ð°":1322,"ĠÐ¸Ð½ÑĤÐµÑĢ":1323,"ĠÐ²Ð¾Ð·ÑĢÐ°":1324,"ĠÐ¥":1325,"ÑĤÐ¸Ð¸":1326,"ÐµÐºÑĤÐ¾Ð²":1327,"ĠÐºÐ¾ÑĤÐ¾ÑĢÑĭÐ¹":1328,"ĠÐ¿Ð¾Ð½":1329,"ÐµÐ´ÐµÐ½Ð¸Ñı":1330,"ĠÐ²Ð»Ð°ÑģÑĤÐ¸":1331,"Ð¾ÑģÑĤ":1332,"ĠÑĤÐ¾Ñĩ":1333,"ĠÐ§":1334,"Ð²ÑĢÐ¾Ð¿":1335,"Ð²Ð¾ÑĢ":1336,"ÑĥÑĩÐ¸":1337,"ĠÐ±ÑĥÐ´Ñĥ":1338,"ĠÐºÐ¾Ð³Ð´Ð°":1339,"ÑĪÐ¸Ñħ":1340,"ĠÑģÑĤÐµÐ¿":1341,"ĠÐ´ÐµÑĤ":1342,"ÑģÑĤÐ²ÐµÐ½Ð½Ð¾Ð³Ð¾":1343,"Ñĳ":1344,"Ð»ÑĮÐ½Ð¾Ð³Ð¾":1345,"ÑģÑĤÐ¾ÑıÑĤÐµÐ»ÑĮ":1346,"ÑĢÑĥÐ´":1347,"ÐĹ":1348,"Ð»ÑĮÐ½Ð¾Ð¹":1349,"ĠÐŁÐ¾":1350,"ĠÐ»ÐµÑĤ":1351,"ĠÐ°Ð´":1352,"ĠÐ¿Ð¾Ð¼Ð¾":1353,"ĠÐ¿ÐµÑĢÐ¸Ð¾Ð´":1354,"Ð°Ñģ":1355,"ÑĤÐµÐ»ÑĮÐ½Ð¾Ð³Ð¾":1356,"Ð¾Ð³Ð¸":1357,"ĠÐ´Ð²Ñĥ":1358,"Ð¿ÐµÑĢ":1359,"ĠÐ¿Ð¾Ð´Ð´ÐµÑĢ":1360,"ĠÐ¿Ð¾Ð½Ð¸Ð¼Ð°":1361,"Ð¾Ð»Ð¸ÑĩÐµ":1362,"ĠÐ¿Ð¾ÑĤÑĢÐµÐ±":1363,"ĠÐ¼ÐµÑģÑĤ":1364,"ÑīÐµÐ½Ð¸Ñı":1365,"ĠÑĤÑĢÐ°Ð½":1366,"ĠÐ¿Ð¾ÑģÐ»Ðµ":1367,"ĠÐ½ÐµÐºÐ¾ÑĤÐ¾ÑĢ":1368,"Ð¾Ð¶Ð¸":1369,"Ð´Ð°Ð³":1370,"ÑĤÑĥÐ°Ð»ÑĮ":1371,"ĠÑĥÑĩÐµÐ±":1372,"Ð³Ð°Ð½":1373,"ĠÐ¾ÑģÐ½Ð¾Ð²Ð°":1374,"ĠÐ¿ÑĢÐ°ÐºÑĤÐ¸":1375,"ĠÐ¿Ñĥ":1376,"Ð²ÑĭÑħ":1377,"ĠÑİÑĢÐ¸":1378,"Ðĳ":1379,"ĠÐ½Ð°ÑģÐµÐ»ÐµÐ½Ð¸Ñı":1380,"ĠÑĥÐ½Ð¸Ð²ÐµÑĢÑģÐ¸ÑĤÐµ":1381,"ĠÐ¾Ð±Ð»Ð°":1382,"ÑģÐ½Ð¾":1383,"Ð»Ñĭ":1384,"ÑģÑĤÑĢ":1385,"ĠÐ¿ÑĢÐ¸ÑĩÐ¸":1386,"ĠÐ²ÑĭÐ´Ðµ":1387,"Ð¾Ð²Ð°Ð½Ð¸Ðµ":1388,"ĠÐ¾ÑĤÑĢÐ°":1389,"ĠÑĥÑģ":1390,"Ð±Ð»Ñİ":1391,"ÑģÐºÐ¾Ð»ÑĮÐºÑĥ":1392,"ÑıÐ¼Ð¸":1393,"Ð·Ñĥ":1394,"ĠÑıÐ²Ð»ÑıÑİÑĤÑģÑı":1395,"ĠÐºÑĢÐ°":1396,"ÑĦÐµÑĢ":1397,"ĠÑĩÑĤÐ¾Ð±Ñĭ":1398,"ĠÐ´ÐµÐ¹ÑģÑĤÐ²Ð¸Ñı":1399,"ĠÑģÐ»Ð¾Ð²Ð°":1400,"ĠÑĤÑĢÐµ":1401,"ĠÑģÑĤÑĢÐ°Ð½":1402,"ĠÐ±Ðµ":1403,"ÑĩÐ½Ð¾Ð¹":1404,"ĠÐ»Ð¸ÑĪÑĮ":1405,"ĠÐ¸Ð½Ð´Ð¸Ð²Ð¸":1406,"ÑĭÑĤ":1407,"ĠÐµÑīÐµ":1408,"ÑİÑīÐµÐ¹":1409,"ĠÑģÑĩÐ¸ÑĤÐ°":1410,"ĠÐ´ÐµÐ»Ð°":1411,"ĠÐºÐ¾Ð½ÑĤÑĢ":1412,"ÑģÑĥÑĢ":1413,"ÐŁÐ¾":1414,"ĠÐ¿ÑģÐ¸Ñħ":1415,"ĠÐ¸Ñģ":1416,"ĠÐ¾Ð¿ÑĢÐµÐ´ÐµÐ»Ñı":1417,"ÑģÑĤÐ²ÐµÐ½Ð½Ð¾ÑģÑĤÐ¸":1418,"ĠÑĤÐµÑħÐ½":1419,"ÐµÐ¼ÑĭÑħ":1420,"ĠÑģÐ´Ðµ":1421,"ĠÑįÐºÑģÐ¿":1422,"ĠÐ¾Ð±ÑīÐµÑģÑĤÐ²Ð°":1423,"ĠÐ½ÐµÐ¼":1424,"Ð³Ð¾Ð´":1425,"ÑĤÐµÐ»ÑĮÑģÑĤÐ²":1426,"ĠÐ½ÐµÐ¿":1427,"ĠÐ²Ð»Ð°":1428,"ĠÐ¿ÑĢÐµÐ´Ð»Ð¾Ð¶":1429,"ĠÐºÐ¾Ð»Ð¸ÑĩÐµ":1430,"ĠÐºÐ¾Ð½Ðº":1431,"ĠÑģÑĤÐ°Ð½Ð¾Ð²":1432,"Ð¾ÑĢÐ¾Ð²":1433,"ĠÑĤÑĢÐ°Ð´Ð¸":1434,"ĠÑĢÐ°Ð¼ÐºÐ°Ñħ":1435,"ĠÑģÐ¾Ð¾Ð±":1436,"ĠÐ½Ð°ÑħÐ¾Ð´":1437,"Ð°Ð»Ð°":1438,"ĠÑĦÐ¾ÑĢÐ¼Ð°":1439,"Ð²ÐµÑģÑĤÐ¸":1440,"ĠÑĤÐµÑĢÑĢÐ¸":1441,"ĠÑģÐ¾Ð²ÐµÑĢ":1442,"ĠÐ¾ÑĤÐº":1443,"ĠÐ¿ÑĢÐµÐ´ÑģÑĤÐ°Ð²Ð¸":1444,"ĠÐ¸Ð¼ÐµÐ½Ð½Ð¾":1445,"ĠÐ¿ÑĢÐ¾Ð¸Ñģ":1446,"ĠÑģÐ²ÑıÐ·Ð°Ð½":1447,"ĠÑģÐ¾ÑģÑĤÐ¾Ñı":1448,"ĠÑģÐ¾ÑģÑĤÐ°Ð²Ð»Ñı":1449,"ĠÐ²Ð¾Ð¹":1450,"ĠÐļÐ¾Ð½":1451,"ĠÐ¾Ð±Ð»Ð°ÑģÑĤÐ¸":1452,"Ð³Ð¾ÑĤÐ¾Ð²":1453,"ÐºÐ°Ð¼Ð¸":1454,"Ð¾Ð·Ñı":1455,"Ð²Ð°ÑİÑĤ":1456,"ĠÑģÑĦÐµ":1457,"ÑĥÐ´":1458,"ĠÐ¿Ð¾Ð²Ñĭ":1459,"Ð¾ÑĤÑı":1460,"ĠÑģÐ¾Ð²ÐµÑĤ":1461,"Ð¾Ð¶Ð´":1462,"Ð»ÐµÐ½Ð¸Ð¸":1463,"ĠÐ¿ÑĢÐ°Ð²Ð¾":1464,"ÐºÐ°Ð·Ð°":1465,"Ð»Ð¸Ðº":1466,"ĠÑĢÐµÑĪ":1467,"ĠÐ²Ð½ÐµÑĪ":1468,"ĠÐ½Ð°ÑĨÐ¸Ð¾Ð½Ð°Ð»ÑĮ":1469,"Ð½ÐµÐ³Ð¾":1470,"Ð²Ð¸Ð´":1471,"ĠÐ´ÐµÐ¼":1472,"Ð¸Ð»Ð¸":1473,"ÑįÑĤÐ¾Ð¼Ñĥ":1474,"ĠÐ±ÑĥÐ´ÐµÑĤ":1475,"ÑĥÑİÑīÐ¸Ñħ":1476,"ĠÐ¼ÐµÐ¶Ð´ÑĥÐ½Ð°ÑĢÐ¾Ð´":1477,"ÑĤÐ¸ÑĩÐµÑģÐºÐ¸":1478,"ĠÐ²ÑĢÐµÐ¼ÐµÐ½Ð¸":1479,"Ð¾ÑĤÐ¸":1480,"ÑģÑĤÑĢÐ¸":1481,"ĠÑĩÐµÐ»Ð¾Ð²ÐµÐºÐ°":1482,"Ð»Ð°Ð³Ð°":1483,"Ð²Ð»ÐµÐ½Ð¸Ðµ":1484,"Ð¨":1485,"ĠÐºÐ¾":1486,"ÑĪÐµÐ¹":1487,"ĠÐ·Ð°Ð²Ð¸ÑģÐ¸":1488,"ĠÐ½ÐµÐ´":1489,"ÑĨÐ¸Ð¾Ð½Ð½ÑĭÑħ":1490,"ĠÑģÐ¾Ð¿":1491,"ĠÐ¾ÑĤÐ½Ð¾ÑģÐ¸":1492,"ĠÑĦÐ¸Ð½Ð°Ð½ÑģÐ¾Ð²":1493,"ÑĦÐ¸ÑĨÐ¸":1494,"ÑħÑĢÐ°Ð½":1495,"ĠÐ²Ð·Ð°Ð¸Ð¼Ð¾Ð´ÐµÐ¹ÑģÑĤÐ²":1496,"Ð²ÐµÐ½":1497,"ĠÐ¾ÑĢÐ³Ð°Ð½Ð¸Ð·Ð°ÑĨÐ¸Ð¸":1498,"ĠÐ½Ð°Ð¸Ð±Ð¾Ð»ÐµÐµ":1499,"ĠÐ¿Ð¾ÑĢ":1500,"ĠÑģÑĢÐ°Ð²":1501,"Ð¼ÐµÑĩÐ°":1502,"Ð±Ñı":1503,"ĠÐ¿ÑĢÐ¾ÑģÑĤÑĢÐ°Ð½":1504,"ĠÐºÐ¾Ð¼Ð¼Ñĥ":1505,"ĠÐ¿ÑĢÐµÐ¿":1506,"Ð²ÐµÑģÑĤ":1507,"Ð»ÑĮÐ½ÑĭÐµ":1508,"ĠÐ»Ð¸ÑĨ":1509,"ĠÑĢÐµÐ°Ð»ÑĮ":1510,"ĠÐ³Ð³":1511,"ĠÐ½Ð°Ð±Ð»Ñİ":1512,"ÑģÐºÐ¸Ð¼":1513,"Ð²Ð¾Ð¹":1514,"ĠÐ¼Ð¾Ð´ÐµÐ»Ð¸":1515,"ÑıÑĤÐ¸Ñı":1516,"ĠÐ°Ð½":1517,"ÑĩÐ½ÑĭÑħ":1518,"ĠÐ½Ð¾ÑĢÐ¼Ð°":1519,"ÑĤÐ¸Ð²Ð½ÑĭÑħ":1520,"Ð³Ð»Ñı":1521,"ĠÐ¾Ð´Ð½Ð¾Ð¹":1522,"ĠÐ´Ð¾Ð¿Ð¾Ð»":1523,"ĠÑĢÐµÑģÑĥÑĢ":1524,"ĠÑģÑĤÑĢÐ°Ð½Ñĭ":1525,"ĠÐºÑĥÐ»ÑĮÑĤÑĥÑĢ":1526,"ĠÑģÐ²Ð¾Ð±":1527,"ĠÐ¾ÑĤÑģÑĥÑĤÑģÑĤÐ²":1528,"ÐµÐ´Ð¸":1529,"ĠÐ¸Ð¼ÐµÐµÑĤ":1530,"ĠÐ±Ð»Ð°Ð³":1531,"ĠÐ³Ð´Ðµ":1532,"Ð¾Ð·ÑıÐ¹":1533,"Ð»Ð¸ÑĩÐ¸Ðµ":1534,"ĠÐ´Ð°Ð½Ð½ÑĭÑħ":1535,"ĠÐŀÐ´Ð½Ð°ÐºÐ¾":1536,"ÑĩÐµÑģÐºÐ¸Ðµ":1537,"ÑĥÑİÑīÐ¸Ðµ":1538,"ĠÐ´ÐµÑĤÐµÐ¹":1539,"Ð¶Ð´ÐµÐ½Ð¸Ñı":1540,"ĠÑĥÑģÐ¿Ðµ":1541,"Ð¾Ð¶Ðµ":1542,"ÑıÐ²Ð»Ñı":1543,"Ð¾ÑĢÐ°Ñı":1544,"ĠÑĤÑĢÑĥÐ´Ð°":1545,"Ð¶Ð´Ð°":1546,"ĠÐ²ÑĭÑĪÐµ":1547,"ĠÐµÑģÑĤÑĮ":1548,"ĠÐ´Ð¸ÑģÐº":1549,"ÑĤÐµÐ»ÑĮÐ½ÑĭÐµ":1550,"ĠÑģÑĤÐ¸":1551,"ĠÐ²ÑĭÐ±Ð¾ÑĢ":1552,"ĠÐ¿ÑĢÐµÐ´Ð¼ÐµÑĤ":1553,"ÑĥÑģÐ»Ð¾Ð²":1554,"ĠÐºÐ¾ÑĤÐ¾ÑĢÐ¾Ð¹":1555,"ĠÐ¾ÑĢÐ¸":1556,"ĠÐ¾ÑģÐ½Ð¾Ð²Ðµ":1557,"ĠÐ¼Ð¾Ð»":1558,"Ð½ÐµÐ¼":1559,"ĠÑģÐ¾ÑĤ":1560,"ÑĦÐ¸ÑĩÐµÑģÐº":1561,"ĠÑĨÐµÐ»Ð¾Ð¼":1562,"ĠÑĤÐ°":1563,"ĠÑģÐ²ÑıÐ·Ð°":1564,"ĠÑģÐµÐ±Ñı":1565,"ĠÐ¾ÑĤÐ½Ð¾ÑĪÐµÐ½Ð¸Ñı":1566,"ÑĩÑĮ":1567,"ĠÐ´Ð¾ÑħÐ¾Ð´":1568,"ĠÐ¼ÐµÑĢ":1569,"ĠÐ·Ð°Ð½Ñı":1570,"Ð¼ÐµÐ½Ð¸":1571,"ĠÐ¾Ð½Ð°":1572,"Ð½Ð°Ñħ":1573,"ĠÐºÐ¾ÑĤÐ¾ÑĢÐ°Ñı":1574,"ĠÑĩÐ°ÑģÑĤÐ¸":1575,"ÐµÐ½Ð°":1576,"ĠÑģÐ¾Ð±Ð¾Ð¹":1577,"ĠÐ´Ð¾Ð³Ð¾Ð²":1578,"ĠÐ´Ð°Ð¶Ðµ":1579,"ĠÑģÑĥÐ´":1580,"ÑĨÐµÐ½Ð¸":1581,"ĠÑĥÑĢÐ¾Ð²Ð½Ñı":1582,"ĠÑıÐ·ÑĭÐºÐ°":1583,"ÑģÑĤÑĢÑĥ":1584,"ĠÑģÑĤÐ¾":1585,"ĠÐ²ÑĤÐ¾ÑĢ":1586,"ĠÐºÐ¾Ð½ÐºÑĢÐµÑĤ":1587,"ĠÐ²ÑĭÐ¿Ð¾Ð»":1588,"ÑĤÐ¾ÑĢÑĭ":1589,"Ð²Ð»Ðµ":1590,"ĠÐ¿ÐµÐ´Ð°Ð³":1591,"Ð¾ÑĢÑıÐ´":1592,"ÑģÐºÐ¾Ð»ÑĮÐºÐ¾":1593,"Ð¹ÑģÐºÐ¾Ð¹":1594,"ĠÑĢÐµÑĪÐµÐ½Ð¸Ñı":1595,"ĠÑĩÐ°ÑģÑĤÑĮ":1596,"ĠÐ°Ð½Ð°Ð»Ð¸Ð·":1597,"ĠÐºÐ°Ð¿Ð¸ÑĤÐ°":1598,"ÑĢÐ¾Ð¼Ðµ":1599,"ĠÐºÐ¾Ð½ÑĨÐµÐ¿":1600,"ĠÐ½Ð°Ñĥ":1601,"ĠÐ´Ð¾ÑģÑĤÐ°":1602,"ĠÐ¼ÐµÐ½ÐµÐµ":1603,"Ð½ÐµÑĢ":1604,"ĠÑģÑĤÑĢÐ°ÑĤÐµ":1605,"ÐºÐ°Ð½":1606,"ÑĤÐ°Ðº":1607,"ĠÐ½Ð°Ð¿":1608,"Ð½ÐµÐ½Ð¸Ðµ":1609,"ĠÐ½ÐµÑģ":1610,"ÐµÐ½Ð½ÑĭÑħ":1611,"ĠÑħÐ°ÑĢÐ°ÐºÑĤÐµÑĢÐ¸ÑģÑĤÐ¸":1612,"ĠÐ¾Ð±ÑıÐ·Ð°":1613,"ÐµÐ¶":1614,"ÑħÐ¾Ð´Ð¸ÑĤ":1615,"ĠÐ²ÐºÐ»ÑİÑĩÐ°":1616,"ĠÐ¾ÑĤÐ½Ð¾ÑĪÐµÐ½Ð¸Ð¹":1617,"ÑĢÑĥÐµÑĤ":1618,"ĠÑĥÑĩÐ°ÑģÑĤÐ¸":1619,"ĠÑĨÐ¸":1620,"Ð±ÐµÐ½":1621,"ÑĤÐ¾ÑĩÐ½Ð¾":1622,"ĠÐ±Ð¾Ð»ÑĮ":1623,"ĠÐ¿Ð¾Ð»ÑĥÑĩ":1624,"ĠÑģÐ²Ð¾ÐµÐ¹":1625,"ĠÐ¾ÐºÐ°Ð·Ð°":1626,"ĠÐ´Ð¾Ð¼":1627,"ÑĢÐ¾ÑģÑĤÑĢÐ°Ð½":1628,"ÑĤÐµÐ»":1629,"ĠÐ¾ÐºÐ°Ð·ÑĭÐ²Ð°":1630,"Ð»ÐµÐ½Ð¸Ð¹":1631,"ÑīÐµÐ½Ð¸Ðµ":1632,"ĠÑĩÐ¸ÑģÐ»Ðµ":1633,"Ð¶ÐµÑĤ":1634,"ĠÑģÐ¸ÑĤÑĥÐ°ÑĨÐ¸Ð¸":1635,"ĠÑģÐ»ÐµÐ´ÑĥÐµÑĤ":1636,"ÑģÑĤÐ¾Ð¹":1637,"ĠÐºÐ»Ð°ÑģÑģ":1638,"..":1639,"Ð·Ð°ÑĨÐ¸Ñı":1640,"Ð²Ð¸Ð´Ðµ":1641,"ĠÑİÑĢÐ¸Ð´Ð¸":1642,"ĠÐ°Ð½Ð°Ð»Ð¸Ð·Ð°":1643,"ĠÐºÐ°ÑĢ":1644,"Ð¼Ð¸Ð½Ð¸":1645,"Ð²Ð°ÑİÑĤÑģÑı":1646,"ĠÐļÐ°":1647,"ĠÑĥÑĢÐ¾Ð²ÐµÐ½ÑĮ":1648,"ĠÐ¿Ð¾Ð·Ð²Ð¾Ð»ÑıÐµÑĤ":1649,"ÑĨÐ¸Ð¾Ð½Ð½Ð¾Ð¹":1650,"Ð¶ÐµÐ½Ð¸Ðµ":1651,"ĠÑĤÐ°ÐºÐ¸Ñħ":1652,"Ð°Ð»ÑĮÐ½ÑĭÑħ":1653,"Ð²Ð¾Ð»Ñİ":1654,"ĠÑĢÐ°Ð·ÑĢÐ°Ð±Ð¾ÑĤ":1655,"ĠÐ·ÑĢÐµÐ½Ð¸Ñı":1656,"ĠÐ¿Ð¾ÑģÐºÐ¾Ð»ÑĮÐºÑĥ":1657,"ĠÑĥÑģÐ»Ð¾Ð²Ð¸ÑıÑħ":1658,"ÑĨÐ¸Ð¾Ð½Ð½Ð¾Ð³Ð¾":1659,"ĠÐ»ÑİÐ±":1660,"ĠÐ²Ð¸Ð´":1661,"ĠÐ¸ÑģÐ¿Ð¾Ð»":1662,"ĠÐ¼ÐµÑħÐ°":1663,"ĠÐ¿Ð°ÑĢÐ°":1664,"ÑĨÐ¸Ð°":1665,"ĠÑģÑĥÑīÐµ":1666,"ĠÑģÐ²Ð¾Ñİ":1667,"ĠÑģÐ²Ð¾Ð±Ð¾Ð´":1668,"ĠÐŃÑĤÐ¾":1669,"ĠÐ±Ð°Ð½":1670,"ÐŀÐ´Ð½Ð°ÐºÐ¾":1671,"ÑĤÐ°Ð¼Ð¸":1672,"ĠÐºÐ¾Ð¼Ð¿Ð°":1673,"ĠÑįÐ»ÐµÐ¼":1674,"ĠÐ¿ÑĢÐµÐ´ÑģÑĤÐ°Ð²Ð»ÐµÐ½":1675,"ĠÐ´Ð°Ð½Ð½Ð¾Ð¹":1676,"ĠÑģÑĤÐ°ÑĤÑĥ":1677,"ĠÐ¿Ð¾Ð»Ð¸ÑĤÐ¸":1678,"ÑĤÐµÐ³Ð¾":1679,"ĠÐ¸ÑģÑĤÐ¾Ñĩ":1680,"ĠÐ¾Ð±ÑĥÑĩÐµÐ½Ð¸Ñı":1681,"ÐµÐ½ÑģÐ¸":1682,"ĠÑĢÐµÐ³ÑĥÐ»Ð¸":1683,"ÑħÐ¾Ð²":1684,"ÑĢÐµÐ´Ð¸":1685,"ĠÐ¤ÐµÐ´ÐµÑĢÐ°":1686,"Ð¿Ð¾Ð²":1687,"ĠÐ¨":1688,"ĠÑįÑĤÐ¾ÑĤ":1689,"ĠÑĢÑĥÐºÐ¾Ð²":1690,"Ð¼Ð¾ÑģÑĤÐ¸":1691,"ĠÐ²Ð½Ð¸Ð¼Ð°Ð½Ð¸Ðµ":1692,"ĠÑģÐµÐº":1693,"ĠÑģÐ¾ÑĨÐ¸Ð°Ð»ÑĮÐ½Ð¾Ð¹":1694,"ÑīÐ¸Ðµ":1695,"ÑĮÑı":1696,"ÑĤÐ¸ÑĩÐµÑģÐºÐ¸Ñħ":1697,"ÑĨÐµÐ²":1698,"ĠÐ¿ÑĢÐ¾Ð´ÑĥÐº":1699,"ĠÑĢÐ¾Ð´Ð¸":1700,"ÑģÑĤÐ²ÐµÐ½Ð½ÑĭÐµ":1701,"ĠÑĨ":1702,"ĠÑģÐ²ÑıÐ·":1703,"ĠÑĢÐ¾Ð»ÑĮ":1704,"Ð»Ð¸ÑĩÐ°":1705,"ĠÐ²Ð½ÑĥÑĤÑĢÐµÐ½":1706,"ĠÐºÐ¾Ð½ÑĤÐµÐº":1707,"ĠÑĢÐ°Ð±Ð¾ÑĤÐ°":1708,"ÑģÐºÐ¾":1709,"ĠÐºÐ¾Ð½ÑģÑĤÐ¸ÑĤÑĥ":1710,"ÑıÐ²Ð¸":1711,"ÑıÑĤÑģÑı":1712,"ĠÑģÑĦÐµÑĢÐµ":1713,"ĠÑģÐ¼ÑĭÑģ":1714,"ĠÐ¿ÑĢÐ¸Ð¼ÐµÑĢ":1715,"ÑģÑĤÑĭ":1716,"ĠÑĥÑĢÐ¾Ð²Ð½Ðµ":1717,"ÑįÐº":1718,"ÑģÐºÐ¾Ðµ":1719,"ĠÐ¿Ð¾Ð´Ð³Ð¾ÑĤÐ¾Ð²":1720,"ĠÑĩÐµÑĤ":1721,"ÐµÑĤÐ¸":1722,"ĠÑĪÐ¸ÑĢ":1723,"ĠÐ·ÐµÐ¼":1724,"ĠÑģÐ½Ð¸":1725,"ĠÐ¾Ð±ÑĬÑıÑģ":1726,"ĠÐ³ÑĢÑĥÐ¿Ð¿Ñĭ":1727,"ĠÐ¿ÑĢÐµÑģÑĤÑĥÐ¿":1728,"ĠÑĢÐ°ÑģÑģÐ¼Ð¾ÑĤ":1729,"ĠÐ¿ÑĢÐµÐ´Ð¿Ð¾Ð»Ð°Ð³Ð°":1730,"ĠÑģÐ²Ð¾Ð¸Ñħ":1731,"ĠÐ¾Ð±ÐµÑģÐ¿ÐµÑĩÐ¸":1732,"ĠÐ¾ÑĢÐ³Ð°Ð½":1733,"Ð¿ÑĢÐ¾":1734,"ÑĢÐµÐ¿":1735,"ÑīÐµÐ¹":1736,"ÐµÐ½ÑĤÐ¾Ð²":1737,"ĠÐ¿Ð¾Ð»ÑĥÑĩÐ¸":1738,"ĠÐºÐ¾Ð¼Ð¼ÑĥÐ½Ð¸ÐºÐ°":1739,"ĠÐ°ÑģÐ¿":1740,"ĠÐ¿Ð¾Ð»Ð¸ÑĤÐ¸ÐºÐ¸":1741,"Ð¸Ð»":1742,"Ð²Ð¾Ð·":1743,"Ð´ÐµÐ±":1744,"ĠÑģÐ¾ÑĨÐ¸Ð°Ð»ÑĮÐ½ÑĭÑħ":1745,"ĠÐ½Ð°ÑģÑĤÐ¾Ñı":1746,"ĠÑĥÐ²Ðµ":1747,"ĠÑģÐ¾ÑĤÑĢÑĥÐ´":1748,"ÑĤÐµÐ»ÑıÐ¼Ð¸":1749,"ĠÐ±Ð¾Ð»ÑĮÑĪÐ¸Ð½":1750,"ÐµÐ½ÑĤÐ¸":1751,"ÑĤÑĥÑĢÐ°":1752,"ĠÐ²Ð¾Ð·Ð¼Ð¾Ð¶Ð½Ð¾ÑģÑĤÑĮ":1753,"Ð¾Ð³Ð¸ÑĩÐµÑģÐº":1754,"ÑĤÐ¾ÑĢÐ¸Ð¸":1755,"ÑģÑĤÑĢÐµ":1756,"ĠÐ¿Ð¾ÑĢÑıÐ´":1757,"ĠÐĺÐ½":1758,"ĠÑĢÐ°Ð·Ð½ÑĭÑħ":1759,"ĠÐ½Ð°Ð´":1760,"Ð´ÐµÑģÑĮ":1761,"ÑĤÑĥÑĢÐµ":1762,"ÑĩÐ¸Ñģ":1763,"Ð¿Ð°Ð´":1764,"ĠÐºÐ°ÑĤÐµÐ³Ð¾":1765,"ĠÐ´Ð²ÑĥÑħ":1766,"ĠÑĥÐ¿ÑĢÐ°Ð²Ð»ÐµÐ½Ð¸Ñı":1767,"Ð±Ð¾ÑĢÐ°":1768,"ĠÑĩÐµÐ»Ð¾Ð²ÐµÐº":1769,"Ð¢Ð°ÐºÐ¸Ð¼":1770,"ĠÑĪÐºÐ¾Ð»ÑĮ":1771,"ĠÑĢÐµÐ°Ð»Ð¸Ð·Ð°ÑĨÐ¸Ð¸":1772,"ĠÐ¼ÐµÑħÐ°Ð½Ð¸Ð·":1773,"ĠÐ·Ð°ÑīÐ¸":1774,"Ð¾ÑģÑĢÐµÐ´":1775,"ĠÐ¾ÑĨÐµÐ½ÐºÐ¸":1776,"ĠÐ¶ÐµÐ½":1777,"ĠÐ²ÑĭÐ²Ð¾Ð´":1778,"ÑĢÐ¸Ñı":1779,"ÑĩÐµÐ½ÑĮ":1780,"Ð²ÑĪÐ¸Ñħ":1781,"ĠÑģÐ²Ð¸Ð´Ðµ":1782,"ÑıÑĤÑĮ":1783,"Ð±ÐµÐ¶":1784,"ĠÐ¸Ð³":1785,"ĠÑıÐ·ÑĭÐºÐ¾Ð²":1786,"ĠÐ´Ñĥ":1787,"ĠÐ¾ÑĤÐºÑĢÑĭ":1788,"ÑĦÐ¾ÑĢÐ¼Ð¸":1789,"ĠÐ²ÑĭÑģÑĤÑĥÐ¿Ð°":1790,"ĠÑģÑĤÐµÐ¿ÐµÐ½Ð¸":1791,"Ð»ÐµÐ½Ð½ÑĭÑħ":1792,"ÑĤÐµÐ¼":1793,"Ð§":1794,"Ð²Ð°Ð½":1795,"Ð¨ÐĲ":1796,"ÑĤÐ¸Ð²Ð½Ð¾Ð¹":1797,"ĠÑģÑĤÑĥÐ´ÐµÐ½ÑĤÐ¾Ð²":1798,"ĠÐĹÐ°":1799,"ĠÐ¾ÑģÑĥÑīÐµÑģÑĤÐ²Ð»Ñı":1800,"ĠÑģÑĤÑĢÐ¾":1801,"ĠÑģÐ¿ÐµÑĨÐ¸Ð°Ð»ÑĮ":1802,"ĠÐºÐ¾Ð½ÐºÑĥ":1803,"ÑĭÑĤÐ°":1804,"ĠÑĢÐ°Ð·Ð²Ð¸ÑĤÐ¸Ðµ":1805,"ĠÐ¾ÑĨÐµÐ½Ð¸":1806,"ĠÑģÐ¾ÑĨÐ¸Ð°Ð»ÑĮÐ½Ð¾":1807,"ĠÑģÑĤÐ°Ð½":1808,"ĠÑħÐ¾Ð´":1809,"ĠÐ½Ð°Ð»":1810,"ĠÐ¾Ð´Ð½Ð°ÐºÐ¾":1811,"ĠÐ¼Ð½Ð¾Ð³Ð¾":1812,"ĠÑĢÐµÐ±ÐµÐ½":1813,"ĠÑĢÐ°ÑģÐ¿ÑĢÐ¾ÑģÑĤÑĢÐ°Ð½":1814,"ĠÐ½Ð°Ð¿ÑĢÐ¸Ð¼ÐµÑĢ":1815,"ÑĢÐµÐº":1816,"ĠÐ³Ð¾ÑĢÐ¾Ð´":1817,"Ð»Ð°Ð´":1818,"Ð¼ÐµÑĢÐ¸":1819,"ĠÑģÐ²Ð¾Ð¹":1820,"ĠÑĪÐ¸ÑĢÐ¾Ðº":1821,"ĠÑĩÐµÑĢÐµÐ·":1822,"ĠÑĢÐ°Ð·Ð»Ð¸ÑĩÐ½ÑĭÑħ":1823,"ĠÐºÑĥÑĢ":1824,"ÐµÐ½Ñĭ":1825,"ĠÐ¼ÐµÑģÑĤÐ¾":1826,"ĠÑĢÐµÑģÐ¿":1827,"ĠÐ±Ñİ":1828,"ĠÐ´Ð¾Ð²":1829,"ĠÐ²Ð¾ÑģÐ¿ÑĢÐ¸":1830,"Ð¸ÑģÑĮ":1831,"ĠÐ´Ð¾Ð»Ð¶Ð½Ñĭ":1832,"Ð»Ð¸ÑĤÑĮ":1833,"ĠÐ¸Ð½ÑĤÐµÑĢÐµÑģ":1834,"ĠÐ¼Ð¸ÑĢÐ¾Ð²":1835,"ÑĤÐ¾Ñĩ":1836,"ĠÑĤÑĢÑĥÐ´":1837,"ĠÐ¾ÑĩÐµÑĢÐµÐ´":1838,"ĠÐ³Ð¾Ð²Ð¾ÑĢÐ¸":1839,"Ð½ÐµÑģ":1840,"Ð²ÑĭÐµ":1841,"ĠÑģÐ¾Ð±Ñĭ":1842,"ĠÑĦÐ¾Ð½":1843,"ĠÐ¿ÑĢÐ¾Ð´Ð¾Ð»":1844,"ĠÑĥÐ³Ð¾Ð»Ð¾Ð²":1845,"Ð½Ð¸ÑĤÑĮ":1846,"Ð¼ÑĥÐ»Ð¸":1847,"ĠÐ¿Ð¾Ð´Ð¾Ð±":1848,"ĠÐ¦":1849,"ĠÐ³Ð»Ð°Ð²":1850,"ĠÑįÐºÐ¾Ð½Ð¾Ð¼Ð¸ÐºÐ¸":1851,"ĠÑĤÐ¾ÑĢ":1852,"ÑģÑĤÐ²Ñĥ":1853,"ÑģÑĤÐ°Ð½":1854,"Ð²ÑĢÐ°":1855,"ÑħÐ¸":1856,"ÑĤÐ¸ÑĩÐµÑģÐºÐ¾Ð¹":1857,"ĠÑģÐ´ÐµÐ»Ð°":1858,"ĠÐ¼ÐµÐ´Ð¸":1859,"ĠÐ¡Ð¨ÐĲ":1860,"ĠÐ¿ÑĢÐ¾Ð±Ð»ÐµÐ¼Ñĭ":1861,"Ð¾Ð²Ð¾Ð¹":1862,"ĠÑģÑĢÐµÐ´Ð¸":1863,"ĠÐ¾Ð¿Ð¸ÑģÐ°":1864,"Ð¾Ð±Ð¸":1865,"ÐºÐ¸Ñħ":1866,"ĠÐ¸Ð·Ð¼ÐµÐ½ÐµÐ½Ð¸Ñı":1867,"ĠÐ¾ÑĤÐ¼ÐµÑĤ":1868,"ĠÐ·Ð½Ð°ÑĩÐµÐ½Ð¸Ðµ":1869,"ĠÐ²Ð¸Ð´Ðµ":1870,"ĠÐ´ÑĢÑĥÐ³Ð¾Ð¹":1871,"Ð°Ð»ÑĮÐ½Ð¾Ð³Ð¾":1872,"Ð´ÐµÐ¹ÑģÑĤÐ²":1873,"ĠÐ¸ÑģÐºÐ»Ñİ":1874,"ÑĨÐ¸Ð¿":1875,"ĠÑĤÐ¾ÑĩÐºÐ¸":1876,"Ð¶Ð´Ðµ":1877,"ĠÐłÐ¾ÑģÑģÐ¸Ð¹ÑģÐºÐ¾Ð¹":1878,"ĠÐ¯":1879,"ĠÐ»ÑİÐ´ÐµÐ¹":1880,"ÑıÐ½":1881,"ÑīÐµÑģÑĤÐ²Ð°":1882,"ÑĩÐµÑĤÐ°":1883,"ĠÐ»Ð¸Ð±Ð¾":1884,"ĠÑĢÐ°Ð·Ð´Ðµ":1885,"Ð³Ð¸Ð¸":1886,"ÐĽ":1887,"Ð²ÑĢÐ¾Ð¿ÐµÐ¹":1888,"ÑĢÑĥÐµÑĤÑģÑı":1889,"ĠÐ¸ÑģÑģÐ»ÐµÐ´Ð¾Ð²Ð°Ð½Ð¸Ð¹":1890,"ÑİÑīÐ¸Ð¹":1891,"ĠÐ²Ð¾ÐµÐ½":1892,"ĠÐ³Ð¾Ð´Ð°":1893,"ĠÑĨÐµÐ»ÑĮ":1894,"ĠÐ²ÑĥÐ·":1895,"ĠÐ¸Ð½Ð´Ð¸Ð²Ð¸Ð´Ñĥ":1896,"ĠÐ½Ð°ÑĢÑĥ":1897,"ĠÑĥÑĤÐ²ÐµÑĢ":1898,"ÑİÑīÐ¸ÑħÑģÑı":1899,"Ð¾Ð·Ð¸":1900,"ÑĢÐº":1901,"ĠÐ»ÐµÐº":1902,"ĠÐ¾Ð±Ñĭ":1903,"Ð»ÐµÐ½Ð¸Ñİ":1904,"ĠÐ¼Ð¾Ð¼":1905,"ĠÐ»Ð¸ÑĤÐµÑĢÐ°":1906,"ĠÐĿÐµ":1907,"ĠÐ´Ð¾ÐºÑĥ":1908,"ĠÐ´Ð¾Ð¿Ð¾Ð»Ð½Ð¸":1909,"ÐĿÐµ":1910,"ĠÑģÐ»Ð¾Ð²":1911,"ÑĤÐ¸Ð²Ð½Ð¾Ð³Ð¾":1912,"Ġ;":1913,"ÑħÐ¾Ð´Ñı":1914,"ĠÐ¿ÑĢÐ¸Ð½Ð¸Ð¼Ð°":1915,"ĠÐ½ÐµÐ¾Ð±ÑħÐ¾Ð´Ð¸Ð¼":1916,"ĠÑģÐµÐ»ÑĮ":1917,"ÑĢÐ¾Ðº":1918,"ĠÐ¿ÑĢÐµÐ¿Ð¾Ð´Ð°":1919,"ĠÑĥÑĩÑĢÐµ":1920,"ĠÐ½ÐµÑĤ":1921,"ĠÐ¸ÑģÑĤÐ¾ÑĢÐ¸Ð¸":1922,"ĠÐ½Ð°ÑĪ":1923,"Ð¿Ñĭ":1924,"ÑĩÐµÐ¼":1925,"ĠÐ½Ð¸Ð·":1926,"Ð³Ð»Ð°":1927,"ĠÑģÐ¾ÑħÑĢÐ°Ð½":1928,"ĠÐ±Ð¾Ð»ÑĮÑĪÐµ":1929,"ĠÐ½Ð¾Ð²ÑĭÑħ":1930,"ĠÑĩÐ°ÑģÑĤÐ½Ð¾ÑģÑĤÐ¸":1931,"ÑĢÐ¾Ð±":1932,"ĠÐ²Ð°ÑĢÐ¸":1933,"ĠÐ¸ÑģÐ¿Ð¾Ð»ÑĮÐ·Ñĥ":1934,"ÑĢÑĥÐ³":1935,"ĠÑĢÐµÐ·ÑĥÐ»ÑĮÑĤÐ°ÑĤÐµ":1936,"ĠÐ¿Ð¾Ð»ÑĮÐ·":1937,"ÑİÑīÐ¸Ð¼":1938,"Ð¾Ð»Ñı":1939,"ĠÐ½Ð°Ð±Ð»ÑİÐ´Ð°":1940,"ĠÐ²Ð»Ð¸ÑıÐ½Ð¸Ðµ":1941,"ĠÐłÐµ":1942,"Ð¡Ðł":1943,"ĠÑĦÐ¾ÑĢÐ¼":1944,"ĠÑĥÑģÐ¸":1945,"ĠÐ´Ð°Ð»ÑĮ":1946,"ÑģÑĤÑĮÑİ":1947,"ĠÐ·Ð°Ð½Ð¸Ð¼Ð°":1948,"ÑĤÐ¸Ñĩ":1949,"Ð»ÐµÐ½Ñĭ":1950,"ĠÐ¸Ð½ÑĦÐ¾ÑĢÐ¼Ð°ÑĨÐ¸Ð¸":1951,"ĠÐ¿Ð¾Ð¼Ð¾Ñī":1952,"ÑĨÐ¸Ð¾Ð½Ð¸":1953,"ĠÐ¿Ð¾ÑĤÐµÐ½":1954,"ÐĶÐ»Ñı":1955,"ĠÐ¿ÑĢÐ¾Ñģ":1956,"ĠÐ®":1957,"ĠÐ¸Ð¼ÐµÑİÑĤ":1958,"ÑģÑĤÐ²Ð¸Ñı":1959,"ĠÐ´Ð°Ð½Ð½ÑĭÐµ":1960,"ĠÑĪÐºÐ¾Ð»Ñĭ":1961,"ĠÐ²Ð·Ð³Ð»Ñı":1962,"ÑĤÐ°Ð¼":1963,"ÑģÑĤÐµÑĢ":1964,"ĠÐ´Ð²Ð¸":1965,"ĠÑģÑĢÐµÐ´ÑģÑĤÐ²":1966,"Ð½Ð°Ð»":1967,"ĠÑģÐµÑĢ":1968,"Ð´ÐµÐ¼Ð¸":1969,"Ð²Ð°ÑĤÑĮÑģÑı":1970,"ĠÐºÐ¾Ð½ÑģÑĤÑĢÑĥÐº":1971,"Ð¼Ð¸Ð½Ð¸ÑģÑĤÑĢÐ°":1972,"ĠÑģÐ¿ÐµÑĨÐ¸Ð°Ð»Ð¸":1973,"ĠÐ¾ÑĤÐ½Ð¾ÑĪÐµÐ½Ð¸Ð¸":1974,"ĠÐ¾ÑĤÐ¼ÐµÑĩÐ°":1975,"ÑģÐ¾":1976,"ĠÐ¾ÑĩÐµÑĢÐµÐ´ÑĮ":1977,"ĠÐ½Ð°Ñģ":1978,"ĠÑĤÑĢÐ°Ð½Ñģ":1979,"ĠÐ¸Ð½Ð²ÐµÑģÑĤÐ¸":1980,"Ð»Ð¾Ð½":1981,"ĠÐ²Ð¾Ð·Ð¼Ð¾Ð¶Ð½Ð¾ÑģÑĤÐ¸":1982,"Ð½ÐµÐ²":1983,"ĠÐ¿ÐµÑĢÐµÐ´":1984,"ĠÐ¿ÑĢÐ¸ÑĢÐ¾Ð´":1985,"ÑĢÑĥÑİÑĤ":1986,"Ð°Ð»ÑĮÐ½Ð¾Ð¹":1987,"ĠÐ¿Ð¾Ð´Ð´ÐµÑĢÐ¶":1988,"ÑģÑĤÑĢÐ¾Ð¹":1989,"ĠÑħÐ¾Ð·ÑıÐ¹":1990,"Ð½Ð¸ÑĨ":1991,"ĠÑĥÑģÐ»Ñĥ":1992,"Ð¾ÑģÑĤÐ¸":1993,"ÑĤÐ°Ñħ":1994,"ĠÑģÑĥÐ´ÐµÐ±":1995,"Ð¾Ð¿Ñĥ":1996,"ĠÐ¸Ð·ÑĥÑĩ":1997,"ÑĦÐ¸ÐºÐ°ÑĨÐ¸Ð¸":1998,"Ð¼Ð°Ð½":1999,"Ð¾ÑģÐº":2000,"ĠÑĦÐ¾ÑĢÐ¼Ñĭ":2001,"Ð¾ÑĤÑĢÐµÐ±":2002,"ĠÐ²ÑĭÑĢÐ°Ð¶":2003,"ÐµÐ»ÑĮ":2004,"ĠÐ´Ð²Ð°":2005,"ÑİÑīÐµÐ³Ð¾":2006,"Ð½ÐµÐ¹ÑĪ":2007,"ÑįÐºÐ¾Ð½Ð¾Ð¼":2008,"ĠÐ¿Ð¾Ð»ÑĥÑĩÐ°":2009,"ĠÐ¤ÐµÐ´ÐµÑĢÐ°ÑĨÐ¸Ð¸":2010,"ĠÐ¾Ð±Ð»Ð°Ð´Ð°":2011,"ĠÐ¿ÑĢÐ¾Ð¼":2012,"ÑĤÐ°ÑĢ":2013,"ĠÐ¾Ð±ÑĥÑģÐ»Ð¾Ð²":2014,"ĠÑĢÐµÐ·ÑĥÐ»ÑĮÑĤÐ°ÑĤÑĭ":2015,"ÑĮÐ¸":2016,"ÑģÑĤÐ²Ð¾Ð²Ð°":2017,"ĠÐ´ÐµÑıÑĤÐµÐ»ÑĮÐ½Ð¾ÑģÑĤÑĮ":2018,"Ð±Ð¸ÑĢÐ°":2019,"ÑĨÐ¸ÑıÑħ":2020,"ĠÐºÐ¾Ð¼Ð¿ÐµÑĤ":2021,"ÑĭÑģ":2022,"ĠÑģÐ¾ÑĨÐ¸Ð°Ð»ÑĮÐ½Ð¾Ð³Ð¾":2023,"ĠÑĥÑĩÐµÐ½":2024,"Ġ%":2025,"ÐµÐºÑĤÑĭ":2026,"Ð¾ÑĪ":2027,"ĠÐ¾Ð±ÑĬÐµÐ¼":2028,"Ð½Ð°Ð´":2029,"Ð»ÑİÑĩÐµ":2030,"ĠÐ´Ð¸Ð°":2031,"ĠÑĢÑıÐ´":2032,"ĠÐ½Ð°ÑĢÐ¾Ð´":2033,"Ð³Ð´Ð°":2034,"ĠÑĢÐµÐ³Ð¸Ð¾Ð½Ð°Ð»ÑĮ":2035,"ĠÐ·Ð´":2036,"Ð¾ÑĢÐ¸Ð¸":2037,"ÑĤÐ¸Ð²Ð½ÑĭÐµ":2038,"ÑĤÐµÐ»ÑĮÐ½ÑĭÐ¹":2039,"ĠÑįÑĤÐ¸Ð¼":2040,"ĠÐ¿ÑĢÐµÐ´Ð¾ÑģÑĤÐ°":2041,"ĠÐĴÐ¾":2042,"Ð²ÐµÐ´ÐµÐ½":2043,"ĠÐ¿Ð¾Ðº":2044,"ĠÐ³Ð»Ð°Ð³":2045,"ĠÑĤÐµÐ½":2046,"ĠÑĥÐº":2047,"ĠÐºÑĥÐ»ÑĮÑĤÑĥÑĢÑĭ":2048,"ĠÑĢÐµÐ³Ð¸Ð¾Ð½Ð°":2049,"ÑģÑĤÐ¸ÑĩÐµÑģÐº":2050,"ĠÐ¿ÑĢÐ¸Ð²Ð¾Ð´":2051,"ĠÐ½ÐµÑģÐºÐ¾Ð»ÑĮÐºÐ¾":2052,"ĠÑĢÐ°Ð±Ð¾ÑĤÐµ":2053,"ĠÐ¾Ð´Ð¸Ð½":2054,"Ð¾Ð²Ð°Ñı":2055,"ĠÐ°Ð³":2056,"ĠÐ¿ÑĢÐ¾Ð²Ðµ":2057,"ĠÐ¿ÑĢÐ¸Ð²Ð»Ðµ":2058,"ĠÐ¸Ð·Ð²ÐµÑģÑĤ":2059,"ÑĤÐµÐ»ÑĮÐ½Ð¾Ðµ":2060,"ĠÐ´Ð¾ÑģÑĤÐ°ÑĤÐ¾ÑĩÐ½Ð¾":2061,"ĠÐºÑĢÐµ":2062,"ĠÐ¾Ð±ÑīÐµÑģÑĤÐ²":2063,"ĠÑĢÐµÐ»Ð¸":2064,"Ð³Ð¾Ñģ":2065,"Ð»ÐµÐ½Ð½Ð¾ÑģÑĤÐ¸":2066,"ĠÐ¿ÑĢÐ¾ÑĨÐµÑģÑģÐ°":2067,"ĠÑĤÐµÐ¾ÑĢÐµ":2068,"ÑĢÐµÐ²":2069,"ĠÑĤÐµÐ¾ÑĢÐ¸Ð¸":2070,"Ð²Ð°Ð½Ð¸Ðµ":2071,"Ð¸ÑģÑĭ":2072,"ĠÑĤÐ°ÐºÐ¾Ð¹":2073,"ĠÐ¼Ð°ÑģÑģ":2074,"ĠÐ¾ÐºÑĢÑĥ":2075,"ĠÑģÐ¸ÑģÑĤÐµÐ¼Ð°":2076,"Ð»ÑĮÐ½ÑĭÐ¹":2077,"ÑĥÐ¶Ð´Ð°":2078,"ĠÑĢÐ°Ð·Ð»Ð¸ÑĩÐ¸":2079,"ÐºÐ°Ð¼":2080,"ÑģÑĤÐ¾Ð¹ÑĩÐ¸":2081,"ĠÐ²Ð¾Ð·Ð½Ð¸ÐºÐ°":2082,"ĠÐ¿ÑĢÐ¾ÑĨÐµÑģÑģÐµ":2083,"ÑĤÐ½ÑĭÑħ":2084,"ĠÐ½ÐµÐ·Ð°":2085,"Ð¾Ð²ÑĭÑħ":2086,"ĠÐ¿ÐµÑĢÐµÑħÐ¾Ð´":2087,"ÑģÐºÑĥÑİ":2088,"ĠÐ¾Ñħ":2089,"Ð´Ð¶ÐµÑĤ":2090,"ĠÐºÐ¾ÑĤÐ¾ÑĢÐ¾Ðµ":2091,"ĠÐ²ÑĢÐµÐ¼ÐµÐ½":2092,"ĠÑĤÐ¾Ð²Ð°":2093,"Ð±Ñĥ":2094,"ĠÐ¸Ð½Ð½Ð¾Ð²Ð°":2095,"ĠÐ½Ð°Ð·":2096,"ĠÐºÐ¾Ð½ÑĦ":2097,"Ð¼Ð¾ÑĤÑĢÑı":2098,"ĠÑģÑĤÐ°ÑĢ":2099,"ĠÐ¾Ð½Ð¾":2100,"ĠÐ´ÐµÐ¹ÑģÑĤÐ²Ð¸Ð¹":2101,"ÑĤÐµÑĢÐµ":2102,"Ð½Ð¸ÑĩÐµ":2103,"ĠÐºÐ¾ÑĤÐ¾ÑĢÐ¾Ð³Ð¾":2104,"ĠÐ¿ÑĢÐµÐ´Ð»Ð°Ð³Ð°":2105,"ÐŃÑĤÐ¾":2106,"ĠÐ¸Ð½ÑģÑĤÑĢÑĥ":2107,"ĠÐºÐ¾Ð¼Ð¿Ð»ÐµÐº":2108,"ĠÐ±Ð°Ð·":2109,"ÑĤÐµÐ»ÑĮÑģÑĤÐ²Ð¾":2110,"ĠÑĤÑĢÐ¸":2111,"ĠÐ¼Ð½ÐµÐ½Ð¸Ñİ":2112,"Ð²Ð½Ð¾":2113,"ĠÑģÑĤÑĢÐ°Ð½Ð°Ñħ":2114,"ĠÑģÐµÐ±Ðµ":2115,"ĠÑģÐ²Ð¾ÐµÐ³Ð¾":2116,"ĠÐ¾ÑĩÐµÐ½ÑĮ":2117,"ĠÑģÑĤÐ¾ÑĢÐ¾Ð½":2118,"Ð»ÑıÑĢ":2119,"ĠÐļÐ¾Ð½ÑģÑĤÐ¸ÑĤÑĥ":2120,"ĠÐ¿Ð¾Ð»Ð¸ÑĤÐ¸ÑĩÐµÑģÐºÐ¾Ð¹":2121,"ĠÐ±Ð°":2122,"Ð·Ð¼Ð°":2123,"ĠÑģÐ²Ð¾Ð¸":2124,"ĠÑģÑĤÐ°Ð½Ð´Ð°ÑĢ":2125,"ĠÑĢÐ¾Ð´":2126,"Ð¾Ð²ÐµÑĤ":2127,"ĠÐ´Ð°Ð½Ð½Ð¾Ð³Ð¾":2128,"ĠÐ½ÐµÐ´Ð¾ÑģÑĤÐ°":2129,"ÐµÐ½Ð½ÑĭÐµ":2130,"ĠÐ¿ÑĢÐµÐ¶Ð´Ðµ":2131,"ĠÐ·Ð°Ð´Ð°Ñĩ":2132,"ĠÑħÐ¾ÑĤÑı":2133,"ĠÐ½Ð¾Ñģ":2134,"ÑĤÐ°ÑĨÐ¸Ð¸":2135,"ÑīÐ¸ÑħÑģÑı":2136,"ÐµÐ¼ÑĭÐµ":2137,"Ð»ÐµÐ½Ð¸ÐµÐ¼":2138,"ÐºÐ°Ð´ÐµÐ¼Ð¸":2139,"ĠÐºÑĢÑĥÐ¿":2140,"ĠÐ¼Ð¸ÑĢÐ°":2141,"Ð¾Ð½Ð¾Ð²":2142,"ĠÐ²Ñĥ":2143,"Ð¶Ð¸ÑĤ":2144,"ĠÐ²Ð¾Ð·Ð½Ð¸Ðº":2145,"ÐļÐ°Ðº":2146,"ĠÐ¿ÑĢÐ¸Ð¾Ð±":2147,"ĠÑĦÐµÐ´ÐµÑĢÐ°":2148,"ÑĤÐµÐ»ÐµÐ¼":2149,"ĠÐ³ÐµÐ½":2150,"Ð¼ÐµÑģÑĤÐµ":2151,"ĠÐ°Ð´Ð¼Ð¸Ð½Ð¸ÑģÑĤÑĢÐ°":2152,"ĠÐĿÐ¾":2153,"ĠÑģÑĦÐµÑĢ":2154,"ĠÐ´Ð¸Ð½Ð°Ð¼Ð¸":2155,"Ð¥":2156,"ĠÐ¡Ð¾":2157,"ĠÑģÐ²Ð¸Ð´ÐµÑĤÐµÐ»ÑĮÑģÑĤÐ²":2158,"ĠÑģÐ»Ð°":2159,"ĠÐ´ÑĢÑĥÐ³Ð¸Ðµ":2160,"ĠÑĩÐ»ÐµÐ½":2161,"Ð¾Ð¿ÑĢÐ¸":2162,"ĠÐļÐ°Ðº":2163,"Ð²ÑĤÐ¾ÑĢ":2164,"ÑĤÐ¸ÑĩÐµÑģÐºÐ¾Ð³Ð¾":2165,"Ð½ÑĮ":2166,"ĠÐ¼Ð°Ðº":2167,"ĠÑģÐ¾Ð²ÐµÑĢÑĪÐµÐ½":2168,"Ð¾Ð»Ð¾Ð³Ð¸":2169,"ĠÐ¼ÐµÐ½ÑĮ":2170,"Ð°ÑĤ":2171,"ĠÑĤÐ¾ÑĢÐ³Ð¾Ð²":2172,"ĠÐºÐ¾Ð½ÐºÑĥÑĢÐµÐ½":2173,"Ð³Ð¾Ð´Ð½Ñı":2174,"Ð¸ÐµÐ¼":2175,"ĠÑģÑĩÐµÑĤ":2176,"ĠÐ²ÑģÐµÐ³Ð´Ð°":2177,"ĠÑģÐ°":2178,"ĠÐŀÐ±":2179,"ĠÐ¸Ð´ÐµÐ½":2180,"ÑĢÐ°Ð²Ð¸":2181,"Ð½Ð¸ÐºÐ°Ð¼Ð¸":2182,"Ð¼Ð¾Ð²":2183,"ĠÐ¾Ð±ÑĬÐµÐ´Ð¸":2184,"ĠÑĥÑĩÐ¸ÑĤÑĭ":2185,"ĠÐ¿Ð¾ÐºÐ°Ð·ÑĭÐ²Ð°":2186,"Ð¼ÐµÐ½ÑĤ":2187,"Ð¾ÑıÑĤ":2188,"Ð»ÐºÐ¸":2189,"Ð¾Ð³ÑĢÐ°ÑĦÐ¸ÑĩÐµÑģÐº":2190,"Ð¸ÑĩÐµÑģÐºÐ¸Ñħ":2191,"ĠÐĶÐ»Ñı":2192,"ĠÐ¸Ð½Ð¾ÑģÑĤ":2193,"ÑĩÐ½ÑĭÐµ":2194,"ÐµÑĢÐµ":2195,"ĠÐ¿ÑĢÐ¾Ð³":2196,"ĠÐ¿Ð¾Ñĩ":2197,"ĠÑģÐ°Ð¼Ð¾ÑģÑĤÐ¾ÑıÑĤÐµÐ»ÑĮ":2198,"ĠÐ²Ð·Ð°Ð¸Ð¼Ð¾Ð´ÐµÐ¹ÑģÑĤÐ²Ð¸Ñı":2199,"ĠÑĤÐ°ÐºÐ¸Ðµ":2200,"ĠÐ¼ÐµÑĢÐµ":2201,"ĠÑģÑĢÐµÐ´ÑģÑĤÐ²Ð°":2202,"Ð»ÑĮÐ½ÑĭÐ¼":2203,"ĠÐ³Ð°":2204,"ĠÐ¾ÑĢÐ³Ð°Ð½Ð¾Ð²":2205,"ĠÐ²Ð¾Ð·Ð´ÐµÐ¹ÑģÑĤÐ²":2206,"ÑĩÐ½Ð¾Ð³Ð¾":2207,"ĠÐ·Ð½Ð°Ð½Ð¸Ñı":2208,"ÑģÑĤÐ¾ÑıÐ½":2209,"ĠÑģÑĤÐ°ÑĤÐ¸":2210,"Ð¾Ð»Ð¾Ð³Ð¸Ñı":2211,"ĠÐ¸Ð¼Ð¿Ðµ":2212,"ÑĭÑĪ":2213,"ĠÐ¸Ð½ÑĦ":2214,"ĠÐ»Ð¸ÑĨÐ°":2215,"ÑĢÐ°Ð¶Ð°":2216,"ĠÐ¼Ñĥ":2217,"ÑĢÐ¾Ð²Ð°Ð½Ð½ÑĭÑħ":2218,"ĠÑĢÐµÐ´":2219,"ĠÐ´Ð¾Ð»Ð¶ÐµÐ½":2220,"ĠÐ²ÐµÐ´":2221,"ĠÑĩÐ°ÑģÑĤÐ¾":2222,"ĠÐ¾ÑĤÐ¼ÐµÑĤÐ¸ÑĤÑĮ":2223,"ÑĤÐ¸ÑĩÐµÑģÐºÐ¸Ðµ":2224,"ĠÐ½ÐµÐ¹":2225,"ĠÐ¿Ð¾ÑģÑĤÐ°":2226,"ĠÐºÐ¾Ð½ÑĦÐ»Ð¸Ðº":2227,"ĠÐ±Ð¾ÑĢ":2228,"ĠÐ³Ð¾Ð´Ñĭ":2229,"ĠÐ³Ð»":2230,"Ð½ÐµÑĤ":2231,"ĠÐ¸Ð½Ð¾ÑģÑĤÑĢÐ°Ð½":2232,"ÐµÐ½ÑĤÑĭ":2233,"ĠÐ¿ÐµÑĢÐµÐ²Ð¾Ð´":2234,"ÑĤÐµÐ»ÑĮÐ½ÑĭÐ¼":2235,"ĠÐ·Ð°ÐºÐ»Ñİ":2236,"Ð¾Ð¶Ð´Ð°":2237,"ÑĤÐ¸Ð²Ð°":2238,"Ð»ÐµÐ½Ð½ÑĭÐµ":2239,"Ð¾Ð¼Ð¸Ð½Ð°":2240,"ĠÐ²ÑĭÑı":2241,"ÑĨÐ¸Ð¾Ð½Ð½ÑĭÐµ":2242,"Ð±Ð»Ð¸":2243,"ÐµÐ¼Ð¾Ð³Ð¾":2244,"ĠÐ²ÑĭÐ¿Ñĥ":2245,"ĠÑĤÐµÑĢÑĢÐ¸ÑĤÐ¾ÑĢÐ¸Ð¸":2246,"ĠÐ¿Ð¾Ð´ÑĤÐ²ÐµÑĢ":2247,"ĠÐµÐ´Ð¸Ð½":2248,"Ð²ÑĪÐ¸Ðµ":2249,"ĠÐ¼Ð¾ÑĤÐ¸":2250,"ĠÑģÐ¾Ð¾ÑĤÐ²ÐµÑĤÑģÑĤÐ²Ð¸Ð¸":2251,"ĠÐ·Ð´ÐµÑģÑĮ":2252,"ĠÐ³Ð¸":2253,"Ð¾Ð»Ð¾Ð³Ð¸ÑĩÐµÑģÐºÐ¸Ñħ":2254,"ĠÑģÐ¾Ð±ÑģÑĤÐ²ÐµÐ½":2255,"ĠÑĤÐ°ÐºÐ¾Ð³Ð¾":2256,"ĠÐ²Ð¾Ð²":2257,"ĠÐºÐ»Ð°ÑģÑģÐ¸":2258,"ĠÐºÐ°ÑģÐ°":2259,"ĠÐºÐ¾Ð»Ð»ÐµÐº":2260,"ÑĩÐµÑĢ":2261,"ÑĮÐµ":2262,"ĠÐ·Ð½Ð°ÑĩÐµÐ½Ð¸Ñı":2263,"ĠÑĤÑĢÑĥÐ´Ð¾Ð²":2264,"ĠÐ¿Ð¾Ð²ÐµÐ´ÐµÐ½Ð¸Ñı":2265,"ĠÑĩÑĥ":2266,"ĠÐ¼Ð¾Ð´ÐµÐ»ÑĮ":2267,"Ð»Ð°Ð½":2268,"ĠÑħÐ¾Ð´Ðµ":2269,"Ð¼ÐµÐ½ÑĤÐ¾Ð²":2270,"ĠÐ±ÑİÐ´Ð¶ÐµÑĤ":2271,"Ð¾Ð¿Ð°Ñģ":2272,"ĠÑģÐ¸Ð»Ñĥ":2273,"ĠÑĨÐµÐ½ÑĤÑĢÐ°":2274,"ĠÐ¿ÑĢÐ¾Ð±Ð»ÐµÐ¼Ð°":2275,"ĠÐ²Ð°ÑĢÐ¸Ð°Ð½":2276,"Ð¾ÑĤÐ°":2277,"ĠÑģÐ¾Ð²Ð¼Ðµ":2278,"Ð¾Ð·Ð½Ð°ÑĩÐ°":2279,"ĠÐ½Ð¸Ðº":2280,"ĠÐ°Ð±":2281,"ĠÐ¿Ð¾ÑģÐµ":2282,"ĠÐ¢Ð°ÐºÐ¸Ð¼":2283,"ĠÑĤÐµÐ½Ð´ÐµÐ½":2284,"Ð¼Ð¾ÑģÑĤÑĮ":2285,"ĠÐ´Ð¾Ð±":2286,"ĠÐ¾Ð¶Ð¸":2287,"ĠÐ¿ÑĢÐ¾ÑĤÐ¸Ð²Ð¾ÑĢÐµ":2288,"ÑĤÑĭÑħ":2289,"ĠÐ¾ÑĢÐ¸ÐµÐ½ÑĤÐ¸":2290,"ĠÐ¿ÑĥÐ±Ð»Ð¸":2291,"ĠÐ¾Ð¿ÑĭÑĤ":2292,"ĠÑĢÐ°ÑģÐ¿ÑĢÐµÐ´Ðµ":2293,"ĠÑĢÐµÐ·ÑĥÐ»ÑĮÑĤÐ°ÑĤÐ¾Ð²":2294,"Ð¼ÐµÑĢÐ¸ÐºÐ°Ð½":2295,"ĠÑģÑĤÐ°Ð½Ð¾Ð²Ð¸ÑĤÑģÑı":2296,"ÑĥÐ±Ð»Ð¸Ñĩ":2297,"ĠÐ¼Ð¸Ð½Ð¸":2298,"ĠÐ·Ð½Ð°Ñĩ":2299,"ĠÐ¿ÑĢÐµÐ¿Ð¾Ð´Ð°Ð²Ð°":2300,"ĠÐ¾Ð´Ð½Ð¾Ð³Ð¾":2301,"ĠÐ²Ð¾Ð¿ÑĢÐ¾ÑģÑĭ":2302,"ĠÐ´ÐµÐ½":2303,"ĠÐ¿ÐµÑĢÑģÐ¿":2304,"ĠÐ²ÑģÑĤÑĢÐµ":2305,"ĠÑĥÐºÐ°Ð·Ð°Ð½":2306,"ÑĨÐ¸Ð¾Ð½Ð°":2307,"ĠÐĴÐµ":2308,"ĠÐ¿ÐµÑĢÐµÐ´Ð°":2309,"Ð´ÐµÐº":2310,"ÑİÑīÐ°Ñı":2311,"ĠÐ¿Ð¾Ð½Ñı":2312,"ĠÐ³Ð¾ÑģÑĥÐ´Ð°ÑĢÑģÑĤÐ²ÐµÐ½Ð½Ð¾Ð¹":2313,"ĠÐ½Ð¾ÑĢÐ¼":2314,"ĠÑģÐ¼":2315,"ÑĦÐ¾ÑĢÐ¼":2316,"Ð½Ð°ÑĢÑĥ":2317,"ĠÐ¾ÑĦÐ¸":2318,"ĠÐ¸ÑĤ":2319,"Ð¾Ð½Ð´ÐµÐ½":2320,"ĠÑģÐµÐ¼Ð°Ð½":2321,"ÐºÐ¸Ð¹":2322,"ĠÐ¿ÑĢÐ°Ð²Ð¸Ð»Ð¾":2323,"ĠÑĦÐ°ÐºÑĤÐ¾ÑĢÐ¾Ð²":2324,"ĠÐ±Ð¸Ð·":2325,"ĠÑĤÐ¾ÑĤ":2326,"ÑĤÐµÑĩÐµ":2327,"ĠÐ¿ÑĢÐµÐ´ÑĥÑģ":2328,"ĠÐ°ÐºÐ°Ð´ÐµÐ¼Ð¸":2329,"ÑĤÐ¸Ñİ":2330,"ĠÑĢÑĥÐºÐ¾Ð²Ð¾Ð´":2331,"Ð¸Ð·Ð²Ð¾Ð´":2332,"ĠÑĥÑģÑĤÐ¾Ð¹ÑĩÐ¸":2333,"ĠÑĢÐµÑĩÐ¸":2334,"ÑĤÐ½Ð¾Ð¹":2335,"ÑĩÐµÐ¹":2336,"ĠÐ¾Ð¶Ð¸Ð´Ð°":2337,"Ð²Ð°Ð»":2338,"ĠÐ¾ÑĤÑĢÐ°Ð¶Ð°":2339,"ÐºÐ»Ð°":2340,"Ð²Ð°Ð»Ð¸ÑģÑĮ":2341,"ÑĩÐµÑģÐºÐ¸Ð¹":2342,"ĠÐ³Ð¾ÑĤÐ¾Ð²":2343,"ĠÑĥÑģÐ¿ÐµÑĪ":2344,"ĠÐ¿Ð¾ÑģÑĤÑĢÐ¾":2345,"Ġ/":2346,"ÑģÐ¾Ð±":2347,"ĠÐ¾ÑĤÐ»Ð¸ÑĩÐ°":2348,"Ð¶ÐµÐ½Ð¸Ð¸":2349,"Ð·ÑĭÐ²Ð°ÐµÑĤ":2350,"ĠÐ¿ÑĢÐ¾Ð¸Ð·Ð²Ð¾Ð´ÑģÑĤÐ²Ð°":2351,"ĠÑĢÐµÑĪÐµÐ½Ð¸Ðµ":2352,"ĠÐ³Ðµ":2353,"Ð¾Ð¶Ð´ÐµÐ½Ð¸Ñı":2354,"ĠÐºÑĢÐ¸ÑĤÐµÑĢÐ¸":2355,"Ð¹ÑĤÐ¸":2356,"ĠÐ¾Ð±ÑıÐ·Ð°Ð½":2357,"ĠÑįÐºÑģÐ¿ÐµÑĢ":2358,"ĠÐ²Ð¾Ð¹Ð½Ñĭ":2359,"ÑĤÐ¾ÑĢÐ¾Ð¼":2360,"ĠÐ¸ÑģÐ¿Ð¾Ð»ÑĮÐ·Ð¾Ð²Ð°Ð½Ð¸Ñı":2361,"Ð²Ð»Ð¸":2362,"ĠÐºÑĢÐ¸Ð·":2363,"ĠÑģÑĤÑĢÑĥÐºÑĤÑĥÑĢ":2364,"ĠÑĤÐµÐºÑģÑĤÐ°":2365,"ÑģÐºÐ¸Ð¼Ð¸":2366,"Ð¸ÑģÐº":2367,"ĠÑĤÐµÑĢÑĢÐ¸ÑĤÐ¾ÑĢÐ¸":2368,"ĠÐ¡Ð¡":2369,"ĠÐ¿ÐµÑĢÐµÐ¼ÐµÐ½":2370,"ĠÐºÑĤÐ¾":2371,"ÑĪÐµÐ½Ð¸Ð¹":2372,"ĠÐ²ÑĭÑģÐºÐ°":2373,"ÑģÑĤÐ²Ð¸Ðµ":2374,"ĠÐ¶Ð¸":2375,"Ð¸ÑĩÐµÑģÐºÐ¾Ð³Ð¾":2376,"Ð¼Ð¼Ð°":2377,"ÐºÐ¾Ð½":2378,"ÐµÐ¼Ð¾Ð¹":2379,"ĠÑģÐµÐ¼ÐµÐ¹":2380,"ĠÐºÐ°ÑĩÐµÑģÑĤÐ²Ð°":2381,"ĠÐ¿ÑĥÐ±Ð»Ð¸Ñĩ":2382,"ĠÐ¿ÑĢÐµÐ¸Ð¼":2383,"ĠÐ¼ÐµÑģÑĤÐ°":2384,"ĠÐ¿Ð¾ÑģÑĤÐ¾ÑıÐ½":2385,"ĠÑĢÐµÐ±ÐµÐ½ÐºÐ°":2386,"ÐĴÐ¾":2387,"ĠÐ¾Ð±Ñģ":2388,"ĠÑĢÐµÐ²Ð¾Ð»Ñİ":2389,"Ð¶Ð´ÐµÐ½Ð¸Ðµ":2390,"ÑĦÐ¸Ð¸":2391,"ĠÐ²ÐºÐ»Ñİ":2392,"ĠÑģÐ¸ÑģÑĤÐµÐ¼Ðµ":2393,"Ð½ÐµÐ½Ð¸Ñİ":2394,"Ð¾Ð»Ðµ":2395,"ĠÐ²ÐµÑģÑĮ":2396,"ĠÑĦÐ¾ÑĢÐ¼Ð¸ÑĢÐ¾Ð²Ð°Ð½Ð¸Ñı":2397,"ĠÐ¸Ð½Ð¸":2398,"ĠÐ¿ÑĢÐµÐ´Ðµ":2399,"ÑĤÐ°Ð½":2400,"Ð»ÑĮÐ½Ð¾ÑģÑĤÐ¸":2401,"Ð¸ÑĢÐ°":2402,"ĠÐ»Ð¸Ð½Ð³":2403,"ÑĪÐ¸Ðµ":2404,"ĠÐ¿Ð°Ð¼":2405,"ĠÑģÑĥÐ±ÑĬÐµÐºÑĤÐ°":2406,"ÑĤÐ¸Ð²Ð½Ð¾":2407,"ÐºÑĢÐ°":2408,"Ð½Ð¸ÑĨÑĭ":2409,"ĠÑĦÐ¸Ð·":2410,"ĠÑĢÐ¾ÑģÑĤ":2411,"ÑĢÐ¾Ð½":2412,"ĠÐ´Ð¾ÑģÑĤÑĥÐ¿":2413,"ĠÐľÐ¾ÑģÐº":2414,"ĠÐºÐ¾Ð»Ð¸ÑĩÐµÑģÑĤÐ²Ð¾":2415,"ĠÑģÐ°Ð¼Ð¸":2416,"ĠÑĩÐµÑĢ":2417,"Ð¾ÑĩÐ¸":2418,"ĠÐ¿Ð¾Ð·Ð¸ÑĨÐ¸Ð¸":2419,"ĠÑĨÐµÐ»ÑĮÑİ":2420,"Ð¾ÑĦ":2421,"ÐµÑĨ":2422,"ĠÐ¿ÑĢÐ¾Ð²Ð¾Ð´":2423,"ĠÑģÐ¾ÐºÑĢÐ°":2424,"Ð¾Ð»Ð°":2425,"Ð»ÐµÐ½Ð¾":2426,"Ð³Ðµ":2427,"ĠÑĤÐ¸Ð¿Ð°":2428,"ĠÐ½Ð°ÑĩÐ¸":2429,"Ð»ÐµÐ½Ð°":2430,"ÑıÑģÑĮ":2431,"ĠÐŀÑĤ":2432,"ĠÐ¾Ð±Ð¾ÑĢ":2433,"Ð»ÑĥÐ±":2434,"ĠÐ¾Ð±Ð½Ð°ÑĢÑĥ":2435,"Ð°Ð»ÑĮÐ½ÑĭÐµ":2436,"ĠÐ´Ð°Ð½Ð½Ð¾Ð¼":2437,"ĠÑģÐ»ÐµÐ´ÑĥÑİÑī":2438,"ĠÐŁÐµÑĢ":2439,"Ð·Ñı":2440,"ĠÐ¾Ð¿ÐµÑĢÐ°":2441,"ÑıÐ±":2442,"ĠÑĥÑģÑĤÐ°":2443,"ĠÐ¿Ð¾ÑģÐ²Ñı":2444,"ĠÑģÐ¾Ð·Ð½Ð°":2445,"Ð¾ÑģÐ¿":2446,"Ð½Ð°Ð´Ð»Ðµ":2447,"ĠÐ¾ÑĤÐ½Ð¾ÑģÐ¸ÑĤÐµÐ»ÑĮÐ½Ð¾":2448,"ÑģÑĤÐ²ÐµÐ½Ð½Ð¾Ðµ":2449,"ĠÐ³Ð¾ÑĢÐ¾Ð´Ð°":2450,"ÑĢÐ¸Ð¹":2451,"ĠÐ²Ð¾Ð·ÑĢÐ°ÑģÑĤÐ°":2452,"ĠÐ¾Ð±Ð¾Ñģ":2453,"Ð²Ð¾Ð·Ð¼Ð¾Ð¶":2454,"ÑĢÐ¾Ð²Ð°Ð½Ð¸Ð¸":2455,"ĠÑĥÑĩÐµÑĤ":2456,"Ð¼Ð¸Ð½Ð°":2457,"Ð³Ð¸Ð¼Ð¸":2458,"Ð°Ð»ÑĮÐ½Ð¾":2459,"ĠÐ¿Ð¸ÑģÑĮ":2460,"ĠÐ¿ÑĢÐµÐ´Ð¿ÑĢÐ¸Ð½Ð¸Ð¼Ð°":2461,"ÑĪÐº":2462,"ĠÑģÑĤÐ°Ð»Ð¸":2463,"Ð¾ÑĤÐ½Ð¾":2464,"ĠÑĥÑĩÐ°ÑģÑĤÐ½Ð¸ÐºÐ¾Ð²":2465,"Ð»ÑĮÐ½Ð¾Ðµ":2466,"ÑĥÐ´Ð¸":2467,"ĠÐºÐ¾Ð¼Ð¿Ð¾Ð½":2468,"ĠÐ¾Ð±ÑĥÑĩ":2469,"ĠÑĢÐ¸ÑģÐº":2470,"ÑĥÐ¼Ð°":2471,"ÑĤÐ¸ÐºÐ°":2472,"ÑģÐ¸Ð¸":2473,"ĠÐ±ÑĥÐ´ÑĥÑĤ":2474,"ĠÑģÑħ":2475,"ĠÐ±ÐµÐ·Ð¾Ð¿Ð°Ñģ":2476,"Ð½Ð¸ÐºÐ¾Ð¼":2477,"ĠÐ¿Ð¾ÑįÑĤÐ¾Ð¼Ñĥ":2478,"Ð±ÑĥÑĢ":2479,"ĠÐ½Ð°Ð»Ð¸ÑĩÐ¸Ðµ":2480,"ĠÐ´Ð¸ÑģÐºÑĥÑĢ":2481,"ÑĢÑĥÑİÑĤÑģÑı":2482,"ĠÐ²Ð½ÑĥÑĤÑĢÐ¸":2483,"ĠÐ½ÐµÐ³Ð¾":2484,"ĠÑĤÐ¸Ð¿":2485,"ĠÑĢÐµÐ»Ð¸Ð³Ð¸":2486,"ĠÐ»ÐµÐºÑģÐ¸":2487,"ÑĪÑĤÐ°":2488,"ĠÑĥÐ¿Ð¾ÑĤÑĢÐµÐ±":2489,"ÑĥÐ»ÑĮÑĤÑĥÑĢ":2490,"Ð¾ÐºÑĥÐ¿":2491,"ĠÐ¿ÑĢÐµÐ´ÑģÑĤÐ°Ð²Ð»ÑıÐµÑĤ":2492,"Ð¸Ð½Ð¸":2493,"ĠÐ·Ð°ÐºÐ»ÑİÑĩÐ°":2494,"ÑĥÐ¼":2495,"ĠÑįÐ¼Ð¾":2496,"Ð²ÐµÐ´ÐµÐ½Ð¸Ñı":2497,"ĠÑĦÑĥÐ½ÐºÑĨÐ¸Ð¾Ð½Ð¸":2498,"ĠÐ½Ð°Ð²Ñĭ":2499,"ĠÐĵÐµÑĢ":2500,"ĠÐ¿Ð¾Ð»Ð½Ð¾Ð¼":2501,"ĠÐ³Ð»Ð¾Ð±":2502,"ĠÐ¾ÑģÐ½Ð¾Ð²Ð½ÑĭÑħ":2503,"ÐºÑģÐ¸":2504,"ÑĨÐ¸ÑıÐ¼Ð¸":2505,"ÐºÐ°Ð·":2506,"ĠÐºÐ½Ð¸":2507,"ĠÐ½ÐµÐ³Ð°":2508,"Ð»ÑıÑħ":2509,"Ð²Ð¾Ð³Ð¾":2510,"ĠÐ¾Ð±ÑģÑĤÐ¾ÑıÑĤÐµÐ»ÑĮ":2511,"ÑģÑģÐ¸Ð²":2512,"ĠÐ¸Ð½ÑĤÐµÐ»":2513,"ĠÐ±Ð¾ÑĢÑĮ":2514,"ĠÐºÐ²Ð°Ð»Ð¸":2515,"ĠÐ¿Ð¾Ð»Ð¸ÑĤÐ¸ÑĩÐµÑģÐºÐ¸Ñħ":2516,"ĠÐ¿ÑĢÐ¾Ð³ÑĢÐ°Ð¼Ð¼":2517,"ĠÐ¿ÑĢÐ¾ÑĤÐ¸Ð²Ð¾ÑĢÐµÑĩÐ¸":2518,"ÑģÑĤÐ²ÐµÐ½Ð½ÑĭÐ¼":2519,"Ð½Ñİ":2520,"Ð¾Ð»Ð¾Ð³Ð¸ÑĩÐµÑģÐºÐ¾Ð¹":2521,"ĠÑģÐ¸Ð¼":2522,"ÑģÐºÐ¾Ð¼Ñĥ":2523,"ĠÑĥÐ´Ð¾Ð²":2524,"Ð±ÑĢÐ°":2525,"ĠÐµÐ¼Ñĥ":2526,"ĠÑĨÐµÐ»Ð¸":2527,"Ð»Ð¸Ð¹":2528,"ĠÑĢÐ°Ð²":2529,"ĠÑĤÐ¾Ð¹":2530,"ĠÐºÐ»ÑİÑĩÐµ":2531,"ĠÐ¸Ð½ÑĤÐµÑĢÐ¿ÑĢÐµ":2532,"ĠÐºÑĥ":2533,"ĠÐ½ÐµÐ¿Ð¾ÑģÑĢÐµÐ´":2534,"ĠÐ°ÐºÑĤÑĥÐ°Ð»ÑĮ":2535,"ĠÑĥÑģÐ»Ð¾Ð²Ð¸Ð¹":2536,"ĠÐ½Ð°Ðº":2537,"ÑĨÐ¸Ð¾Ð½Ð½Ð¾":2538,"ĠÐ¿ÑĢÐ¸Ð½Ð°Ð´Ð»Ðµ":2539,"ĠÐ¾ÑĤÐ´ÐµÐ»ÑĮÐ½ÑĭÑħ":2540,"ÑģÑĤÐ¾Ð¸ÑĤ":2541,"ÑİÑīÐµÐµ":2542,"ĠÐ´Ð¾Ð»Ð¶Ð½Ð°":2543,"ÐµÐ½Ð¾Ð¼":2544,"ĠÑıÐ·ÑĭÐºÐµ":2545,"ĠÐ¿ÑĢÐ°Ð²Ð¾Ð²Ð¾Ð¹":2546,"ĠÐ¡Ð¡Ð¡Ðł":2547,"ĠÐ·Ð°ÐºÐ¾Ð½Ð°":2548,"ĠÐ²ÐµÑĢÐ¾ÑıÑĤ":2549,"ĠÐ¾ÑĢÐ³Ð°Ð½Ð¸Ð·Ð°ÑĨÐ¸Ð¹":2550,"ĠÐ¾ÑģÐ¾Ð±ÐµÐ½Ð½Ð¾":2551,"ĠÑĢÐµÑĪÐµÐ½Ð¸Ð¹":2552,"ÑĢÐµÑĤÐ°":2553,"ĠÐ¼Ð¾Ð»Ð¾Ð´":2554,"ĠÐ¿ÐµÐ½ÑģÐ¸":2555,"Ð°Ð½Ð´":2556,"ĠÐ¿Ð¾Ð²ÐµÐ´":2557,"ĠÐ¿Ð»Ð¾":2558,"ĠÐ´ÑĢ":2559,"ĠÐ½Ð°ÑĥÐºÐ¸":2560,"Ð»ÑıÐµÑĤÑģÑı":2561,"ĠÑģÐ¿Ð¾ÑģÐ¾Ð±ÑģÑĤÐ²":2562,"ĠÐ¾Ð±ÑĢÐ°Ð·Ð¾Ð²Ð°ÑĤÐµÐ»ÑĮÐ½ÑĭÑħ":2563,"ĠÐ¿ÐµÑĢÑģÐ¿ÐµÐºÑĤÐ¸Ð²":2564,"ĠÐ¾ÑĤÑĢÐ¸":2565,"ĠÐ¼Ð½Ð¾Ð³Ð¸Ñħ":2566,"Ð»Ð¸Ð·Ð°ÑĨÐ¸Ð¸":2567,"ĠÐ½Ð°Ð»Ð¸ÑĩÐ¸":2568,"ĠÐ¾Ð´Ð½Ð¸Ð¼":2569,"ĠÐ¾ÑģÐ¾Ð±ÐµÐ½Ð½Ð¾ÑģÑĤÐ¸":2570,"ĠÑģÐµÐ³Ð¾Ð´Ð½Ñı":2571,"ĠÑĩÐ¸":2572,"ÑģÐ¾Ð¼":2573,"ĠÐ·Ð°Ð¿":2574,"ĠÐ¿ÑĢÐ°ÐºÑĤÐ¸ÑĩÐµÑģÐºÐ¸":2575,"Ð¶Ð¸Ð¼":2576,"ĠÐ¼ÐµÐ´Ð¸ÑĨÐ¸":2577,"Ð¾Ð²Ð°Ð½Ð¸Ð¹":2578,"ÑĤÐµÐ»ÑĮÐ½Ð°Ñı":2579,"ĠÐ½Ð¾ÑĢÐ¼Ñĭ":2580,"ĠÐ½Ð¾Ð²ÑĭÐµ":2581,"ĠÐ´Ð¾Ð¿Ñĥ":2582,"ĠÐ¿Ð¾Ð¼Ð¾ÑīÑĮÑİ":2583,"âĢĶ":2584,"ÑĤÐ½Ð¾":2585,"ĠÑįÐºÐ¾Ð½Ð¾Ð¼Ð¸ÑĩÐµÑģÐºÐ¾Ð¹":2586,"Ð½Ð¾Ð²ÑĢÐµÐ¼ÐµÐ½":2587,"ĠÑĤÐ¾Ð¼Ñĥ":2588,"Ð»Ð¸Ð½":2589,"ÑģÐµÐ¼":2590,"Ð¶Ð´ÐµÐ½Ð¸Ð¹":2591,"Ð¾Ð¿ÑĢÐµÐ´Ðµ":2592,"ĠÐ´Ð¾Ðº":2593,"ÑĤÐ¾Ð¹":2594,"ĠÐºÐ¾Ð¼Ð¿ÐµÑĤÐµÐ½":2595,"Ð½Ð°Ð¼":2596,"ÑģÐ¿Ð¾ÑĢ":2597,"ĠÑģÐ¸Ð½":2598,"ĠÐ·Ð°Ð´Ð°ÑĩÐ¸":2599,"ĠÐ¾Ð±ÑĢÐ°Ð·Ð¾Ð²Ð°Ð½Ð¸Ðµ":2600,"ĠÐ´Ð¾Ð»Ð¶Ð½Ð¾":2601,"ĠÐ¿ÑĢÐ¾Ð¸ÑģÑħÐ¾Ð´Ð¸ÑĤ":2602,"ÑĢÐ¾Ð·":2603,"ĠÑĥÐ´Ð°":2604,"Ð»Ð°Ð²":2605,"Ð¸Ð¼Ð¾ÑģÑĤÐ¸":2606,"ÑģÐ½Ð¾Ð²":2607,"Ð·Ð¸Ð´ÐµÐ½":2608,"ĠÐ²ÑĭÐ·":2609,"ĠÑĢÐ°Ð¹":2610,"ÑĢÐµÑĤÑĮ":2611,"ĠÑģÐ¿ÑĢÐ°Ð²":2612,"Ð¿ÐµÐ½":2613,"ĠÑĥÐ¼":2614,"Ð¸ÑĩÐµÑģÐºÐ¾Ð¹":2615,"ĠÑĢÐ¾ÑģÑģÐ¸Ð¹ÑģÐºÐ¸Ñħ":2616,"ÑİÐ·":2617,"ĠÑĨÐµÐ»Ðµ":2618,"ĠÐºÐ¾ÑĤÐ¾ÑĢÐ¾Ð¼":2619,"ÑĤÐµÐ½":2620,"ĠÐ½Ð°ÑĢ":2621,"ĠÐºÐ¾Ð½Ñģ":2622,"ĠÑĢÐ¾Ð´Ð°":2623,"ĠÐ»Ð¸ÑĩÐ½Ð¾ÑģÑĤÐ¸":2624,"ÐµÑĢÐ¾Ð²":2625,"ÑĩÐ°ÑģÑĤ":2626,"ĠÑĥÑģÐ»ÑĥÐ³":2627,"ĠÐ¿Ð¾Ð»Ð¾Ð¶ÐµÐ½Ð¸Ñı":2628,"ĠÑĢÐ¾ÑģÑĤÐ°":2629,"ÑĤÐµÐ»ÑĮÐ½Ð¾ÑģÑĤÐ¸":2630,"ĠÑģÑĢÐµÐ´Ñĭ":2631,"ĠÐºÑĢÐ°Ð¹":2632,"ĠÐ¸Ð¼Ñĥ":2633,"ÑĤÐ¸Ð²Ð¸":2634,"ÑİÑīÐ¸Ð¼Ð¸":2635,"Ð¾Ð»Ð¾":2636,"ĠÐ¼Ð¾Ð½":2637,"ĠÑģÐ»ÑĥÑĩÐ°ÑıÑħ":2638,"ĠÐ¿ÑĢÐ¾ÑĪ":2639,"ĠÐ¾ÑĢÐ³Ð°Ð½Ð¸Ð·":2640,"ĠÐ¾ÑĤÐ½Ð¾ÑģÑı":2641,"Ð²Ð»ÐµÐ½Ð¸Ð¹":2642,"Ð¿ÐµÑĢÐ²ÑĭÑħ":2643,"ĠÐ²ÑĥÐ·Ð¾Ð²":2644,"ÑīÐ¸Ð¹":2645,"ĠÑįÐºÑģÐ¿Ðµ":2646,"ĠÐ½ÐµÐ±":2647,"ĠÐ¸Ð³ÑĢÐ°":2648,"ĠÐ¼Ð»":2649,"ĠÐ¾ÑĤÐ²ÐµÑĤÑģÑĤÐ²ÐµÐ½Ð½Ð¾ÑģÑĤÐ¸":2650,"ĠÑĢÐµÑģÑĥÑĢÑģÐ¾Ð²":2651,"ĠÐ½ÐµÐ·Ð°Ð²Ð¸ÑģÐ¸":2652,"Ð¾Ð»Ð¾Ð³Ð¸Ð¹":2653,"Ð¾Ð»ÐµÑĤ":2654,"Ð¾Ð²Ð¸":2655,"ĠÐ´Ð¸Ñģ":2656,"ĠÐ¼Ð¾":2657,"ĠÐ·Ð°Ð²Ð¸ÑģÐ¸Ð¼Ð¾ÑģÑĤÐ¸":2658,"Ð»Ð¸Ð±Ð¾":2659,"ĠâĢĶ":2660,"ĠÐ¡Ðµ":2661,"ĠÐ³ÑĢÑĥÐ¿Ð¿Ð°":2662,"ĠÐĿÐ¸":2663,"ĠÐ·Ð´Ð¾ÑĢÐ¾Ð²":2664,"ĠÐ¶ÐµÐ»Ð°":2665,"ÑĪÐ¸ÑĢ":2666,"ĠÑģÑĥÐ±ÑĬÐµÐºÑĤÐ¾Ð²":2667,"ĠÐ¼Ð°ÑĢ":2668,"ĠÐ¾Ð³":2669,"ÑģÐµÐ´":2670,"ĠÐķÐ²ÑĢÐ¾Ð¿":2671,"ĠÑĢÐ¾Ð»Ð¸":2672,"**":2673,"ÑĮÐµÐ·":2674,"ĠÐ¿ÑĢÐ°ÐºÑĤÐ¸ÐºÐ¸":2675,"ÐºÐ¾Ð³Ð¾":2676,"ĠÐ¸Ð½ÑĤÐµÑĢÐµÑģÐ¾Ð²":2677,"ÑĢÐ¾ÑģÑĤ":2678,"ĠÐ¾Ð±ÐµÑģÐ¿ÐµÑĩÐµÐ½Ð¸Ñı":2679,"ĠÐ´ÐµÐ¼Ð¾ÐºÑĢÐ°":2680,"ĠÐ²ÑĤÐ¾ÑĢÐ¾Ð¹":2681,"ĠÑĤÑĢÐµÐ±Ð¾Ð²Ð°Ð½Ð¸Ñı":2682,"Ð´ÐµÐ½Ð¸Ñı":2683,"Ð¾Ð²Ð¾Ð³Ð¾":2684,"ĠÐºÐ»Ð¸":2685,"ĠÑĢÐ°Ð·Ð½Ð¾":2686,"ĠÐ¿Ð¾Ð¼Ð¾ÑīÐ¸":2687,"ĠÐķÑģÐ»Ð¸":2688,"ĠÐ¼Ð¾ÑĤÐ¸Ð²Ð°":2689,"ĠÐ²Ð·Ð³Ð»ÑıÐ´":2690,"ĠÐ½ÐµÐ²Ð¾Ð·Ð¼Ð¾Ð¶":2691,"ÑģÑĤÐ²ÐµÐ½Ð½Ð¾ÑģÑĤÑĮ":2692,"ĠÑįÑĦÑĦÐµÐºÑĤÐ¸Ð²Ð½Ð¾ÑģÑĤÐ¸":2693,"ĠÐ½ÐµÐºÐ¾ÑĤÐ¾ÑĢÑĭÐµ":2694,"Ð»Ð¾Ð³Ð¾":2695,"ĠÐ²Ð¾Ð·ÑĢÐ°ÑģÑĤ":2696,"Ð¿Ð¾ÑĢÐ°":2697,"ĠÐ¿Ð¾ÑģÐ²ÑıÑīÐµÐ½":2698,"ĠÑĢÐ°Ð·ÑĢÐµ":2699,"ÑģÑĤÐ¾ÑĢ":2700,"Ð¾Ð½ÑģÑĤÑĢÐ¸":2701,"ĠÑĤÑĢÐµÑħ":2702,"ĠÐ¿ÑĢÐ¾Ð¼ÑĭÑĪ":2703,"ĠÑĤÐ°ÐºÐ¸Ð¼":2704,"ĠÑģÐ¾ÑģÑĤÐ°Ð²":2705,"ÑĢÐ¾Ð²Ð°Ð½Ñĭ":2706,"ĠÐ±Ð¸":2707,"ĠÑĢÑĭÐ½ÐºÐ°":2708,"ĠÑĦÐ¸Ð»Ð¾Ñģ":2709,"ĠÐ²ÑĥÐ·Ð°":2710,"ĠÑģÐ¾Ð·Ð´Ð°Ð½Ð¸Ñı":2711,"Ð²Ð¸ÑģÑĤÐ¸":2712,"ÑĥÑīÐµ":2713,"ÑĢÑħ":2714,"ĠÐ¿ÑĢÐ¸ÑħÐ¾Ð´":2715,"ĠÐ¾ÑĤÐµÑĩÐµ":2716,"ĠÑĤÐµÐ¾ÑĢÐ¸":2717,"ĠÑħÐ¾ÑĢ":2718,"ĠÑģÑĤÑĢÑĥÐºÑĤÑĥÑĢÑĭ":2719,"Ð¾Ð»Ðº":2720,"ĠÐºÐ°Ð¿Ð¸ÑĤÐ°Ð»Ð°":2721,"ĠÐ¾ÑĤÑĢÐ¸ÑĨÐ°":2722,"ĠÑĢÐµÑģÐ¿Ð¾Ð½Ð´ÐµÐ½":2723,"ĠÐ¿ÑĢÐ¾ÑıÐ²Ð»Ñı":2724,"ĠÐ¸Ð½ÑĭÑħ":2725,"ĠÑĤÑĥ":2726,"ĠÐ¿ÑĢÐ¾ÑĨÐµÐ´Ñĥ":2727,"ĠÑĤÑĭÑģ":2728,"ĠÑģÑĤÑĢÐ°Ð½Ðµ":2729,"Ð½Ð¾ÑģÑĤÑıÐ¼Ð¸":2730,"ĠÐ´ÐµÑģÑı":2731,"ÑĩÐ¸Ñħ":2732,"ĠÐ¿ÑĢÐµÐ´Ð¿":2733,"ĠÐµÐ²ÑĢÐ¾Ð¿ÐµÐ¹":2734,"Ð»ÐµÐ½Ð½Ð¾ÑģÑĤÑĮ":2735,"Ð¾Ð»Ð¾Ð³Ð¸ÑĩÐµÑģÐºÐ¾Ð³Ð¾":2736,"ĠÐµÑģÑĤÐµ":2737,"ÑĤÐµÑĤ":2738,"ĠÑģÐ¾Ð³Ð»Ð°Ñģ":2739,"Ð´Ð²Ð¸":2740,"Ð³ÑĢÐ°Ð½":2741,"ĠÐļÐ¸ÑĤÐ°":2742,"ĠÑĥÐºÐ°Ð·Ð°":2743,"ĠÐ¾Ð±ÑĥÑĩÐ°":2744,"ĠÑģÐ¿Ð¾ÑĢ":2745,"ĠÐ¸Ð´ÐµÑĤ":2746,"ĠÐ½Ð°Ð´Ðµ":2747,"ĠÑĢÑĥÐ±":2748,"ĠÑıÐ·ÑĭÐº":2749,"ÑĥÑİÑīÐµÐ³Ð¾":2750,"ĠÐĺÐ·":2751,"Ð¾ÑģÑĤÑĮ":2752,"ĠÑĦÐ°ÐºÑĤ":2753,"ĠÑģÐ´ÐµÐ»Ð°ÑĤÑĮ":2754,"ÑĤÐ¸Ð½":2755,"ĠÐ¿ÑĢÐ¾Ð³ÑĢÐ°Ð¼Ð¼Ñĭ":2756,"Ð¿Ð¾ÑĢ":2757,"Ð¿Ð¾ÑĤÐµ":2758,"ĠÑĥÐ²ÐµÐ»Ð¸Ñĩ":2759,"Ð·Ð¸Ð¸":2760,"ĠÑĦÐ¾ÑĢÐ¼Ðµ":2761,"ĠÑįÐ¼":2762,"ĠÐ°Ð½Ð°Ð»":2763,"ĠÑģÐ¾Ð¾ÑĤÐ½Ð¾":2764,"ÐµÐ½Ð½Ð¾Ð¹":2765,"Ð³ÑĢÐ°ÑĨÐ¸Ð¸":2766,"ÑĤÐ¸ÑĤÑĮ":2767,"ĠÐ¿Ð¾ÐºÐ°":2768,"ĠÐ°Ð²ÑĤÐ¾ÑĢ":2769,"Ð²ÑĤÐ¾ÑĢÑĭÑħ":2770,"ĠÐ¿ÐµÑĢÐ²ÑĥÑİ":2771,"ÑĢÑĥÐ±ÐµÐ¶":2772,"ĠÐ¼Ð½Ð¾Ð¶Ðµ":2773,"ĠÐ¸ÑģÑģÐ»ÐµÐ´Ð¾Ð²Ð°ÑĤÐµÐ»ÑĮ":2774,"Ð½ÑıÑı":2775,"ĠÐ¡Ð¾Ð²ÐµÑĤ":2776,"ÑĤÐ¾ÑĢÐ°Ð¼Ð¸":2777,"ĠÐ¿ÑĢÐ¾Ð²ÐµÐ´ÐµÐ½":2778,"Ð¿Ð»Ð°":2779,"ĠÐ³Ð¾ÑģÑĥÐ´Ð°ÑĢÑģÑĤÐ²ÐµÐ½Ð½ÑĭÑħ":2780,"ĠÐ¸Ð½Ð¸ÑĨÐ¸Ð°":2781,"Ð¦":2782,"Ð½ÑģÑĤÐ¸":2783,"Ð´Ð¸Ð¸":2784,"ĠÑģÑĤÑĢÐµÐ¼":2785,"ĠÐ¶Ð¸Ð²":2786,"ĠÐ·Ð°ÐºÑĢÐµÐ¿":2787,"ĠÑģÑĤÑĢÐµ":2788,"ĠÐ»Ð°":2789,"ĠÐ²ÑĭÐ¿ÑĥÑģÐº":2790,"ĠÑĢÐ°Ð·Ð¼Ðµ":2791,"ĠÐ¿Ð¾ÑģÑĤ":2792,"Ð¾Ð²Ð°ÑĤÐµÐ»ÑĮÐ½Ð¾":2793,"ĠÐ·Ð°ÑĢÐ°Ð±Ð¾ÑĤ":2794,"Ð·Ð¼":2795,"ĠÐ¾ÑĤÑĢÐ°Ñģ":2796,"ÑĤÐµÐ»ÑĮÐ½ÑĥÑİ":2797,"Ð»Ð¸Ð²Ð¾":2798,"ĠÐ¿ÑĢÐ¸Ð·":2799,"ĠÑĨÐµÑĢ":2800,"ĠÐ°Ð½ÑĤÐ¸":2801,"ĠÐ¿ÑĢÐµÐ´ÑģÑĤÐ°Ð²Ð»ÐµÐ½Ð¸Ñı":2802,"ĠÑĢÐµÐ»Ð¸Ð³Ð¸Ð¾Ð·":2803,"ĠÐ¿Ð¾ÑĤÐµÐ½ÑĨÐ¸":2804,"ĠÑĢÐ°ÑģÑħÐ¾Ð´":2805,"ĠÐ·Ð°Ð¼ÐµÑĤ":2806,"ÐŀÑĤ":2807,"ĠÐ¿Ð¾Ð¿ÑĭÑĤ":2808,"ĠÐ·Ð½Ð°ÑĩÐ¸Ð¼":2809,"ĠÑĥÐ´Ð¾Ð²Ð»ÐµÑĤ":2810,"ĠÐ·Ð°ÐºÐ¾Ð½Ð¾Ð¼":2811,"ĠÐ¿Ð¾ÐºÐ°Ð·Ð°ÑĤÐµÐ»ÐµÐ¹":2812,"ÑĮÐ¼Ð¸":2813,"ĠÐ¿ÑĢÐ¾ÑģÑĤÐ¾":2814,"Ð°Ð»Ð¸Ð·Ð°ÑĨÐ¸Ð¸":2815,"ĠÐ²Ð»Ð¸ÑıÐ½Ð¸Ñı":2816,"ĠÑĩÐ°ÑīÐµ":2817,"ĠÐ¾Ð±ÑĬÐµÐºÑĤÐ¸Ð²":2818,"ĠÐ¶ÐµÐ½Ñī":2819,"ÑĢÐµÐµ":2820,"ĠÐ²ÑģÐµÐ¹":2821,"Ð¶Ð´ÐµÐ½":2822,"Ð¿Ð¾Ð»Ð¸":2823,"ĠÐ³Ð¾ÑģÑĥÐ´Ð°ÑĢÑģÑĤÐ²ÐµÐ½Ð½Ð¾Ð³Ð¾":2824,"ÑĤÐµÑħ":2825,"ĠÐ´ÑĢÑĥÐ³Ð¸Ð¼Ð¸":2826,"Ð»Ð¾Ðº":2827,"ÑĢÐµÐ¹":2828,"ÑģÑĤÐ²ÐµÐ½Ð½ÑĭÐ¹":2829,"ÑĢÐ¾ÑĤÐ¸Ð²":2830,"ĠÐ¾ÑĩÐµÐ²Ð¸Ð´":2831,"ĠÑĥÑĩÐ°ÑģÑĤÐ¸Ðµ":2832,"ĠÐ½ÑĥÐ¶":2833,"ĠÐ¿ÐµÑĢÑģ":2834,"Ð·Ð°ÑĨÐ¸Ñİ":2835,"ĠÑĦÐ¸Ð½Ð°Ð½ÑģÐ¸":2836,"ĠÐ½ÐµÐºÐ¾ÑĤÐ¾ÑĢÑĭÑħ":2837,"ĠÑģÐºÐ°Ð·Ð°":2838,"Ð½Ð¾Ð²Ð°Ð½Ð¸Ñı":2839,"ĠÐ¿Ð¾Ð´ÑħÐ¾Ð´Ð°":2840,"Ð¼ÐµÐ½ÑĤÑĭ":2841,"ĠÐ°Ð¼ÐµÑĢÐ¸ÐºÐ°Ð½":2842,"Ð²Ð¾Ðµ":2843,"ĠÐ¼Ð¾Ð¼ÐµÐ½ÑĤ":2844,"ĠÐ²Ð¿":2845,"ĠÐ¿ÐµÐ´Ð°Ð³Ð¾Ð³Ð¸ÑĩÐµÑģÐº":2846,"ĠÑģÑĥÐ´Ð°":2847,"Ð½Ð¸ÑĨÐ°":2848,"ÐºÐ¸Ðµ":2849,"ÑģÐµÐ´Ð°":2850,"ĠÐ·Ð°ÑĤÑĢÐ°":2851,"ĠÐ½Ð°ÑĩÐ°Ð»Ð°":2852,"ÑĤÐ¾ÑĤ":2853,"ĠÐ¸Ð½ÑĤÐµÐ»Ð»ÐµÐº":2854,"ÑģÐ»ÐµÐ´":2855,"ĠÐ·Ð½Ð°Ð½Ð¸Ð¹":2856,"ĠÐ½Ð°Ð·ÑĭÐ²Ð°":2857,"ÑıÐ²Ð»ÐµÐ½Ð¸Ñı":2858,"Ð½Ð¸Ð·Ð°ÑĨÐ¸Ð¸":2859,"ĠÐ´Ð¾Ð³Ð¾Ð²Ð¾ÑĢ":2860,"ĠÑĤÐµÑĢÐ¼Ð¸":2861,"ĠÐ½Ð°Ð»Ð¾Ð³Ð¾Ð²":2862,"ÑīÐ¸Ð¼":2863,"Ð»ÐµÐµ":2864,"ÑĢÐ°Ñħ":2865,"ĠÑģÐ¾Ð±ÑģÑĤÐ²ÐµÐ½Ð½Ð¾ÑģÑĤÐ¸":2866,"ĠÑĩÐ¸ÑģÐ»Ð°":2867,"ĠÐ¾Ð±ÑīÐµÐ³Ð¾":2868,"ĠÐ¿ÑĢÐ¸ÐµÐ¼":2869,"ĠÐ²Ð¸Ð´Ð°":2870,"ĠÐ¾Ð·Ð½Ð°ÑĩÐ°":2871,"Ð°Ð½Ðº":2872,"Ð»Ð°Ð´Ð°":2873,"ĠÑĢÐµÑĩÑĮ":2874,"ĠÑģÑĤÐ°ÑĤÑĮÐ¸":2875,"ĠÐ¸Ð¼ÐµÐ½":2876,"ĠÐ¸Ð¼Ð¸":2877,"Ð¸ÑĤÐµÐ»ÑĮÐ½Ð¾":2878,"ĠÐ¼ÑĥÐ¶":2879,"ĠÑģÑĤÐ°ÑĤÑĮÐµ":2880,"ĠÑĩÐ¸ÑģÐ»Ð¾":2881,"ĠÑĢÐ°Ð±Ð¾ÑĤÐ½Ð¸ÐºÐ¾Ð²":2882,"ĠÐ°Ð½Ð³":2883,"ĠÐ¿Ð¾ÑĩÑĤÐ¸":2884,"ÑıÐµÑĤÑģÑı":2885,"ĠÑĢÐ°ÑģÑģÐ¼Ð°ÑĤÑĢÐ¸Ð²Ð°ÐµÐ¼":2886,"ÐµÐºÑĤÐ¾Ð¼":2887,"ĠÑĢÐ°Ð±Ð¾ÑĤÑĥ":2888,"ĠÐ²ÑĭÐ±Ð¾ÑĢÐ°":2889,"ĠÐ¿ÑĢÐ¾Ð´Ð¾Ð»Ð¶Ð°":2890,"ĠÐ²ÐµÑģÑĮÐ¼Ð°":2891,"ĠÐ¿ÑĢÐ¾Ð¿":2892,"ĠÐ¼Ð°Ñģ":2893,"ĠÑģÐµÑĢÑĮÐµÐ·":2894,"ÐŀÐ±":2895,"ĠÐĵÐµÑĢÐ¼Ð°":2896,"ĠÐ´Ð²Ðµ":2897,"ĠÐ¾Ð´Ð½Ð¾":2898,"ĠÐ½Ð°Ð¿ÑĢÐ°Ð²Ð»ÐµÐ½Ð¸Ñı":2899,"ÑĤÑĥÑĢÑĥ":2900,"ĠÐ¿Ð¾Ð±":2901,"Ð¿Ð¾Ð»Ð½Ðµ":2902,"ĠÐ²ÑĭÐ´ÐµÐ»Ñı":2903,"ĠÐ½Ð°Ð¼":2904,"ĠÑĢÐµÐ°Ð»Ð¸Ð·":2905,"ĠÐ¿Ð¾ÑģÑĢÐµÐ´":2906,"ĠÐ²Ð¾Ð¿ÑĢÐ¾ÑģÐ¾Ð²":2907,"Ð½Ð°Ð²Ð»Ð¸":2908,"ÑģÑģÐ¸Ð¸":2909,"Ð²Ð¾Ð´Ð°":2910,"ĠÐĶÐ¶":2911,"Ð°Ð¹":2912,"ĠÐ¿ÑĢÑıÐ¼":2913,"ĠÑģÐ¾Ð²Ð¼ÐµÑģÑĤ":2914,"Ð¾Ð²ÑĭÐµ":2915,"ÑĩÐµÐ½Ñĭ":2916,"ÑıÑĤÐ¸":2917,"ĠÑĦÑĥÐ½ÐºÑĨÐ¸Ð¸":2918,"ĠÐ¿ÑĢÐ¸Ð²Ðµ":2919,"ĠÑģÑĥÑī":2920,"ĠÐ¿ÑĢÐµÐ´Ð¿Ð¾Ð»Ð°Ð³Ð°ÐµÑĤ":2921,"ĠÑĢÐµÐ³ÑĥÐ»Ð¸ÑĢÐ¾Ð²Ð°Ð½Ð¸Ñı":2922,"Ð¾Ð´Ñĥ":2923,"ĠÐ²Ð¾Ð»":2924,"ĠÐ¸ÑģÑħÐ¾Ð´":2925,"ĠÐĴÑģÐµ":2926,"ĠÐ¿Ð°ÑĢÑĤ":2927,"ĠÑĦÐµÐ½Ð¾Ð¼":2928,"ĠÑģÐ¸ÑĤÑĥÐ°ÑĨÐ¸Ñı":2929,"ĠÐ½Ð°ÑĩÐ°Ð»Ðµ":2930,"ĠÑģÐµÐ¼ÑĮÐ¸":2931,"ÑģÑģÐ°":2932,"ÑĥÐ±ÐµÑĢ":2933,"ĠÑģÑĤÑĢ":2934,"ĠÐ½ÐµÐ¸Ð·":2935,"ĠÐ²Ð¾ÑģÐ¿Ð¸ÑĤÐ°":2936,"ĠÐ¿ÑĢÐ¸ÑģÑĥÑĤÑģÑĤÐ²":2937,"ĠÐ¾Ð±ÑĬÑıÑģÐ½Ñı":2938,"ĠÐĶÐ°":2939,"ÑĩÐµÑģÐºÐ°Ñı":2940,"ĠÑģÐ¼Ðµ":2941,"ĠÑģÑĦÐ¾ÑĢÐ¼Ð¸":2942,"ĠÐ·Ð°ÑĢÑĥÐ±ÐµÐ¶":2943,"ĠÐ´Ð¾ÑģÑĤÐ¸Ð¶ÐµÐ½Ð¸Ñı":2944,"ÐµÐ½Ð½Ð¾Ð³Ð¾":2945,"ĠÑĥÐ´Ðµ":2946,"ĠÐ¿ÑĢÐ°Ð²Ð¸Ð»Ð°":2947,"ĠÑĩÑĥÐ²":2948,"Ð´Ð°Ð¿":2949,"ÑīÐ°Ñı":2950,"ĠÑģÐ¸ÑģÑĤÐµÐ¼Ñĥ":2951,"ĠÐ²Ð¾Ð·Ð¼Ð¾Ð¶Ð½Ð¾":2952,"ÐµÑĢÐ¸":2953,"ĠÐ¾ÑĤÐ½Ð¾ÑĪÐµÐ½Ð¸Ðµ":2954,"ÑĤÐ¸Ð²Ð½ÑĭÐ¹":2955,"ĠÐ¾Ð±ÑĬÐµÐºÑĤÐ°":2956,"ĠÐ¿ÑĢÐµÐ´Ð¿Ð¾Ð»Ð¾Ð¶":2957,"ĠÑĢÐ°ÑģÐº":2958,"ĠÐ³Ð¾ÑģÑĥÐ´Ð°ÑĢÑģÑĤÐ²":2959,"ĠÐ½Ð°ÑģÑĤÐ¾ÑıÑīÐµÐµ":2960,"ĠÐ»ÑĥÑĩ":2961,"ĠÐ¸ÑģÐºÐ»ÑİÑĩÐ¸":2962,"ĠÑįÐºÑģÐ¿ÐµÑĢÐ¸":2963,"ĠÑĥÑĩÐµÑĤÐ¾Ð¼":2964,"ĠÐ½ÐµÑĥ":2965,"Ð»ÑıÑĨÐ¸Ð¸":2966,"ĠÐ¾Ð±ÑīÐµÐ¹":2967,"Ð¾ÑģÐ²Ñı":2968,"Ð¾Ð»ÑĮÐ½Ð¾":2969,"ĠÐ¸Ð´ÐµÐ½ÑĤÐ¸Ñĩ":2970,"ĠÐ½Ð°Ð·Ð½Ð°":2971,"ĠÑĤÐ¾Ð³Ð´Ð°":2972,"%.":2973,"Ð½Ð³Ð¾":2974,"ĠÐ²ÑĭÑħÐ¾Ð´":2975,"ĠÑģÐ¾ÑģÑĤÐ¾Ð¸ÑĤ":2976,"ĠÐ¸Ð·ÑĥÑĩÐµÐ½Ð¸Ñı":2977,"ĠÑģÑĤÑĢÐ°ÑĤÐµÐ³":2978,"ĠÐºÐ¾Ð½ÑĤÑĢÐ¾Ð»Ñı":2979,"ÑģÐ¸Ñı":2980,"ĠÐ¿ÑĢÐ°ÐºÑĤÐ¸ÐºÐµ":2981,"ĠÐ³ÑĢÐ°Ð¶Ð´Ð°":2982,"ĠÑĤÐµÑħÐ½Ð¸":2983,"Ð¿Ð¸ÑĢÐ¸":2984,"ÑīÐµÐ¼":2985,"ĠÑģÑĤÐ°ÑĤÑĥÑģ":2986,"ĠÑģÐ¾Ð²ÑĢÐµÐ¼ÐµÐ½Ð½Ð¾Ð¹":2987,"ĠÐ¸ÑģÐ¿Ð¾Ð»ÑĮÐ·Ð¾Ð²Ð°Ð½Ð¸Ðµ":2988,"ĠÑĢÐ°Ð½":2989,"Ð·Ð¸ÑĢÑĥ":2990,"ĠÐ¿ÑĢÐµÐ´ÑģÑĤÐ°Ð²Ð»ÑıÐµÑĤÑģÑı":2991,"ĠÑĨÐµÐ»ÐµÐ¹":2992,"ÑĢÐ¾ÑģÐ°":2993,"ÑĤÐµÐ»ÑıÐ¼":2994,"ĠÐ´Ð¾Ð»Ñı":2995,"ĠÐ¿Ð°ÑĢÐ°Ð¼ÐµÑĤ":2996,"ÑĢÐ°Ð½Ð¸":2997,"ĠÐ°Ð»":2998,"Ġ.":2999,"ĠÐ¸Ð·ÑĥÑĩÐ°":3000,"ĠÐ¾ÑĦÐ¸ÑĨÐ¸Ð°Ð»ÑĮ":3001,"ÑĪÐµÐ½Ð¸Ð¸":3002,"ĠÐļÑĢÐ¾Ð¼Ðµ":3003,"ĠÐ²ÐµÐ´Ñĥ":3004,"ÑĩÑĤ":3005,"ĠÐ³Ð¾Ð²Ð¾ÑĢÐ¸ÑĤÑĮ":3006,"ĠÐ´ÐµÐ½ÐµÐ¶":3007,"Ð»ÑĮÐ·Ñı":3008,"ĠÐ·Ð°Ð¿Ð°Ð´":3009,"ĠÑĤÑĢÐµÑĤÑĮ":3010,"ĠÑģÐ²ÑıÐ·ÑĮ":3011,"ĠÐ½Ð¸Ð¼":3012,"ĠÑģÑĤÐ°Ð±Ð¸":3013,"ĠÐ°ÑģÑģ":3014,"Ð½Ð°ÑĩÐ°":3015,"ĠÐ²Ð¾Ð²Ð»Ðµ":3016,"ĠÑĢÐ¾Ð´Ð¸ÑĤÐµÐ»ÐµÐ¹":3017,"ĠÑģÑĤÐ°ÑĤÐ¸ÑģÑĤÐ¸":3018,"ÑĨÐ¸Ð¾Ð½Ð½ÑĭÐ¹":3019,"ĠÑĤÐ°Ð¼":3020,"ĠÐ¼Ð½Ð¾Ð³Ð¸Ðµ":3021,"ĠÑĥÑĩÐµÐ½Ð¸":3022,"ÑĢÐ°Ð·Ñĥ":3023,"ĠÑģÐ¾Ð²Ð¾ÐºÑĥÐ¿":3024,"ÑİÑīÐ¸ÐµÑģÑı":3025,"ĠÐ¿Ð¾Ð»Ð½Ð¾Ð¼Ð¾ÑĩÐ¸":3026,"ĠÐ¾ÑĤÐ»Ð¸ÑĩÐ¸Ðµ":3027,"ĠÑģÐ»ÑĥÐ¶":3028,"ĠÑĤÐµÑħÐ½Ð¾Ð»Ð¾Ð³Ð¸Ð¹":3029,"ĠÑģÑĤÐ°Ð»Ð¾":3030,"ĠÑĢÐ°ÑģÐ¿Ð¾Ð»":3031,"ÐµÑģÑĤ":3032,"ĠÐºÐ¾Ð½Ðµ":3033,"ĠÐŁÐ¾Ð´":3034,"ĠÑĥÑĩÐ¸ÑĤÐµÐ»ÐµÐ¹":3035,"ĠÑįÐºÐ¾Ð½Ð¾Ð¼Ð¸ÑĩÐµÑģÐºÐ¾Ð³Ð¾":3036,"Ð½Ð¾Ð²ÑĢÐµÐ¼ÐµÐ½Ð½Ð¾":3037,"ĠÐ¿Ð¾Ð»Ð¾Ð¶ÐµÐ½Ð¸Ðµ":3038,"ĠÑģÐ°Ð¼ÑĭÐ¼":3039,"Ð½ÑĥÑĤÑĮ":3040,"ĠÐ²Ð¾Ð¾Ð±":3041,"ĠÑĤÐ²Ð¾ÑĢ":3042,"ĠÐ¼Ð°ÑģÑĪÑĤÐ°":3043,"ĠÐ´ÐµÑı":3044,"ĠÐ´ÐµÐ»":3045,"ĠÑĢÑĭÐ½ÐºÐµ":3046,"ĠÐºÐ¾ÑĤÐ¾ÑĢÑĭÐ¼":3047,"ĠÑģÐ¾ÑģÑĤÐ°Ð²Ð¸":3048,"ĠÐ±Ð¾Ð»":3049,"ĠÑģÑĤÐµÐ¿ÐµÐ½ÑĮ":3050,"ĠÐºÐ¾Ð½ÑĤÐµÐºÑģÑĤÐµ":3051,"ÐµÐ½Ð¾":3052,"ĠÐ½ÐµÐ¾Ð±ÑħÐ¾Ð´Ð¸Ð¼Ð¾ÑģÑĤÐ¸":3053,"ĠÐºÐ¾Ð¼Ð¿Ð°Ð½Ð¸Ð¸":3054,"ĠÑģÑĥÑīÐµÑģÑĤÐ²ÑĥÐµÑĤ":3055,"Ð¾Ð¿ÑĢÐ¾":3056,"ĠÑģÐ¾ÑĤÑĢÑĥÐ´Ð½Ð¸ÑĩÐµ":3057,"ÐºÐ¾ÑĢÐµÐµ":3058,"ĠÑĢÐ°Ð·Ð»Ð¸ÑĩÐ½ÑĭÐµ":3059,"ĠÐ¿Ð¾ÑĤÐ¾Ð¼Ñĥ":3060,"ĠÐ¾Ð±ÑīÐµÑģÑĤÐ²Ðµ":3061,"ÐĿÐ¾":3062,"ĠÐ²ÑĭÑģÐºÐ°Ð·ÑĭÐ²Ð°":3063,"ĠÐ¿ÑĢÐ°Ð²Ð¾Ð²ÑĭÑħ":3064,"ĠÑĢÐ¾ÑģÑģÐ¸Ð¹ÑģÐºÐ¾Ð¹":3065,"ĠÑģÐ»ÐµÐ´ÑĥÑİÑīÐ¸Ðµ":3066,"ĠÐ±Ð»Ð¸Ð·":3067,"ÐĺÐ·":3068,"ÐĹÐ°":3069,"ÐºÐ²Ð¸":3070,"ĠÑģÐ¾Ð±ÑĭÑĤÐ¸Ñı":3071,"ĠÐ´ÐµÐ½ÑĮ":3072,"ĠÐ¿ÑĢÐ¾ÐµÐºÑĤÐ°":3073,"ÑĤÐ¸Ð²Ð½Ð¾ÑģÑĤÐ¸":3074,"ĠÑģÐ²ÑıÐ·Ð°Ð½Ð¾":3075,"Ð³Ð¾ÑģÑı":3076,"ĠÐ¼ÐµÐ´Ð¸ÑĨÐ¸Ð½":3077,"ĠÐ¼Ð¾Ð³Ð»Ð¸":3078,"ĠÐ¼Ð°ÑĤÐµÑĢÐ¸Ð°Ð»":3079,"ĠÑĥÑĩÐ°ÑīÐ¸ÑħÑģÑı":3080,"ĠÐ»Ð¾Ð³Ð¸":3081,"ÑĢÐ°Ð¼Ð¸":3082,"ÑĩÐµÑģÐºÐ¸":3083,"Ð¾Ð»Ð¾Ð³Ð¸ÑĩÐµÑģÐºÐ¸Ðµ":3084,"ĠÐ¿Ð¾ÐºÐ°Ð·Ð°ÑĤÐµÐ»Ð¸":3085,"ĠÐ¿ÑĢÐ¸Ð¼Ðµ":3086,"ĠÑĤÐµÑĩÐµÐ½Ð¸Ðµ":3087,"Ð±ÐµÑĢÐ°":3088,"ĠÑįÐ»ÐµÐº":3089,"ĠÑįÐ½ÐµÑĢ":3090,"ÑĤÐ½Ð¾Ð³Ð¾":3091,"ĠÐ³Ð°ÑĢÐ°Ð½":3092,"ÑĨÐ¸Ð¿Ð»Ð¸":3093,"ĠÐ½Ð°ÑĩÐ¸Ð½Ð°":3094,"ÑĢÐ¾Ð²Ð°Ð½Ð¸Ñİ":3095,"Ð»ÑĥÐ¶Ð¸":3096,"ĠÐ¸Ð·Ð´Ð°":3097,"ĠÐ½Ð¾Ð²Ð¾Ð¹":3098,"ĠÑģÑĭ":3099,"ÑĤÐ¾ÑģÑĤÐ¸":3100,"ĠÐ¼ÐµÑĤÐ°":3101,"ÑĥÐ¿":3102,"Ð»ÑĭÑħ":3103,"ÑģÑĤÑĥÐ¿Ð¸":3104,"ĠÐ½ÐµÐ¾Ð±ÑħÐ¾Ð´Ð¸Ð¼Ð¾ÑģÑĤÑĮ":3105,"ĠÐ²ÑĭÑĢÐ°Ð¶Ð°":3106,"ĠÐ°Ð´Ð°Ð¿":3107,"Ð°Ð¶":3108,"ĠÐ¿Ð¾Ð³":3109,"ĠÐ²Ð¸Ð´Ð¾Ð²":3110,"ĠÐ²Ð¿Ð¾Ð»Ð½Ðµ":3111,"ĠÐ¼Ð¾Ð´ÐµÑĢ":3112,"ÐĶÐ°Ð½":3113,"ĠÐ¾ÑģÐ½Ð¾Ð²Ð½ÑĭÐµ":3114,"ĠÐ°Ð²ÑĤ":3115,"ĠÐ¿ÑĢÐ¸Ð¼ÐµÐ½ÐµÐ½Ð¸Ñı":3116,"ĠÐ¾ÐºÐ¾Ð½":3117,"ĠÐ´Ð¾Ð³Ð¾Ð²Ð¾ÑĢÐ°":3118,"ĠÐ²ÑĭÑģÑĪÐµÐ³Ð¾":3119,"ĠÑĢÐ°Ð·Ð»Ð¸ÑĩÐ¸Ñı":3120,"Ð¾ÑģÐ»ÐµÐ´":3121,"ĠÐ¼Ð¸ÑĢ":3122,"ĠÐ²Ð½Ð¸Ð¼Ð°Ð½Ð¸Ñı":3123,"ÑıÐ·Ñĭ":3124,"ÑĤÐµÑĢÐµÑģ":3125,"ĠÐ¿ÑĢÐ¾ÑģÑĤÑĢÐ°Ð½ÑģÑĤÐ²Ð°":3126,"ÑĩÐ¸ÑĤÑĭ":3127,"ÑģÑĤÐµÐ¹":3128,"ĠÑĥÐ²ÐµÐ»Ð¸ÑĩÐ¸":3129,"ĠÐ¾ÑģÐ½Ð¾Ð²Ð°Ð½Ð¸Ð¸":3130,"ĠÐ¿Ð¸":3131,"ĠÑĥÑĤÐ²ÐµÑĢÐ¶Ð´Ð°":3132,"ĠÐ°Ð»ÑĮ":3133,"ĠÐłÐµÑģÐ¿":3134,"ĠÐ¼ÐµÑĤÐ¾Ð´Ð¸":3135,"ĠÐ²ÑĭÐ¿Ð¾Ð»Ð½Ñı":3136,"ĠÐ±ÐµÐ·Ð¾Ð¿Ð°ÑģÐ½Ð¾ÑģÑĤÐ¸":3137,"ÑĩÐ½ÑĭÐ¼":3138,"ĠÐ¶Ð¸Ð·Ð½ÑĮ":3139,"Ð¾Ð·Ð°":3140,"ĠÐºÐ¾ÑĢÑĢÐµ":3141,"ĠÐ´Ð°Ð½Ð½ÑĭÐ¼":3142,"ÑĤÐµÑĤÐ°":3143,"ĠÐ½Ð°Ð¼Ð¸":3144,"ĠÐ¿ÑĢÐ°Ð²Ð¾Ð²Ð¾Ð³Ð¾":3145,"ĠÑģÐ¾Ñģ":3146,"ĠÐ¿Ð¾Ð»Ð¾Ð¶Ð¸ÑĤÐµÐ»ÑĮ":3147,"ĠÐ¼Ð°ÐºÑģÐ¸":3148,"ĠÐ¼Ð¾Ð±Ð¸":3149,"ÐµÑĢÐµÐ½":3150,"ĠÐ¸Ð½ÑĤ":3151,"Ð²Ð¾Ð»Ð¸":3152,"ĠÐĴÑĭ":3153,"ĠÐ¿Ð»Ð°Ð½Ð¸":3154,"ĠÑģÐ¾Ð³Ð»Ð°ÑģÐ½Ð¾":3155,"ĠÐĸ":3156,"ÑĢÑĮ":3157,"ÑĩÑĥ":3158,"ÑĥÑİÑīÐµÐ¹":3159,"ÐļÑĢÐ¾Ð¼Ðµ":3160,"ĠÑĢÐµÑĪÐ°":3161,"ÑİÑīÑĥÑİ":3162,"ĠÐ¿Ð¾ÑģÐ»ÐµÐ´Ð½Ð¸Ðµ":3163,"ÑĩÐ½ÑĭÐ¹":3164,"ĠÐ½Ð¸Ð¶Ðµ":3165,"Ð²ÑĪÐ¸Ð¹":3166,"Ð¡Ð»ÐµÐ´":3167,"ĠÐ½Ð¾Ð²Ð¾Ð³Ð¾":3168,"ĠÐ¿Ð¾Ð´Ð³Ð¾ÑĤÐ¾Ð²ÐºÐ¸":3169,"ĠÑģÐµÑĤÐ¸":3170,"Ð¼ÐµÑĤÑĮ":3171,"ÑĤÐµÐ»ÑĮÐ½Ð¾ÑģÑĤÑĮ":3172,"ĠÑģÐ¾Ð²ÑĢÐµÐ¼ÐµÐ½Ð½ÑĭÑħ":3173,"ĠÐºÐ°ÐºÐ¾Ð¹":3174,"ÑĪÐºÐ¾Ð»ÑĮ":3175,"ĠÐļÐ¾Ð¼":3176,"ĠÐ¿Ð¾Ð·Ð½Ð°":3177,"ĠÐ·Ð°ÐºÐ¾Ð½Ð¾Ð´Ð°ÑĤÐµÐ»ÑĮÑģÑĤÐ²Ð°":3178,"ĠÐºÐ¾Ñģ":3179,"ĠÐºÑĢÐµÐ´":3180,"ĠÐ°Ð¿":3181,"ĠÐ¾ÑĤÑģÑĥÑĤÑģÑĤÐ²Ð¸Ðµ":3182,"ĠÐ²ÑģÐµÐ¼":3183,"ĠÐ³Ð¾Ð²Ð¾ÑĢÑı":3184,"ĠÐ¸ÑĤÐ¾Ð³":3185,"Ð¾Ð³Ð»Ð°ÑģÐ½Ð¾":3186,"ĠÑħÐ°ÑĢÐ°ÐºÑĤÐµÑĢÐ°":3187,"ÑģÑĤÐµÐ¿ÐµÐ½":3188,"ĠÐ¿ÑĢÐ¾Ð²ÐµÑĢ":3189,"ĠÐ¾Ð³ÑĢÐ°Ð½Ð¸ÑĩÐµÐ½":3190,"ÐķÑģÐ»Ð¸":3191,"ĠÑĢÐ°Ð½ÐµÐµ":3192,"Ð¸ÑĩÐµÑģÐºÐ¸Ðµ":3193,"ĠÑĥÐ½Ð¸Ð²ÐµÑĢÑģÐ¸ÑĤÐµÑĤÐ°":3194,"ÑĩÐ¸ÑĤÑĮ":3195,"ĠÑģÑĤÑĢÐ¾Ð¸ÑĤÐµÐ»ÑĮ":3196,"ÑĪÐµÐ½Ð¸Ñİ":3197,"ÑĢÐµÐ½Ð¸Ðµ":3198,"ĠÐ¾Ð¿ÑĭÑĤÐ°":3199,"ÑģÑĤÐ°Ð²Ð»Ñı":3200,"ĠÑģÑĢÐ°Ð²Ð½Ð¸":3201,"ĠÐ±Ð¾Ð»ÑĮÑĪÐµÐ¹":3202,"ĠÐ¿ÑĢÐ¾ÑĨÐµÑģÑģÐ¾Ð²":3203,"Ð´ÐµÑĢÐ¶":3204,"ĠÐ¾Ð¿Ð¸ÑģÑĭ":3205,"Ð³ÑĢÐµ":3206,"ĠÑĢÑĥÑģÑģÐºÐ¾Ð³Ð¾":3207,"ĠÐ¼Ð¸ÑĢÐµ":3208,"ÑģÐ¾Ð»":3209,"ÐºÐ¸Ð¼":3210,"ĠÑĢÐ°Ð´Ð¸":3211,"ÑĩÐµÑģÐºÐ¸Ð¼":3212,"ĠÑģÐ¾Ð·Ð´Ð°Ð½Ð¸Ðµ":3213,"ĠÐ¸ÑģÑģÐ»ÐµÐ´Ð¾Ð²Ð°Ð½Ð¸Ðµ":3214,"ĠÑģÐ¿ÑĢÐ°Ð²ÐµÐ´":3215,"Ð¯":3216,"ĠÐ¾Ð±Ð¾ÑģÐ½Ð¾Ð²Ð°":3217,"ÐŁÐ¾Ð´":3218,"ĠÐłÐ°":3219,"ĠÐ²Ð·Ð°Ð¸Ð¼Ð¾ÑģÐ²Ñı":3220,"ĠÑĩÐ¸ÑĤÐ°":3221,"ĠÐ°ÑĢÐ³Ñĥ":3222,"ĠÐ´Ð¸Ð°Ð»ÐµÐº":3223,"Ð»ÑĥÑĩ":3224,"Ð¾Ð²Ñĭ":3225,"ĠÐ¸Ð½Ð¾Ð¹":3226,"ĠÐ¾ÑģÐ½Ð¾Ð²Ð½Ð¾Ð¼":3227,"ĠÐ¿ÑĢÐ¸ÑĩÐ¸Ð½":3228,"ĠÐ³Ð¸Ð¿Ð¾ÑĤÐµ":3229,"ĠÐ¾Ð±ÑģÑĥ":3230,"ĠÐ´Ð°Ð»ÑĮÐ½ÐµÐ¹ÑĪ":3231,"ĠÐ½Ð°ÑĥÑĩÐ½ÑĭÑħ":3232,"ÑĤÐ¸ÐºÐµ":3233,"ĠÑħÐ¾ÑĢÐ¾ÑĪ":3234,"ĠÑģÑĦÐµÑĢÑĭ":3235,"ĠÐºÐ°Ð¶Ð´Ð¾Ð³Ð¾":3236,"Ð»ÑĮÐ½Ð°Ñı":3237,"ÑĤÐ¸Ð¼":3238,"ĠÐ¿ÑĥÑĤÐµÐ¼":3239,"ĠÐ¾ÑģÐ½Ð¾Ð²Ñĭ":3240,"Ð°Ð½Ð´Ð¸":3241,"ĠÐ½Ð°ÑĥÑĩÐ½Ð¾Ð¹":3242,"Ð¾Ð¶Ð½Ð¾":3243,"ĠÑģÑĤÐ°Ð²":3244,"ÑĤÐµÑĢÐ½Ð°":3245,"ĠÐºÐ¾ÑĢÐ¿Ð¾ÑĢÐ°":3246,"ĠÑħÐ°ÑĢÐ°ÐºÑĤÐµÑĢÐ¸ÑģÑĤÐ¸ÐºÐ¸":3247,"Ð¾Ð²Ð°Ð»Ð¸":3248,"ĠÐ´Ð°ÐµÑĤ":3249,"ĠÐºÑĢÐµÑģÑĤÑĮ":3250,"ĠÐ¿ÑĢÐ¸Ð½ÑĨÐ¸Ð¿":3251,"Ð´Ð¸ÑĤÑĮ":3252,"ĠÐ»ÐµÐ³":3253,"Ð°ÑĢÐ¸":3254,"ÑĩÐµÐ½Ð¸ÐµÐ¼":3255,"ĠÐ·Ð°Ð¿ÑĢÐµ":3256,"ĠÑģÐ¾Ð¿ÑĢÐ¾Ð²":3257,"ĠÑģÑĤÐ°Ð»":3258,"ÑĩÐµÐ½Ð¸Ð¸":3259,"ĠÐºÐ°Ð´":3260,"ĠÐ¿ÐµÑĢÐ²Ð¾Ð¹":3261,"ĠÑģÐ¾Ð´ÐµÑĢÐ¶Ð°Ð½Ð¸Ðµ":3262,"ÑĦÐµÑĢÐµÐ½":3263,"ĠÑįÑĤÐ°Ð¿Ðµ":3264,"ĠÐ½Ð°ÑĥÐº":3265,"ĠÐ¿Ð¾Ð»Ð¸ÑĤÐ¸ÑĩÐµÑģÐºÐ¾Ð³Ð¾":3266,"Ð²Ð°ÑİÑīÐ¸Ñħ":3267,"ÑĪÐ¸Ð¼":3268,"ĠÐ±Ð°Ð½ÐºÐ¾Ð²":3269,"ĠÐ»ÑİÐ´Ð¸":3270,"ĠÑģÑĤÑĢÐ°ÑĤÐµÐ³Ð¸Ð¸":3271,"ĠÐ¿ÑĥÐ±Ð»Ð¸ÐºÐ°":3272,"ĠÐ¿ÑĢÐ¾ÑĦÐµÑģÑģÐ¸Ð¾Ð½Ð°Ð»ÑĮÐ½Ð¾Ð¹":3273,"ĠÑģÐ¼ÐµÑĢ":3274,"ĠÐ¾ÑĤÐ²Ðµ":3275,"Ð¸ÑģÐ°Ð½":3276,"ĠÐŀÐ½":3277,"ĠÑģÐ²ÐµÑĢ":3278,"ĠÑįÑĤÑĥ":3279,"ĠÑģÐ¿ÐµÑĨÐ¸ÑĦÐ¸":3280,"ĠÑĤÑĢÐµÐ±ÑĥÐµÑĤ":3281,"ĠÑģÑĢÐ°Ð²Ð½ÐµÐ½Ð¸Ñİ":3282,"ĠÐ¼Ð¾ÑĢ":3283,"Ð»ÑĮÐ½Ð¾ÑģÑĤÑĮ":3284,"ĠÐ¤ÑĢÐ°Ð½":3285,"ÑĢÐ¾Ð²Ð°Ð½Ð½ÑĭÐµ":3286,"ĠÑĩÐµÑĤÑĭ":3287,"ÐŁÑĢÐµÐ´":3288,"ÑĪÐµÐµ":3289,"ÐµÐ½Ð½Ð¾ÑģÑĤÐ¸":3290,"Ð¾Ð³ÑĢÐ°ÑĦÐ¸Ð¸":3291,"ĠÐ¿Ð¾Ð»Ð°Ð³Ð°":3292,"ĠÐ¸ÑģÐ¿Ð¾Ð»ÑĮÐ·Ð¾Ð²Ð°ÑĤÑĮ":3293,"ÑħÐ¾Ð·ÑıÐ¹":3294,"ĠÑĢÐµÐ¶Ð¸Ð¼":3295,"ĠÐ³Ð»ÑĥÐ±":3296,"ĠÐ·Ð°ÑīÐ¸ÑĤÑĭ":3297,"Ð±Ð°ÑĤÑĭ":3298,"ĠÐ¾Ð¿ÑĢÐµÐ´ÐµÐ»ÐµÐ½Ð¸Ñı":3299,"ĠÑĢÐµÐ°Ðº":3300,"ĠÐ²ÑģÑĤÑĢÐµÑĩÐ°":3301,"ĠÐ¸Ð·Ð¼ÐµÐ½ÐµÐ½Ð¸Ð¹":3302,"Ð»Ð°Ñħ":3303,"ÑĤÐ½ÑĭÐµ":3304,"ĠÐ¿ÑĢÐµÐ´Ð¿Ð¾":3305,"ĠÐ¾Ð¿Ð°Ñģ":3306,"ĠÑģÐ¾Ð¾Ð±ÑīÐµÑģÑĤÐ²Ð°":3307,"ĠÑįÑĤÐ¾Ð¼Ñĥ":3308,"ĠÐ¾ÑĤÐ½Ð¾ÑĪÐµÐ½Ð¸Ñİ":3309,"ĠÐ¼Ð°ÑĤÐµÑĢÐ¸Ð°Ð»Ð°":3310,"ĠÑĥÑĩÐ°ÑģÑĤÐ¸Ñı":3311,"Ð¸Ð¼Ð¾ÑģÑĤÑĮ":3312,"Ð±Ð»":3313,"ĠÐ³ÐµÑĢ":3314,"ĠÐ·Ð°Ð´Ð°ÑĩÐ°":3315,"ĠÐ½ÐµÐ»ÑĮÐ·Ñı":3316,"ĠÐºÑĢÑĥ":3317,"Ð»ÑĮÐ½Ð¾Ð¼":3318,"ĠÑĢÐµÑĩÐµ":3319,"ĠÐ²Ð½ÐµÐ´":3320,"ĠÑĢÐ°Ð·Ð½Ð¾Ð¾Ð±ÑĢÐ°Ð·":3321,"ĠÐ¸ÑģÐºÑĥÑģ":3322,"ĠÐ³Ð¾Ð»":3323,"ĠÑģÑĤÐ°Ð»Ð°":3324,"Ð»Ð°Ð¼Ð¸":3325,"ĠÑĨÐµÐ½Ð½Ð¾ÑģÑĤÐµÐ¹":3326,"ĠÐ¿Ð¾Ð»ÑĮÐ·Ñĥ":3327,"ĠÐºÐ¾Ð½ÑĤÑĢÐ¾Ð»ÑĮ":3328,"ĠÐ¸Ð¼ÐµÑĤÑĮ":3329,"ÑĩÐµÑģÐºÐ¾Ðµ":3330,"ĠÐ·Ð°Ð²Ð¸ÑģÐ¸ÑĤ":3331,"ĠÐŁÐ¾ÑįÑĤÐ¾Ð¼Ñĥ":3332,"ĠÑĥÐ±Ðµ":3333,"ĠÐºÐ°ÑģÐ°ÐµÑĤÑģÑı":3334,"Ð´Ð¸Ð½Ð°":3335,"ÑĤÐ¸Ð²Ð½Ð¾Ðµ":3336,"ÑĢÐ°Ð¶ÐµÐ½Ð¸Ñı":3337,"ÑĮÐµÑĢ":3338,"ĠÐ¿Ð¾Ð¿Ñĥ":3339,"ĠÐ¿ÐµÑĢÐ¸Ð¾Ð´Ð°":3340,"Ð½Ð¾ÑģÐ¸":3341,"ĠÑģÑĢÐ¾Ðº":3342,"ÑģÐµÐ´Ð½ÐµÐ²":3343,"ĠÐ½Ð¸Ð¼Ð¸":3344,"Ð¼Ð¾ÑĤÑĢÐµÐ½":3345,"Ð°ÐºÐ¾Ð½":3346,"Ð½ÐµÐ½Ð¸Ð¸":3347,"Ð»Ð°Ð´Ñĭ":3348,"ĠÐ¿ÑĢÐµÐ´ÑģÑĤÐ°Ð²Ð¸ÑĤÐµÐ»ÐµÐ¹":3349,"ĠÐ¿Ð¾Ð»Ð¾Ð²Ð¸":3350,"ĠÐ¿ÑĢÐµÐ´Ð»Ð¾Ð¶ÐµÐ½Ð¸Ñı":3351,"ĠÑģÑĥÑīÐµÑģÑĤÐ²ÐµÐ½Ð½Ð¾":3352,"ĠÐ²ÑĢÐ°":3353,"ĠÐ¾ÑģÑĤÐ°ÐµÑĤÑģÑı":3354,"ĠÐ¾Ð¿ÑĤÐ¸":3355,"ĠÐ´Ð°Ð½Ð½ÑĭÐ¹":3356,"Ð²Ð¸ÑĤÑĮ":3357,"ĠÑįÐ»Ð¸":3358,"ĠÐ¿Ð¾Ð´ÑĢÐ¾ÑģÑĤ":3359,"ĠÑģÑĥÐ±ÑĬÐµÐºÑĤÐ¸Ð²":3360,"Ð¾Ð´Ð°ÑĢÑı":3361,"ÑĤÐ¸ÑĩÐµÑģÐºÐ¸Ð¹":3362,"ÑĤÑĭÐµ":3363,"ĠÑĤÐµÐ»Ðµ":3364,"ĠÑģÐ¼ÑĭÑģÐ»Ðµ":3365,"ĠÑĢÐ°Ð·Ð½ÑĭÐµ":3366,"ĠÑģÐºÐ¾ÑĢÐµÐµ":3367,"ĠÐ¶ÐµÐ½ÑīÐ¸Ð½":3368,"ĠÐłÐµÑģÐ¿ÑĥÐ±Ð»Ð¸":3369,"Ð»ÐµÐ¶Ð°":3370,"ĠÐ¼Ð¸ÑĢÐ¾Ð²Ð¾Ð¹":3371,"ĠÑįÐ¼Ð¿Ð¸ÑĢÐ¸":3372,"Ð°Ð½Ð°Ð»Ð¸":3373,"ÑĢÑıÐ´":3374,"ĠÐ±Ð°Ð»":3375,"ĠÐºÐ¾Ð³":3376,"ĠÐ¡Ñĥ":3377,"ĠÐ²ÑĭÑģÑĤÑĥÐ¿Ð°ÐµÑĤ":3378,"ĠÐ¾ÐºÐ¾Ð»Ð¾":3379,"ĠÐ¿ÑĢÐ¸Ð½ÑıÑĤÐ¸Ñı":3380,"ĠÑįÑĤÐ½Ð¸":3381,"ĠÑĤÐµÐ¼Ð°":3382,"ĠÐ±Ð¾Ð»ÑĮÑĪÐ¸Ð½ÑģÑĤÐ²Ð¾":3383,"ÑĢÐ¾Ð²Ð°Ð½Ð½Ð¾Ð¹":3384,"ĠÐºÐ¾Ð¼Ð¿Ð»ÐµÐºÑģ":3385,"ĠÐ½ÐµÑģÐºÐ¾Ð»ÑĮ":3386,"ĠÐ²Ð°Ð¶Ð½Ð¾":3387,"ĠÐ¿Ð¾Ð»Ð½Ð¾ÑģÑĤÑĮÑİ":3388,"ĠÐ³Ð¾ÑģÑĥÐ´Ð°ÑĢÑģÑĤÐ²Ð¾":3389,"ĠÑģÐ¾Ð´ÐµÑĢÐ¶Ð°Ð½Ð¸Ñı":3390,"ĠÐ¿ÑĢÐ¾Ð²ÐµÐ´":3391,"ĠÐ¿ÑĢÐµÐ´Ð¿ÑĢÐ¸Ñı":3392,"ĠÑĤÑĢÐ°Ðº":3393,"ĠÐ¼Ð°ÑĤÐµÑĢÐ¸Ð°":3394,"ĠÐ¾ÑģÐ¾Ð·Ð½Ð°":3395,"ĠÐ¾Ð´Ð½":3396,"ĠÐ¼Ð¾Ð»Ð¾Ð´Ðµ":3397,".:":3398,"ĠÐºÐ¾Ð¼Ð¿Ð°Ð½Ð¸Ð¹":3399,"ĠÐ¿ÐµÐ½ÑģÐ¸Ð¾Ð½":3400,"ÑİÐ·Ð°":3401,"ĠÐ¿ÑĢÐ¾ÑĦÐµÑģÑģÐ¸Ð¾Ð½Ð°Ð»ÑĮÐ½Ð¾Ð³Ð¾":3402,"ÑĩÐµÐ³Ð¾":3403,"ĠÑĢÑıÐ´Ð°":3404,"ÑĢÐ¸ÑģÑĤÐ¸":3405,"ÑĢÑĭÐ²":3406,"ÐµÐ»":3407,"ĠÐ³ÑĢÑĥÐ¿Ð¿Ðµ":3408,"ĠÐ´Ð¸ÑģÐºÑĥ":3409,"ĠÑģÐ¾ÑĨÐ¸Ð°Ð»ÑĮÐ½ÑĭÐµ":3410,"ĠÐŀÐ½Ð¸":3411,"ĠÐ¸ÑģÑģÐ»ÐµÐ´Ð¾Ð²Ð°Ð½Ð¸Ð¸":3412,"ÑģÐ¼Ð¾ÑĤÑĢÑı":3413,"ĠÑĢÑĥÐºÐ¾Ð²Ð¾Ð´Ð¸":3414,"ĠÐ¿Ð¾ÐºÐ°Ð·ÑĭÐ²Ð°ÐµÑĤ":3415,"ĠÐ¼ÐµÑĤÐ¾Ð´Ð¾Ð²":3416,"ĠÐ¼Ð½Ð¾Ð³Ð¾Ð¼":3417,"ÑıÐ²Ð»ÐµÐ½Ð¸Ðµ":3418,"Ð¼ÐµÐ½Ð°":3419,"Ð¸ÑĤÐµÐ»ÐµÐ¹":3420,"ĠÐ¾Ð±ÑĢÐ°Ð·Ð¾Ð²Ð°ÑĤÐµÐ»ÑĮÐ½Ð¾Ð¹":3421,"ĠÐ´ÑĥÑħÐ¾Ð²":3422,"ĠÐŁÑĢÐµ":3423,"ĠÐ¿ÑĢÐ¸Ð²Ð¾Ð´Ð¸ÑĤ":3424,"ÐµÐ¶Ð´Ñĥ":3425,"ĠÐ¾ÐºÑĢÑĥÐ¶Ð°":3426,"ĠÐ¿ÑĢÐ¸Ð²Ð»ÐµÐºÐ°":3427,"Ð½Ð¸ÑıÑħ":3428,"Ð¾ÑĢÑĥÐ¶":3429,"ĠÐľÐ°":3430,"ĠÐ¿ÑĢÐµÐ´ÑģÑĤÐ°Ð²Ð»ÐµÐ½Ñĭ":3431,"Ð»ÑĮÐ½ÑĭÐ¼Ð¸":3432,"ĠÐ¿ÑĢÐ¸Ð¾ÑĢÐ¸":3433,"ĠÑĪÐºÐ¾Ð»Ðµ":3434,"ĠÑģÐ¸Ð»":3435,"ĠÑģÐ²ÑıÐ·ÐµÐ¹":3436,"ĠÐ¼ÑĭÑģÐ»Ð¸":3437,"ĠÐ·Ð½Ð°ÑĩÐ¸ÑĤÐµÐ»ÑĮÐ½Ð¾":3438,"ĠÐ¼ÐµÐ¶Ð´ÑĥÐ½Ð°ÑĢÐ¾Ð´Ð½ÑĭÑħ":3439,"ĠÐ¿ÑĢÐ¸Ñģ":3440,"ĠÐ³ÑĢÐ°Ð¼Ð¼Ð°":3441,"ĠÐ½ÐµÐ¼ÐµÑĨ":3442,"ĠÐ½Ð¸ÐºÐ°Ðº":3443,"ĠÐ¼ÐµÐ½Ñı":3444,"ÑįÑĦ":3445,"ĠÑįÐºÐ¾Ð½Ð¾Ð¼Ð¸ÑĩÐµÑģÐºÐ¸Ñħ":3446,"ĠÑĢÐµÑģÐ¿ÑĥÐ±Ð»Ð¸":3447,"ĠÐ´Ð»Ð¸":3448,"ĠÐ¼ÑĥÐ½Ð¸":3449,"ĠÐ¿Ð¾Ð´Ð²ÐµÑĢ":3450,"Ð½ÐµÐ½Ð¸Ð¹":3451,"ĠÐ²Ð·ÑĢÐ¾Ñģ":3452,"Ð¾ÑģÐ»Ðµ":3453,"ĠÐĴÐµÑĢ":3454,"ÑĤÐµÑĢÐ±ÑĥÑĢ":3455,"ĠÐ°ÐºÑĤÐ¸Ð²Ð½Ð¾":3456,"Ð²Ð°ÑĢ":3457,"Ð²ÑĮÑİ":3458,"ÐłÐ°":3459,"Ð²Ð°ÑĤ":3460,"ÑĪÐ°ÐµÑĤ":3461,"ĠÑĦÑĥÐ½":3462,"ĠÐ¾Ð±ÑĬÐµÐºÑĤÐ¾Ð²":3463,"ÐĴÑĭ":3464,"ĠÑĦÐ¾ÑĢÐ¼Ð¸ÑĢÐ¾Ð²Ð°Ð½Ð¸Ðµ":3465,"ĠÑĦÐ¾ÑĢÐ¼Ñĥ":3466,"ĠÑģÐ²ÑıÐ·Ð°Ð½Ñĭ":3467,"ĠÐºÐ°ÑĤÐµÐ³Ð¾ÑĢÐ¸Ð¸":3468,"ĠÐ¼ÐµÑĢÑĭ":3469,"ĠÐ´ÐµÐ»Ðµ":3470,"ĠÐ¿ÑĢÐ¾Ð¶Ð¸":3471,"ĠÐ³ÑĥÐ±ÐµÑĢ":3472,"ÑĩÐ¸Ðµ":3473,"ĠÐ½ÐµÑģÐ¼Ð¾ÑĤÑĢÑı":3474,"ĠÐºÐ¾Ð¼Ð¼ÑĥÐ½Ð¸ÐºÐ°ÑĨÐ¸Ð¸":3475,"ĠÑĥÑĩÑĢÐµÐ¶Ð´ÐµÐ½Ð¸Ñı":3476,"ĠÐ´Ð¸ÑĢÐµÐº":3477,"ĠÑĢÐµÐ·ÑĥÐ»ÑĮÑĤÐ°ÑĤ":3478,"ÑĦÐ°":3479,"ĠÑģÐ»ÑĥÑĩÐ°Ð¹":3480,"Ð²Ð°Ð»Ð¾ÑģÑĮ":3481,"ĠÐ¸Ð½ÑģÑĤÐ¸ÑĤÑĥÑĤÐ¾Ð²":3482,"ĠÑģÐºÐ°":3483,"ĠÑĤÐµÐºÑģÑĤÐ¾Ð²":3484,"ĠÐ¿Ð¾Ð²ÑģÐµÐ´Ð½ÐµÐ²":3485,"ÑĩÐµÑĢÐºÐ¸":3486,"ĠÐļÐ¾Ð½ÑģÑĤÐ¸ÑĤÑĥÑĨÐ¸Ð¸":3487,"ĠÐ¿ÑĢÐ¸Ð¼ÐµÐ½Ñı":3488,"Ð»Ð¸Ð¸":3489,"ĠÐ¾Ð±ÑīÐµÑģÑĤÐ²ÐµÐ½Ð½ÑĭÑħ":3490,"ĠÑģÐ²ÑıÐ·Ð°Ð½Ð½ÑĭÐµ":3491,"Ð»ÐµÐ½Ð½Ð¾Ð³Ð¾":3492,"ĠÐ²ÑħÐ¾Ð´":3493,"ĠÐºÐ°ÐºÐ¸Ðµ":3494,"ĠÐ·Ð°ÐºÐ¾Ð½Ð¾Ð´Ð°ÑĤÐµÐ»ÑĮ":3495,"ĠÑĥÐºÐ°Ð·ÑĭÐ²Ð°":3496,"ĠÐ´Ð¾Ð¼Ð°":3497,"ĠÑĥÑģÑĤÐ°Ð½Ð°Ð²Ð»Ð¸":3498,"ÑĩÐ½Ð¾Ð¼":3499,"ÑĤÐ¸ÐµÐ¼":3500,"ĠÑģÐ»ÑĥÑĩÐ°ÐµÐ²":3501,"Ð²ÑĭÐ¼":3502,"ĠÐ¿Ð¾ÑģÑĤÑĥÐ¿":3503,"ĠÐ¿ÑĢÐ¸Ð½ÑĨÐ¸Ð¿Ð°":3504,"ÑĪÐ¸Ð¹":3505,"ĠÑĤÑĢÐ°Ð½ÑģÐ¿Ð¾ÑĢ":3506,"ĠÐ¿Ð¾Ð·Ð²Ð¾Ð»Ð¸":3507,"ĠÐ°Ð±ÑģÐ¾Ð»":3508,"ĠÐ¾Ð¿Ð»Ð°":3509,"ÑĪÐ¸Ð½":3510,"ĠÐºÐ¾ÑĢÑĢÑĥÐ¿":3511,"ÑĤÐ¾Ðº":3512,"ÑĩÐµÐ½Ð½ÑĭÑħ":3513,"ÑĩÐµÑģÑĤÐ²Ð°":3514,"ĠÑģÐ¾ÑĩÐµÑĤÐ°":3515,"Ð³Ð¾Ð²Ð¾ÑĢ":3516,"ÑĤÐ¸Ð²Ð½ÑĭÐ¼":3517,"ĠÐ¾Ð±Ð¾Ð·Ð½Ð°":3518,"ÑĤÐµÐ¼Ð°":3519,"ĠÐ¿Ð¾Ð½ÑıÑĤÐ¸Ñı":3520,"ĠÐ¿Ð¾ÐºÐ¾Ð»":3521,"ĠÐ¸Ð½ÑĤÐµÑĢÐµÑģÐ°":3522,"ĠÐ¿ÑĢÐ¸Ð±Ñĭ":3523,"ÐłÐµ":3524,"ĠÐ·Ð°ÐºÐ»ÑİÑĩÐ°ÐµÑĤÑģÑı":3525,"ĠÑĤÑĢÐ°Ð½ÑģÑĦÐ¾ÑĢÐ¼Ð°":3526,"ĠÐĶÐ°Ð½":3527,"Ð¾Ð¼Ð°":3528,"ĠÑįÐ¿Ð¾":3529,"ĠÐ½ÐµÐ¾Ð´":3530,"Ð°Ð»ÑĮÐ½ÑĭÐ¹":3531,"ĠÑĢÐ°Ð±Ð¾ÑĩÐ¸Ñħ":3532,"ĠÐ¸Ð½ÑģÑĤÐ¸ÑĤÑĥÑĨÐ¸Ð¾Ð½Ð°Ð»ÑĮ":3533,"ĠÐ¾ÑĤÑĩÐµÑĤ":3534,"ĠÐ¸Ð·Ð¼ÐµÑĢ":3535,"ÑįÑĦÑĦÐ¸ÑĨÐ¸":3536,"Ð¸Ð´":3537,"ĠÐ¿ÑĢÐ¾Ð²ÐµÐ´ÐµÐ½Ð¸Ñı":3538,"ĠÐ²Ð¾ÑģÐ¿ÑĢÐ¸Ð½Ð¸Ð¼Ð°":3539,"ĠÐ¿ÑĢÐµÐ´Ð¿ÑĢÐ¸ÑıÑĤÐ¸Ñı":3540,"ĠÐ±ÐµÑģÐ¿":3541,"ĠÐ»ÑİÐ´":3542,"ÑĪÐµÐ´":3543,"ĠÐ¼Ð¾Ð½Ð°":3544,"Ð³ÑĢÐ°Ð½Ð¸":3545,"Ð¼Ñı":3546,"ĠÐ¿ÑĢÐ¾Ð³Ð½":3547,"ĠÐ¼Ð°Ð»Ð¾":3548,"ĠÑĢÑĭÐ½Ð¾":3549,"ĠÐºÐ¾ÑĤÐ¾ÑĢÑĥÑİ":3550,"ĠÐ¿Ð¾Ð·Ð²Ð¾Ð»ÑıÑİÑĤ":3551,"Ð¸ÑĤÐµÐ»ÑĮÐ½Ð¾ÑģÑĤÐ¸":3552,"ĠÑĥÑĢÐ¾Ð²Ð½ÐµÐ¼":3553,"ĠÐ¾ÑģÐ½Ð¾Ð²Ð°Ð½Ð¸Ñı":3554,"ĠÐ´ÐµÐ¼Ð¾Ð½ÑģÑĤÑĢÐ¸":3555,"ĠÐŁÑĢÐµÐ´":3556,"ĠÐ»Ð¸ÑĤÐµÑĢÐ°ÑĤÑĥÑĢÐµ":3557,"ĠÐ¿ÑĢÐ¾Ð´ÑĥÐºÑĨÐ¸Ð¸":3558,"ĠÐ´Ð¸ÑĦÑĦ":3559,"Ð¸ÐºÐ°":3560,"ĠÑĤÐ°ÐºÐ¾Ðµ":3561,"Ð¿Ð°ÑĢÐ°":3562,"ĠÐ·Ð°ÑĤÐµÐ¼":3563,"ĠÐ¿ÑĢÐµÑģÑĤÑĥÐ¿Ð»ÐµÐ½Ð¸Ñı":3564,"ĠÐ°ÑĢÑħ":3565,"ĠÐ¿Ð¾Ð´ÑĢÐ¾Ð±":3566,"ĠÑĩÐ»ÐµÐ½Ð¾Ð²":3567,"ĠÐ¿Ð¾ÑĢÑıÐ´ÐºÐ°":3568,"ĠÑĩÐµÑĤÑĭÑĢÐµ":3569,"ĠÐ¾Ð³ÑĢÐ°Ð½Ð¸ÑĩÐµÐ½Ð¸Ñı":3570,"ĠÑĢÐ°ÑģÑĪÐ¸ÑĢ":3571,"ĠÐ¿ÑĢÐ¾ÑĤÑı":3572,"ĠÑģÐ°Ð¼Ð¾Ð³Ð¾":3573,"ĠÐ¾Ð±Ð½Ð°ÑĢÑĥÐ¶Ð¸":3574,"ĠÐĽÐ°":3575,"Ð½Ð¾Ð³":3576,"ĠÐ¾Ð·Ð½Ð°ÑĩÐ°ÐµÑĤ":3577,"Ð»ÐµÐ½Ð½Ð¾Ð¹":3578,"ĠÐ½ÐµÑĢÐ°Ð²":3579,"Ð½Ð½ÑĭÑħ":3580,"Ð¿Ð¾Ð·Ð¸":3581,"ĠÐ°ÐºÑĤÐ¸Ð²Ð½Ð¾ÑģÑĤÐ¸":3582,"ĠÐ¼Ð¾ÑĢÐ°":3583,"ĠÐ¿Ð¾Ð´Ð°":3584,"Ð·Ð°Ñħ":3585,"ÑĥÑİÑīÐ¸Ð¼":3586,"ÑĤÐµÐ»ÑĮÐ½ÑĭÐ¼Ð¸":3587,"Ð¾Ð½ÐµÑĨ":3588,"ĠÑįÐ¼Ð¾ÑĨÐ¸Ð¾Ð½Ð°Ð»ÑĮ":3589,"ĠÑĥÐ³ÑĢÐ¾Ð·":3590,"ĠÐ¸Ð´ÐµÐ¸":3591,"ÐµÑĢÑĤ":3592,"Ð²Ð°Ð»Ð°ÑģÑĮ":3593,"ÑĤÐµÐ»Ñİ":3594,"ĠÑĤÑĢ":3595,"ĠÐŁÐµ":3596,"ĠÑģÐ¾Ð±ÑĢÐ°":3597,"ĠÐĲÐ½":3598,"ÑĨÐµÐ½ÑĤ":3599,"ĠÐ»Ð¸Ð½Ð³Ð²Ð¸ÑģÑĤÐ¸":3600,"Ð³Ð¾ÑĢ":3601,"ĠÑĨÐ¸ÑĦ":3602,"ĠÐ¸ÑģÑĤÐ¾ÑĩÐ½Ð¸ÐºÐ¾Ð²":3603,"Ð¾ÑĤÐ²ÐµÑĤ":3604,"ĠÐ³Ð¾Ñģ":3605,"ĠÐ¾ÐºÐ°Ð·ÑĭÐ²Ð°ÐµÑĤÑģÑı":3606,"ĠÐ´ÐµÑģÑıÑĤÐ¸":3607,"ĠÑģÑĤÐ°ÑĤÑĥÑģÐ°":3608,"ĠÐ¿Ð¾ÑģÑĤÐ°Ð½Ð¾Ð²":3609,"ĠÐ´Ð¾ÑĢ":3610,"Ð½Ð¸ÐºÐ°Ð¼":3611,"ÐºÐ»Ñİ":3612,"ÑĩÐµÑģÐºÑĥÑİ":3613,"ĠÐ¿Ð¾Ð´ÑĤÐ²ÐµÑĢÐ¶Ð´Ð°":3614,"ĠÐ¸ÑģÐ¿Ð¾Ð»Ð½Ð¸":3615,"ĠÐ¿ÑĢÐ¾Ð´Ð°":3616,"ĠÑģÐ²ÑıÐ·Ð°Ð½Ð½ÑĭÑħ":3617,"ÑĢÐ¾Ð²Ð°Ð»Ð¸":3618,"ĠÐ¿ÑĢÐµÐ¾Ð´":3619,"Ð½Ð³Ð°":3620,"ÐºÐ¾Ð¼ÐµÐ½":3621,"Ð»Ð¾Ð²Ð°":3622,"ĠÐ²Ð°Ð»":3623,"ĠÐºÐ¾ÑĢÑĢÐµÐº":3624,"ĠÑĥÑĩÐµÐ±Ð½ÑĭÑħ":3625,"ÑĩÐ°Ð¹":3626,"Ð°ÑĤÐ°":3627,"ĠÐ±Ð¸Ð·Ð½Ðµ":3628,"Ð»Ð¾ÑĤ":3629,"ÐĺÐ½":3630,"ĠÐ½Ð°ÑĥÑĩÐ½Ð¾":3631,"ĠÐ¾ÑģÐ²Ð¾":3632,"ÑĤÐ¸ÑĩÐµÑģÐºÐ°Ñı":3633,"ĠÐ¾Ð³ÑĢÐ°Ð½Ð¸ÑĩÐ¸":3634,"ĠÑĢÐ¾ÑģÑģÐ¸Ð¹ÑģÐºÐ¾Ð³Ð¾":3635,"ĠÑģÐ²Ð¾Ð±Ð¾Ð´Ñĭ":3636,"ĠÑĢÐ°Ð·Ð²Ð¸ÑĤÐ¸Ñİ":3637,"ÐµÐ¼ÑĭÐ¹":3638,"ÑĢÐ°ÑģÑĤÑĢÑĥÐº":3639,"ÐµÑģÑı":3640,"ĠÐ´ÑĢÐµÐ²":3641,"Ð¼ÐµÐ½ÑĮ":3642,"ĠÐºÐ°Ð¶Ð´ÑĭÐ¹":3643,"ĠÐ¿Ð¾Ð´Ð´ÐµÑĢÐ¶Ð¸":3644,"ĠÐ¿Ð¾Ð·Ð´":3645,"ĠÐ¾Ð´Ð½Ð¾Ð²ÑĢÐµÐ¼ÐµÐ½Ð½Ð¾":3646,"Ð´ÐµÐ¼":3647,"ĠÐ¿Ð¾Ð¸ÑģÐº":3648,"Ð¿Ð°Ð´Ð°":3649,"ĠÑĤÐµÐºÑĥ":3650,"ĠÑĢÐ°ÑģÑĪÐ¸":3651,"ĠÑħÐ°ÑĢÐ°ÐºÑĤÐµÑĢÐ¸Ð·":3652,"ĠÐ²Ð¾Ð·Ð½Ð¸ÐºÐ½Ð¾Ð²":3653,"ÑĤÐµÐ»ÑĮÐ½Ð¾Ð¼":3654,"ÑĤÐ¸Ð²Ð½Ð°Ñı":3655,"ĠÐ°ÑĥÐ´Ð¸":3656,"ĠÐ²Ð¼Ðµ":3657,"ĠÐ¾ÐºÐ¾Ð½ÑĩÐ°":3658,"ĠÐ¼ÐµÐ½ÑĮÑĪÐµ":3659,"ÑĩÐµÑģÐºÐ¾Ð¼":3660,"ÑĦÐµÑģÑģÐ¸":3661,"ĠÐ¿Ð¾ÑģÑĢÐµÐ´ÑģÑĤÐ²Ð¾Ð¼":3662,"ÑĢÑĥÐ·":3663,"Ð°ÑĢÐ°":3664,"ĠÐ¿Ð¾ÑģÐ»ÐµÐ´ÑģÑĤÐ²Ð¸Ñı":3665,"ÑıÐ±ÑĢÑı":3666,"ĠÐ¿ÑĢÐ°Ð²Ð¾Ð¼":3667,"ĠÑģÐ¾Ð¿Ð¾ÑģÑĤÐ°":3668,"ĠÑģÐ¾Ð¼":3669,"ÐµÐ½Ðµ":3670,"ĠÑģÐ¸Ð»Ñĭ":3671,"Ð´ÐµÑĤÑĮ":3672,"ĠÑĥÐ·":3673,"ĠÐ¾Ð±Ð²Ð¸":3674,"ÑĨÑĥÐ·":3675,"ĠÐ¿Ð°ÑĢÑĤÐ¸Ð¹":3676,"ĠÐ¿ÑĥÐ½Ðº":3677,"ĠÑĦÐ°ÐºÑĤÐ¾ÑĢÑĭ":3678,"ÑħÑĢÐ°Ð½Ð¸":3679,"Ð³Ð¼Ð°":3680,"ĠÑİÑĢÐ¸Ð´Ð¸ÑĩÐµÑģÐºÐ¾Ð¹":3681,"Ð¶ÐµÐ½Ð¸Ð¹":3682,"ĠÑģÐ¾Ð±ÑĭÑĤÐ¸Ð¹":3683,"ÑĩÐ½Ð¾Ðµ":3684,"ĠÐ¿Ð¾Ð²ÐµÐ´ÐµÐ½Ð¸Ðµ":3685,"ĠÐµÐ²":3686,"ÑĥÑİÑīÐ¸Ð¹":3687,"ĠÐ³Ð¾Ð´Ð¾Ð²":3688,"ĠÐ¿Ð¾Ð»ÑĥÑĩÐµÐ½Ð¸Ñı":3689,"ĠÑģÐ²Ð¸Ð´ÐµÑĤÐµÐ»ÑĮÑģÑĤÐ²ÑĥÐµÑĤ":3690,"ĠÐ¿ÑĥÑĤÐ¸":3691,"ÑĨÑĥ":3692,"ĠÑįÐ»ÐµÐ¼ÐµÐ½ÑĤÐ¾Ð²":3693,"ĠÐ¿Ð¾ÑĤÐµÑĢ":3694,"Ð»Ð¸Ð·Ð¼Ð°":3695,"ĠÐ´Ð²Ð¸Ð¶ÐµÐ½Ð¸Ñı":3696,"ÐłÐ°Ð·":3697,"ÑģÐºÐ¸":3698,"ĠÐ¼Ð°ÐºÑģÐ¸Ð¼Ð°":3699,"ÑĨÐ¸ÑıÐ¼":3700,"ĠÑĢÐ°ÑģÑģÐ¼Ð°ÑĤÑĢÐ¸Ð²Ð°ÑĤÑĮ":3701,"ĠÐ¿ÑĢÐµÐ¸Ð¼ÑĥÑīÐµ":3702,"ĠÐ½Ð°ÑĪÐµÐ¹":3703,"ÑģÑĤÐ°Ð²":3704,"ĠÐĵÐµÑĢÐ¼Ð°Ð½Ð¸Ð¸":3705,"ĠÐ¸Ð·Ð¾Ð±":3706,"ĠÑĢÐµÐ³Ð¸Ð¾Ð½Ð¾Ð²":3707,"ĠÑģÐ¾ÑĨÐ¸Ð¾Ð»Ð¾Ð³Ð¸Ð¸":3708,"ĠÐ¿ÑĢÐ¾ÑĦÐµÑģÑģ":3709,"ÑģÑĤÐ²ÐµÐ½Ð½Ð°Ñı":3710,"ĠÐ²Ð¾Ð·Ð½Ð¸ÐºÐ°ÐµÑĤ":3711,"ĠÑģÑĤÑĢÑĥÐºÑĤÑĥÑĢÐ°":3712,"ÐºÐ¾Ðµ":3713,"ĠÑĢÐ°Ð·Ð¼ÐµÑĢ":3714,"ĠÑĩÐµÐ³Ð¾":3715,"Ð·Ð¸ÑĢÐ¾Ð²Ð°ÑĤÑĮ":3716,"ĠÐ¸Ð·Ð±Ð¸ÑĢÐ°":3717,"ĠÐ¾Ð´Ð½Ð°":3718,"ĠÐ¢ÐµÐ¼":3719,"ĠÐ¿Ð¾Ð¼Ðµ":3720,"ĠÐ¿Ð¾Ð»ÑĮÐ·Ð¾Ð²Ð°":3721,"ĠÑģÑĤÑĢÐµÐ¼Ð¸":3722,"ĠÑģÐ¾ÑģÑĤÐ°Ð²Ð»ÑıÐµÑĤ":3723,"ĠÐºÐ°ÑĢÑĤÐ¸":3724,"ĠÑĦÑĢÐ°Ð½":3725,"ĠÐ¾Ð¿Ð¸ÑĢÐ°":3726,"ÑģÑĤÐ¾ÑĢÐ¾Ð½":3727,"ĠÐ¼Ð¾Ð´ÐµÐ»ÐµÐ¹":3728,"Ð´Ð¸Ñı":3729,"ĠÐ°ÑģÑģÐ¾":3730,"ĠÐ¿Ð¾Ð´Ð´ÐµÑĢÐ¶ÐºÐ¸":3731,"ĠÐ¿ÑĢÐ¾ÑĤÐµ":3732,"Ð½Ð¸Ð¼Ð¸":3733,"ĠÐ´ÑĢÑĥÐ³Ð°":3734,"ĠÐ½ÐµÐ±Ð¾Ð»ÑĮÑĪ":3735,"ĠÐ¸Ð½Ð¸ÑĨÐ¸Ð°ÑĤÐ¸Ð²":3736,"Ð¸ÑģÐºÐ°":3737,"ĠÑĢÐ°Ð·Ð²Ð¸ÑĤÐ¸Ð¸":3738,"ÑĨÐµÑģÑģ":3739,"ĠÐ¿ÑĢÐ¾Ð¸ÑģÑħÐ¾Ð´":3740,"ĠÐ¸Ð¼Ð¿ÐµÑĢÐ°":3741,"ĠÑģÑĩÐ¸ÑĤÐ°ÑĤÑĮ":3742,"Ð¸ÑĢÐ¸":3743,"ĠÐ¼ÑĥÐ¶ÑĩÐ¸":3744,"ĠÑĨÐµÐ½ÑĤ":3745,"Ð¾Ð±Ð¾ÑĢ":3746,"ĠÐ¸Ð½Ð²Ð°Ð»Ð¸":3747,"ĠÐºÐ¾Ð½ÑĤ":3748,"Ð¸Ð½ÑĤÐµÑĢÐµÑģ":3749,"ĠÐ¾Ð±ÑĭÑĩÐ½Ð¾":3750,"ÑĦÐ¾ÑĢÐ¼Ñĭ":3751,"Ð±ÐµÑĢ":3752,"Ð´ÐµÑĢÐ¶Ð¸":3753,"ĠÐ´Ð¾ÐºÐ°Ð·Ð°":3754,"Ð¾Ð²Ð°Ð½Ð½ÑĭÑħ":3755,"ĠÐ³Ð¾Ð´Ñĥ":3756,"ĠÐ³ÑĢÐ°Ð¶Ð´Ð°Ð½ÑģÐºÐ¾Ð³Ð¾":3757,"ĠÐ¿Ð¾ÑģÐ»ÐµÐ´Ð¾Ð²Ð°":3758,"Ð°Ð´":3759,"ĠÐºÐ¾Ð½ÑĨÐµÐ¿ÑĨÐ¸Ð¸":3760,"ĠÐ±ÑĢÐ°":3761,"ĠÐ²Ð°Ð»ÑİÑĤ":3762,"Ð¾Ð±ÑĢÐ°Ð·Ð¾Ð²Ð°":3763,"ĠÐ½Ð°Ð¿ÑĢÑı":3764,"Ð°Ð»ÑĮÐ½Ð¾Ðµ":3765,"ĠÐ·Ð°ÑĤ":3766,"ĠÐ¸Ð½ÑĤÐµÑĢÐ²ÑĮÑİ":3767,"ĠÐ¾Ð¿ÑĢÐµÐ´ÐµÐ»Ð¸ÑĤÑĮ":3768,"ĠÑģÐ»Ð¾Ð²Ð°Ð¼Ð¸":3769,"ÑģÐ¸Ð²":3770,"ĠÑĨÐµÐ½Ð½Ð¾ÑģÑĤÐ¸":3771,"ĠÐ²ÑĭÐ´ÐµÐ»Ð¸ÑĤÑĮ":3772,"Ð¾ÑģÐ¾":3773,"ĠÑĨÐµÐ»ÑıÑħ":3774,"ÐŀÐ´":3775,"ĠÐ¿Ð°ÑĢÑĤÐ½ÐµÑĢ":3776,"ĠÐ²Ð¾Ð·Ð²ÑĢÐ°":3777,"ĠÑĤÑı":3778,"ÐºÐ°Ñı":3779,"ĠÐłÐ°Ð·":3780,"ĠÑĢÐµÐºÐ¾Ð¼ÐµÐ½":3781,"ĠÐ²Ð¾ÑģÐ¿ÑĢÐ¾":3782,"ÑĩÐµÐ½Ð¸Ð¹":3783,"ĠÐ¿ÐµÑĢÑģÐ¾Ð½Ð°":3784,"ĠÐºÐ¾Ð´":3785,"ĠÑĥÐ´Ð¾Ð²Ð»ÐµÑĤÐ²Ð¾ÑĢ":3786,"ĠÐ²Ð¼ÐµÑģÑĤÐµ":3787,"ĠÐ¶Ð¸Ð·Ð½ÐµÐ½":3788,"ĠÐ¿ÐµÑĢÐ²ÑĭÐ¹":3789,"ĠÐ¿Ð¾Ð»ÑĥÑĩÐ¸ÑĤÑĮ":3790,"ĠÐĿÐ°Ð¿ÑĢÐ¸Ð¼ÐµÑĢ":3791,"ĠÐĽÐ¸":3792,"ĠÐ¸Ð·Ð¼ÐµÐ½Ð¸":3793,"ĠÐ²ÑĭÑıÐ²Ð¸":3794,"ĠÐ¶ÐµÑģÑĤ":3795,"ĠÐ¼Ð»Ð½":3796,"ĠÐºÐ°ÑĤÐµÐ³Ð¾ÑĢÐ¸":3797,"ÑĢÑĥÑİÑīÐ¸Ñħ":3798,"ĠÐĲÐ»ÐµÐº":3799,"ĠÐ²ÑĭÑģÐ¾ÐºÐ¾Ð¹":3800,"ĠÐ²Ð»Ð°ÑģÑĤÑĮ":3801,"%,":3802,"ĠÐ¿ÑĢÐ¾ÐµÐºÑĤÐ¾Ð²":3803,"ÑĤÐ¸ÐºÑĥ":3804,"ĠÐ¿Ð¾Ð´ÑĩÐµÑĢÐºÐ¸":3805,"ĠÐ¼ÑĭÑĪ":3806,"ĠÐ¿Ð»Ð¾ÑīÐ°":3807,"ĠÐ¾ÑĤÐ´Ð°":3808,"ÑĤÑĥÑĢÐ¸":3809,"ÑĪÐ¸Ð±":3810,"ĠÑĢÐ°Ð±Ð¾ÑĤÐ°Ñħ":3811,"ĠÐ¿ÑĢÐ¾ÑĨÐµÑģÑģÑĭ":3812,"ÐµÐ½Ð½Ð¾ÑģÑĤÑĮ":3813,"ĠÑĥÐ»ÑĥÑĩ":3814,"Ð»ÑıÐµÑĤ":3815,"Ð¶Ð°ÑĤÑĮ":3816,"ÑģÑĤÑĢÐ°Ð¸":3817,"ĠÐºÑĢÐ¸Ð·Ð¸Ñģ":3818,"ĠÑĢÐµÐ¿ÑĢÐµ":3819,"ÑĤÐ¸ÑĩÐµÑģÐºÐ¾Ðµ":3820,"Ð·ÑĥÐµÑĤÑģÑı":3821,"ĠÐ¿ÑĢÐµÐ´Ð¾ÑģÑĤÐ°Ð²Ð»Ñı":3822,"ĠÐ´Ð¾ÑĪÐºÐ¾Ð»ÑĮ":3823,"Ð¼ÑĭÐ¼":3824,"ĠÐ¿ÑĢÑı":3825,"ĠÐ¿Ð¾Ð²ÑĭÑĪÐµÐ½Ð¸Ñı":3826,"ĠÐ´Ð¾Ð²Ð¾Ð»ÑĮÐ½Ð¾":3827,"ĠÐ¿ÑĢÐ¸Ð²ÐµÐ´ÐµÐ½":3828,"ĠÐ¸Ð½ÑĤÐµÐ½ÑģÐ¸":3829,"ÑīÐ¸Ð½Ñĭ":3830,"ĠÐ°Ð²ÑĤÐ¾ÑĢÑĭ":3831,"ĠÐ´ÐµÐ¹ÑģÑĤÐ²Ð¸Ðµ":3832,"ĠÐºÐ¾Ð¼Ð¸":3833,"ÑĢÐ¾Ð²Ð°Ð½Ð½Ð¾Ð³Ð¾":3834,"ĠÑĥÑĩÐµÐ½ÑĭÑħ":3835,"ÑĤÑĭÐ¹":3836,"ĠÐ¸Ð½ÑĦÑĢÐ°ÑģÑĤÑĢÑĥÐº":3837,"ĠÑĥÑĩÑĢÐµÐ¶Ð´ÐµÐ½Ð¸Ð¹":3838,"ĠÐ»Ð¸Ð´ÐµÑĢ":3839,"ĠÐ»Ð¸ÑĩÐ½Ð¾ÑģÑĤ":3840,"ĠÑĥÐ½Ð¸Ð²ÐµÑĢ":3841,"ÑģÑĤÐ²Ð¸Ð¹":3842,"ĠÐ¿ÑĢÐ°ÐºÑĤÐ¸Ðº":3843,"ĠÐ¾ÑģÐ½Ð¾Ð²Ð½Ð¾Ð¹":3844,"ĠÐ´Ð¾ÐºÑĥÐ¼ÐµÐ½ÑĤÐ°":3845,"ĠÐ·Ð²Ñĥ":3846,"ĠÐ¼ÐµÑĤÐ¾Ð´Ð°":3847,"Ð¾ÑĢÐ°Ð·":3848,"Ð»ÐµÐ³":3849,"ĠÐ´Ð¸ÑĦÑĦÐµÑĢÐµÐ½":3850,"ĠÐ¾ÑĤÑĢÐ°Ð¶":3851,"ĠÐ¾ÑĤÐ½Ð¾ÑģÑıÑĤÑģÑı":3852,"ĠÐŁÑĢÐ¾":3853,"ĠÑģÐ±Ð¾ÑĢ":3854,"ĠÐķÐ¡":3855,"ĠÐ´ÐµÐ»Ð¾":3856,"Ð¼Ð¸Ð¸":3857,"ĠÐ¸Ð½ÑĤÐµÐ»Ð»ÐµÐºÑĤÑĥÐ°Ð»ÑĮ":3858,"ĠÐ²ÑĭÑıÐ²Ð»ÐµÐ½":3859,"ĠÑģÐºÐ°Ð·Ð°ÑĤÑĮ":3860,"ÑģÐ¿Ð¾ÑģÐ¾Ð±":3861,"ĠÑĢÐ°Ð·Ð»Ð¸ÑĩÐ°":3862,"ĠÐ¾ÑĤÐ²ÐµÑĤÑģÑĤÐ²ÐµÐ½Ð½Ð¾ÑģÑĤÑĮ":3863,"ĠÐ¿ÑĢÐ¸Ð¾Ð±ÑĢÐµÑĤÐ°":3864,"ĠÐºÐ¸ÑĤÐ°":3865,"ÑīÐ¸Ð¼Ð¸":3866,"ÑģÐ½Ð¾Ð¹":3867,"ĠÐ½Ð°ÐºÐ°Ð·Ð°":3868,"Ð»ÑıÑĤÑĮ":3869,"ĠÐ²ÐµÐºÐ°":3870,"Ð¶Ñĥ":3871,"ÐµÐ½Ð½ÑĭÐ¹":3872,"ĠÐ¿ÑĢÐµÐºÑĢÐ°":3873,"ĠÐ¸Ð½ÑĤÐµÑĢÐµÑģÑĭ":3874,"ĠÑħÑĥÐ´":3875,"ĠÑĥÑĩÐ°ÑģÑĤÐ²":3876,"ÑĢÐ¾Ð²Ð°ÑĤÑĮÑģÑı":3877,"ĠÐ¿ÑĢÐµÐ²Ñĭ":3878,"ĠÐ¸Ñİ":3879,"ĠÐ¿ÑĢÐµÐ´Ð¿ÑĢÐ¸ÑıÑĤÐ¸Ð¹":3880,"ĠÐ´Ð¾ÑħÐ¾Ð´Ð¾Ð²":3881,"Ð¸ÑĤÑĮÑģÑı":3882,"ĠÐ¸ÑģÑģÐ»ÐµÐ´Ð¾Ð²Ð°ÑĤÐµÐ»ÐµÐ¹":3883,"ĠÑģÐ¾Ð±Ð»Ñİ":3884,"ÑĤÐ¸ÑĢÐ¾Ð²Ð°ÑĤÑĮ":3885,"ĠÐ¾ÑģÐ¾Ð±ÐµÐ½Ð½Ð¾ÑģÑĤÐµÐ¹":3886,"ĠÑĪÐ°":3887,"ĠÑģÑĥÐ¼":3888,"ĠÑģÑĢÐµÐ´Ð½ÐµÐ³Ð¾":3889,"ĠÐºÐ¾Ð¼Ð¸Ñģ":3890,"ĠÑĥÑĩÐ¸ÑĤÐµÐ»Ñı":3891,"Ð»ÑĮÐ½ÑĥÑİ":3892,"ĠÐ¿ÑĢÐ¸Ð¼ÐµÐ½Ð¸":3893,"ĠÑģÐ¾Ð¾ÑĤÐ²ÐµÑĤÑģÑĤÐ²ÐµÐ½Ð½Ð¾":3894,"ĠÐºÐ¾ÑĢÐ¿Ñĥ":3895,"ĠÐºÑĢÐµÐ´Ð¸ÑĤ":3896,"ÑĩÐ°ÑģÑĤÐ¸":3897,"ĠÐ¾ÑĪÐ¸Ð±":3898,"Ð²ÑĪÐµÐ¹":3899,"ĠÐ½ÑĥÐ¶Ð½Ð¾":3900,"ĠÑģÑĢÐµÐ´Ðµ":3901,"ĠÑģÐ¾ÑİÐ·":3902,"ÑĪÐ»Ð¸":3903,"ĠÑĦÐ¸Ð»Ð¾ÑģÐ¾ÑĦ":3904,"ĠÐ¿Ð°Ð¼ÑıÑĤ":3905,"ĠÐŁÐ¾Ð»":3906,"ĠÐºÐ¾ÑįÑĦÑĦÐ¸ÑĨÐ¸":3907,"Ð¾ÑĤÐµ":3908,"Ð½Ð¾Ð¿":3909,"ĠÐ¿Ð¾ÑĤÐµÐ½ÑĨÐ¸Ð°Ð»ÑĮ":3910,"ĠÐ¿ÑĢÐµÐ²ÑĢÐ°":3911,"ĠÐ°ÑĢÑħÐ¸":3912,"ĠÐ²ÑģÑı":3913,"ĠÐ²Ð¾Ð·Ð´ÐµÐ¹ÑģÑĤÐ²Ð¸Ñı":3914,"ĠÐºÐ°Ð¶Ð´Ð¾Ð¹":3915,"ÑĨÐµÐ¿":3916,"ÑĤÑĢÐ¾Ð½":3917,"ĠÐ°ÐºÑĤÐ¾Ð²":3918,"ĠÐ¿ÑĢÐ¸ÑĩÐµÐ¼":3919,"Ð²ÑıÐ½":3920,"ĠÐ¼ÑĥÐ½Ð¸ÑĨÐ¸Ð¿":3921,"Ð¼Ð¾Ð¹":3922,"ĠÑĢÐ¸Ñģ":3923,"ĠÑıÐ²Ð»ÐµÐ½Ð¸Ñı":3924,"ĠÐ´ÐµÐº":3925,"ĠÑģÐ¿ÐµÑĨÐ¸Ð°Ð»Ð¸ÑģÑĤÐ¾Ð²":3926,"ÑĥÐµÑĤÑģÑı":3927,"ĠÐ¿Ð¾ÑģÑĤÐµÐ¿ÐµÐ½":3928,"ĠÐ¿Ð¾Ð»Ð¸ÑĤÐ¸ÐºÐ°":3929,"Ð¶ÐµÐ½Ð¸Ñİ":3930,"ÑīÐ°ÐµÑĤÑģÑı":3931,"ĠÑģÐºÐ»Ð¾Ð½":3932,"ĠÐ´Ð°Ð»ÑĮÐ½ÐµÐ¹":3933,"ÑĩÐ°Ñģ":3934,"ĠÐ°Ð»ÑĮÑĤÐµÑĢÐ½Ð°":3935,"ĠÑĪÐºÐ¾Ð»ÑĮÐ½Ð¸ÐºÐ¾Ð²":3936,"ĠÐ¿Ð¾Ð´ÑĩÐ¸":3937,"ÑħÐ¾Ð¶Ð´ÐµÐ½Ð¸Ñı":3938,"ĠÐ²Ð¾Ð¾Ð±ÑīÐµ":3939,"ÑĦÐ¾ÑĢÐ¼ÑĥÐ»Ð¸":3940,"Ð»Ð¾Ð¶ÐµÐ½Ð¸Ñı":3941,"ĠÐ²ÑĭÐ½Ñĥ":3942,"ĠÐĴÐ¾Ð·":3943,"ĠÑģÑĤÐ¾Ð¸Ð¼Ð¾ÑģÑĤÐ¸":3944,"ÑīÐµÑģÑĤÐ²Ð¾":3945,"ĠÐ½ÐµÐ²Ð¾Ð·Ð¼Ð¾Ð¶Ð½Ð¾":3946,"Ð»Ð¾Ð³":3947,"Ð²Ð°Ð»ÑģÑı":3948,"ĠÐ¾Ð±ÑīÐµÑģÑĤÐ²Ð¾":3949,"ĠÐ±Ð¾Ð»ÑĮÑĪÐ¸Ð½ÑģÑĤÐ²Ðµ":3950,"ĠÑĤÐ¸Ð¿Ð¾Ð²":3951,"ĠÐ·Ð°Ð²ÐµÑĢ":3952,"ĠÐŃÑĤÐ¸":3953,"ÑĩÐµÐ½Ð¸Ñİ":3954,"ÑĢÐ¸Ð¼":3955,"ĠÐ²Ð·Ð°Ð¸Ð¼Ð¾":3956,"ĠÐºÐ»Ð°ÑģÑģÐ°":3957,"Ð´ÐµÐ½Ð¸Ðµ":3958,"ĠÐ¿ÑĢÐ¾ÐµÐºÑĤ":3959,"ĠÐ´Ð¸ÑģÑĨÐ¸Ð¿Ð»Ð¸":3960,"Ð¾Ð¶Ð´ÐµÐ½Ð¸Ðµ":3961,"ĠÐ¿ÑĢÐ¾ÑĤÑıÐ¶ÐµÐ½Ð¸Ð¸":3962,"Ð¸Ð»Ð°":3963,"ÑĩÐ½Ð°Ñı":3964,"Ð¾Ð¿ÑĢÐ¸ÑıÑĤ":3965,"Ð²Ð¾Ð±":3966,"Ð°Ð»ÑĮÐ½ÑĭÐ¼":3967,"Ð¾Ð²Ð°Ð»":3968,"ÑĢÐ¸ÑĤÐ°":3969,"ĠÐĺÐ¼ÐµÐ½Ð½Ð¾":3970,"ĠÐ½ÐµÐ¿Ð¾ÑģÑĢÐµÐ´ÑģÑĤÐ²ÐµÐ½Ð½Ð¾":3971,"Ð½Ð°ÑĢ":3972,"ĠÐ¿ÑĢÐ¾Ð²Ð¾Ð´Ð¸":3973,"ÐŁÐµÑĢ":3974,"ĠÐ¡ÑĤÐ°":3975,"ĠÐ½Ð°ÑĨÐ¸Ð¾Ð½Ð°Ð»ÑĮÐ½ÑĭÑħ":3976,"ĠÐºÐ¾Ð½ÑĤÐ°Ðº":3977,"ÐµÐ·ÑĥÐ»ÑĮÑĤÐ°":3978,"ĠÑģÐ°Ð¼Ð¾Ð¹":3979,"ĠÐ²Ð¾Ð·Ð¼Ð¾Ð¶Ð½Ð¾ÑģÑĤÐµÐ¹":3980,"ĠÐ¿ÑĢÐµÐ´ÑĥÑģÐ¼Ð¾ÑĤÑĢÐµÐ½":3981,"ĠÐ¾ÑĤÐ²ÐµÑĩÐ°":3982,"ĠÑĥÐ³Ð¾Ð»Ð¾Ð²Ð½Ð¾Ð³Ð¾":3983,"ĠÑĦÐ°":3984,"Ð°Ð»Ð°Ð½":3985,"ĠÐ°Ð²ÑĤÐ¾Ð½Ð¾Ð¼":3986,"ĠÐ¿ÑĢÐ¸Ð½ÑĨÐ¸Ð¿Ð¸":3987,"ĠÐ²Ð¾Ð¿ÑĢÐ¾ÑģÐ°":3988,"ÑĨÐ¾Ð²":3989,"ĠÐŀÐ´":3990,"ÑħÑĥ":3991,"ĠÐ¿Ð°ÑĢÑĤÐ¸Ð¸":3992,"ĠÐ¿Ð°ÑĢÐ»Ð°":3993,"ĠÐ½Ð°ÑĨÐ¸Ð¾Ð½Ð°Ð»ÑĮÐ½Ð¾Ð¹":3994,"ĠÐ¿ÐµÑĢÐµÐ²Ð¾Ð´Ð°":3995,"Ð¸Ñİ":3996,"ĠÐ¿Ð¾ÑĢÑıÐ´Ð¾Ðº":3997,"ÑĢÐ°Ð¼":3998,"ĠÑģÑĤÐ¸Ð¼ÑĥÐ»Ð¸":3999,"ÑĢÐ°Ð±Ð°ÑĤÑĭ":4000,"Ð¸Ð»Ð¸ÑģÑĮ":4001,"ĠÐ¡Ð¸Ð±":4002,"ĠÑĢÐµÑģÐ¿Ð¾Ð½Ð´ÐµÐ½ÑĤÐ¾Ð²":4003,"Ð¸Ð»Ð¾":4004,"ĠÐ¸ÑģÑģÐ»ÐµÐ´Ð¾Ð²Ð°Ð½Ð¸ÑıÑħ":4005,"ĠÑĨÐµÐ½Ð½Ð¾ÑģÑĤ":4006,"ĠÐ¾Ð¿ÑĢÐµÐ´ÐµÐ»ÑıÐµÑĤÑģÑı":4007,"ĠÑĥÑģÑĤ":4008,"ÑĢÐ·":4009,"ĠÐ¼Ð°ÑĢÐº":4010,"ĠÑģÐ²Ð¾ÐµÐ¼":4011,"ĠÐ´ÐµÑĤÐ¸":4012,"ĠÐ¾Ð±ÑĥÑĩÐµÐ½Ð¸Ðµ":4013,"ĠÐ§Ðµ":4014,"Ð½Ð°Ð»Ð¸Ð·":4015,"ĠÐ¿Ð¾ÐºÐ°Ð·Ð°ÑĤÐµÐ»ÑĮ":4016,"ĠÑģÐ²ÑıÐ·Ð°Ð½Ð°":4017,"ĠÑĥÐ½Ð¸Ð²ÐµÑĢÑģÐ¸ÑĤÐµÑĤ":4018,"ÑĢÐ¾ÑĤ":4019,"ÑĥÐ¿ÑĢÐ°Ð²":4020,"ĠÐ¼ÐµÑģÑĤÐ½Ð¾Ð³Ð¾":4021,"ÑģÑĤÐ²Ð¾Ð²Ð°Ð½Ð¸Ñı":4022,"ÑĪÐ°Ñı":4023,"ĠÐ²Ð½ÐµÑĪÐ½ÐµÐ¹":4024,"ÑĤÐ°ÐºÑģÐ¸":4025,"ĠÑĦÐ¸ÐºÑģÐ¸":4026,"ĠÐºÑĢÐ°ÑĤ":4027,"ĠÐ¼Ð¸Ð³ÑĢÐ°Ð½":4028,"ĠÐ½ÐµÐ¿ÑĢÐ¸":4029,"ĠÐ½Ð°ÑħÐ¾Ð´Ð¸ÑĤÑģÑı":4030,"ĠÐ²ÐµÐ»Ð¸ÑĩÐ¸":4031,"ĠÐ½ÐµÑģÐºÐ¾Ð»ÑĮÐºÐ¸Ñħ":4032,"ĠÐ·Ð°Ð¸Ð½ÑĤÐµÑĢÐµÑģ":4033,"ĠÐ±Ð»Ð°Ð³Ð¾Ð´Ð°ÑĢÑı":4034,"ÑĥÑİÑīÐµÐµ":4035,"Ð¾ÑģÐ¿Ð¾ÑģÐ¾Ð±":4036,"ĠÐĴÐĴ":4037,"ĠÐºÑĢÐ¸Ð·Ð¸ÑģÐ°":4038,"ĠÐ½Ñĥ":4039,"ĠÐºÐ¾Ð¿":4040,"ĠÐ±Ð¸Ð·Ð½ÐµÑģ":4041,"Ð¾Ð¿ÑĢÐ¾Ñģ":4042,"ÐµÑĤÐ°":4043,"ĠÑįÐºÑģÐ¿Ð¾ÑĢ":4044,"ĠÐ½ÐµÑĦ":4045,"ÐĴÑģÐµ":4046,"ĠÐ¸ÐµÑĢÐ°":4047,"ĠÐ±Ð»Ð¸":4048,"ĠÑĢÐ¸ÑģÐºÐ°":4049,"ĠÐľÑĭ":4050,"ĠÑģÐ²Ð¾Ð¸Ð¼":4051,"ĠÑģÐ¸Ð¼Ð²Ð¾Ð»":4052,"ĠÑģÑĤÑĥÐ´ÐµÐ½ÑĤÑĭ":4053,"Ð°Ð´Ð°":4054,"ÑĤÐµÐ»ÑĮÑģÐºÐ¾Ð¹":4055,"ĠÑĢÑĥÑģÑģÐºÐ¾Ð¹":4056,"Ð¸Ñĩ":4057,"ĠÐ¿ÑĭÑĤÐ°":4058,"ĠÐ¾Ð±ÑīÐµÐ½Ð¸Ñı":4059,"Ð²Ð°Ð»Ð°":4060,"Ð¸Ð±Ð¾Ð»ÑĮÑĪ":4061,"ĠÐ¾ÑĨÐµÐ½ÐºÐ°":4062,"ÐµÐ½Ð½Ð¾":4063,"ĠÐºÐ°ÑĩÐµÑģÑĤÐ²Ð¾":4064,"ĠÐ°Ð´ÑĢÐµ":4065,"Ð±ÑĢÐ°Ð½":4066,"ĠÑĢÐ°Ð·Ð²Ð¸Ð²Ð°":4067,"ĠÑĤÐµÑħÐ½Ð¾Ð»Ð¾Ð³Ð¸Ð¸":4068,"ĠÐ¿ÑĢÐ¾Ð´Ð¾Ð»Ð¶Ð¸":4069,"Ð¡Ð¾":4070,"ĠÐ¿Ð¾ÑĤÐµÐ½ÑĨÐ¸Ð°Ð»":4071,"ĠÐ¸Ð½Ð²ÐµÑģÑĤÐ¸ÑĨÐ¸Ð¹":4072,"ĠÐºÐ¾Ð½ÐºÑĢÐµÑĤÐ½ÑĭÑħ":4073,"ĠÐ¿Ð¾Ð½Ð¸Ð¼Ð°Ð½Ð¸Ðµ":4074,"ĠÐ·Ð°Ð±":4075,"ĠÑģÑĤÐ¾Ð¸ÑĤ":4076,"ÐµÐ¼ÑĭÐ¼":4077,"ĠÑģÐ¼Ñĭ":4078,"ÐŀÑģÐ½Ð¾Ð²":4079,"ĠÑģÑħÐµÐ¼":4080,"ĠÐ¸ÑģÐ¿Ñĭ":4081,"ĠÑĢÐµÐ¶Ð¸":4082,"ÑĤÑĢÐ¾Ð¿":4083,"ĠÐ¸Ð½Ð´ÐµÐº":4084,"ĠÐ³Ð»Ð°Ð³Ð¾Ð»":4085,"ĠÑģÐµÑĤ":4086,"ĠÑĩÐ°ÑģÑĤÑĮÑİ":4087,"ĠÑĥÐ¼ÐµÐ½ÑĮ":4088,"ĠÐ¾Ð±Ð¾Ð±":4089,"ĠÐ°Ð½Ð°Ð»Ð¾Ð³Ð¸":4090,"ĠÐ¾ÑĢÐ¸ÐµÐ½ÑĤÐ°":4091,";.":4092,"ÑĩÐ°ÑĤ":4093,"ĠÐºÐ¾Ð³Ð½Ð¸":4094,"ĠÐ¿ÑĢÐ¾ÑĦÐ¸":4095,"ÐŁÐ¾ÑįÑĤÐ¾Ð¼Ñĥ":4096,"ĠÑģÐ»Ð¾Ð¶Ð¸Ð²":4097,"ĠÑģÐ¿ÐµÑĨÐ¸ÑĦÐ¸ÑĩÐµÑģÐº":4098,"ĠÐ¿ÐµÑĢÐ²Ð¾Ð³Ð¾":4099,"ĠÐ°Ð²ÑĤÐ¾Ð¼":4100,"ĠÐ±Ð¸Ð·Ð½ÐµÑģÐ°":4101,"ÑĦÐ»ÐµÐº":4102,"ĠÐĲÐ²":4103,"Ð¾Ð±Ð»Ð°Ð´Ð°":4104,"ĠÑģÐ¾ÑģÑĤÐ¾ÑıÐ½Ð¸Ñı":4105,"ĠÐºÑĢÐ°Ð¹Ð½Ðµ":4106,"ĠÑģÐ»Ð¾Ð²Ð¾":4107,"ĠÐºÑĢÐµÑģÑĤÑĮÑıÐ½":4108,"Ð¿Ð»Ð¸":4109,"ĠÐ²ÐºÐ»ÑİÑĩÐ°Ñı":4110,"ĠÐ¼ÐµÑĤÐ¾Ð´Ñĭ":4111,"ĠÐ¾ÑģÐ½Ð¾Ð²Ð°Ð½":4112,"ĠÑģÑĢ":4113,"ĠÐ°Ð±ÑģÐ¾Ð»ÑİÑĤ":4114,"Ð°Ð½Ð´Ð¸Ð´Ð°":4115,"ĠÐ¿ÑĢÐ¾ÑĦÐµÑģÑģÐ¸Ð¾Ð½Ð°Ð»ÑĮÐ½ÑĭÑħ":4116,"ĠÐ²ÐºÐ»ÑİÑĩÐ°ÐµÑĤ":4117,"ĠÐºÐ¾Ð½ÑģÑĤÑĢÑĥÐºÑĨÐ¸Ð¸":4118,"Ð¾Ð¶Ð°":4119,"ĠÑĢÐ°ÑģÐºÑĢÑĭ":4120,"ĠÐ¿ÑĢÐ°Ð²Ð¸ÑĤÐµÐ»ÑĮÑģÑĤÐ²Ð°":4121,"ĠÑĨÐµÑĢÐºÐ¾Ð²":4122,"ÑīÐµÐ½Ð¸Ð¸":4123,"ĠÐ¿Ð»Ð°ÑĤÑĭ":4124,"ĠÐ¶ÑĥÑĢ":4125,"ĠÐ¾Ð±ÑīÐµÑģÑĤÐ²ÐµÐ½Ð½Ð¾Ð³Ð¾":4126,"ĠÐ²ÐµÐº":4127,"ĠÑĦÑĢÐ°":4128,"ĠÑģÑĤÑĢÐ°ÑĤÐµÐ³Ð¸":4129,"ÑıÐ²Ð»":4130,"Ð»Ð°Ð¼":4131,"ĠÑĤÐµÐºÑģÑĤ":4132,"Ð¹Ð½":4133,"ĠÐ¿ÑĢÐ¸Ð½ÑĨÐ¸Ð¿Ð¾Ð²":4134,"ÑģÑĤÐ²ÐµÐ½Ð½Ð¾Ð¼":4135,"ĠÑģÑħÐ¾Ð´":4136,"Ð²ÑĪÐ¸ÑħÑģÑı":4137,"ÑīÐµÐ³Ð¾ÑģÑı":4138,"ÑīÑĥ":4139,"ĠÑĦÐ¸Ð½Ð°Ð½ÑģÐ¾Ð²ÑĭÑħ":4140,"Ð¾Ð³ÑĢÐ°ÑĦ":4141,"ÑĩÐµÐ½Ð¾":4142,"ĠÐºÑĥÑĢÑģÐ°":4143,"Ð¾ÐºÑĥÐ»ÑĮÑĤÑĥÑĢ":4144,"Ð½ÐµÐ¼Ñĥ":4145,"ĠÐ¸Ð·ÑĥÑĩÐµÐ½Ð¸Ðµ":4146,"Ð²ÐµÐ´ÐµÐ½Ð¸Ðµ":4147,"ĠÐ¼Ð°ÑĤÐµÐ¼Ð°":4148,"ĠÐ¾Ð±ÑģÑĥÐ¶Ð´Ð°":4149,"ĠÐºÐ¾Ð¼Ð¼ÐµÑĢ":4150,"ĠÑħÐ°ÑĢÐ°ÐºÑĤÐµÑĢÐ¸ÑģÑĤÐ¸Ðº":4151,"ĠÐ¿ÑĢÐµÐ·Ð¸Ð´ÐµÐ½":4152,"ĠÐ¿Ð¾Ð¿ÑĥÐ»ÑıÑĢ":4153,"ÑģÑĤÑĢÐ¾Ð¹ÑģÑĤÐ²Ð°":4154,"ĠÐºÑĢÐµÐ´Ð¸":4155,"ĠÑĦÐ°ÐºÑĤÐ¾ÑĢ":4156,"ĠÑĦÑĥÐ½ÐºÑĨÐ¸Ð¹":4157,"ĠÐ·Ð´Ð¾ÑĢÐ¾Ð²ÑĮÑı":4158,"ĠÐ¿Ð¾Ð½Ð¸Ð¼Ð°Ð½Ð¸Ñı":4159,"ĠÑģÐ¾ÑĨÐ¸Ð°Ð»Ð¸":4160,"ĠÐ·Ð°Ð½ÑıÑĤÐ¾ÑģÑĤÐ¸":4161,"ĠÑĤÐ¾Ð²Ð°ÑĢÐ¾Ð²":4162,"ĠÐ¿Ð¾Ð·Ð¸ÑĨÐ¸Ð¹":4163,"Ð¢ÐµÐ¼":4164,"ĠÐ´ÐµÑģÑıÑĤÐ¸Ð»ÐµÑĤ":4165,"ÑģÑĤÐ²Ð¸Ð¸":4166,"ĠÑħÐ¾Ð·ÑıÐ¹ÑģÑĤÐ²Ð°":4167,"ĠÑįÐºÐ¾Ð½Ð¾Ð¼Ð¸ÐºÐµ":4168,"ÑĤÐ¸ÑĢÑĥ":4169,"Ð²Ð°ÑĢÐ¸":4170,"ĠÐºÐ°Ð´ÑĢÐ¾Ð²":4171,"ÑģÐ¾Ð¾Ð±ÑĢÐ°Ð·":4172,"Ð¿Ð¾Ð½":4173,"ĠÐ¾Ð´Ð½Ð¾Ð¼":4174,"ÑĥÐ»":4175,"ĠÐ³ÑĢÐ°Ð½Ð¸ÑĨ":4176,"Ð·ÑĮ":4177,"ÑīÐ°ÐµÑĤ":4178,"ÑĩÐµÐ¼Ñĥ":4179,"ÑģÐ½ÑĭÑħ":4180,"ĠÐ½ÐµÐ·Ð½Ð°":4181,"ĠÐ¸Ð´ÐµÐ¹":4182,"ĠÑĦÐµÐ½Ð¾Ð¼ÐµÐ½":4183,"ĠÑģÑĦÐ¾ÑĢÐ¼ÑĥÐ»Ð¸":4184,"Ð¶Ð½ÑĭÑħ":4185,"Ð²ÑĪÐµÐ³Ð¾":4186,"Ð¿Ð¾Ð»ÑĮÐ·":4187,"ĠÐ¾ÑĤÐºÐ°Ð·Ð°":4188,"Ð½ÐµÑģÑĤÐ¸":4189,"Ð¾Ð¿Ð¾ÑģÑĤÐ°":4190,"ÑĩÐµÑģÐºÐ¸Ð¼Ð¸":4191,"ĠÐ¸ÑģÐºÐ»ÑİÑĩÐ¸ÑĤÐµÐ»ÑĮÐ½Ð¾":4192,"ĠÐ¿ÑĢÐµÐ´ÑģÑĤÐ°Ð²Ð»ÑıÑİÑĤ":4193,"ĠÐ¾Ð±ÐµÑģÐ¿ÐµÑĩÐµÐ½Ð¸Ðµ":4194,"ÑģÑĤÐ²ÐµÐ½Ð½ÑĥÑİ":4195,"ĠÐ¸Ð½ÑĦÐ¾ÑĢÐ¼Ð°ÑĨÐ¸Ñİ":4196,"ÑĩÐ°ÑģÑĤÑĥÑİ":4197,"ĠÐ½Ð°Ð²ÑĭÐºÐ¾Ð²":4198,"ĠÐ¸Ð¼Ð¿ÐµÑĢÐ¸Ð¸":4199,"ĠÑĥÐ½Ð¸Ð²ÐµÑĢÑģÐ¸ÑĤÐµÑĤÐ¾Ð²":4200,"ĠÑĩÑĢÐµÐ·":4201,"ĠÑįÑĦÑĦÐµÐºÑĤÐ¸Ð²Ð½Ð¾ÑģÑĤÑĮ":4202,"ĠÑĥÑĢ":4203,"ĠÐĺÐ½ÑĤÐµÑĢ":4204,"Ġ//":4205,"ÑĨÐ¸Ð¾Ð½Ð½Ð°Ñı":4206,"ĠÐĲÑĢ":4207,"ĠÐ¾ÑĢÐ³Ð°Ð½Ñĭ":4208,"ĠÑĥÑĩÐ¸ÑĤÑĭÐ²Ð°ÑĤÑĮ":4209,"ĠÑģÐ¿ÑĢÐ°Ð²ÐµÐ´Ð»Ð¸Ð²Ð¾":4210,"Ð·Ð¾ÑĢ":4211,"ĠÐ°Ð²ÑĤÐ¾ÑĢÐ°":4212,"ĠÐºÐ°Ð½Ð´Ð¸Ð´Ð°":4213,"ĠÑĤÐ°Ð±Ð»":4214,"ĠÐ°Ð²ÑĤÐ¾ÑĢÐ¾Ð²":4215,"ĠÐ²Ð¾Ð·ÑĢÐ°ÑģÑĤÐµ":4216,"ĠÐ´Ð¾ÑģÑĤÐ¸Ð³":4217,"ĠÐķÐ²ÑĢÐ¾Ð¿Ñĭ":4218,"ĠÑģÐ»ÑĥÐ¶Ð¸":4219,"ĠÐ»Ð¸Ð±ÐµÑĢÐ°":4220,"ĠÐ¼ÐµÑģÑĤÐµ":4221,"ĠÑģÑĤÑĢÑĥÐºÑĤÑĥÑĢÐµ":4222,"Ð¿ÑĥÑĤÐ°":4223,"ÑĤÐ¾Ð³Ð¾":4224,"ĠÐºÐ½Ñı":4225,"...":4226,"ĠÐķÐ²ÑĢÐ¾Ð¿ÐµÐ¹":4227,"Ð¸Ð½Ð³":4228,"ĠÑģÑĤÐ°Ð½Ð¾Ð²ÑıÑĤÑģÑı":4229,"ĠÑģÐ¼ÑĭÑģÐ»":4230,"ĠÐ¿Ð¾Ð»Ðµ":4231,"ĠÐ²ÑĭÐ´Ð°":4232,"ĠÑĢÐµÐ³Ð¸Ð¾Ð½Ðµ":4233,"ĠÐ¸Ð·Ð¼ÐµÐ½ÐµÐ½Ð¸Ðµ":4234,"ĠÐ´Ð¾Ð¼Ð¸Ð½Ð¸":4235,"ĠÑģÐ¾Ð¾Ð±ÑīÐµÑģÑĤÐ²":4236,"ĠÐ¿ÐµÑĢÐ²ÑĭÑħ":4237,"ĠÐ¾Ð¿ÑĢÐµÐ´ÐµÐ»ÐµÐ½Ð½Ð¾Ð¹":4238,"ÑģÑĤÐ²ÐµÐ½Ð½ÑĭÐ¼Ð¸":4239,"ÑĢÐ¾ÑģÐ¾Ð²":4240,"ĠÐ¿Ð¾Ð½ÑıÑĤÐ¸Ðµ":4241,"ĠÐ¿ÑĢÐ°Ð²Ð¸Ð»":4242,"ĠÐ³Ð¾Ð»Ð¾Ñģ":4243,"ĠÐ¸Ð½ÑģÑĤÑĢÑĥÐ¼ÐµÐ½ÑĤÐ°":4244,"ĠÐ¡Ð»ÐµÐ´":4245,"ĠÐĶÐµ":4246,"ĠÐ¿Ð¾ÑıÐ²Ð¸":4247,"ĠÐ¾Ð¿ÑĢÐµÐ´ÐµÐ»ÐµÐ½Ð¸Ðµ":4248,"Ð¾Ð²Ð°Ð½Ñĭ":4249,"ĠÐ½ÐµÐµ":4250,"ÐŁÐµ":4251,"Ð´Ð¸Ð½":4252,"ĠÐ³ÑĢÐ°Ð½Ð¸ÑĨÑĭ":4253,"ĠÐ¾ÑģÑĥÑīÐµÑģÑĤÐ²Ð»ÐµÐ½Ð¸Ñı":4254,"ĠÐ½Ð°Ð±Ð»ÑİÐ´Ð°ÐµÑĤÑģÑı":4255,"ĠÑģÐ¾Ð²ÑĢÐµÐ¼ÐµÐ½Ð½Ð¾Ð³Ð¾":4256,"ÐµÑĢÑĪÐµÐ½":4257,"ĠÑħÐ¾ÑĢÐ¾ÑĪÐ¾":4258,"Ð¾ÑģÑĥÐ´Ð°":4259,"ĠÐ¾Ð±ÐµÑģÐ¿ÐµÑĩÐ¸ÑĤÑĮ":4260,"Ð½Ð¸ÑĤÐ°ÑĢ":4261,"ĠÐ¾Ð±ÑĢÐ°Ð·Ð¾Ð²":4262,"Ð¿Ð»Ð¾Ð¼":4263,"ĠÐ¡ÐµÐ²ÐµÑĢ":4264,"ĠÑĥÐ¿Ð¾Ð¼Ð¸Ð½Ð°":4265,"ÑĤÐµÑħÐ½Ð¸":4266,"Ð¾Ð»Ð¾Ð³Ð¸ÑĩÐµÑģÐºÐ¸Ð¹":4267,"ĠÑĤÑĢÐ°Ð´Ð¸ÑĨÐ¸Ð¸":4268,"ĠÑĥÐ²ÐµÑĢ":4269,"ĠÐ¾ÑĨÐµÐ½ÐºÐµ":4270,"ĠÐ¿Ð¾Ð»ÐµÐ·":4271,"ÑĩÐµÐ²Ð¸Ð´":4272,"ĠÑıÑĢ":4273,"ĠÐ½Ð°ÐºÐ¾Ð¿":4274,"ĠÐ¾Ð¿Ð¸ÑģÐ°Ð½Ð¸Ñı":4275,"ĠÐ¿ÑĢÐ¾Ð³ÑĢÐ°Ð¼Ð¼Ð°":4276,"ĠÐ¸ÑģÑģÐ»ÐµÐ´Ð¾Ð²Ð°ÑĤÐµÐ»Ð¸":4277,"ĠÑįÑĦÑĦÐµÐºÑĤ":4278,"ĠÐĴÐĴÐŁ":4279,"ĠÐ¦ÐµÐ½":4280,"ĠÐĿÐ¾Ð²":4281,"ĠÑģÐ¾Ð¾ÑĤÐ²ÐµÑĤÑģÑĤÐ²ÑĥÑİÑīÐ¸Ñħ":4282,"ĠÑģÐ¾ÑģÑĤÐ¾ÑıÐ½Ð¸Ðµ":4283,"ĠÐ¿Ð»Ð°Ð½":4284,"ĠÐ¿ÑĢÐ¾Ð³ÑĢÐµ":4285,"ĠÑĦÑĢÐ°Ð½ÑĨÑĥÐ·":4286,"ĠÐĴÐµÐ»Ð¸Ðº":4287,"ĠÐ·Ð°ÑĢÐ°Ð±Ð¾ÑĤÐ½Ð¾Ð¹":4288,"ĠÐ¾ÑĦÐ¾ÑĢÐ¼":4289,"ÑĢÐ¾Ð²ÐºÐ¸":4290,"ÑīÐ¸ÐµÑģÑı":4291,"ĠÐ¼ÐµÑħÐ°Ð½Ð¸Ð·Ð¼":4292,"ĠÐ¼ÐµÑħÐ°Ð½Ð¸Ð·Ð¼Ð°":4293,"ÐµÐ½Ð½ÑĭÐ¼":4294,"Ð°Ð²":4295,"ĠÑģÐ¾ÑħÑĢÐ°Ð½Ñı":4296,"Ð¸Ð½Ñĥ":4297,"ĠÑĤÑĭ":4298,"ÑģÑĤÑĢÑĥÐ¸":4299,"ĠÑĢÐ°ÑģÑĩÐµÑĤ":4300,"ĠÐ²Ð°Ð¶Ð½ÑĭÐ¼":4301,"ĠÐ¿ÑĢÐ°ÐºÑĤÐ¸ÐºÐ°":4302,"ĠÐ¿ÑĢÐ¾ÑģÑĤÑĢÐ°Ð½ÑģÑĤÐ²Ð¾":4303,"ĠÐ¾ÑħÑĢÐ°":4304,"ĠÐ½Ð°Ð»Ð¸ÑĩÐ¸Ð¸":4305,"ÑĪÐºÐ¸":4306,"ĠÑģÑĥÑĤÐ¸":4307,"ĠÐ¿ÑĢÐµÐ´ÑĥÑģÐ¼Ð°ÑĤÑĢÐ¸":4308,"ĠÐ¿ÑĢÐ¾ÑĨÐµÑģÑģÑĥ":4309,"ĠÐ¸Ð¼ÐµÐ»Ð¸":4310,"ÑĢÐ°Ð±Ð¾ÑĤÐºÐ¸":4311,"ĠÐ±Ð¾Ð³Ð°":4312,"Ð´Ð¾Ð¼":4313,"ĠÐ¿ÑĢÐ¸Ð½ÑĨÐ¸Ð¿Ñĭ":4314,"ĠÐ½Ð°Ð¼ÐµÑĢ":4315,"ĠÑĤÑĢÐµÐ±Ð¾Ð²Ð°Ð½Ð¸Ð¹":4316,"Ð¾Ð²Ð°Ð»Ð¾":4317,"ĠÑģÐ¸ÑĤÑĥÐ°ÑĨÐ¸Ñİ":4318,"ĠÐ¿ÑĢÐµÐ¾Ð±ÑĢÐ°Ð·":4319,"ĠÐ¿ÑĢÐµÐ´ÑĪÐµ":4320,"Ð½Ð¾Ñģ":4321,"ĠÐ²Ð¾Ð¿ÑĢ":4322,"ÐµÐ¼Ð°Ñı":4323,"ÑĤÐ¸Ð²Ð½Ð¾ÑģÑĤÑĮ":4324,"ÑĥÑģÐ»Ð¾Ð²Ð½Ð¾":4325,"ĠÑĤÐ¾ÑĢÐ³Ð¾Ð²Ð»Ð¸":4326,"Ð¸Ð»Ð¾ÑģÑĮ":4327,"ĠÐ¿ÐµÑĢÐ²Ð¾Ð¼":4328,"ĠÐ¼ÐµÐ¶Ð´ÑĥÐ½Ð°ÑĢÐ¾Ð´Ð½Ð¾Ð³Ð¾":4329,"ÐºÐ¾ÑĢ":4330,"ÐŁÑĢÐ¾":4331,"Ð¾Ð²Ð°Ð½Ð¸Ð¸":4332,"ĠÐºÐ¾Ð¼Ð¿ÑĮÑİ":4333,"ÑĤÑı":4334,"ĠÐ°Ð½Ð³Ð»Ð¸Ð¹":4335,"ÑĢÐ¾Ð²Ð°Ð»":4336,"ĠÑģÐ»ÑĥÐ¶Ð°":4337,"ĠÑģÑĤÐ°Ð²Ð¸":4338,"ĠÐ³ÐµÐ½ÐµÑĢÐ°":4339,"ĠÐ¸Ð½ÑĤÐµÐ³ÑĢÐ°":4340,"ÐŁÐļ":4341,"ĠÑįÐ¼Ð¸":4342,"ÑĦÐµÑģÑģÐ¸Ð¾Ð½Ð°Ð»ÑĮ":4343,"Ð´Ð¸ÑĤ":4344,"ĠÐ±ÑĥÐ¼Ð°":4345,"ÑĬÐµÐ¼":4346,"ĠÑģÑĨÐµÐ½":4347,"Ð½Ð°ÑĩÐµ":4348,"ĠÐ·Ð°Ð¼Ðµ":4349,"ĠÐ¼ÐµÑģÑı":4350,"ÑĨÐ¸Ð¾Ð½Ð½ÑĭÐ¼":4351,"ĠÐ¿Ð¾Ð²ÑĤÐ¾ÑĢ":4352,"ĠÑģÐ»Ð°Ð±":4353,"ĠÑįÐºÑģÐ¿ÐµÑĢÐ¸Ð¼ÐµÐ½ÑĤÐ°":4354,"ĠÑĦÑĥÐ½ÐºÑĨÐ¸Ð¾Ð½Ð¸ÑĢÐ¾Ð²Ð°Ð½Ð¸Ñı":4355,"ĠÑģÑĤÐ¾Ð»ÑĮ":4356,"ĠÑįÐ»ÐµÐ¼ÐµÐ½ÑĤÑĭ":4357,"ĠÑĦÐ°ÐºÑĤÐ¸ÑĩÐµÑģÐºÐ¸":4358,"Ð¼ÑĭÑħ":4359,"ĠÐ¶Ð°Ð½":4360,"Ð¾ÑĨÐµÐ½":4361,"Ð´Ð°ÑĨÐ¸Ð¸":4362,"ÑģÑĤÐ²Ð¸ÐµÐ¼":4363,"ĠÑĢÐ°ÑģÑģÐ¼Ð°ÑĤÑĢÐ¸Ð²Ð°ÐµÑĤÑģÑı":4364,"ĠÐ¾Ð¿ÑĢÐµÐ´ÐµÐ»ÐµÐ½Ð½ÑĭÑħ":4365,"ĠÐ¿Ð¾Ð»Ñı":4366,"ÑĪÐµÐ¼":4367,"ĠÑĦÑĥÐ½Ð´Ð°":4368,"ĠÐ¾ÑĨÐµÐ½Ð¸ÑĤÑĮ":4369,"ĠÐ¸Ð½Ð¾ÑģÑĤÑĢÐ°Ð½Ð½ÑĭÑħ":4370,"ĠÐ¿ÑĢÐ¸Ð½Ð°Ð´Ð»ÐµÐ¶":4371,"Ð¾ÐµÐ´Ð¸":4372,"ĠÐ¸Ð¼Ð¿Ð¾ÑĢ":4373,"ĠÐ¿ÑĢÐ¾Ð±Ð»ÐµÐ¼Ñĥ":4374,"ĠÐ¿Ð¾Ð»Ð½Ð¾Ð¹":4375,"ĠÑĦÐ¾ÑĢÐ¼ÑĥÐ»Ð¸":4376,"ĠÐ·Ð°Ð²Ð¸":4377,"ĠÐ°Ð´ÐµÐº":4378,"Ð¾ÑģÑĭ":4379,"Ð¾Ñı":4380,"ÑģÐ°Ð¼Ð¸":4381,"Ð³Ð¸Ð½Ð°":4382,"ĠÑĦÐ¸ÑĢ":4383,"ÐµÑĢÐ²Ð°":4384,"ĠÐ¸ÑģÐºÐ°":4385,"ĠÐ½ÑĥÐ¶Ð´Ð°":4386,"Ð²Ð°ÑİÑīÐ¸Ðµ":4387,"ĠÐ¸Ð´ÐµÐ½ÑĤÐ¸ÑĩÐ½Ð¾ÑģÑĤÐ¸":4388,"ĠÐ·Ð½Ð°ÑĩÐµÐ½Ð¸Ð¹":4389,"Ð³Ð¾ÑģÑĥÐ´Ð°ÑĢ":4390,"ĠÐ¿ÑĢÐµÐ´ÑģÑĤÐ°Ð²Ð»ÐµÐ½Ð¸Ðµ":4391,"ÑĪÐµÐ½Ð¸ÐµÐ¼":4392,"ĠÐ½Ð°ÑĥÑĩÐ½Ð¾Ð³Ð¾":4393,"ĠÐŀÑģÐ½Ð¾Ð²":4394,"ÑĢÐµÐ´ÐºÐ¾":4395,"ÐºÐ¸Ð¼Ð¸":4396,"ĠÐ²Ð¾Ð¿ÑĢÐ¾ÑģÐ°Ð¼":4397,"Ð·ÐµÐ½ÑĤÐ°":4398,"ÑĢÐ´":4399,"ÐºÑĥÐ»ÑĮÑĤÑĥÑĢ":4400,"Ð½ÑİÑİ":4401,"ĠÐ¿Ð¾Ð»Ð½Ð¾":4402,"Ð´ÐµÐ»ÑĮ":4403,"ĠÐºÐ¾Ð¼Ð¿ÐµÑĤÐµÐ½ÑĤ":4404,"ĠÐ²Ð¾ÑģÑģÑĤÐ°Ð½Ð¾Ð²":4405,"ÑĤÐ¸Ð·Ð°ÑĨÐ¸Ð¸":4406,"ĠÐ¿ÑĢÐµÐ´Ñĭ":4407,"ĠÐ½Ð°Ð¹ÑĤÐ¸":4408,"ĠÑĪÑĤÐ°":4409,"ĠÐºÐ¾Ð»Ð¸ÑĩÐµÑģÑĤÐ²Ð°":4410,"ÑģÑĤÑĥÐ¿Ð»ÐµÐ½Ð¸Ñı":4411,"ĠÑģÐµÐ¹":4412,"ÐµÐ½ÑĤÐ¾Ð¼":4413,"ĠÐ´ÑĢÑĥÐ³Ð¸Ð¼":4414,"ĠÐ·Ð°ÑĤÑĢÑĥÐ´":4415,"ĠÐ¸Ð½ÑĭÐµ":4416,"Ð²ÑĭÐ¹":4417,"ĠÐ¸Ð½Ð´Ð¸Ð²Ð¸Ð´Ð°":4418,"ĠÑĢÐ°ÑģÐ¿Ð¾Ð»Ð¾Ð¶":4419,"ĠÐ³Ð°Ð·":4420,"Ð¿Ð°ÑĢ":4421,"ĠÑĢÐ°ÑģÑģÐ¼Ð¾ÑĤÑĢÐµÐ½":4422,"ĠÐ¸ÑĤÐ¾Ð³Ðµ":4423,"ĠÐ¾Ð±ÑīÐ¸Ñħ":4424,"ĠÐ¾ÑģÐ½Ð¾Ð²Ñĥ":4425,"Ð¸Ð»ÑĮ":4426,"Ð»Ð»Ð¸":4427,"ĠÑĥÐ¿ÑĢÐ°Ð²Ð»ÐµÐ½":4428,"ĠÐºÐ¾Ð´ÐµÐº":4429,"ĠÑĤÐ°ÐºÐ°Ñı":4430,"ÑĦÑĦÐµÐºÑĤÐ¸Ð²":4431,"ĠÑĥÐ½Ð¸Ð²ÐµÑĢÑģ":4432,"ĠÑĥÑĤÑĢÐ°":4433,"ĠÐ¿ÑĢÐµÐ´Ð¸ÐºÐ°":4434,"ĠÑĢÐ°Ð±Ð¾ÑĤÐ¾Ð´Ð°":4435,"ĠÑįÑĤÐ°Ð¿Ð°":4436,"ÑĢÐµÐ´Ð°":4437,"ÑĤÐºÐ¸":4438,"Ð°Ð»ÑĮÐ½Ð°Ñı":4439,"ĠÐ¾ÑĤÑĢÐ°ÑģÐ»Ð¸":4440,"Ð½Ð¾ÑģÑĤÑıÑħ":4441,"Ð²Ð¾ÑĢÐ¸":4442,"ĠÐ³Ð»ÑĥÐ±Ð¾Ðº":4443,"ĠÑģÐ²ÐµÐ´ÐµÐ½Ð¸Ñı":4444,"ĠÐºÐ¾ÑĤÐ¾ÑĢÑĭÐ¼Ð¸":4445,"Ð¾Ð½Ð¸ÑĤÐ¾ÑĢÐ¸":4446,"Ð²Ð¾ÐºÐ°":4447,"ĠÑĢÐµÑģÑĥÑĢÑģÑĭ":4448,"ĠÐ¼Ð¾Ð¶ÐµÐ¼":4449,"ÑĢÐ°Ð²Ð¾":4450,"ÑĦÐ¸ÐºÐ°ÑĨÐ¸Ñı":4451,"Ð³Ð½Ð¾ÑģÑĤÐ¸":4452,"ĠÐ·Ð°Ð²ÐµÐ´":4453,"ĠÑģÐºÐ¾Ð»ÑĮÐºÐ¾":4454,"ĠÐ½ÐµÑĢÐ°Ð²ÐµÐ½":4455,"ĠÑĢÐµÐ²Ð¾Ð»ÑİÑĨÐ¸Ð¸":4456,"ĠÐ¿Ð¾ÑıÐ²Ð»Ñı":4457,"ĠÐ²Ð¸Ð´Ñĭ":4458,"ĠÑģÐ¾Ð¿ÑĢÐ¾Ð²Ð¾Ð¶Ð´Ð°":4459,"ĠÐĽÐµ":4460,"ĠÑģÑĢÐµÐ´Ð½ÐµÐ¼":4461,"ÐĵÐŃ":4462,"ĠÐ¸ÑģÐ¿Ð¾Ð»ÑĮÐ·ÑĥÐµÑĤÑģÑı":4463,"ĠÑĦÐ¸Ð½Ð°Ð½ÑģÐ¸ÑĢÐ¾Ð²Ð°Ð½Ð¸Ñı":4464,"ĠÐºÑĢÐ¾Ð¼Ðµ":4465,"ĠÐ¿Ð¾Ð´Ð´ÐµÑĢÐ¶Ð°":4466,"ÑĤÐ½Ð¾ÑģÑĤÐ¸":4467,"ÑĢÐ¾Ð²Ð°Ð½Ð°":4468,"Ð»ÑıÑİÑĤÑģÑı":4469,"ĠÑģÐ°Ð¼ÑĭÑħ":4470,"ÑīÐµÐ½Ð¸Ð¹":4471,"ĠÐ¿Ð¾ÑģÑĤÐ¾ÑıÐ½Ð½Ð¾":4472,"ÑĳÐ½":4473,"ĠÑģÐµÑĢÐµÐ´Ð¸":4474,"ĠÐ¾ÑģÑĥÑīÐµÑģÑĤÐ²Ð»ÑıÐµÑĤÑģÑı":4475,"Ð¶ÐµÐ¹":4476,"ĠÐºÐ¾ÑĤÑĢ":4477,"ĠÑģÐ°Ð¼Ð¾Ð¼":4478,"ĠÐ¿Ð¾Ð²ÑĭÑĪÐµÐ½Ð¸Ðµ":4479,"ĠÐ¿ÑĢÐ¾ÑģÑĤÑĢÐ°Ð½ÑģÑĤÐ²Ðµ":4480,"ĠÐºÑĤÐ¾ÑĢ":4481,"Ð³ÐµÑĢ":4482,"ĠÑĨÐµÐ»":4483,"ĠÐ¿ÐµÑĢÑĦ":4484,"Ð¸Ð±Ð»Ð¸":4485,"ĠÐŃÑĤÐ¾ÑĤ":4486,"ĠÐ¸Ð½ÑģÑĤÐ¸ÑĤÑĥÑĤÐ°":4487,"ĠÐ¿Ð¾Ð»Ð¸ÑĤÐ¸ÑĩÐµÑģÐºÐ¸Ðµ":4488,"ĠÐ²ÑĭÐ³Ð¾Ð´":4489,"ÑĪÐµÐ»":4490,"ĠÐºÐ¸ÑĤÐ°Ð¹":4491,"ĠÐ·Ð°ÐºÐ¾Ð½Ð¾Ð¼ÐµÑĢ":4492,"ĠÐ½ÐµÐ¾Ð´Ð½":4493,"ĠÑĦÑĥÐ½ÐºÑĨÐ¸Ð¾Ð½Ð°Ð»ÑĮ":4494,"Ð»Ð»Ðµ":4495,"ĠÑĨÐµÐ»Ð¾":4496,"ĠÐ·Ð½Ð°ÐºÐ¾Ð¼":4497,"ÑĢÐ¾Ð²Ð¾Ð¹":4498,"ĠÐļÑĢÐ°":4499,"ĠÑĤÐ°ÐºÐ¾Ð¼":4500,"ĠÐ¿ÑĢÐµÐ¿ÑıÑĤ":4501,"ĠÐ¾Ð±ÑģÑĤÐ¾ÑıÑĤÐµÐ»ÑĮÑģÑĤÐ²Ð°":4502,"ĠÑģÐµÐºÑĤÐ¾ÑĢÐ°":4503,"ĠÑģÐ°Ð¼Ð°":4504,"ĠÑģÐ½Ð¸Ð¶Ð°":4505,"ĠÑĤÐ¾Ð¿":4506,"ĠÑĢÐµÑĦÐ¾ÑĢÐ¼Ñĭ":4507,"ĠÐ¿ÐµÐ´Ð°Ð³Ð¾Ð³Ð¾Ð²":4508,"ĠÐ¿Ð¾ÐºÐ°Ð·ÑĭÐ²Ð°ÑİÑĤ":4509,"Ð¼ÐµÐ½ÑĤÐ¾Ð¼":4510,"ĠÐ¸Ð³ÑĢÑĭ":4511,"ĠÐ¡Ð°":4512,"ĠÐ²ÑĭÐ½ÑĥÐ¶Ð´ÐµÐ½":4513,"ÑıÑĤÐ¸Ðµ":4514,"ĠÐĵÐ¾ÑģÑĥÐ´Ð°ÑĢ":4515,"ĠÐ¿Ð¾Ð´ÑĢÐ¾ÑģÑĤÐºÐ¾Ð²":4516,"Ð¾Ð²Ðµ":4517,"ĠÐ»Ð¾Ðº":4518,"ÐµÐ·Ð´":4519,"Ð½Ð¸Ð½Ð°":4520,"ĠÑģÐ¾Ð²ÐµÑĤÑģÐºÐ¾Ð¹":4521,"ĠÐ¾ÑģÐ¼ÑĭÑģ":4522,"ĠÑģÐ¼ÑĭÑģÐ»Ð¾Ð²":4523,"Ð²Ð¾ÑĢÑı":4524,"Ð¾Ð¿Ð¾Ð»Ð¾Ð¶":4525,"ĠÐ¸Ð»":4526,"ĠÐ¿Ð¾ÐºÐ°Ð·Ð°ÑĤÐµÐ»Ñı":4527,"ÑĪÐµÐ½Ð½ÑĭÑħ":4528,"ĠÐºÐ°ÐºÐ¸Ñħ":4529,"Ð½Ð²Ð°":4530,"Ð»Ð¸ÑĪ":4531,"ĠÐºÑĢÑĥÐ¿Ð½ÑĭÑħ":4532,"ĠÑĥÐ´":4533,"ĠÑĢÐµÐ¶Ð¸Ð¼Ð°":4534,"ÐľÑĭ":4535,"ĠÐ¸Ð½Ð´Ñĥ":4536,"ĠÑģÐ»Ð¾":4537,"ĠÐ¾Ð¿ÑĢÐµÐ´ÐµÐ»ÑıÐµÑĤ":4538,"ĠÐ¾ÑĤÐ½Ð¾ÑģÐ¸ÑĤÑģÑı":4539,"Ð¿ÑĢ":4540,"ĠÐľÐ°ÑĢ":4541,"ĠÑĢÑıÐ´Ðµ":4542,"ĠÐ³ÑĥÐ¼Ð°":4543,"Ð°Ð»ÑĮÐ½Ð¾Ð¼":4544,"ĠÐ¿Ð¸ÑģÑĮÐ¼ÐµÐ½":4545,"ÑĢÐµÐ³Ð¸":4546,"ÑģÑģÐ»ÐµÐ´Ð¾Ð²Ð°":4547,"ÑĤÐ¸Ð·Ð¸":4548,"ĠÐ°ÑģÑģÐ¾ÑĨÐ¸Ð°":4549,"Ð¾Ð¿ÑĢÐ¾Ð¸Ð·Ð²Ð¾Ð´":4550,"ĠÑĦÐ¸Ð½Ð°Ð½ÑģÐ¾Ð²Ð¾Ð¹":4551,"ĠÐ¿Ð¾ÑĢÑıÐ´ÐºÐµ":4552,"ĠÐ¿Ð»Ð°ÑĤÐµ":4553,"ĠÐ½ÐµÑģÐ¾Ð²":4554,"ĠÐ½Ð°ÑĢÐ¾Ð´Ð°":4555,"ÐµÐ²Ð°":4556,"ÑĢÑıÐ´Ñĥ":4557,"ĠÐ´Ð°Ð»Ðµ":4558,"Ð¶ÐµÑĤÑģÑı":4559,"ÑĢÐ¾Ð²Ð°Ð½Ð¾":4560,"ĠÐ´Ð¾ÐºÑĥÐ¼ÐµÐ½ÑĤÐ¾Ð²":4561,"ĠÑģÐ¾Ð³Ð»Ð°ÑģÐ¸":4562,"ĠÐĴÐ°":4563,"Ð½Ð¸ÑıÐ¼Ð¸":4564,"ĠÐ½ÐµÐ¾Ð¿ÑĢÐµÐ´Ðµ":4565,"ĠÐ²ÑĭÐ¿ÑĥÑģÐºÐ½Ð¸ÐºÐ¾Ð²":4566,"ĠÑĢÐ¾":4567,"ĠÐ²ÑĭÐ¿Ð»Ð°":4568,"ĠÐ¼Ð½Ð¾Ð³Ð¾ÑĩÐ¸Ñģ":4569,"ÐĴÐ°Ð¶":4570,"ĠÐ¸Ð½ÑĤÐµÐ½ÑģÐ¸Ð²":4571,"ĠÐ¿ÑĢÐµÐ´ÑĭÐ´Ñĥ":4572,"Ð²Ð°Ð»Ð¾":4573,"ĠÑģÐ¾ÑģÑĤÐ°Ð²Ð»ÑıÑİÑĤ":4574,"ÑĩÐ½Ð¾ÑģÑĤÐ¸":4575,"ĠÐ¸Ð½ÑĤÐµÐ³ÑĢÐ°ÑĨÐ¸Ð¸":4576,"ÑĨÐ°Ð¼Ð¸":4577,"ĠÐ¿Ð¾Ð²Ðµ":4578,"ĠÐ¾ÑĢÐ°Ð·":4579,"ĠÐ´Ð¸Ð¿Ð»Ð¾Ð¼":4580,"ĠÐ¾ÑħÐ²Ð°":4581,"ĠÑĦÑĢÐ°Ð³":4582,"ĠÑĢÐµÐ³Ð¸Ð¾Ð½Ð°Ñħ":4583,"ĠÐºÐ¾Ð½ÑĤÑĢÐ°Ðº":4584,"ĠÐ¿ÑĢÐµÐ¸Ð¼ÑĥÑīÐµÑģÑĤÐ²ÐµÐ½Ð½Ð¾":4585,"ĠÐ»Ð¸ÑĤÐµÑĢÐ°ÑĤÑĥÑĢ":4586,"ĠÐ½ÐµÐ¾Ð±":4587,"ĠÐ±Ð¾ÑĢÑĮÐ±Ñĭ":4588,"ÑĤÐ¸Ð²Ð½ÑĭÐ¼Ð¸":4589,"Ð»ÐµÐ½Ð½ÑĭÐ¹":4590,"ĠÑĢÐ°ÑĨÐ¸Ð¾Ð½Ð°Ð»ÑĮ":4591,"ĠÐ½Ð°ÑĢÑĥÑĪÐµÐ½Ð¸Ñı":4592,"ĠÑģÐ¸Ð½ÑĤÐ°ÐºÑģÐ¸":4593,"ĠÐ³Ð»Ð°Ð²Ð½ÑĭÐ¼":4594,"ÑĢÐ¸ÑĤ":4595,"ĠÑģÐ¿Ð¾ÑģÐ¾Ð±Ð¾Ð²":4596,"ĠÐ¸Ð´ÐµÐ½ÑĤÐ¸":4597,"ĠÐºÐ¾Ð½ÑĤÐµÐºÑģÑĤÐ°":4598,"ĠÐ¿ÑĢÐ¾ÑģÑĤ":4599,"ÐºÐ¾Ð²Ð°":4600,"ĠÐ·Ð°ÑģÐµÐ´Ð°":4601,"ĠÐ³ÑĢÐ°Ð¼Ð¾ÑĤ":4602,"ĠÐ»ÑİÐ±Ð¾Ð¹":4603,"ĠÐ¼Ð¾Ð»Ð¾Ð´ÑĭÑħ":4604,"ĠÐķÐĵÐŃ":4605,"ĠÐ¾Ð±Ð»Ð°ÑģÑĤ":4606,"ĠÐ´ÐµÐ»Ð°ÐµÑĤ":4607,"ĠÐ²Ð·Ð°Ð¸Ð¼Ð¾Ð´ÐµÐ¹ÑģÑĤÐ²Ð¸Ðµ":4608,"ĠÐ±ÐµÐ´":4609,"ÐµÐºÑĤÐµ":4610,"ĠÐ¾Ð±ÑĢÐ°Ð·Ð¾Ð²Ð°Ð½Ð¸Ð¸":4611,"Ð½Ð¾Ð²ÑĮ":4612,"ĠÐ¸Ð·Ð²ÐµÑģÑĤÐ½Ð¾":4613,"ÑģÐ½Ð¾Ð³Ð¾":4614,"ĠÐ¿Ð¾Ð·Ð¸ÑĨÐ¸Ñİ":4615,"ĠÐ·Ð°ÑĩÐ°ÑģÑĤÑĥÑİ":4616,"ĠÐ²Ð¾Ð´":4617,"ĠÐºÑĢÑĥÐ³":4618,"ĠÐ´ÐµÑĢ":4619,"ÐµÐ½ÑĤÐ°Ð¼Ð¸":4620,"Ð³Ð¾ÑĤ":4621,"Ð³ÑĢÑĥÐ·":4622,"ĠÑĢÐµÐ³Ð»Ð°":4623,"ĠÐ²ÑĭÐ²Ð¾Ð´Ñĭ":4624,"ÐµÐ·ÑĥÐ»ÑĮÑĤÐ°ÑĤÑĭ":4625,"ĠÐ¿ÑĢÐµÐ´ÑģÑĤÐ°Ð²Ð»ÐµÐ½Ð¸Ð¹":4626,"ÐĶÐ°":4627,"ĠÐ³Ð¾Ð²Ð¾ÑĢ":4628,"ÑĦÐ¸ÐºÑģÐ¸":4629,"ĠÐ°Ð²ÑĤÐ¾ÑĢÐ¸":4630,"ĠÐŁÐµÑĤ":4631,"ĠÑģÐ°Ð¼Ð¾ÑĥÐ¿ÑĢÐ°Ð²":4632,"ĠÐ·Ð°Ð½ÑıÑĤÐ¸Ñı":4633,"ÑģÑĤÐ¾ÑĢÐ¸":4634,"ĠÐ²Ð·Ð°Ð¸Ð¼Ð¾Ð¾ÑĤÐ½Ð¾":4635,"ĠÐ¸Ð·Ð±Ðµ":4636,"ĠÐ²Ð¾ÑģÐ¿ÑĢÐ¾Ð¸Ð·Ð²Ð¾Ð´":4637,"ĠÐ¼Ð¾Ð´":4638,"ĠÐ½Ð°Ð±Ð¾ÑĢ":4639,"ĠÐºÐ¾Ð½ÑĤÑĢÐ¾Ð»Ð¸":4640,"ÑĤÐ¸ÑĩÐµÑģÐºÐ¸Ð¼":4641,"ĠÐ³Ð¾Ð²Ð¾ÑĢÐ¸ÑĤ":4642,"ĠÑģÐµÐ»ÑĮÑģÐºÐ¾":4643,"Ð·Ð¸Ñģ":4644,"ĠÐ¼Ð¾Ð»Ð¾Ð´ÐµÐ¶Ð¸":4645,"ĠÑįÐ²Ð¾Ð»Ñİ":4646,"ÑĤÑĭÐ¼":4647,"Ð½Ð°Ð½":4648,"ĠÑģÑĥÑīÐµÑģÑĤÐ²Ð¾Ð²Ð°Ð½Ð¸Ñı":4649,"ĠÐ¿Ð¾Ð¼Ð¾ÑīÑĮ":4650,"ĠÐ¿Ð¾Ð½ÑıÑĤÐ¸Ð¹":4651,"ĠÐ¸ÑģÑģÐ»ÐµÐ´Ñĥ":4652,"ĠÐ¿Ð¾Ð´ÑħÐ¾Ð´Ð¾Ð²":4653,"ĠÑĢÑĥÑģÑģÐºÐ¸Ñħ":4654,"ÑĪÐ°ÑĤÑĮ":4655,"ÑĩÐ½Ð¾ÑģÑĤÑĮ":4656,"Ð¾Ð¿Ð¾Ð»Ð¸":4657,"ĠÐ¿ÑĢÐµÐ´ÑģÑĤÐ°Ð²Ð¸ÑĤÐµÐ»Ð¸":4658,"ÐŀÑģÐ¾Ð±":4659,"ÑģÑĤÐ¸ÑĩÐµÑģÐºÐ¾Ð¹":4660,"ĠÐĹÐ°Ðº":4661,"ĠÐ¡ÑĢÐµÐ´":4662,"Ð³ÑĥÐ»Ð¸":4663,"ĠÐ¿ÑĢÐ¾ÑĦÐµÑģÑģÐ¸Ð¸":4664,"Ð·Ð¾Ð½":4665,"ĠÐ²ÑģÐ¿":4666,"ĠÐ¿ÑĢÐµÐ¿Ð¾Ð´Ð°Ð²Ð°ÑĤÐµÐ»ÐµÐ¹":4667,"ĠÐ¸Ð·Ð´ÐµÑĢÐ¶":4668,"ÑģÐ¾Ð½":4669,"ĠÑĨÐ¸Ð²Ð¸":4670,"ĠÐ¿ÑĢÐ¸Ð²Ñĭ":4671,"ĠÑģÑĥÐ±ÑĬÐµÐºÑĤ":4672,"Ð»ÐµÐ²":4673,"Ð¸Ð½Ð°ÐºÐ¾Ð²":4674,"Ð½ÑıÐµÑĤ":4675,"ĠÐ¼Ð¾ÑĢÑĦ":4676,"ĠÐĳÐµ":4677,"Ð²ÑĪÐ¸Ð¼":4678,"ĠÐºÐ²Ð°Ð»Ð¸ÑĦÐ¸ÐºÐ°ÑĨÐ¸Ð¸":4679,"ĠÐ¼Ð°ÑģÑĪÑĤÐ°Ð±":4680,"ĠÐ¾Ð¿ÑĢÐµÐ´ÐµÐ»ÐµÐ½Ð½ÑĭÐµ":4681,"ĠÐ¸ÑģÐ¿Ð¾Ð»ÑĮÐ·ÑĥÑİÑĤÑģÑı":4682,"ĠÐ¾Ð¿Ñĭ":4683,"Ð¸ÑģÐ¿":4684,"ĠÐ¼Ð¾ÑĤÐ¸Ð²":4685,"Ð¼Ð¸ÑĢ":4686,"ĠÐ²Ð¾ÑģÐ¿ÑĢÐ¸ÑıÑĤÐ¸Ñı":4687,"ĠÐ¿Ð¾ÑģÑĤÐ°Ð²Ð»ÐµÐ½":4688,"ĠÑģÐ¿Ð¾ÑģÐ¾Ð±Ð½Ð¾ÑģÑĤÐ¸":4689,"Ð½ÐµÐ¹ÑĪÐ¸Ñħ":4690,"ĠÑĢÐµÑĦÐ»ÐµÐº":4691,"ĠÐ°Ð´Ð²Ð¾ÐºÐ°":4692,"ĠÑģÑĥÑīÐµÑģÑĤÐ²ÑĥÑİÑĤ":4693,"ĠÐ¿ÐµÑĢÐµÐ¶Ð¸":4694,"ĠÐ²ÑĭÑģÐ¾ÐºÐ¸Ð¹":4695,"ĠÑģÐ¾ÑĤÑĢÑĥÐ´Ð½Ð¸ÑĩÐµÑģÑĤÐ²Ð°":4696,"ĠÐ´ÑĢÑĥÐ³Ð¾Ð¼":4697,"ĠÐ¿Ð»Ð°Ð½Ðµ":4698,"ÐŁÐ¾Ð»":4699,"ĠÐ£Ðļ":4700,"ĠÑģÐ¿Ð¾ÑģÐ¾Ð±Ñĭ":4701,"ÑĢÐ¾Ð±Ð»ÐµÐ¼":4702,"ÐļÐ¾Ð½":4703,"ĠÐ¿ÑĢÐ°Ð²Ð¾Ñģ":4704,"Ð¾ÑĢÐ°Ð·Ð´Ð¾":4705,"ĠÐ½Ð¾Ð²ÑĭÐ¹":4706,"ĠÐ²Ð»Ð°ÑģÑĤ":4707,"ĠÐ½Ð°ÑģÐ¸":4708,"ĠÐ¿ÑĢÐ¸Ð¼ÐµÐ½ÐµÐ½Ð¸Ðµ":4709,"ÑĢÐ°Ð·Ð´Ðµ":4710,"ÑĤÑĥÐ°Ð»Ð¸":4711,"ĠÑıÐ·ÑĭÐºÐ°Ñħ":4712,"ĠÑĢÐµÐ³Ð¸Ð¾Ð½Ð°Ð»ÑĮÐ½ÑĭÑħ":4713,"Ð½Ð¸Ð½":4714,"ĠÑĩÐµÑĤÐ²ÐµÑĢ":4715,"ĠÐľÐ¸Ð½Ð¸":4716,"ĠÐ±Ð¾Ð»ÑĮÑĪÐ¸Ð½ÑģÑĤÐ²Ð°":4717,"ÑĤÐ¸Ð²Ð½ÑĥÑİ":4718,"Ð¸Ðº":4719,"ĠÐ¿ÑĢÐ¸Ð´Ð°":4720,"ĠÑĥÐ´Ð°Ð»Ð¾ÑģÑĮ":4721,"ĠÐ¿ÑĢÐ¸Ð²ÐµÑģÑĤÐ¸":4722,"ĠÐºÐ¾Ð½ÑĨÐ°":4723,"ÐºÐ¾Ñģ":4724,"ĠÐ¿Ð¾Ð´Ð¿":4725,"ĠÑĨÐµÐ»ÐµÑģÐ¾Ð¾Ð±ÑĢÐ°Ð·":4726,"ĠÐ¿Ð¾Ð»Ð½Ð¾Ð¼Ð¾ÑĩÐ¸Ð¹":4727,"ĠÐ¢Ð°":4728,"ĠÐµÐ´Ð¸Ð½Ð¸ÑĨ":4729,"ĠÐ°Ð½Ð°Ð»Ð¸Ð·Ðµ":4730,"ĠÐºÐ¾Ð¼Ð¿ÐµÑĤÐµÐ½ÑĨÐ¸Ð¸":4731,"ĠÐ±Ð»Ð°Ð³Ð¾Ð¿Ð¾Ð»":4732,"ÑĢÐ¸ÑĤÐ°Ð½":4733,"ĠÐ²ÐºÐ»Ð°Ð´":4734,"ĠÑģÐ²Ð¾Ð¹ÑģÑĤÐ²Ð°":4735,"Ð¾Ð½Ð°ÑĩÐ°":4736,"Ð³Ð¾ÑģÑĢÐ¾":4737,"ĠÐ²Ð¾ÑģÑĤ":4738,"Ð¾ÑĤÐ¾":4739,"ĠÑĢÐµÐ·ÑĥÐ»ÑĮÑĤÐ°ÑĤÐ°Ð¼":4740,"ĠÐ¿ÑĢÐ¾ÑĨÐµÐ½":4741,"ÑĩÐ½ÑĥÑİ":4742,"ĠÐķÐ²":4743,"ĠÐ¼Ð°ÑĤÐµÑĢÐ¸Ð°Ð»Ð¾Ð²":4744,"ĠÐ¿ÑĢÐ¾Ð¸Ð·Ð¾ÑĪ":4745,"ĠÐ¿ÑĢÐµÐ´Ð¿Ð¾Ð»Ð¾Ð¶Ð¸ÑĤÑĮ":4746,"ĠÑģÑĤÐ¸Ð¼Ñĥ":4747,"ÐµÐ½Ð½Ð°Ñı":4748,"ÐĴÐ¼ÐµÑģÑĤÐµ":4749,"ĠÑģÐ¾Ð±ÑģÑĤÐ²ÐµÐ½Ð½Ð¾":4750,"Ð¡Ð¾Ð³Ð»Ð°ÑģÐ½Ð¾":4751,"ĠÑģÐ¿Ð¾ÑģÐ¾Ð±Ð½Ð¾ÑģÑĤÑĮ":4752,"ĠÐ¾ÑĤÐ¼Ðµ":4753,"ĠÐ¼Ð½ÐµÐ½Ð¸Ðµ":4754,"ĠÐ²ÑģÐ»ÐµÐ´":4755,"ĠÐ½Ð°Ð¿ÑĢÐ°Ð²Ð»ÐµÐ½Ð¸Ð¹":4756,"Ð»Ð´":4757,"ĠÐ³Ð¾ÑģÑĥÐ´Ð°ÑĢÑģÑĤÐ²Ð¾Ð¼":4758,"ĠÐ·Ð°ÑĢ":4759,"ÑĢÑĥÑı":4760,"ĠÐ¸ÐµÑĢÐ°ÑĢÑħ":4761,"ĠÑĦÐ¾ÐºÑĥ":4762,"ĠÑĤÐµÐ¾ÑĢÐ¸Ñı":4763,"ĠÑįÑĤÐ½":4764,"ĠÐ¸ÑģÐ¿Ð¾Ð»Ð½ÐµÐ½Ð¸Ñı":4765,"ĠÐ¾Ð±ÑĢÐ·":4766,"Ð»ÐµÐ·":4767,"ĠÐ´Ð¾Ð±Ð°":4768,"ÑģÑĤÐ²ÑĥÐµÑĤ":4769,"ÑģÐºÐµ":4770,"ĠÐ¾Ð±ÑĢÐ°Ð·Ð°":4771,"ÐŃÑĤÐ¸":4772,"ÑĤÐ¸ÑĩÐµÑģÐºÑĥÑİ":4773,"ĠÑĥÐºÑĢÐµÐ¿":4774,"ĠÐĲÐ»ÐµÐºÑģ":4775,"ĠÑĥÑĩÐµÑĤÐ°":4776,"ĠÐ·Ð½Ð°ÑĩÐ¸ÑĤÐµÐ»ÑĮÐ½Ð¾Ð¹":4777,"Ð³ÑĢÐ¸":4778,"ÐĲÐĿ":4779,"ĠÑĢÐ°Ð·ÑĢÑĥ":4780,"ĠÐłÐ¾ÑģÑģÐ¸Ñı":4781,"ĠÐ½Ð°ÑģÐºÐ¾Ð»ÑĮÐºÐ¾":4782,"ĠÑģÐ¾ÑĤÑĢÑĥÐ´Ð½Ð¸ÐºÐ¾Ð²":4783,"ÐµÐ¼Ð¾Ðµ":4784,"Ð»ÐµÐ½Ð½ÑĭÐ¼":4785,"ĠÐ¾Ð±ÑĢÐ°Ð·Ð¾Ð²Ð°ÑĤÐµÐ»ÑĮÐ½Ð¾Ð³Ð¾":4786,"ĠÐ¾Ð³ÑĢÐ¾Ð¼":4787,"ĠÐ¾Ð±ÑīÐµÑģÑĤÐ²ÐµÐ½Ð½Ð¾Ð¹":4788,"Ð·Ð°ÑĨÐ¸ÐµÐ¹":4789,"ĠÐ´Ð¾Ð»Ð³Ð¾ÑģÑĢÐ¾":4790,"ÑĩÐµÑĢÐº":4791,"Ð³ÐµÐ½":4792,"ĠÑĤÐµÑĢÐ¼Ð¸Ð½":4793,"Ð¸Ð»Ð°ÑģÑĮ":4794,"ĠÑģÐ½Ð¸Ð¶ÐµÐ½Ð¸Ðµ":4795,"ĠÐ¼Ð¾ÑĤÐ¸Ð²Ð°ÑĨÐ¸Ð¸":4796,"ĠÐ¾ÑģÐ²Ð¾Ð±":4797,"Ð²Ð°ÐµÐ¼ÑĭÑħ":4798,"ĠÑģÐµÑĤÐµ":4799,"ĠÐ·Ð°ÑĢÑĥÐ±ÐµÐ¶Ð½ÑĭÑħ":4800,"ĠÑģÐµÐ²ÐµÑĢ":4801,"ĠÑĤÐµÐ½Ð´ÐµÐ½ÑĨÐ¸Ð¸":4802,"ĠÐ¿Ð»Ð¾ÑīÐ°Ð´":4803,"ĠÐ°Ð½ÑĤÑĢÐ¾Ð¿":4804,"ĠÑģÐ¾Ð²ÑĢÐµÐ¼ÐµÐ½Ð½Ð¾Ð¼":4805,"ĠÐ²ÑĭÐ¿Ð¾Ð»Ð½ÐµÐ½Ð¸Ñı":4806,"ĠÐ¿ÑĢÐ¸Ð¼ÐµÑĢÑĭ":4807,"ĠÑıÐ²Ð»":4808,"ĠÐºÐ°ÐºÐ¸Ð¼":4809,"ĠÐłÑĥ":4810,"ĠÐ²ÑĭÐ´Ð²Ð¸":4811,"ĠÐ¾ÑīÑĥ":4812,"Ð»ÑıÑİÑĤ":4813,"ĠÐ¿ÑĢÐ°Ð²Ðµ":4814,"ĠÐ¥Ð¥":4815,"ĠÑģÑĥÐ´ÑĮ":4816,"ĠÑĥÑģÐ¸Ð»Ð¸":4817,"ĠÐ±Ð¾Ð»ÑĮÑĪÐ¾Ð¹":4818,"ĠÐ¿ÑĢÐ¾Ð´Ð²Ð¸":4819,"ĠÐ³ÑĢÐµ":4820,"Ð¾Ð²ÑĭÐ¼":4821,"ĠÑĤÐ¾Ð»":4822,"ĠÑģÑĤÑĢÑĥÐºÑĤÑĥÑĢÑĥ":4823,"ĠÐ¼Ð¾Ñī":4824,"Ð²Ð¸Ð´Ñĥ":4825,"ĠÐºÐ°Ð·Ð°":4826,"Ð¶Ð½Ð¾Ð¹":4827,"ĠÐµÐ¶Ðµ":4828,"ĠÑģÐ¾ÑģÑĤÐ¾ÑıÐ½Ð¸Ð¸":4829,"ĠÐ±Ð°Ð»Ð°Ð½":4830,"Ð¶ÐµÐ½Ð¸ÐµÐ¼":4831,"ĠÑĨÐ°ÑĢ":4832,"ÐŀÐĿ":4833,"Ð¾ÑĤÐ¾ÑĢÑĭÐµ":4834,"Ð¶Ð´Ñĭ":4835,"ÑĩÐµÐ²Ð¸Ð´Ð½Ð¾":4836,"Ð²ÑĪÐ¸ÐµÑģÑı":4837,"ĠÑĢÐ°Ð´Ð¸ÐºÐ°":4838,"ĠÐ½Ð°Ð¸Ð±Ð¾Ð»ÑĮÑĪ":4839,"ĠÑģÐ»ÐµÐ´ÑĥÑİÑīÐ¸Ð¼":4840,"ÐµÐ½Ð½Ð¾Ðµ":4841,"ĠÑĢÑĥÐº":4842,"ÐµÐ¼ÑģÑı":4843,"ĠÐ½ÐµÐ´Ð¾":4844,"ĠÐ¿Ð¾Ð½ÑıÑĤÑĮ":4845,"ĠÐĹÐ°Ð¿Ð°Ð´":4846,"ĠÑĦÐ°ÐºÑĥÐ»ÑĮ":4847,"ÑĩÐµÐ½Ð½Ð¾ÑģÑĤÐ¸":4848,"Ð¿ÑĢÐ°Ð²Ð¾Ð²Ð¾Ð¹":4849,"ĠÐ¾Ð±ÑĢÐ°ÑĤÐ¸":4850,"ĠÑģÐ¾Ð¾ÑĤÐ²ÐµÑĤÑģÑĤÐ²ÑĥÐµÑĤ":4851,"ĠÐ¿ÐµÑĢÐµÑģÐµ":4852,"ĠÑĢÐ°ÑģÑħÐ¾Ð´Ð¾Ð²":4853,"ĠÐ³Ð¾ÑģÑĥÐ´Ð°":4854,"__":4855,"ĠÑģÐºÐ¾ÑĢ":4856,"ĠÐ¿ÑĢÐµÐ¾Ð±Ð»Ð°Ð´Ð°":4857,"Ð¾Ð»Ð¾Ð³Ð¾Ð²":4858,"ĠÐ¸ÑģÐ¿Ð¾Ð»ÑĮÐ·Ð¾Ð²Ð°Ð½Ð¸ÐµÐ¼":4859,"ĠÑĢÐ°ÑģÑģÐºÐ°":4860,"ĠÐ·Ð°ÑĦÐ¸ÐºÑģÐ¸":4861,"ÑĨÐ¸Ð¾Ð½Ð½Ð¾Ðµ":4862,"Ð¸ÑĩÐµÑģÐºÐ¸Ð¹":4863,"ÑĦÑĢÐ¸":4864,"Ð¸ÑĩÐµÑģÐºÐ¾Ðµ":4865,"ĠÐºÐ¾Ð»Ð»Ðµ":4866,"ĠÐ¦ÐµÐ½ÑĤÑĢÐ°":4867,"ĠÑĥÑĩÐµÐ±Ð½Ð¾Ð¹":4868,"ĠÐ´Ð°Ð»ÑĮÐ½ÐµÐ¹ÑĪÐµÐ¼":4869,"ĠÑģÐ¾Ð²ÐµÑĢÑĪÐµÐ½Ð½Ð¾":4870,"ÑĥÐ¼Ðµ":4871,"ĠÑĢÐµÐ³ÑĥÐ»ÑıÑĢ":4872,"Ð¾Ð±Ð¾ÑĢÐ¾ÑĤ":4873,"ĠÑĤÑĢÐ°ÐµÐº":4874,"ĠÑģÐµÐ»ÑĮÑģÐºÐ¾ÑħÐ¾Ð·ÑıÐ¹":4875,"ĠÑĢÐµÐ´Ð°Ðº":4876,"ĠÐ¿ÐµÑĢÐµÑĩÐ¸Ñģ":4877,"ĠÐºÐ¾Ð½ÐºÑĥÑĢÐµÐ½ÑĤ":4878,"ĠÐ·Ð½Ð°ÑĩÐ¸Ð¼Ð¾ÑģÑĤÑĮ":4879,"ĠÐ²ÑĭÑıÐ²Ð¸ÑĤÑĮ":4880,"ĠÑĪÐºÐ°":4881,"Ð¾ÑĢÐ³Ð°":4882,"ĠÐ¼Ð¸Ðº":4883,"ĠÐ¿Ð¾Ð»Ð¸ÑĤÐ¸ÐºÐµ":4884,"ĠÐ¶Ð¸Ð²Ð¾ÑĤ":4885,"Ð¾Ð²ÑĢÐµÐ¼ÐµÐ½":4886,"ĠÐ²Ð½Ð¾Ð²ÑĮ":4887,"ĠÑĢÐµÐ°":4888,"ĠÐ¼Ð½ÐµÐ½Ð¸Ñı":4889,"ĠÑĥÑģÑĤÐ¾Ð¹ÑĩÐ¸Ð²Ð¾":4890,"ĠÐľÐµÐ¶Ð´Ñĥ":4891,"ÑĤÐµÐ»ÑĮÑģÑĤÐ²Ð¾Ð¼":4892,"ĠÐ¾ÑĤÐ´ÐµÐ»ÑĮÐ½ÑĭÐµ":4893,"Ð¾Ð¿Ð°":4894,"ĠÐ½Ð°ÑĢÐ¾Ð´Ð¾Ð²":4895,"ĠÑģÐ¾Ð³Ð»Ð°ÑĪÐµÐ½Ð¸Ñı":4896,"Ð¾Ð±ÑĢÐ¸ÑĤÐ°":4897,"ĠÐ´Ð¾Ð»Ð¶Ð½Ð¾ÑģÑĤ":4898,"ĠÑĢÐ°ÑģÑģÐ¼Ð¾ÑĤÑĢ":4899,"ĠÐ¼ÐµÑħÐ°Ð½Ð¸Ð·Ð¼Ð¾Ð²":4900,"ĠÐ´Ð²ÑĥÐ¼Ñı":4901,"ĠÐ¾ÐºÐ°Ð·Ð°Ð»Ð¸ÑģÑĮ":4902,"ĠÑĢÐ°Ð·Ð°":4903,"ĠÐ¡Ðľ":4904,"ĠÐ¤ÑĢÐ°Ð½ÑĨÐ¸Ð¸":4905,"ÐºÑĥÑĢ":4906,"ĠÑĥÐºÐ°Ð·Ð°Ð½Ð½ÑĭÑħ":4907,"ĠÐ½Ð°ÑģÑĤÑĢÐ¾":4908,"ĠÐ°ÑĤ":4909,"ĠÐ¶Ð¸ÑĤÐµÐ»ÐµÐ¹":4910,"ĠÐ¢Ðµ":4911,"ĠÐ¿Ð¾Ð´Ð¾Ð±Ð½ÑĭÑħ":4912,"ÑīÐµÐ½Ð¸Ñİ":4913,"ĠÐ¿Ð¾Ð´Ð»ÐµÐ¶Ð°":4914,"ĠÐ¿ÐµÑĢÐµÐ¼Ðµ":4915,"Ð»Ð¸ÐºÐ°":4916,"ĠÐ¿ÑĢÐµÐ´Ð¼ÐµÑĤÐ¾Ð¼":4917,"ÑģÑĤÐ°Ð¼Ð¸":4918,"Ð¾ÐºÐ¸":4919,"ÑĪÐ¸ÑĤÑĮ":4920,"ÑĩÐºÐ¸":4921,"ĠÐ¿ÑĢÐ¾ÑģÐ»Ðµ":4922,"ĠÐ¸Ð½Ð´Ð¸ÐºÐ°":4923,"ĠÑģÐ¾Ð·Ð´Ð°Ð½":4924,"ĠÐ´ÐµÐºÐ°":4925,"ÑĩÐ½ÑĭÐ¼Ð¸":4926,"ĠÐ¸Ð½Ð¾Ð³Ð¾":4927,"ĠÑĪÐ¸ÑĢÐ¾ÐºÐ¾":4928,"ĠÑģÑİ":4929,"ĠÑģÐ¸Ñħ":4930,"ÑĢÐ°Ð·Ð´":4931,"ĠÐ²ÐµÐ´Ð¾Ð¼":4932,"ĠÐ¿ÑĢÐ¸Ð¾Ð±ÑĢÐµÑĤ":4933,"***":4934,"ĠÐ³Ð¾ÑĢÐ°Ð·Ð´Ð¾":4935,"ĠÐ¾ÑĤÐºÐ°Ð·":4936,"ĠÐµÐ´":4937,"ĠÐĺÑģÐ¿":4938,"ĠÐ¾Ð±Ð¾":4939,"ĠÑģÐ¾ÑģÑĤÐ°Ð²Ðµ":4940,"Ð³Ð¾Ðµ":4941,"ĠÐ¾ÑĤÐ½Ð¾ÑĪÐµÐ½Ð¸ÑıÑħ":4942,"ĠÐ¿ÑĢÐ¾Ð°Ð½Ð°Ð»Ð¸":4943,"ĠÑıÐ·ÑĭÐºÐ¾Ð²Ð¾Ð¹":4944,"ĠÑĢÐµÐ°Ð»ÑĮÐ½Ð¾ÑģÑĤÐ¸":4945,"ÐĿÐµÑģÐ¼Ð¾ÑĤÑĢÑı":4946,"ĠÐ±Ð°ÑĢ":4947,"ĠÐ·Ð°ÐºÐ¾Ð½Ð¾Ð²":4948,"ĠÐºÐ¾ÑģÐ²ÐµÐ½":4949,"ĠÑĦÐ°ÐºÑĤÐ¾ÑĢÐ¾Ð¼":4950,"ĠÐ±Ð¾Ð»ÑĮÑĪÐ¾Ðµ":4951,"Ð±Ð¾ÑĢÐµ":4952,"ĠÐ¿Ð»":4953,"ĠÐ·Ð´Ð°":4954,"ĠÐ¾ÑģÐ½Ð¾Ð²Ð½ÑĭÐ¼":4955,"Ðĸ":4956,"Ð¿ÐµÑĢÐ²ÑĭÐµ":4957,"ĠÐ½ÐµÐ·Ð½Ð°ÑĩÐ¸":4958,"ĠÐ³Ð¸Ð±":4959,"Ð²ÑĭÐ¼Ð¸":4960,"ĠÐ¿ÑĢÐµÐ´Ð¿Ð¾ÑģÑĭ":4961,"Ð½Ð¸ÐºÐ°Ñħ":4962,"ĠÑģÐ¾ÑĨÐ¸Ð°Ð»":4963,"ĠÑĩÐ¸ÑģÐ»ÐµÐ½Ð½Ð¾ÑģÑĤÐ¸":4964,"ÐĺÐ¼ÐµÐ½Ð½Ð¾":4965,"ĠÐ¿Ð¾ÑģÐ»ÐµÐ´Ð½Ð¸Ñħ":4966,"ĠÑĥÐ¿ÑĢÐ°Ð²Ð»Ñı":4967,"ĠÐ¿Ð°ÑĨÐ¸":4968,"ĠÐ±Ð¸Ð±Ð»Ð¸":4969,"ĠÐ¿Ð°ÑĢÐ°Ð´Ð¸":4970,"Ð²ÑĪÐ°Ñı":4971,"ĠÑĩÐ°ÑģÑĤÐ½ÑĭÑħ":4972,"ĠÐłÐµÑģÐ¿ÑĥÐ±Ð»Ð¸ÐºÐ¸":4973,"ĠÐŀÑģÐ¾Ð±":4974,"ĠÐ°ÑĢÐµÐ½":4975,"ĠÐ½ÐµÐ·":4976,"ĠÐ´ÐµÐ¹ÑģÑĤÐ²Ð¸ÑĤÐµÐ»ÑĮÐ½Ð¾ÑģÑĤÐ¸":4977,"ĠÐ¿Ð¸Ñģ":4978,"ĠÑģÑĤÐ¾ÑĢÐ¾Ð½Ñĥ":4979,"ĠÐ¿ÑĢÐµÐ¾Ð´Ð¾Ð»":4980,"ĠÑĢÐ°ÑģÑĤ":4981,"ĠÑģÑĩÐ¸ÑĤÐ°ÑİÑĤ":4982,"ĠÐ²Ð¾Ð¿ÑĢÐ¾ÑģÑĥ":4983,"ĠÐ²Ð¾ÐµÐ½Ð½ÑĭÑħ":4984,"ĠÐ¿Ð¾Ð»ÑĥÑĩÐµÐ½Ð½ÑĭÑħ":4985,"ĠÐ¸ÑģÑĤÐ¸":4986,"ĠÐ½Ð°Ð¸Ð¼":4987,"ĠÑĥÑĤ":4988,"ĠÐ²Ð¾Ð¾ÑĢÑĥÐ¶":4989,"ĠÐ¸Ð½ÑĤÐµÑĢÐ¿ÑĢÐµÑĤÐ°":4990,"ĠÐ´ÐµÐ¹ÑģÑĤÐ²Ð¸ÑĤÐµÐ»ÑĮÐ½Ð¾":4991,"ĠÐºÐ°ÑĢÑĮÐµÑĢ":4992,"ĠÐ¼Ð¸Ð½Ð¸Ð¼Ð°":4993,"ĠÐ¾ÑĤÐ»Ð¸ÑĩÐ¸":4994,"ĠÐĿÐ¸Ðº":4995,"ĠÐ¶Ð°Ð»":4996,"ĠÐ·Ð°Ð¸Ð¼":4997,"Ð¾ÑħÑĢÐ°Ð½":4998,"ĠÐ¿ÑĢÐ¸Ð¼ÐµÑĢÐµ":4999,"ĠÐ¿Ð°Ð¼ÑıÑĤÐ¸":5000,"ĠÐ·Ð°Ñģ":5001,"ĠÐŀÐ½Ð°":5002,"ĠÑĩÐ¸Ð½Ð¾Ð²":5003,"ĠÑģÐ¾ÑģÑĤÐ°Ð²Ð°":5004,"ĠÐ·Ð½Ð°ÑĩÐ¸ÑĤ":5005,"ÑģÑĤÐ°Ð²Ð¸":5006,"ĠÐ²ÑĭÑģÑĤÑĥÐ¿Ð°ÑİÑĤ":5007,"ĠÑįÑĤÐ°Ð¿":5008,"Ð¾Ð¼Ð¸Ð¼Ð¾":5009,"ĠÐºÐ»Ð°ÑģÑģÐ¾Ð²":5010,"ĠÐ²ÑĭÐ·ÑĭÐ²Ð°":5011,"ĠÐ½Ð°ÑĪÐµÐ³Ð¾":5012,"ÐµÑĢÑĭ":5013,"ĠÑĤÐ¾Ð»Ðº":5014,"ĠÐ½Ð°ÑĢÑĢÐ°":5015,"ĠÐ·Ð°ÐºÑĢÑĭ":5016,"ĠÑĦÐ°ÐºÑĤÐ¾ÑĢÐ°":5017,"ÑģÑĤÐ¾ÑĩÐ½Ð¾Ð¹":5018,"ĠÐ¾Ð±ÑıÐ·Ð°ÑĤÐµÐ»ÑĮÑģÑĤÐ²Ð°":5019,"ĠÐ±Ð°Ð·Ñĭ":5020,"ĠÐ¾ÑĩÐµÐ²Ð¸Ð´Ð½Ð¾":5021,"Ð¾ÑĢÐ´Ð¸Ð½Ð°":5022,"ĠÑĢÐ°Ð·ÑĢÐ°Ð±Ð¾ÑĤÐºÐ¸":5023,"ĠÐłÐ¾Ñģ":5024,"ĠÐ¼Ð»Ð°Ð´":5025,"ĠÐ¿ÑĢÐ¸ÑģÑĥ":5026,"Ð¾Ð¶Ð°Ð»":5027,"Ð½Ð¾ÑģÑĤÑıÐ¼":5028,"ĠÑĢÐ°Ð·Ð»Ð¸ÑĩÐ¸Ð¹":5029,"ĠÑĤÐ¾Ð¶Ðµ":5030,"ĠÐ¼Ð¸Ð³ÑĢÐ°":5031,"ĠÐĳÐ¾Ð»ÐµÐµ":5032,"ĠÐ²Ð½ÑĥÑĤÑĢÐµÐ½Ð½ÐµÐ¹":5033,"ĠÑĪÐµ":5034,"ĠÐ¾Ð±Ð»Ð°Ð´Ð°ÐµÑĤ":5035,"ĠÑģÐ¼ÐµÐ½":5036,"ĠÑģÐ¿Ð¾ÑģÐ¾Ð±ÑģÑĤÐ²ÑĥÐµÑĤ":5037,"ĠÐ¾Ð¿ÑĤÐ¸Ð¼Ð°":5038,"ĠÐŃÑĤÐ°":5039,"ĠÐ¾ÑĨÐµÐ½ÐºÑĥ":5040,"ĠÑģÐ°Ð½Ðº":5041,"Ð§ÑĤÐ¾":5042,"ĠÐ¿ÑĢÐ¾ÑıÐ²Ð»ÑıÐµÑĤÑģÑı":5043,"Ð»Ð°Ð¹Ð½":5044,"ĠÐ²Ð¸Ð´Ð¸Ð¼":5045,"ĠÑĢÐ°ÑģÐ¿ÑĢÐµÐ´ÐµÐ»ÐµÐ½Ð¸Ñı":5046,"ĠÑģÐ¿Ð¾ÑģÐ¾Ð±ÑģÑĤÐ²Ð¾Ð²Ð°":5047,"ĠÐ¿ÑĢÐ¸ÑĩÐ¸Ð½Ñĭ":5048,"ĠÐ±Ð°Ð½Ðº":5049,"ĠÐ²Ð½ÐµÑģ":5050,"ĠÐ¿Ð¾Ð¸ÑģÐºÐ°":5051,"ĠÑĢÐ°ÑģÐ¿Ð¾ÑĢÑı":5052,"ĠÑĦÑĥÐ½Ð´Ð°Ð¼ÐµÐ½ÑĤÐ°":5053,"ĠÐ¾ÑĤÐ¼ÐµÑĩÐ°ÐµÑĤ":5054,"Ð»Ð¸Ð·Ð¼":5055,"ĠÐ¼ÐµÑģÑĤÐ½ÑĭÑħ":5056,"ĠÐ¿ÑĢÐ¾ÑħÐ¾Ð´":5057,"ĠÑĢÑĭÐ½Ð¾Ðº":5058,"ĠÐ½ÐµÐ¸Ð·Ð±ÐµÐ¶":5059,"ĠÐ°Ð¿Ð¿Ð°ÑĢÐ°":5060,"ĠÑĥÐºÐ°Ð·ÑĭÐ²Ð°ÐµÑĤ":5061,"ĠÐ½ÐµÑĢÐµÐ´ÐºÐ¾":5062,"ĠÐºÐ¾ÑĤÐ¾ÑĢÐ¾Ð¼Ñĥ":5063,"ÑĢÐ¸ÑģÑĤÐ¸Ð°Ð½":5064,"ĠÐ¾Ð±ÑĥÑĩÐ°ÑİÑīÐ¸ÑħÑģÑı":5065,"ĠÐ´ÑĢÑĥÐ³Ð¾Ð³Ð¾":5066,"ĠÐ²Ð²Ð¾Ð´":5067,"ĠÐ¸Ð½ÑĤÐµÑĢÐ¿ÑĢÐµÑĤÐ°ÑĨÐ¸Ð¸":5068,"ĠÑģÐ¾ÑĨ":5069,"ĠÑĦÐ¸Ð»Ð¾ÑģÐ¾":5070,"ĠÐ¼Ð¾Ð½Ð¸ÑĤÐ¾ÑĢÐ¸":5071,"ĠÑģÐ¼Ð¾Ð³":5072,"ÐŀÐ½":5073,"ÐµÑĤÑĭ":5074,"ÑĩÐµÑģÑĤÐ²Ð¾":5075,"ĠÑģÐ²Ð¾Ð´":5076,"ĠÐ¾Ð´Ð¸Ð½Ð°ÐºÐ¾Ð²":5077,"ĠÐ¿ÑĢÐµÐ´ÑĬ":5078,"ĠÐ·Ð½":5079,"ĠÐ°ÑĢÐµ":5080,"ĠÐ¿Ð¾Ð´ÑĢÐ°Ð·Ð´Ðµ":5081,"ĠÐºÐ¾Ð½ÑĤÐµÐºÑģÑĤ":5082,"Ð¸Ð»ÑģÑı":5083,"ĠÐ¿Ð¾Ð»ÑĮ":5084,"ĠÐ¾ÑĤÑģÑĤÐ°":5085,"ÑģÑĤÑģÐºÐ¾Ð¹":5086,"ÑĢÐ¾Ð²Ð°Ð½Ð½ÑĭÐ¹":5087,"ĠÐ³Ð¾ÑĢÐ¾Ð´Ð¾Ð²":5088,"ĠÑħÑĥÐ´Ð¾Ð¶Ðµ":5089,"ĠÐ¾Ð±ÑĬÐµÐºÑĤ":5090,"ĠÐ´Ð¸ÑģÐºÑĥÑģÑģÐ¸":5091,"ĠÐ¿Ð¾Ð»Ð¸ÑĤ":5092,"ÑīÐ°ÑĤÑĮ":5093,"ĠÑĥÐ¿Ð¾Ð¼":5094,"ĠÐ´Ð¸ÑģÐºÑĥÑĢÑģÐ°":5095,"ĠÑģÐ¾Ð±Ð¸ÑĢÐ°":5096,"ĠÐ¡Ð¸Ð±Ð¸ÑĢÐ¸":5097,"ĠÐĺÐ½ÑĤÐµÑĢÐ½ÐµÑĤ":5098,"ÑĢÐ¸ÑĤÑĮ":5099,"ĠÐ¾Ð¿ÑĢÐ°Ð²":5100,"ĠÑģÑĢÐ°Ð·Ñĥ":5101,"ĠÐ¼ÑĭÑĪÐ»ÐµÐ½Ð¸Ñı":5102,"Ð¾Ð»ÐµÐ²":5103,"ÐµÐ³Ð¾":5104,"ĠÐ»ÑİÐ´ÑĮÐ¼Ð¸":5105,"ĠÑģÐ²Ð¸Ð´ÐµÑĤÐµÐ»ÑĮÑģÑĤÐ²ÑĥÑİÑĤ":5106,"ĠÐ´ÐµÑĤÑĮÐ¼Ð¸":5107,"ĠÐ½Ð°ÑĥÐºÐµ":5108,"ĠÐ´Ð¾Ð²Ðµ":5109,"ÑĤÐ¸Ð»Ð¸":5110,"ĠÐ½Ð°Ð¹":5111,"ÑģÑĤÐ¸ÑĩÐµÑģÐºÐ¸Ñħ":5112,"ĠÐ´Ð¸Ð°Ð»":5113,"ĠÑĩÐµÐ»Ð¾Ð²ÐµÑĩÐµÑģÐºÐ¾Ð³Ð¾":5114,"ĠÐ¿ÐµÑĢÐ²ÑĭÐµ":5115,"Ð½Ð¾Ð³Ð¸Ðµ":5116,"Ð¾Ñī":5117,"Ð´Ð¾Ð»":5118,"ĠÐ´Ð°Ð»ÐµÐºÐ¾":5119,"ĠÐºÐ°ÑĤÐµÐ³Ð¾ÑĢÐ¸Ð¹":5120,"ĠÐ²Ð¸Ð·":5121,"ÐĿÐ°Ð¿ÑĢÐ¸Ð¼ÐµÑĢ":5122,"ĠÐ¾Ð±ÑıÐ·Ð°Ð½Ð½Ð¾ÑģÑĤÐ¸":5123,"ĠÐ¾Ð¿ÑĢÐ¾Ñģ":5124,"ĠÑģÐ¾Ð²Ðµ":5125,"Ð¿ÑĢÐµÐ´":5126,"ĠÐ¾Ð¿Ð¸ÑģÐ°Ð½Ð¸Ðµ":5127,"ĠÐ¼Ð¾Ð¼ÐµÐ½ÑĤÐ°":5128,"ĠÐ²ÑĭÑĢÐ°Ð¶ÐµÐ½Ð¸Ñı":5129,"ĠÐ´Ð¾Ð¿ÑĥÑģÐºÐ°":5130,"ÑģÐºÐ¾ÑĢ":5131,"Ð¾Ð±ÑĢÐ°":5132,"ĠÑĢÐµÐºÐ»Ð°":5133,"ĠÐ¼Ð°Ð»":5134,"ĠÐ¶ÐµÐ½ÑīÐ¸Ð½Ñĭ":5135,"ÑĨÐµÐ½ÑĤÑĢÐ¸":5136,"Ð°Ð»Ð¸ÑģÑĮ":5137,"ĠÐ´Ð¾ÑģÑĤÐ¸Ð³Ð°":5138,"Ð²Ð»ÐµÐ½Ð¸Ð¸":5139,"ĠÑģÑĥÐ´Ð¾Ð²":5140,"ĠÑģÑĤÐ¾ÑĢÐ¾Ð½Ð°":5141,"ĠÑģÑĤÐ°ÑĤÐ¸ÑģÑĤÐ¸ÑĩÐµÑģÐº":5142,"ĠÑģÐ¾Ð·Ð½Ð°Ð½Ð¸Ñı":5143,"ĠÐ°Ð¼":5144,"ÑĩÐµÐº":5145,"Ð½Ð¸ÑıÐ¼":5146,"ĠÑģÐºÑĢÑĭ":5147,"ĠÐºÐ¾Ð½ÐºÑĥÑĢÐµÐ½ÑĨÐ¸Ð¸":5148,"ĠÑģÐ¾Ð·Ð´Ð°ÑĤÑĮ":5149,"Ð°ÐºÐ°":5150,"ÑĩÐµÐ½Ð½ÑĭÐµ":5151,"ĠÐĴÐµÐ»Ð¸ÐºÐ¾Ð±ÑĢÐ¸ÑĤÐ°":5152,"ĠÑĥÐ½Ð¸ÐºÐ°":5153,"ÑĨÐ¸Ð¾Ð½Ð°Ð»Ð¸":5154,"ĠÐ´Ð¾Ð»Ð¸":5155,"ĠÐ´Ð¾ÑħÐ¾Ð´Ð°":5156,"ĠÑģÐºÐ»Ð°Ð´Ñĭ":5157,"Ð¾ÐºÐ°Ñı":5158,"ĠÐ¿ÑĢÐ¾Ð¸Ð·Ð²Ð¾Ð´ÑģÑĤÐ²Ð¾":5159,"ĠÐ²Ð¸Ð´Ð½Ð¾":5160,"ĠÑĨÐµÐ»Ð¾ÑģÑĤ":5161,"ÑıÐ²Ð»ÐµÐ½":5162,"ĠÐ¿ÑĢÐµÑģÑĤÑĥÐ¿Ð»ÐµÐ½Ð¸Ð¹":5163,"ĠÐ¿Ð¾Ð·Ð¸ÑĨÐ¸Ñı":5164,"ĠÐ¸Ð´ÐµÑı":5165,"ĠÐ¿Ð¾Ð´Ð´ÐµÑĢÐ¶ÐºÑĥ":5166,"Ð½ÑıÑĤÑĮ":5167,"ĠÐ°ÐºÑĤÐ¸Ð²Ð¸":5168,"ĠÑĪÐºÐ¾Ð»Ð°Ñħ":5169,"ĠÐ¿ÐµÑĢÐµÐ¼ÐµÐ½Ð½ÑĭÑħ":5170,"Ð¡Ð»ÐµÐ´ÑĥÐµÑĤ":5171,"ĠÐ¸Ð¼ÐµÑİÑīÐ¸Ñħ":5172,"ĠÐ½Ð°ÑħÐ¾Ð´ÑıÑĤÑģÑı":5173,"ĠÑģÐ²ÑıÐ·ÑĭÐ²Ð°":5174,"ÐµÐ½ÑģÐ°":5175,"ĠÐ¿ÑĢÐ¾ÑĤ":5176,"ĠÑĤÐµÐ¼Ñĭ":5177,"ĠÐ²ÑĭÑĢÐ°Ð±Ð¾ÑĤ":5178,"Ð³Ð°Ð¼Ð¸":5179,"ĠÐ¡Ð¸":5180,"ĠÐ¶ÐµÑĢÑĤ":5181,"ĠÐ³Ð¾ÑģÐ´Ð°ÑĢ":5182,"Ð»ÑıÐ¼Ð¸":5183,"ĠÐ¿ÐµÑĢÐµÑģ":5184,"ĠÐ²ÑĭÑģÐ¾ÐºÐ¸Ð¼":5185,"ĠÐĲÐ»ÐµÐºÑģÐ°Ð½Ð´":5186,"ĠÐ¿Ð¾Ð²Ð¾Ð´Ñĥ":5187,"ĠÑģÑĥÐ´ÐµÐ±Ð½Ð¾Ð¹":5188,"ĠÐ½Ð°Ð±Ð»ÑİÐ´ÐµÐ½Ð¸Ñı":5189,"ĠÑģÑĤÐ¾Ð»ÑĮÐºÐ¾":5190,"ĠÐľÐ¾ÑģÐºÐ¾Ð²":5191,"ÑĤÑĢÐµÑĤÑĮ":5192,"ĠÐºÑĥÐ»ÑĮÑĤÑĥÑĢÐ°":5193,"ĠÐ³ÑĢÑĥÐ¿Ð¿Ñĥ":5194,"ĠÑĥÑĤÐ¾Ñĩ":5195,"ĠÐºÐ¾Ð½ÑģÑĤÐ¸ÑĤÑĥÑĨÐ¸Ð¾Ð½Ð½Ð¾Ð³Ð¾":5196,"ÑĢÐ¾Ð²Ð°Ð»Ð¸ÑģÑĮ":5197,"ĠÐ¢Ð¾":5198,"ĠÑĥÐ¿ÑĢÐ°Ð²Ð»ÐµÐ½Ð¸Ðµ":5199,"Ð¿Ð¾Ð´":5200,"ÑīÐµÑĢ":5201,"ĠÐŀÐ¿":5202,"ĠÐ´ÐµÑıÑĤÐµÐ»ÑĮÐ½Ð¾ÑģÑĤÑĮÑİ":5203,"ĠÐ¿ÑĢÐ¸ÑħÐ¾Ð´Ð¸ÑĤÑģÑı":5204,"Ð²Ð¾Ð²":5205,"ÐµÐ´Ð¶":5206,"ĠÐ´Ð¸Ð°Ð³Ð½Ð¾ÑģÑĤÐ¸":5207,"ĠÑģÐµÐ¹ÑĩÐ°Ñģ":5208,"ĠÑģÐ¾Ð±ÑģÑĤÐ²ÐµÐ½Ð½ÑĭÑħ":5209,"ÐµÐ¼Ð¾ÑģÑĤÐ¸":5210,"ĠÐ¸Ð¼ÑĥÑīÐµÑģÑĤÐ²Ð°":5211,"ĠÐ½ÐµÐ¶Ðµ":5212,"ĠÐ¿ÑĢÐ¸Ð½Ñĥ":5213,"ĠÐ¿ÑĢÐ¸Ð¼ÐµÑĢÐ½Ð¾":5214,"ĠÐ½Ð°ÑĢÑıÐ´Ñĥ":5215,"ĠÐ¸ÑģÑħÐ¾Ð´Ñı":5216,"ÑĤÐ¾ÑĢÐµ":5217,"ĠÐ¿Ð¾ÑĤÐµÐ½ÑĨÐ¸Ð°Ð»Ð°":5218,"Ð¼ÑĥÑİ":5219,"ĠÐ²ÑĥÐ·Ñĭ":5220,"ĠÐ¿Ð¾ÑģÑĤÑĥÐ¿Ð°":5221,"ĠÐ¼Ð½Ð¾Ð¶ÐµÑģÑĤÐ²Ð¾":5222,"ĠÐ»ÐµÐ³Ð¸":5223,"ĠÑįÐ»ÐµÐºÑĤÑĢÐ¾Ð½":5224,"ÑĩÐµÐ±":5225,"ĠÐ²ÑĭÐ±Ð¸ÑĢÐ°":5226,"ĠÐ´ÐµÐ¿ÑĥÑĤÐ°":5227,"ÑĤÐ¾ÑĢÐ¾Ð¹":5228,"ÐĴÐ¾Ð·":5229,"ĠÐºÐ°Ð¼":5230,"ĠÐ¿Ð¾Ð»Ñĥ":5231,"ÑĤÐ¾ÑĢÐ°Ñı":5232,"ĠÐ¾Ð±ÑīÐµÐ¼":5233,"ĠÐ±Ð¾Ð»ÐµÐ·":5234,"ĠÐ¸Ð·Ð½Ð°ÑĩÐ°":5235,"ÐŀÐ½Ð¸":5236,"ĠÐ»ÑĥÑĩÑĪÐµ":5237,"ĠÐ¼Ð°ÑĤÐµÑĢÐ¸Ð°Ð»Ñĭ":5238,"ĠÐ¿Ð¾ÑģÑĤÑĢÐ¾ÐµÐ½Ð¸Ñı":5239,"ĠÐ¾ÑĢÐ³Ð°Ð½Ð°Ð¼Ð¸":5240,"ĠÐ½ÐµÐ´Ð¾ÑģÑĤÐ°ÑĤÐ¾ÑĩÐ½Ð¾":5241,"ĠÑģÐ¾ÑģÑĢÐµÐ´":5242,"ÐŃÑĤÐ¾ÑĤ":5243,"ÑĢÐ°Ð·ÑĥÐ¼Ðµ":5244,"ÑĤÐ¸Ð²Ñĭ":5245,"ĠÐ½Ð°Ð³ÑĢÑĥÐ·":5246,"ÑģÑıÑĤ":5247,"ÑĤÐ°Ñı":5248,"ĠÑģÑĤÐ¾Ð»Ðº":5249,"ĠÐ¡ÑĥÐ´":5250,"ĠÑģÐ¿ÑĢÐ¾ÑģÐ°":5251,"ĠÐ¾ÑĤÐµÑĩÐµÑģÑĤÐ²ÐµÐ½Ð½Ð¾Ð¹":5252,"ĠÐ³Ð¾ÑģÐ¿":5253,"ĠÐ²Ð½ÑĥÑĤÑĢÐµÐ½Ð½Ð¸Ñħ":5254,"ĠÐ¿Ð¾Ð»ÑĥÑĩÐ¸Ð»Ð¸":5255,"ĠÐ¸ÑģÑĤ":5256,"ĠÐ´ÐµÐºÐ°Ð±":5257,"ĠÐ½ÐµÐ¿ÑĢÐµ":5258,"ĠÐ¿ÑĢÐ¸Ð¾ÑĢÐ¸ÑĤÐµ":5259,"ĠÐ°ÑģÐ¿ÐµÐºÑĤÑĭ":5260,"Ð±Ð¾Ð¹":5261,"ĠÐ¿ÑĢÐ¸Ð·Ð½Ð°ÐºÐ¾Ð²":5262,"ĠÐ±Ð»Ð°Ð³Ð¾Ð¿ÑĢÐ¸ÑıÑĤ":5263,"ĠÐºÐ¾Ð¼Ð¿ÐµÑĤÐµÐ½ÑĨÐ¸Ð¹":5264,"ĠÐ¾Ð±Ð¼ÐµÐ½":5265,"ĠÐ·Ð°Ð¼ÐµÑĩÐ°":5266,"Ð½Ð°ÑĨÐ¸Ð¾Ð½Ð°Ð»ÑĮ":5267,"ÑĤÐ¸Ð²Ð½Ð¾Ð¼":5268,"ĠÐ²Ð½ÐµÑĪÐ½Ð¸Ñħ":5269,"ĠÐ¿Ð¾Ð»Ð¸ÑĤÐ¸ÐºÑĥ":5270,"ÑĢÑĥÑİÑīÐ¸Ðµ":5271,"ĠÐ´Ð½Ñı":5272,"ĠÐ°ÐºÑĨÐµÐ½":5273,"ĠÐ¿Ð¾ÑģÑĤÐ°Ð²":5274,"ĠÐ¿Ð¾ÑģÑĤÐµÐ¿ÐµÐ½Ð½Ð¾":5275,"Ð²Ð°Ð½Ð¸Ð¸":5276,"ÑĨÐ¸Ð¾Ð½Ð½ÑĥÑİ":5277,"ÑģÑĤÑĢÐ°ÑĨÐ¸Ð¸":5278,"ÑİÑīÐµÐ¹ÑģÑı":5279,"ĠÑĤÐ°Ð±Ð»Ð¸":5280,"ÐłÐ°ÑģÑģ":5281,"Ð³ÑĢÑĥÐ¿":5282,"ĠÑĤÑĢÑĥÐ´Ð¾Ð²Ð¾Ð¹":5283,"ĠÐ¼ÑĥÐ·":5284,"ĠÐ¿ÑĢÐ¾ÑĤÐ¸Ð²Ð¾Ð¿Ð¾ÑģÑĤÐ°":5285,"ĠÐ±Ð»Ð¾Ðº":5286,"ĠÐ¾ÑĤÑĢÐ°Ð¶Ð°ÐµÑĤ":5287,"ĠÑģÐ²ÐµÑĤ":5288,"ĠÐ°ÐºÑĤÐ¸Ð²Ð¾Ð²":5289,"ÑĦÐ¸Ðº":5290,"ÑģÑĤÑĢÐ¾Ð²":5291,"ĠÑĢÐµÐº":5292,"Ð²ÑĭÑĩÐ°Ð¹":5293,"ĠÑģÐµÐ¼ÑĮ":5294,"Ð²ÑĢÐµÐ¼ÐµÐ½":5295,"ĠÐ¿Ð¾ÑĢÑĤ":5296,"Ð´Ð°Ð³Ð¾Ð³Ð¸ÑĩÐµÑģÐº":5297,"ĠÐ´Ð°ÑĤÑĮ":5298,"ĠÑĢÐ°Ð¹Ð¾Ð½Ð°":5299,"ĠÐ¿ÑĢÐµÐ´Ð²Ð°ÑĢÐ¸":5300,"ĠÐ¼ÐµÐ´Ð¸Ð°":5301,"ĠÑįÐ¿Ð¸":5302,"ĠÐ½ÑĢÐ°Ð²":5303,"ĠÐ¸Ð½Ð°ÑĩÐµ":5304,"ĠÐ°Ð³ÑĢÐµ":5305,"ĠÑĥÑģÐ»ÑĥÐ³Ð¸":5306,"ĠÑĤÑİ":5307,"Ð±Ð¸ÑĤ":5308,"ĠÐ¼Ð¸Ð³ÑĢÐ°Ð½ÑĤÐ¾Ð²":5309,"ĠÐļÐ¸ÑĤÐ°Ñı":5310,"ĠÐ°ÑĢÑħÐ¸ÑĤÐµÐº":5311,"ÐµÐºÑĤÐ¸":5312,"ĠÐ¿ÑĢÐ¸ÑĢÐ¾Ð´Ñĭ":5313,"ĠÐ¼ÐµÑħÐ°Ð½Ð¸Ð·Ð¼Ñĭ":5314,"ĠÐ¾Ð±ÑīÐµÐµ":5315,"Ð³Ð¾Ð¼":5316,"ĠÑģÐ¾Ð·Ð´Ð°ÐµÑĤ":5317,"ĠÐ¾Ð±ÑĢÐ°Ð·Ð¾Ð²Ð°Ð½Ð¸ÐµÐ¼":5318,"ÑģÑĤÐ¾Ð²ÐµÑĢ":5319,"ÑģÑĤÑı":5320,"ĠÐ²Ð¾Ð·Ð´ÐµÐ¹ÑģÑĤÐ²Ð¸Ðµ":5321,"ÑīÑĥÑİ":5322,"ĠÑģÐ¾ÑħÑĢÐ°Ð½Ð¸":5323,"ĠÑģÐµÐ½ÑĤ":5324,"ĠÐ¿ÑĢÐ¾ÑıÐ²Ð»ÐµÐ½Ð¸Ñı":5325,"ĠÐ²Ð»Ð¸ÑıÐµÑĤ":5326,"ĠÐ½ÐµÐ´Ð°":5327,"Ð¸Ð²ÑĪÐ¸Ñħ":5328,"ĠÐ·ÐµÐ¼ÐµÐ»ÑĮ":5329,"Ð´ÐµÑĢÐ¶Ð°":5330,"ĠÑģÑĤÑĢÐ°Ð½Ð°Ð¼Ð¸":5331,"ĠÑģÐ¾ÑĨÐ¸Ð°Ð»ÑĮÐ½ÑĭÐ¹":5332,"Ð¿ÑĢÐ°Ð²Ð¾Ð²ÑĭÑħ":5333,"ĠÐ¾Ð±Ð»Ð°Ð´Ð°ÑİÑĤ":5334,"ĠÐ²ÐµÑī":5335,"Ð¾Ð¿ÑĢÐ¸Ñı":5336,"ĠÐ¾Ð±ÑīÐ¸Ðµ":5337,"ĠÐ¾ÑĤÐºÐ»Ð¾Ð½":5338,"ÑĩÑĤÐ¾":5339,"ĠÐ¿ÑĢÐµÐ´Ð¿Ð¾ÑĩÑĤ":5340,"ĠÐºÑĥÐ»ÑĮÑĤÑĥÑĢÐµ":5341,"ÑīÐ¸ÑĤ":5342,"Ð´Ð¾Ðº":5343,"ĠÐ¿ÐµÑĩÐ°":5344,"ÑģÐ¾Ð²ÐµÑĤ":5345,"ĠÐ½Ð°Ð´Ð¾":5346,"ÑģÑģÐ»ÐµÐ´Ð¾Ð²Ð°Ð½Ð¸Ñı":5347,"ÑĢÐ´Ðµ":5348,"ĠÐ¾Ð¿ÑĢÐ¾":5349,"ĠÐĳÐ°":5350,"ĠÐľÐ¸Ð½Ð¸ÑģÑĤÐµÑĢ":5351,"ĠÑģÐ¾Ð±ÑģÑĤÐ²ÐµÐ½Ð½Ð¾Ð¹":5352,"ĠÐķÐ²ÑĢÐ¾Ð¿Ðµ":5353,"ĠÐ£ÐºÑĢÐ°":5354,"Ð¼ÑĭÐ¼Ð¸":5355,"ĠÐ¿ÑĢÐ¾Ð¼ÑĭÑĪÐ»ÐµÐ½Ð½Ð¾ÑģÑĤÐ¸":5356,"ĠÐ¾ÑĤÐ½ÐµÑģÑĤÐ¸":5357,"ĠÐ¿Ð¾Ð·Ð²Ð¾Ð»Ð¸ÑĤ":5358,"ĠÑĦÐ¾Ð½Ð´Ð¾Ð²":5359,"ĠÑĦÐ¸Ð½Ð°Ð½ÑģÐ¾Ð²Ð¾Ð³Ð¾":5360,"Ð²Ð°ÑıÑģÑĮ":5361,"Ð¾Ð²Ð°Ð½Ð½ÑĭÐµ":5362,"Ð½Ð¸ÐºÑĥ":5363,"ĠÐ¼ÑĥÐ¶ÑĩÐ¸Ð½":5364,"ÑĢÐ°ÑģÑĤÐ°":5365,"ĠÑĥÐ²ÐµÐ»Ð¸ÑĩÐµÐ½Ð¸Ðµ":5366,"ÑĨÐ¸Ð°Ð»Ð¸":5367,"ĠÐłÐ¾ÑģÑģÐ¸Ð¹":5368,"Ð¼Ð¾Ð¶Ð½Ð¾":5369,"ÑĢÐ¾Ð²Ð°Ð½Ð¸ÐµÐ¼":5370,"ĠÐ²ÑĥÐ·Ðµ":5371,"ĠÐ¡Ð°Ð¼":5372,"ĠÐ¿Ð¾ÑĩÐµÐ¼Ñĥ":5373,"ĠÐ¿ÑĢÐ¸Ð½Ð°Ð´Ð»ÐµÐ¶Ð°":5374,"ĠÐ²Ð¾Ðº":5375,"ÑĤÐ½Ð¾Ðµ":5376,"ÑıÐ³":5377,"ĠÐ²Ð°ÑĢÐ¸Ð°":5378,"ĠÑĥÑģÐ¸Ð»Ð¸Ñı":5379,"ĠÑĩÐ°ÑģÑĤÐ¾ÑĤ":5380,"Ð²Ð¾Ð¼":5381,"ĠÐ¡ÑĤ":5382,"ÐŁÐŀ":5383,"ĠÐ¾Ð´Ð½Ð¾Ð·Ð½Ð°":5384,"Ð½Ð°ÑĩÐ¸":5385,"ĠÐ¾Ð¿Ð¿Ð¾Ð·Ð¸":5386,"ĠÑĢÐ°Ð²ÐµÐ½":5387,"Ð¼ÐµÐ½ÑĤÐ¸":5388,"Ð¾ÐºÐ¾Ð²":5389,"Ð¾Ð±ÑħÐ¾Ð´Ð¸Ð¼Ð¾":5390,"Ð¾ÑĤÐ²Ð¾ÑĢ":5391,"ÑĤÑĢÐµÑĤÑĮÐ¸Ñħ":5392,"Ð»Ð½Ð¸Ñı":5393,"ĠÐ¿Ð¸ÑģÑĮÐ¼Ð°":5394,"ĠÐĳÐ¾Ð»ÑĮÑĪ":5395,"ĠÑĢÐµÑĪÐµÐ½Ð¸Ð¸":5396,"ĠÐ´ÐµÑĤÐµÑĢ":5397,"ĠÑįÐ½ÐµÑĢÐ³":5398,"ĠÐ»Ð¸ÑĨÐ¾":5399,"ĠÐºÐ¾Ð½ÑģÐµÑĢÐ²Ð°":5400,"ĠÐ¿ÑĢÐ¾ÑĦÐµÑģÑģÐ¸Ð¾Ð½Ð°":5401,"ĠÐºÐ»ÑİÑĩÐµÐ²ÑĭÑħ":5402,"Ð¶ÐµÐ¼":5403,"ĠÐ¿ÑĢÐ°Ð²Ð¾Ð²ÑĭÐµ":5404,"ĠÑģÐ¾ÑģÐµÐ´":5405,"ĠÐ±ÑİÐ´Ð¶ÐµÑĤÐ°":5406,"ĠÐ±ÑĭÑģÑĤÑĢÐ¾":5407,"ĠÐ¾ÑĤÐ»Ð¸ÑĩÐ°ÐµÑĤÑģÑı":5408,"ĠÐ²Ð¸Ð´Ñĥ":5409,"ĠÑĦÐ¾Ð½Ð´Ð°":5410,"Ð°ÐºÐ¾Ð½ÐµÑĨ":5411,"ĠÑĥÑĩÐµÐ±Ð½Ð¾Ð³Ð¾":5412,"ĠÐ°Ð´Ð°Ð¿ÑĤÐ°ÑĨÐ¸Ð¸":5413,"ĠÐ¾Ð±ÑĬÐµÐºÑĤÐ¾Ð¼":5414,"Ð¾Ð¿ÐµÑĢÐ°":5415,"ĠÑĢÐ°Ð±Ð¾ÑĤÐ°ÑĤÑĮ":5416,"ĠÐ¡ÐľÐĺ":5417,"ĠÐ¿ÐµÑĢÐµÑħÐ¾Ð´Ð°":5418,"ĠÐ¾Ð³ÑĢÐ°Ð½Ð¸ÑĩÐµÐ½Ð¸Ð¹":5419,"ÑĨÐµÐ½ÑĤÑĢÐ°":5420,"ĠÐ°ÑĢÐ¼Ð¸Ð¸":5421,"Ð¾Ð½Ð½ÑĭÑħ":5422,"ĠÐ·Ð°Ð¿Ð°":5423,"ĠÑĢÐ°Ð·Ð²":5424,"Ð½ÐµÐ½Ð½ÑĭÑħ":5425,"Ð¼Ð°Ñı":5426,"ĠÐ°ÐºÑĤÐ¸Ð²Ð½Ð¾ÑģÑĤÑĮ":5427,"ĠÐ·Ð°Ð±Ð¾ÑĤ":5428,"ĠÐ¸Ð½ÑĦÐ¾ÑĢÐ¼Ð°ÑĨÐ¸Ñı":5429,"ĠÑĤÐµÑĢÑĢÐ¾":5430,"Ð¼Ð¾Ð½":5431,"ĠÐ¼Ð¾Ð´ÐµÑĢÐ½Ð¸Ð·Ð°ÑĨÐ¸Ð¸":5432,"ĠÑıÐ½Ð²Ð°":5433,"ĠÐ¾Ð±Ð»Ð°ÑģÑĤÑĮ":5434,"ĠÑĢÐ°Ð·ÑĢÐ°Ð±Ð¾ÑĤÐ°Ð½":5435,"ĠÐ¸Ð½ÑĤÐµÑĢÐ½ÐµÑĤ":5436,"ĠÐ²Ð²":5437,"ÑĪÐ°ÐµÑĤÑģÑı":5438,"ĠÐ¿ÑĢÐ°Ð²Ð¾Ð¾ÑĤÐ½Ð¾":5439,"ĠÑĦÐ¾ÑĢÐ¼Ð¸ÑĢÐ¾Ð²Ð°Ð½Ð¸Ð¸":5440,"ĠÐ½Ð°Ð¿Ð¸ÑģÐ°":5441,"ĠÐ¾Ð´Ð½Ñĥ":5442,"ÐĲÐ½Ð°Ð»Ð¸Ð·":5443,"ĠÐ¿Ð¾Ð¼Ð¸Ð¼Ð¾":5444,"ÐŀÐ¿":5445,"ĠÑģÐ¾Ð¶Ð°Ð»":5446,"ĠÐ½Ð°ÑħÐ¾Ð´Ñı":5447,"ĠÑĩÐµÑĢÑĤÑĭ":5448,"ĠÑģÐ°Ð¼Ð¾ÑĥÐ¿ÑĢÐ°Ð²Ð»ÐµÐ½Ð¸Ñı":5449,"ĠÐ¿ÑĢÐ¸Ð½Ð¸Ð¼Ð°ÑĤÑĮ":5450,"ĠÑģÐ»ÑĥÐ¶Ð±Ñĭ":5451,"ĠÑĥÑģÐ¿ÐµÐ²Ð°ÐµÐ¼":5452,"ĠÐ¿ÑĢÐ¸Ð±Ð»Ð¸":5453,"ĠÑĥÐ³Ð¾Ð»Ð¾Ð²Ð½Ð¾":5454,"Ð¾Ð»Ð¾Ð³Ð¸Ñİ":5455,"ĠÑģÐ¼ÑĭÑģÐ»Ð°":5456,"ĠÐ²ÑĭÐ³Ð»Ñı":5457,"ĠÐ¸Ð½Ð¾Ð³Ð´Ð°":5458,"ĠÑĥÐ¿Ð¾ÑĤÑĢÐµÐ±Ð»ÐµÐ½Ð¸Ñı":5459,"ĠÐ°Ð½Ð°Ð»Ð¸Ð·Ñĥ":5460,"ĠÐ²Ð¾Ð·Ð¼Ð¾Ð¶Ð½ÑĭÑħ":5461,"Ġ:":5462,"ÐļÐ°":5463,"Ð²Ð°Ð½Ð¸Ð¹":5464,"Ð³Ð¾ÑĢÐ¾Ð´":5465,"ÐĳÐ¾Ð»ÐµÐµ":5466,"ĠÐ¿Ð¾ÐºÑĥ":5467,"ĠÐºÐ°Ð·":5468,"Ð¿Ð¸ÑģÐ¸":5469,"ĠÐ¸ÑģÑĤÐ¾ÑĢÐ¸Ñı":5470,"ĠÐ¾ÐºÑĤ":5471,"ĠÐ¿Ð¾Ð´ÑĢÐ°Ð·ÑĥÐ¼Ðµ":5472,"ĠÐ½Ð°ÑĨÐ¸Ð¾Ð½Ð°Ð»ÑĮÐ½Ð¾Ð³Ð¾":5473,"ĠÐ¿Ð¾Ð¼Ð¾Ð³Ð°":5474,"Ð²ÑĥÑİ":5475,"ĠÑĢÐ°ÑģÑģÐ¼Ð¾ÑĤÑĢÐµÐ½Ð¸Ñı":5476,"ĠÐ¾Ð±Ð¾ÑģÐ½Ð¾Ð²Ð°Ð½":5477,"Ð²Ð¾Ð»ÑĮ":5478,"ĠÑĢÑĥÑģÑģÐºÐ¾Ð¼":5479,"Ð¿ÐµÑĢÑĮ":5480,"ĠÐ¾Ð±ÑĢÐ°ÑīÐµÐ½Ð¸Ñı":5481,"ĠÑģÐ°Ð¼Ð¸Ñħ":5482,"ĠÑģÑĥÐ´Ð¾Ð¿ÑĢÐ¾Ð¸Ð·Ð²Ð¾Ð´":5483,"ĠÐ¿Ð¾Ð»Ð¾Ð²Ð¸Ð½Ñĭ":5484,"ĠÐ½Ð¾Ð¼":5485,"Ð¢Ðŀ":5486,"ÑİÑīÐµÐ³Ð¾ÑģÑı":5487,"ĠÑģÐ¾Ð·Ð´Ð°Ð½Ð¸Ð¸":5488,"ĠÑįÐºÐ¾Ð½Ð¾Ð¼Ð¸ÑĩÐµÑģÐºÐ¸Ðµ":5489,"ĠÑħÐ¾":5490,"Ð¾Ð²Ð°Ð»Ð°":5491,"Ð¾Ð¶Ð´Ðµ":5492,"ĠÐĽÑİ":5493,"ĠÑĩÐµÑĤÐºÐ¾":5494,"ĠÐ¸ÑģÐ¿ÑĭÑĤÑĭ":5495,"ĠÑģÐ²ÑıÑīÐµÐ½":5496,"ĠÑĤÐµÐºÑģÑĤÐµ":5497,"ĠÑģÑģÑĭ":5498,"ĠÐºÐ¾ÑĢÑĢÑĥÐ¿ÑĨÐ¸Ð¸":5499,"ÑĢÐ¾Ð²Ð°Ð½Ð½Ð¾ÑģÑĤÐ¸":5500,"Ð¡ÑĢÐµÐ´Ð¸":5501,"ĠÐ¸Ð»Ð»Ñİ":5502,"Ð¾Ð½Ð¾":5503,"ĠÑĨÐµÐ½ÑĤÑĢ":5504,"ĠÑĢÐµÐ³ÑĥÐ»Ñı":5505,"ĠÑıÐ²Ð»ÐµÐ½Ð¸Ð¹":5506,"ĠÑĥÑģÑĤÐ°Ð½Ð¾Ð²Ð»ÐµÐ½Ð¸Ñı":5507,"ĠÑĢÐ°ÑģÐ¿ÑĢÐ¾ÑģÑĤÑĢÐ°Ð½ÐµÐ½Ð¸Ðµ":5508,"ĠÑĢÐµÐ³ÑĢÐµ":5509,"ĠÐ·Ð°Ð½ÑıÑĤÐ¸Ð¹":5510,"ĠÐ¼ÑĭÑģ":5511,"ĠÐ´Ð¾Ð²ÐµÑĢÐ¸":5512,"ĠÐ²Ð¿Ðµ":5513,"ĠÐ¿ÑıÑĤÐ¸":5514,"ĠÑĤÑĢÐ°Ð½ÑģÑĦÐ¾ÑĢÐ¼Ð°ÑĨÐ¸Ð¸":5515,"ĠÐ½Ð°ÑģÐ»ÐµÐ´":5516,"ĠÐ¿Ð¾Ð´ÑĩÐµÑĢÐº":5517,"Ð®":5518,"ĠÐ¿ÑĢÐ¸Ð½ÑıÑĤÑĮ":5519,"ÑĥÑı":5520,"ĠÐ´Ð°Ð½Ð½Ð°Ñı":5521,"Ð¸ÑĢÐ°Ð½":5522,"ÑģÑĤÐ¾ÑıÐ½Ð¸Ñı":5523,"Ð²ÐµÐ´Ð¾Ð¼":5524,"ĠÐ·Ð½Ð°Ð½Ð¸Ðµ":5525,"ĠÐºÐ°Ð¿Ð¸ÑĤÐ°Ð»":5526,"Ð¾ÐºÑĥÑĢ":5527,"ĠÐ¼Ð»ÑĢÐ´":5528,"ĠÑĤÐ¸Ð¿Ð¸":5529,"Ð¿ÑģÐ¸Ñħ":5530,"ĠÐ²ÑĭÐ±ÑĢÐ°":5531,"ÐµÐ·Ð´Ð°":5532,"ĠÐ¼ÐµÑĢÐ¾Ð¿ÑĢÐ¸Ñı":5533,"Ð°Ð»ÑĮÐ½ÑĥÑİ":5534,"ĠÐ»Ð¸ÑĤÐµÑĢÐ°ÑĤÑĥÑĢÑĭ":5535,"ĠÐ¿ÑĢÐ¸Ð·Ð½Ð°ÐºÐ¸":5536,"ĠÐ¿Ð¾Ð»ÑĥÑĩÐµÐ½Ð¸Ðµ":5537,"ĠÑģÐ¸Ð»ÑĮÐ½Ð¾":5538,"ÑĩÐµÑĤÐµ":5539,"ĠÑģÐ²Ð¾Ð¸Ð¼Ð¸":5540,"ĠÐ¿ÑĢÐ¸Ð½ÑıÑĤÐ¾":5541,"ÑĥÐ¶Ð´ÐµÐ½":5542,"ĠÐ´Ð¾Ð¿ÑĥÑģÑĤÐ¸":5543,"ĠÑģÐ»ÑĥÑĩÐ°Ð¸":5544,"ĠÑĤÑıÐ¶Ðµ":5545,"ĠÐ¡Ð¾Ð³Ð»Ð°ÑģÐ½Ð¾":5546,"ĠÑĤÐ°Ð¼Ð¾Ð¶":5547,"ĠÐ·Ð´ÑĢÐ°Ð²Ð¾":5548,"ĠÐ½Ð¾ÑģÐ¸":5549,"ĠÐ²Ð½ÐµÑĪÐ½Ðµ":5550,"ĠÐ¾Ð±Ð½Ð°ÑĢÑĥÐ¶ÐµÐ½":5551,"ÑĦÐ°Ðº":5552,"ĠÑĥÑħÐ¾Ð´":5553,"ĠÐ¿ÑĥÑĤÑĮ":5554,"ĠÐŁÐ°":5555,"ĠÐ¶Ð¸Ð·Ð½Ðµ":5556,"ÐµÐºÐ¾ÑĤÐ¾ÑĢÑĭÐµ":5557,"ĠÐ¿Ð¾ÑĤÑĢÐµÐ±Ð½Ð¾ÑģÑĤÐ¸":5558,"Ð°Ð»ÑĮÐ½ÑĭÐ¼Ð¸":5559,"ĠÐ²Ð¾ÑģÑĤÑĢÐµÐ±":5560,"Ð¶Ð°Ð¹":5561,"ĠÑģÑĤÐ°Ð»ÐºÐ¸":5562,"ĠÐ·ÐµÐ¼Ð»Ð¸":5563,"ĠÐ¡Ð°Ð½Ðº":5564,"ÐŃÐ¡":5565,"ĠÐ¸Ð½Ð²ÐµÑģÑĤ":5566,"ĠÐ¾Ð±ÑĢÐ°Ð·Ð¾Ð²Ð°ÑĤÐµÐ»ÑĮÐ½ÑĭÐµ":5567,"Ð³Ð¾Ð²Ð¾ÑĢÐ°":5568,"ĠÐ²Ð°Ð¶Ð½ÑĭÑħ":5569,"Ð¾Ð»Ð¾Ð³Ð¸ÑĩÐµÑģÐºÐ°Ñı":5570,"ĠÐ¾Ð½Ð»Ð°Ð¹Ð½":5571,"ĠÐ¿Ð¾Ð»ÑĥÑĩÐµÐ½Ð½ÑĭÐµ":5572,"ÐŁÐµÑĤÐµÑĢÐ±ÑĥÑĢ":5573,"Ð»ÐµÑĢ":5574,"ĠÑģÑĢÐµÐ´Ð½ÐµÐ¹":5575,"ĠÐ¾Ð²":5576,"ĠÐ¾ÑĢÐ³Ð°Ð½Ð°":5577,"ĠÐ´Ð¾Ð¼Ð°ÑĪ":5578,"ĠÐ¿Ð¾Ð²ÐµÑĢ":5579,"Ð½ÐµÐ½Ð¸ÐµÐ¼":5580,"Ð¸Ð½ÑģÑĤÐ²Ð¾":5581,"ĠÐ¿ÑĢÐ¾Ð¿Ð°":5582,"Ġ*":5583,"ĠÐ½Ð°Ð¾Ð±Ð¾ÑĢÐ¾ÑĤ":5584,"ĠÐµÐ¹":5585,"Ð²Ð¾Ñģ":5586,"ĠÐ±ÑĥÐ´ÑĥÑīÐµÐ¼":5587,"ĠÑģÐ°Ð¼Ð¾ÑģÑĤÐ¾ÑıÑĤÐµÐ»ÑĮÐ½Ð¾":5588,"ĠÐ¿Ð¾Ð»Ð¾Ð¶ÐµÐ½Ð¸Ð¹":5589,"ĠÐ½Ð°Ð»Ð¾Ð³":5590,"ĠÐĲÐ½Ð³":5591,"ĠÑģÐ¿ÐµÐº":5592,"ĠÑİÑĢÐ¸Ð´Ð¸ÑĩÐµÑģÐºÐ¸Ñħ":5593,"ĠÐ²Ð¾Ð·Ð¼Ð¾Ð¶Ð½ÑĭÐ¼":5594,"ĠÐ¾ÑĢÐ³Ð°Ð½Ð¸Ð·Ð°ÑĨÐ¸Ñı":5595,"ĠÐ¿Ð¾Ð´ÑĢÐ¾Ð±Ð½Ð¾":5596,"ĠÐ³Ð¾ÑĢÐ¾Ð´Ð°Ñħ":5597,"ĠÐ¿ÑĢÐµÐ´Ð¼ÐµÑĤÐ¾Ð²":5598,"ĠÐ¿Ð¾Ð½ÑıÑĤ":5599,"ĠÐ¿ÑĢÐµÐ´ÑģÑĤÐ°Ð²Ð»ÐµÐ½Ð°":5600,"ĠÐ¿ÑĢÐ¾ÑĨÐµÐ´ÑĥÑĢÑĭ":5601,"ĠÐºÐ¾Ð¼Ð¿ÑĮÑİÑĤÐµÑĢ":5602,"ĠÑģÑĦÐµÑĢÑĥ":5603,"Ð²Ð¸Ð´Ð¸Ð¼":5604,"ĠÐ·Ð°Ð±Ð¾Ð»Ðµ":5605,"ÑģÑĤÐ²Ð¾Ð²Ð°ÑĤÑĮ":5606,"ĠÐ¸Ð½ÑģÑĤÐ¸ÑĤÑĥÑĤÑĭ":5607,"Ð»ÑıÐ½":5608,"ĠÑĩÑĢÐµÐ·Ð²ÑĭÑĩÐ°Ð¹":5609,"ĠÑģÑİÐ¶ÐµÑĤ":5610,"Ð¿ÑĢÐ¾ÑĩÐµÐ¼":5611,"ĠÑĢÐ°Ð±Ð¾ÑĩÐµÐ¹":5612,"Ð¾ÑģÑģÐ¸Ð¹":5613,"ĠÑĦÐ¾Ð½Ðµ":5614,"ĠÐ¡ÑĢÐµÐ´Ð¸":5615,"ĠÐ¢Ð¾Ð¼":5616,"ĠÐ¿ÑĢÐ¾Ð¸":5617,"ĠÐ¾Ð½ÑĤ":5618,"Ð²ÐµÐ¹":5619,"ĠÐŁÐ¾ÑģÐ»Ðµ":5620,"ĠÑģÐ¾Ð²Ð¿Ð°Ð´Ð°":5621,"Ð¾Ð»Ñİ":5622,"ÑĩÐ¸ÐºÐ¾Ð²":5623,"ĠÑĢÐ°ÑģÑģÐ¼Ð°ÑĤÑĢÐ¸Ð²Ð°ÑİÑĤÑģÑı":5624,"ĠÑģÑĤÐ¾Ð¸Ð¼Ð¾ÑģÑĤÑĮ":5625,"ĠÐºÑĢÐµÐ°":5626,"ĠÐ¸Ð¼ÐµÐ½Ð¸":5627,"ĠÐ¾ÐºÐ°Ð·ÑĭÐ²Ð°ÑİÑĤÑģÑı":5628,"ĠÐ¡ÑĥÐ´Ð°":5629,"Ð»ÐµÐ½Ð½Ð°Ñı":5630,"ĠÐ¿Ð¾ÐºÐ¾Ð»ÐµÐ½Ð¸Ñı":5631,"ÐŃÑĤÐ°":5632,"ÑģÐ°Ð¼":5633,"ĠÐ¸ÑģÑĤÐ¾ÑĩÐ½Ð¸ÐºÐ¾Ð¼":5634,"ĠÐ²ÑĭÑĤÐµ":5635,"ĠÐ²Ð»Ð¸ÑıÐ½Ð¸ÐµÐ¼":5636,"Ð¼ÑĭÑĪ":5637,"Ð¾Ð»Ð¾Ð³Ð¸ÑĩÐµÑģÐºÐ¸":5638,"Ð²Ð°Ð½Ð¸Ñİ":5639,"Ð»Ð°ÑģÑģ":5640,"ĠÐ¾Ð¿ÑĥÐ±Ð»Ð¸":5641,"Ð¾ÑĤÐ²ÐµÑĤÑģÑĤÐ²ÐµÐ½Ð½Ð¾":5642,"Ð»Ð¸ÑĪÐºÐ¾Ð¼":5643,"ĠÐºÑĥÐ»ÑĮÑĤÑĥÑĢÐ½ÑĭÑħ":5644,"ĠÐ¾Ð±ÑıÐ·Ð°ÑĤÐµÐ»ÑĮÑģÑĤÐ²":5645,"ĠÐ½Ð°Ð»Ð¸ÑĩÐ¸Ñı":5646,"ĠÐ¾Ð±Ð¾Ð·Ð½Ð°ÑĩÐ°":5647,"ĠÐ²ÑĤÐ¾ÑĢÐ¾Ð¼":5648,"ĠÐºÐ¾Ð½ÑĨÐµÐ¿ÑĤÑĥÐ°Ð»ÑĮ":5649,"ÑĤÐ¸ÑĩÐµÑģÐºÐ¾Ð¼":5650,"ĠÑģÐ¾Ð²ÐµÑĤÑģÐºÐ¾Ð³Ð¾":5651,"ĠÐ¾ÑģÐ½Ð¾Ð²Ð¾Ð¹":5652,"ĠÑģÐ»ÐµÐ´ÑģÑĤÐ²Ð¸Ðµ":5653,"ĠÐ¼Ð°ÑĢÐºÐ¸":5654,"ĠÑģÐ¸ÑĤÑĥÐ°ÑĨÐ¸Ð¹":5655,"ĠÐ´ÐµÑĢÐ¶Ð°":5656,"ÑĪÑĥÑİ":5657,"ĠÑģÑĤÑĢÐ°Ñħ":5658,"ĠÑĢÐ°ÑģÐ¿Ð¾Ð»Ð°Ð³Ð°":5659,"ĠÐ²ÑĭÐ·ÑĭÐ²Ð°ÐµÑĤ":5660,"ĠÐ¿Ð¾Ð´ÑħÐ¾Ð´Ñĭ":5661,"ĠÐ¸ÑģÐºÐ»ÑİÑĩÐ°":5662,"ĠÐ²Ð¾Ð¼":5663,"ĠÐ¸ÑģÑĤÐ¾ÑĢÐ¸ÑĩÐµÑģÐºÐ¸Ñħ":5664,"ĠÐĳÑĥ":5665,"ĠÐ¿ÑĢÐ°Ð²Ð¸ÑĤÐµÐ»ÑĮÑģÑĤÐ²Ð¾":5666,"Ð¼Ð¸Ð½":5667,"ĠÐ¾Ð¿Ð»Ð°ÑĤÑĭ":5668,"ÑģÐ°Ñħ":5669,"ĠÐºÐ²Ð°ÑĢ":5670,"ĠÑģÐ²Ð¾ÐµÐ¼Ñĥ":5671,"ĠÐ´Ð¾Ð±Ð¸":5672,"ĠÐ¿Ð¾Ð´Ð²ÐµÑĢÐ³Ð°":5673,"ĠÐ´Ð¸ÑĦÑĦÐµÑĢÐµÐ½ÑĨÐ¸Ð°":5674,"ĠÑĤÐµÐ¿ÐµÑĢÑĮ":5675,"ĠÐ±ÐµÐ·ÑĢÐ°Ð±Ð¾ÑĤ":5676,"ĠÐºÐ°Ð¶Ð´Ð¾Ð¼":5677,"ĠÐ²Ð¾Ð¿Ð»Ð¾":5678,"ÑĨÐµÐ¹":5679,"ĠÐ±ÑĥÑĢ":5680,"ĠÐ¿Ð¾Ð»Ð¾Ð²Ð¸Ð½Ðµ":5681,"ĠÐ¿ÐµÑĢÐ²Ð¸":5682,"ĠÐ¿Ð°ÑĢÐ°Ð»Ð»Ðµ":5683,"ĠÐ½Ð°ÑĩÐ°Ð»Ð¾":5684,"ÐµÐ³":5685,"ÑĤÐ½ÑĭÐ¼":5686,"Ð»ÐµÐ½Ð½Ð¾Ðµ":5687,"ĠÐºÐ¾Ð½ÐºÑĢÐµÑĤÐ½Ð¾Ð³Ð¾":5688,"ĠÐ±Ð»Ð°Ð³Ð¾Ð¿Ð¾Ð»ÑĥÑĩÐ¸":5689,"Ð¸ÑĤÐµÐ»ÑĮÐ½ÑĭÑħ":5690,"Ð¸ÑĩÐµÑģÐºÐ¸Ð¼":5691,"ÑĥÑİÑīÐ¸Ð¼Ð¸":5692,"ĠÐ»Ð¸ÐºÐ²Ð¸":5693,"ĠÐ½ÐµÐ½Ð°":5694,"ĠÑıÐ·ÑĭÐºÐ¾Ð¼":5695,"ĠÐĹÐ´ÐµÑģÑĮ":5696,"ĠÐ¾ÑĢÐ¸Ð³Ð¸Ð½Ð°":5697,"ĠÑģÑĩÐ¸ÑĤÐ°ÐµÑĤ":5698,"ĠÐ±ÑĥÐ´ÑĥÑīÐµÐ³Ð¾":5699,"ĠÐ¿ÑĢÐ¸Ð½ÑıÑĤÐ¸Ðµ":5700,"ĠÐ¼Ð¾Ð³Ð»Ð¾":5701,"ĠÐ²Ð»Ð°ÑģÑĤÐµÐ¹":5702,"ĠÐ¿Ð¾ÑĤÑĢÐµÐ±Ð»ÐµÐ½Ð¸Ñı":5703,"ĠÑģÐ¾Ð´ÐµÐ¹ÑģÑĤÐ²":5704,"ÐŁÐ¾ÑģÐ»Ðµ":5705,"ĠÑģÐ¼ÐµÑĢÑĤÐ¸":5706,"ĠÐºÐ¾Ð½ÑĦÐµÑĢÐµÐ½":5707,"ĠÐ´Ð¾Ð¿Ð¾Ð»Ð½Ð¸ÑĤÐµÐ»ÑĮÐ½ÑĭÑħ":5708,"ĠÐ¿Ð°ÑĤ":5709,"ĠÐ¾Ð¿Ð¸ÑģÐ°Ð½":5710,"ĠÑĦÐ¸Ð»Ð¾ÑģÐ¾ÑĦÐ¸Ð¸":5711,"ĠÑĢÐ°Ð·Ð²Ð¸ÑĤÑĭÑħ":5712,"ĠÐ´ÐµÑĦÐ¸ÑĨÐ¸":5713,"ĠÑĢÐµÐ¿ÑĢÐµÐ·ÐµÐ½ÑĤÐ°":5714,"ĠÐ¾ÑĤÐ½ÐµÑģ":5715,"Ð·Ð¸Ð²":5716,"ĠÑģÐ´Ð²Ð¸":5717,"ĠÐ¿ÑĢÐ¾ÑĦ":5718,"ĠÐ¸Ð½ÑĦÑĢÐ°ÑģÑĤÑĢÑĥÐºÑĤÑĥÑĢÑĭ":5719,"ĠÑģÐµÑĤÐµÐ¹":5720,"ĠÑĤÐµÐ½Ð´ÐµÐ½ÑĨÐ¸Ñı":5721,"ÐºÐ°Ð·Ð°Ð½":5722,"ĠÐ½ÐµÐ¾":5723,"ĠÑĢÐµÑĦÐ¾ÑĢÐ¼":5724,"ĠÐ³ÐµÐ½Ð´ÐµÑĢ":5725,"ĠÐ¸Ð½Ð²Ð°Ð»Ð¸Ð´":5726,"ĠÐľÐ¾Ð¶Ð½Ð¾":5727,"ĠÑĤÑĢÐ°ÐºÑĤÐ¾Ð²":5728,"ĠÐ²ÑģÐµÐ¼Ð¸":5729,"ĠÐļÐ¾ÑĢ":5730,"ĠÐ¾Ð±ÑīÐ¸Ð¹":5731,"ÑīÐ°ÑİÑĤ":5732,"Ð»Ð°Ð±":5733,"Ð¾Ð²Ð¾Ð»ÑĮ":5734,"ĠÐ³Ð¾ÑģÐ¿Ð¾Ð´":5735,"ĠÐ¿Ð¾ÑĢÐ¾Ð¶Ð´Ð°":5736,"ĠÐ²ÑģÐ»ÐµÐ´ÑģÑĤÐ²Ð¸Ðµ":5737,"Ð´ÑĮ":5738,"ĠÑĥÑĢÐ¾Ð²Ð½ÑıÑħ":5739,"ĠÑĥÑĢÐ¾Ð²Ð½Ñİ":5740,"ĠÐ¾Ð±ÑıÐ·Ð°Ð½Ð½Ð¾ÑģÑĤÐµÐ¹":5741,"ĠÐ¿Ð°ÑĢÐ°Ð¼ÐµÑĤÑĢÐ¾Ð²":5742,"ĠÑģÐµÐ³":5743,"ĠÐ²Ð¿ÐµÑĢÐ²ÑĭÐµ":5744,"ĠÐ½ÐµÑģÐ¾Ð²ÐµÑĢÑĪÐµÐ½":5745,"ĠÑıÐ²Ð»ÐµÐ½Ð¸Ðµ":5746,"ÑģÑģÐ»ÐµÐ´Ð¾Ð²Ð°Ð½Ð¸Ðµ":5747,"ĠÐ½Ð°Ð¿ÑĢÐ°Ð²Ð»ÐµÐ½Ð¸Ðµ":5748,"ĠÐĺÐ²Ð°":5749,"ĠÐ¾Ð±ÑĬÑıÑģÐ½ÑıÐµÑĤÑģÑı":5750,"ĠÑģÑĤÐ°Ð´Ð¸Ð¸":5751,"ĠÐ°ÐºÑĤÐ°":5752,"ĠÐ²Ð·Ñı":5753,"Ð´Ð¶":5754,"Ð½Ð¾ÑĢÐ¸":5755,"ĠÐ¿Ð¾ÑģÐ»ÐµÐ´ÑģÑĤÐ²Ð¸Ð¹":5756,"ĠÐ²Ð°Ð¶Ð½ÐµÐ¹ÑĪ":5757,"ĠÐ¸ÑģÑĤÐ¾ÑĢÐ¸ÑĩÐµÑģÐºÐ¾Ð¹":5758,"ĠÐ°ÑģÐ¿ÐµÐºÑĤÐ°":5759,"ÐŁÑĢÐµ":5760,"ÐµÐ²ÑĢÐ°":5761,"ĠÑģÐ¾Ð´ÐµÑĢÐ¶Ð¸ÑĤ":5762,"Ð»Ð°Ðº":5763,"ĠÐ¿ÑĢÐ¾ÑĪÐ»Ð¾Ð³Ð¾":5764,"ĠÐºÐ¾Ð½ÑĦÐ»Ð¸ÐºÑĤÐ°":5765,"ĠÐ§Ð°":5766,"ĠÑĩÐ¸ÑģÐ»Ñĥ":5767,"ĠÐ²ÐµÑĢÐ¾ÑıÑĤÐ½Ð¾ÑģÑĤÑĮ":5768,"ĠÑıÐ²Ð½Ð¾":5769,"ĠÑĥÑĢÐ°Ð²":5770,"Ð½ÐµÑĪ":5771,"ĠÐ¾Ð±ÑĬÐµÐºÑĤÑĭ":5772,"ĠÑĥÑīÐµÑĢ":5773,"ÐļÐ»ÑİÑĩÐµ":5774,"ĠÐ´Ð°ÑİÑĤ":5775,"ĠÐ¿Ð¾Ð·Ð½Ð°Ð²Ð°":5776,"ĠÐ¿Ð¸ÑĪ":5777,"Ð¾Ð·Ð´Ð°":5778,"ĠÑĢÐµÐ·ÑĥÐ»ÑĮÑĤÐ°ÑĤÐ¾Ð¼":5779,"ĠÑģÑĤÑĢÐµÐ¼Ð»ÐµÐ½Ð¸Ðµ":5780,"Ð³Ð½Ð°":5781,"Ð¾Ð½Ð°ÑĢÑĥ":5782,"ĠÐ¿ÑĢÐ°Ð²Ð¾Ð¿ÑĢÐ¸":5783,"Ð¾Ð»Ð¾Ð³Ð¸ÑĩÐµÑģÐºÐ¾Ðµ":5784,"ĠÐ¿ÑĢÐ¾ÑĤÐ¸Ð²Ð¾Ð¿Ð¾Ð»Ð¾Ð¶":5785,"ĠÑĢÐ°Ð±":5786,"ĠÐ±ÑĢÐ¸ÑĤÐ°Ð½":5787,"ĠÐ¼ÐµÐ¶Ð´ÑĥÐ½Ð°ÑĢÐ¾Ð´Ð½Ð¾Ð¹":5788,"ĠÐ¿Ð¾Ñħ":5789,"ĠÐĴÐ¼ÐµÑģÑĤÐµ":5790,"ĠÐ½Ð°Ð¿ÑĢÐ°Ð²Ð»ÐµÐ½Ð¸Ð¸":5791,"ÐŀÐ¡":5792,"Ð¡ÑĤÐ°":5793,"ĠÐ¿ÑĢÐ¾ÑĤÐ¸Ð²Ð¾":5794,"ĠÑģÐ¾Ð¶Ð°Ð»ÐµÐ½Ð¸Ñİ":5795,"ĠÐ¾ÑĤÑģÑĥÑĤÑģÑĤÐ²ÑĥÐµÑĤ":5796,"ÑĨÐ¸Ð¾Ð½Ð½ÑĭÐ¼Ð¸":5797,"Ð½ÑıÐµÑĤÑģÑı":5798,"ĠÐ¿ÑĢÐ°Ð³Ð¼Ð°":5799,"ĠÑģÐ»ÐµÐ´Ð¾Ð²Ð°ÑĤÐµÐ»ÑĮÐ½Ð¾":5800,"ÑĦÐµÐ´":5801,"ĠÐ¿Ð¾ÐºÐ°Ð·Ð°Ð»":5802,"Ð°Ð½Ð°":5803,"ĠÐ´Ð¸ÑģÐ¿":5804,"ÑįÑĦÑĦÐµÐºÑĤÐ¸Ð²":5805,"ÑĤÐ¾Ð±Ñĭ":5806,"ĠÑģÐ¾ÐµÐ´Ð¸":5807,"ĠÑģÑĤÑĢÐ°ÑĤÐµÐ³Ð¸Ð¹":5808,"ĠÐ¿ÑĢÑıÐ¼Ð¾":5809,"Ð¶Ð´ÐµÐ½Ð¸Ð¸":5810,"ĠÐ¿ÑĢÐµÑĤÐµÐ½":5811,"ĠÐºÐ¾ÑĢÑĢÐµÐ»Ñı":5812,"ĠÐ¿Ð¾Ð´Ð¾Ð±Ð½ÑĭÐµ":5813,"ÐµÐ²Ð¾Ð¹":5814,"ĠÑģÐ»Ð¸ÑĪÐºÐ¾Ð¼":5815,"ÐºÐ»":5816,"ĠÐĵÐļ":5817,"ĠÐ¿ÑĢÐ¾Ð¸ÑģÑħÐ¾Ð´Ñı":5818,"ĠÐµÑĳ":5819,"ĠÑģÐ¿ÐµÑĨÐ¸Ð°Ð»ÑĮÐ½ÑĭÑħ":5820,"ĠÐ´ÐµÑĢÐµÐ²":5821,"ĠÑģÐ¾ÑĨÐ¸Ð°Ð»ÑĮÐ½Ð¾Ðµ":5822,"ĠÐ¿ÑĢÐ¾ÑĦÐµÑģÑģÐ¾ÑĢ":5823,"ĠÐ¼ÐµÑĤÐ°ÑĦ":5824,"ĠÐ·Ð½Ð°ÑĩÐ¸Ð¼Ð¾ÑģÑĤÐ¸":5825,"ĠÐ²ÑĭÑģÐºÐ°Ð·ÑĭÐ²Ð°Ð½Ð¸Ñı":5826,"ĠÐºÑĥÑĢÑģ":5827,"ĠÐ²Ð¾Ð·Ð½Ð¸ÐºÐ½Ð¾Ð²ÐµÐ½Ð¸Ñı":5828,"Ð²Ð°ÑİÑīÐµÐ¹":5829,"ĠÐ¿Ð¾Ð¿ÑĭÑĤÐºÐ¸":5830,"ÑģÑģÐµÑĢ":5831,"Ð»ÐµÐ½Ð½Ð¾":5832,"ÑĤÐ¸ÑĩÐµÑģÐºÐ¸Ð¼Ð¸":5833,"ĠÐ±Ð°Ð·Ðµ":5834,"ĠÐ²Ð¾ÑģÑĤÐ¾":5835,"ĠÑģÐ¾Ð»":5836,"ĠÐ²Ð½":5837,"ĠÐ¿Ð°Ð»Ð°":5838,"ĠÐ¾Ð±ÑĬÑıÑģÐ½Ð¸ÑĤÑĮ":5839,"ĠÐ°ÑģÐ¿Ð¸ÑĢÐ°Ð½":5840,"ÑĥÑĢÐ¾Ð²":5841,"ĠÐ¼Ð°ÐºÑĢÐ¾":5842,"ĠÐ·Ð°ÑıÐ²Ð¸":5843,"ĠÑĤÑĭÑģÑı":5844,"ĠÑģÐ¾ÑĨÐ¸Ð¾ÐºÑĥÐ»ÑĮÑĤÑĥÑĢ":5845,"ĠÐ¿Ð¾Ð²ÑĭÑĪÐµÐ½":5846,"ĠÐ½Ð°ÑģÑĤÐ¾ÑıÑīÐµÐ¹":5847,"ĠÐ¼Ð¸Ð½Ð¸Ð¼Ñĥ":5848,"ÑĤÐ°ÑĢÐ¸":5849,"ĠÐ·Ð°Ð´Ð°Ð½Ð¸Ñı":5850,"Ð¾ÐºÑĢÐ°ÑĤÐ½Ð¾":5851,"Ð»Ð°ÑĢÐ°":5852,"ĠÐºÐ²Ð°Ð»Ð¸ÑĦÐ¸ÑĨÐ¸":5853,"ĠÑĦÐµÐ´ÐµÑĢÐ°Ð»ÑĮÐ½Ð¾Ð³Ð¾":5854,"ĠÑĤÐµÑħÐ½Ð¸ÐºÐ¸":5855,"ĠÐºÐ¾Ð½ÑģÑĤÑĢÑĥÐ¸":5856,"ĠÐ¾Ð¼":5857,"ĠÑĨÐ¸ÑĦÑĢÐ¾Ð²":5858,"ĠÑĥÐ¿ÑĢÐ¾":5859,"ÑģÐ¸ÑĤÑĮ":5860,"Ð²ÐµÐ½ÑĨÐ¸Ð¸":5861,"ÑīÐ¸ÐºÐ¾Ð²":5862,"ĠÐ¡Ð¾Ð²ÐµÑĤÐ°":5863,"ĠÑıÐ²":5864,"ÑģÐ»Ðµ":5865,"ĠÐ¸Ð·ÑĥÑĩÐµÐ½Ð¸Ñİ":5866,"ĠÐ·Ð°ÑĤÑĢÐ°Ð³Ð¸":5867,"ÑģÑĤÐ¸ÑĩÐµÑģÐºÐ¾Ð³Ð¾":5868,"ĠÐ·Ð°ÐºÐ¾Ð½Ð¾Ð´Ð°ÑĤÐµÐ»ÑĮÑģÑĤÐ²Ð¾":5869,"ĠÐ»Ð¸Ð½Ð³Ð²Ð¸":5870,"ÑĢÐ¾Ð´ÑĥÐº":5871,"Ð²Ð¸Ð¶":5872,"ĠÐºÐ¾Ð½ÐºÑĢÐµÑĤÐ½Ð¾Ð¹":5873,"ÑıÐ±ÑĢÐµ":5874,"ĠÑĢÐµÐ±ÐµÐ½Ð¾Ðº":5875,"ĠÐ²Ð°ÑĢÐ¸Ð°Ð½ÑĤ":5876,"Ð²Ð¸Ð»":5877,"ÑĨÐ¸Ð¾Ð½Ð½Ð¾Ð¼":5878,"ĠÐ¾Ð±ÐµÑģÐ¿ÐµÑĩÐ¸Ð²Ð°ÐµÑĤ":5879,"Ð¾Ð¹ÑĤÐ¸":5880,"ĠÐĴÐ»Ð°":5881,"Ð¸ÑĩÐµÑģÐºÐ°Ñı":5882,"ĠÐ²Ð¾ÐºÑĢÑĥÐ³":5883,"ĠÐ¿Ð¾ÐºÐ°Ð·Ð°Ð»Ð¸":5884,"ĠÑĢÐ°Ð¼ÐºÐ¸":5885,"ĠÐºÑĥÐ»ÑĮÑĤÑĥÑĢÐ½Ð¾Ð¹":5886,"ĠÑĥÑĩÐµÐ½Ð¸ÐºÐ¾Ð²":5887,"ĠÐ¼ÐµÐ½ÑĤÐ°":5888,"ĠÐ¢ÑĥÑĢ":5889,"ÐµÐ½Ð½ÑĭÐ¼Ð¸":5890,"ĠÑĥÑĩÐµÐ½ÑĭÐµ":5891,"ĠÐ·Ð´ÑĢÐ°Ð²Ð¾Ð¾ÑħÑĢÐ°Ð½":5892,"Ð²Ð¸Ñĩ":5893,"ĠÑħÑĢÐ¸ÑģÑĤÐ¸Ð°Ð½":5894,"ĠÑĨÐµÐ½Ñĭ":5895,"Ð¼Ð¾Ð¼":5896,"ĠÐ¾ÑĤÑģÑĥÑĤÑģÑĤÐ²Ð¸Ñı":5897,"ĠÐ½ÐµÐ¾ÑĤ":5898,"ÑĩÐµÐ½Ð°":5899,"ĠÐ¸Ð½Ð´ÑĥÑģÑĤÑĢÐ¸":5900,"ĠÑĢÐ¾Ñģ":5901,"ĠÐ¼Ð¾Ð³Ð»Ð°":5902,"ĠÐ³Ð»Ð°Ð³Ð¾Ð»Ð¾Ð²":5903,"ĠÑĢÐ°Ð·Ð²Ð¸ÑĤÐ¸ÐµÐ¼":5904,"ĠÐ¸ÑģÐ¿Ð¾Ð»ÑĮÐ·Ð¾Ð²Ð°Ð½Ð¸Ð¸":5905,"ĠÐºÐ»Ð°ÑģÑĤÐµÑĢ":5906,"ÐµÐ½Ð¸Ð½":5907,"ĠÑģÑĤÐ¾Ñı":5908,"Ð½Ð¸Ð·Ð°ÑĨÐ¸Ñı":5909,"Ð»ÐµÐ½Ð½ÑĭÐ¼Ð¸":5910,"ĠÑĥÐ¿Ð¾Ð¼Ñı":5911,"ÑĥÑİÑīÐ°Ñı":5912,"ÐĺÑĤÐ°Ðº":5913,"ĠÑĢÐ¾Ð´Ð¸ÑĤÐµÐ»Ð¸":5914,"ĠÑĢÐ°Ð·ÑĢÐ°Ð±Ð¾ÑĤÐºÐµ":5915,"ĠÑģÐ¿Ð¾ÑģÐ¾Ð±ÑģÑĤÐ²Ð¾Ð²Ð°ÑĤÑĮ":5916,"Ð³ÑĢÐ°Ð´":5917,"ĠÐ¸Ð·ÑĥÑĩÐµÐ½Ð¸Ð¸":5918,"ĠÐ¿ÑĢÐ¸Ð·Ð½Ð°ÑĤÑĮ":5919,"ĠÐ¿Ð¾ÑģÐ»ÐµÐ´Ð½ÐµÐµ":5920,"ĠÑģÐµÐ³Ð¾Ð´Ð½ÑıÑĪ":5921,"ĠÐĴÐ°Ð¶":5922,"ĠÐ²ÑĭÑģÐ¾ÐºÐ¸Ðµ":5923,"ĠÐ²ÑĭÑıÑģ":5924,"ĠÑĤÑĢÐµÐ±ÑĥÐµÑĤÑģÑı":5925,"ĠÐ¡ÐµÑĢ":5926,"ĠÐ¸Ð½ÑģÑĤÑĢÑĥÐ¼ÐµÐ½ÑĤÐ¾Ð²":5927,"ĠÐ´Ð¾ÑģÑĤÐ°ÑĤÐ¾Ñĩ":5928,"ĠÐ»Ð¾ÐºÐ°":5929,"ĠÑĥÐºÑĢÐ°":5930,"ĠÐ¾Ð±ÑĬÐµÐ¼Ð°":5931,"ĠÐ¿ÑĢÐ¾Ð¿Ð°Ð³Ð°Ð½":5932,"Ð»ÑĮÑı":5933,"ĠÐ³Ð°ÑĢÐ°Ð½ÑĤÐ¸":5934,"ĠÐ¾ÐºÐ°":5935,"ĠÐ¾ÑĤÐ¿ÑĢÐ°Ð²":5936,"ĠÐ¿ÑĢÐ¾Ð³Ð½Ð¾Ð·Ð¸":5937,"ĠÐ°Ð½Ðº":5938,"ĠÐ¿ÑĢÐµÐ´ÐµÐ»Ð°Ñħ":5939,"Ð¼ÐµÐ½ÑĤÐµ":5940,"ĠÐ½Ð¾Ð²ÑĭÐ¼":5941,"Ð³Ð¾Ð»ÑĮ":5942,"ÑĪÐ°Ð½":5943,"ĠÐ¡Ð°Ð½ÐºÑĤ":5944,"ĠÐ·Ð°Ð´Ð°ÑĩÐµÐ¹":5945,"ÐµÐ¼ÑĭÐ¼Ð¸":5946,"ĠÐ¢Ð°ÐºÐ¶Ðµ":5947,"ĠÐ²ÐµÐ½":5948,"ĠÐ¾ÑģÐ¾Ð±Ð¾Ðµ":5949,"ĠÐ³ÑĢÑĥÐ¿Ð¿Ð°Ñħ":5950,"ÑĢÐ¼ÐµÐ½":5951,"ÑģÑĤÑĢÐ°Ðº":5952,"ĠÐ¿ÑĢÐ°Ð²Ð¾ÑģÑĥ":5953,"ĠÑģÐ¾Ð·Ð½Ð°Ð½Ð¸Ð¸":5954,"ĠÐ¾Ð±ÑģÐ»ÑĥÐ¶Ð¸":5955,"ĠÐºÐ½Ð¸Ð³Ð¸":5956,"ĠÐ·Ð½Ð°ÑĩÐ¸Ð¼ÑĭÑħ":5957,"ĠÐļÐĿ":5958,"ĠÐ¾Ð´Ð°":5959,"ÑıÐµÑĤ":5960,"ĠÐ´Ð¾Ð³Ð¾Ð²Ð¾ÑĢÐ¾Ð²":5961,"ĠÑĢÑıÐ´Ð¾Ð¼":5962,"ĠÐºÐ¾Ð´Ð¸":5963,"ĠÑģÐ´ÐµÐ»ÐºÐ¸":5964,"ĠÑĤÑĢÑĥÐ´Ð¾Ð²ÑĭÑħ":5965,"ĠÐ½Ñĭ":5966,"ĠÐ¾ÐºÑĢÑĥÐ¶Ð°ÑİÑīÐµÐ¹":5967,"ĠÐ¸Ð½ÑĦÐ¾ÑĢÐ¼Ð°Ð½":5968,"ĠÑģÐ¿Ð¾ÑģÐ¾Ð±Ð¾Ð¼":5969,"ĠÐ²ÑĭÐ±Ð¾ÑĢÐºÐ¸":5970,"ĠÐ¿Ð°Ð´Ðµ":5971,"ĠÐ¿ÑĢÐµÐ´ÑģÑĤÐ°Ð²Ð¸ÑĤÑĮ":5972,"Ð½Ð¾Ð²Ð¸Ð´":5973,"ÑįÐºÐ¾Ð½Ð¾Ð¼Ð¸ÑĩÐµÑģÐºÐ¸Ñħ":5974,"ĠÐļÐ°ÑĢ":5975,"ĠÐ¿ÑĢÐ°Ð²Ð¾Ð½Ð°ÑĢÑĥ":5976,"ÐĳÐ¾Ð»ÑĮÑĪ":5977,"ĠÑģÐ²Ðµ":5978,"ĠÐ¿Ð¾ÐºÑĥÐ¿Ð°":5979,"ÑīÐµÐ¼Ñĥ":5980,"ĠÐ´Ð°Ð»ÑĮÐ½ÐµÐ¹ÑĪÐµÐ³Ð¾":5981,"ĠÐ±ÐµÐ·ÑĥÑģÐ»Ð¾Ð²Ð½Ð¾":5982,"Ð³Ð°Ñħ":5983,"ĠÐ»ÐµÐ³ÐºÐ¾":5984,"ĠÐ§ÑĤÐ¾":5985,"ĠÐ²ÑĭÐ²Ð¾Ð´Ñĥ":5986,"ĠÑĥÑĢÐ¾Ð²Ð½ÐµÐ¹":5987,"ĠÐ²ÑĤÐ¾ÑĢÐ¾Ð³Ð¾":5988,"ĠÐ¿Ð¾ÑĤÑĢÐµÐ±Ð¸ÑĤÐµÐ»ÑĮ":5989,"ÑĢÑĭÐ¼":5990,"ĠÐ´Ð¾ÑģÑĤÑĥÐ¿Ð°":5991,"ĠÑģÐ¿ÑĢÐ¾Ñģ":5992,"ĠÑģÐ¾Ð±ÑģÑĤÐ²ÐµÐ½Ð½Ð¾Ð³Ð¾":5993,"ĠÐ»Ð¸Ðº":5994,"ĠÐºÐ»Ð¸Ð¼Ð°":5995,"Ð¾Ð»Ñĭ":5996,"ĠÐ¼ÐµÐ½ÐµÐ´Ð¶":5997,"ĠÐ·Ð°Ð²ÐµÐ´ÐµÐ½Ð¸Ñı":5998,"ĠÑģÐ»ÑĥÑĪÐ°":5999,"ĠÐ³Ð»Ð°Ð³Ð¾Ð»ÑĮ":6000,"ĠÑĢÐµÐºÐ¾Ð½":6001,"ĠÐ¶Ð¸Ð»Ð¸":6002,"Ð¾Ð¼Ð¸":6003,"ĠÑĩÐµÐ»":6004,"ĠÐ¾ÑĤÑģÑĥÑĤÑģÑĤÐ²Ð¸Ð¸":6005,"ĠÑĤÐµÐ»Ð°":6006,"ĠÐºÑĥÑĢÑģÐ¾Ð²":6007,"ĠÑĨÐµÑĢÐºÐ²Ð¸":6008,"ĠÑįÐ¿Ð¾ÑħÐ¸":6009,"Ð¾Ð¿Ð¸":6010,"ĠÑĢÐ°Ð·Ð»Ð¸ÑĩÐ½ÑĭÐ¼Ð¸":6011,"ĠÑĤÑĢÑĥÐ´Ð¾":6012,"ÑĤÑĢÐ¾":6013,"ÑĬÑıÑģ":6014,"ĠÐ¿ÑĢÐ¸ÑĩÐ¸Ð½Ðµ":6015,"Ð¾Ð½Ñĥ":6016,"ĠÐ¸Ð½Ð¶ÐµÐ½":6017,"ĠÐ²Ð¾Ð·Ð½Ð¸ÐºÐ°ÑİÑĤ":6018,"ĠÐ·Ð°Ñħ":6019,"Ð¸ÑĩÐµÑģÐºÐ¸":6020,"ĠÐ½ÐµÐ´Ð¾ÑģÑĤÐ°ÑĤÐ¾Ñĩ":6021,"ĠÑģÑĤÐ¾Ð»Ð¸":6022,"ĠÐ°Ð½Ð°Ð»Ð¸Ð·Ð¸":6023,"ÑĤÐµÑħÐ½":6024,"ĠÐ¾ÑĤÑĢÐ°ÑģÐ»ÐµÐ¹":6025,"ĠÑģÑĥÐ´ÐµÐ±Ð½Ð¾Ð³Ð¾":6026,"ÑīÐ°Ð»":6027,"ĠÐºÐ¾Ð½ÑģÑĤÑĢÑĥÐºÑĨÐ¸Ð¹":6028,"ĠÐ¼ÑĥÐ·Ñĭ":6029,"ĠÐ´Ð¾Ð±Ñĭ":6030,"ĠÐŁÑĢÐ°Ð²Ð¸":6031,"ĠÐ¼ÐµÑĢÐ¾Ð¿ÑĢÐ¸ÑıÑĤÐ¸Ð¹":6032,"ĠÐ´Ð¸Ð¿Ð»Ð¾Ð¼Ð°":6033,"ÑĤÐ½ÑĭÐ¹":6034,"ĠÐºÐ¾Ð¾ÑĢÐ´Ð¸Ð½Ð°":6035,"ÑİÑīÐ¸Ð¼ÑģÑı":6036,"ĠÐ´Ð¾Ð²ÐµÑĢÐ¸Ñı":6037,"ÑģÐ¾Ð½Ð°":6038,"ĠÑģÐ¾Ð¾ÑĤÐ²ÐµÑĤÑģÑĤÐ²ÑĥÑİÑīÐ¸Ðµ":6039,"ĠÐ¾Ð±ÑĥÑģÐ»Ð¾Ð²Ð»ÐµÐ½Ð¾":6040,"ĠÐ»ÐµÐ¶Ð°":6041,"Ð¸Ð·Ð¸":6042,"ĠÐºÐ¾Ð¼Ð°Ð½Ð´":6043,"Ð¼ÑĭÐµ":6044,"ĠÑģÐ¾Ð²ÑģÐµÐ¼":6045,"ĠÑģÑĦÐµÑĢÐ°Ñħ":6046,"ĠÐ±Ð»Ð¸Ð¶Ð°Ð¹":6047,"ĠÐ¾ÑĨÐµÐ½Ð¾Ðº":6048,"ÑĤÐ¾ÑĩÐ½Ð¾Ð¹":6049,"ĠÐłÑĥÑģ":6050,"ÑģÐ½ÑĭÐµ":6051,"ĠÐ¼Ð°Ð½Ð¸":6052,"ĠÐ½ÐµÑĦÐ¾ÑĢÐ¼Ð°":6053,"ĠÐºÐ¾Ð¼Ð¿ÐµÐ½ÑģÐ°":6054,"ĠÐ°ÐºÐ°Ð´ÐµÐ¼Ð¸ÑĩÐµÑģÐºÐ¾Ð¹":6055,"ĠÐ¾Ð±ÑĬÐµÐ´Ð¸Ð½ÐµÐ½Ð¸Ñı":6056,"ĠÑĤÐµÑĢÑĢÐ¸ÑĤÐ¾ÑĢÐ¸Ð¹":6057,"ĠÐ²Ð¼ÐµÑĪÐ°":6058,"ĠÐ¸Ð½ÑģÑĤÐ¸ÑĤÑĥÑĤ":6059,"ĠÐµÐ²ÑĢÐ¾Ð¿ÐµÐ¹ÑģÐºÐ¸Ñħ":6060,"ĠÐ½Ð°ÑģÐµÐ»ÐµÐ½Ð¸Ðµ":6061,"ĠÐ²ÐµÐ´ÐµÑĤ":6062,"ĠÑģÐ¾ÑĨÐ¸Ð°Ð»ÑĮÐ½Ð°Ñı":6063,"ĠÑĥÑģÑĤÐ°Ð½Ð¾Ð²Ð¸ÑĤÑĮ":6064,"ĠÐ¾Ð¿ÑĤÐ¸Ð¼Ð¸":6065,"ÑģÑĤÐ¸ÐºÐ¸":6066,"ĠÑĥÑĩÐ°ÑģÑĤÐ½Ð¸ÐºÐ¸":6067,"ĠÐ¿ÑĢÐ¸Ð½ÑĨÐ¸Ð¿Ð¸Ð°Ð»ÑĮÐ½Ð¾":6068,"ĠÐ¾ÑĤÐ½":6069,"ĠÐ´Ð¾Ð±ÑĢÐ¾Ð²":6070,"ĠÐ²Ð¾Ð·Ð¼Ðµ":6071,"ĠÐ½Ð°Ð²ÑĭÐºÐ¸":6072,"ĠÐ¾ÑĤÐ»Ð¸ÑĩÐ°ÑİÑĤÑģÑı":6073,"ĠÐ½ÐµÐ²Ñĭ":6074,"ĠÐĲÐ·Ð¸Ð¸":6075,"ĠÐ±Ð°Ð½ÐºÐ°":6076,"ĠÐ¸Ð¿Ð¾Ð»ÑĮÐ·":6077,"ÐºÐ°Ð·ÑĭÐ²Ð°":6078,"ĠÐ¸ÑģÑĤÐ¾ÑĢÐ¸ÑĩÐµÑģÐºÐ¾Ð³Ð¾":6079,"Ð»Ð¸Ð·Ð°":6080,"ĠÑģÑĤÐ¾Ð»ÐµÑĤ":6081,"ĠÐ½ÐµÐ·Ð°Ð²Ð¸ÑģÐ¸Ð¼Ð¾":6082,"ĠÐŁÑĢÐµÐ·Ð¸Ð´ÐµÐ½":6083,"ĠÑĦÑĥÐ½ÐºÑĨÐ¸Ñİ":6084,"ĠÑĦÐ¾ÑĢÐ¼Ð¾Ð¹":6085,"ĠÐ²ÑģÑİ":6086,"ĠÐ´ÐµÐ»Ð°ÑĤÑĮ":6087,"ĠÑģÐ»Ðµ":6088,"ĠÐ·Ð°Ð¼ÐµÐ½":6089,"ĠÑĢÐ°Ð·ÑĢÐ°Ð±Ð°ÑĤÑĭ":6090,"ÑĤÐºÐ¾Ð²":6091,"Ð»Ð¸Ð·Ð¾Ð²Ð°Ð½":6092,"ĠÑģÐ»ÑĥÐ¶Ð¸ÑĤÑĮ":6093,"ĠÑĦÑĢÐ°Ð·":6094,"Ð´Ð¸Ðº":6095,"ĠÐ¾ÑħÑĢÐ°Ð½Ñĭ":6096,"ĠÐ¿ÑĢÐ¸Ð¼ÐµÑĢÐ¾Ð²":6097,"Ð¾Ð²Ð°Ð½Ð¸ÐµÐ¼":6098,"ĠÐ¸Ð·Ð»Ð¾Ð¶":6099,"Ð±Ð¸ÑĢ":6100,"Ð¾ÑĢÐ¾Ð½":6101,"Ð°Ð»Ñĭ":6102,"ĠÐ·Ð°Ð»Ð¾Ð¶":6103,"ÑĩÐµÐ½Ð½Ð¾ÑģÑĤÑĮ":6104,"ĠÐ¿Ð¾Ð»ÑĥÑĩÐ°ÑİÑĤ":6105,"Ð¾Ð²Ð¾Ðµ":6106,"Ð¾Ð±Ðµ":6107,"Ð»ÑıÐ¼":6108,"ÑĤÑĮÑı":6109,"ĠÑĢÐµÐ°Ð»Ð¸Ð·Ñĥ":6110,"ĠÐ²Ð¾ÐµÐ½Ð½Ð¾Ð¹":6111,"ĠÐŁÑĢÐ°Ð²":6112,"ĠÑģÐ»Ð°Ð±Ð¾":6113,"ĠÐ¼Ð¾Ð±Ð¸Ð»ÑĮÐ½Ð¾ÑģÑĤÐ¸":6114,"ÑĢÐ³Ð°":6115,"ÑĢÐ°ÑģÐ¿":6116,"ĠÐĴÐ¾ÑģÑĤ":6117,"Ð´Ð°ÑĤÑĮ":6118,"ĠÐ·Ð°ÐºÐ»ÑİÑĩÐµÐ½Ð¸Ñı":6119,"ÑĤÐ¸Ð½Ð³":6120,"ÑĥÑĩÐµÐ½Ð¸Ðµ":6121,"ĠÑħÐ°ÑĢÐ°ÐºÑĤÐµÑĢÐ¸Ð·ÑĥÐµÑĤÑģÑı":6122,"Ð½Ð¸Ð²ÐµÑĢÑģÐ¸ÑĤÐµ":6123,"ĠÐ¸Ð´ÐµÐ¾Ð»Ð¾Ð³Ð¸Ð¸":6124,"ĠÐ¿ÐµÑĢÐµÐ´Ð°ÑĩÐ¸":6125,"ĠÑģÐ¾Ð²Ð¾ÐºÑĥÐ¿Ð½Ð¾ÑģÑĤÐ¸":6126,"ĠÐ¿ÑĢÐ°Ð·Ð´":6127,"ĠÑıÐ·ÑĭÐºÐ¾Ð²ÑĭÑħ":6128,"ĠÐ¾ÑĤÐ¼ÐµÑĩÐ°ÑİÑĤ":6129,"ĠÐ¡Ð¾ÑİÐ·Ð°":6130,"ĠÑģÐ»Ð¾Ð¶Ð½Ð¾":6131,"ĠÑģÑĥÐ²ÐµÑĢ":6132,"ĠÐºÑĢÐ¸ÑĤÐµÑĢÐ¸ÐµÐ²":6133,"ĠÐ¼ÐµÑĢÐ¾Ð¿ÑĢÐ¸":6134,"ÑĤÐ½Ð¾ÑģÑĤÑĮ":6135,"ĠÐºÐ°Ð½Ð°":6136,"ÑĪÐ¸Ð¼Ð¸":6137,"Ð¾Ð½Ð¼Ð¸":6138,"Ð´ÐµÐ»Ð¸":6139,"ĠÐ½Ð°ÑĩÐ°Ð»ÑĮ":6140,"ĠÐ¿ÑĢÐµÐ´Ð»Ð°Ð³Ð°ÐµÑĤ":6141,"ĠÐ¿Ð¾ÑģÐµÑģÑģÐ¸Ð²":6142,"ĠÑĢÐ°Ð²Ð½Ð¾":6143,"Ð³Ð°ÑĢ":6144,"ĠÑĤÑĢÑĥÐ´Ð½Ð¾":6145,"ĠÑĢÐ°ÑģÑģÑĩÐ¸ÑĤÑĭ":6146,"ĠÑĩÑĥÐ²ÑģÑĤÐ²":6147,"ĠÐ¿ÑĢÐ¾ÐµÐºÑĤÑĭ":6148,"ĠÐ²ÑĥÐ·Ð°Ñħ":6149,"Ð±ÑĢÐ¸":6150,"ĠÐ¾ÑģÐ½Ð¾Ð²Ð°Ð½Ð¸Ð¹":6151,"ĠÐ¿ÑĢÐµÐ¸Ð¼Ñĥ":6152,"ĠÐºÐ¾Ð½ÐºÑĥÑĢ":6153,"ĠÐ¿ÑĢÐ¸Ð²ÐµÐ»Ð¾":6154,"ĠÐ½Ð¸ÐºÐ¾Ð³Ð´Ð°":6155,"ĠÐĺÐ½ÑģÑĤÐ¸ÑĤÑĥ":6156,"ĠÐ²Ð¾ÑģÐ¿Ð¸ÑĤÐ°Ð½Ð¸Ñı":6157,"ĠÐ¾Ð±Ð¾Ð¸Ñħ":6158,"Ð»Ð¾Ð¹":6159,"ÑģÐ¸Ð¹":6160,"ĠÐ´Ð¾Ð»Ð¶Ð½Ð¾ÑģÑĤÐ¸":6161,"ĠÑĢÐ°ÑģÐ¿ÑĢÐ¾ÑģÑĤÑĢÐ°Ð½ÐµÐ½Ð¸Ñı":6162,"ĠÐ¼ÐµÑĤÐ¾Ð´Ð¸ÐºÐ¸":6163,"ĠÐ¼Ð°Ð½":6164,"Ð¶ÐµÐ½Ð½Ð¾ÑģÑĤÐ¸":6165,"ĠÐµÐ¶ÐµÐ³Ð¾Ð´":6166,"Ð·ÐµÐ¹":6167,"ĠÑģÑĥÑīÐµÑģÑĤÐ²Ð¾Ð²Ð°Ð½Ð¸Ðµ":6168,"ĠÐ·Ð°Ð½Ð¸Ð¼Ð°ÐµÑĤ":6169,"Ð´ÑĥÑĤ":6170,"ĠÑģÑĤÐ°ÑĤÐµÐ¹":6171,"ĠÑģÑĤÐ°Ð½Ð´Ð°ÑĢÑĤÐ¾Ð²":6172,"ĠÐ²ÑģÐµÐ¾Ð±":6173,"Ð¾ÑģÐ°":6174,"ÑĤÐ¸Ðº":6175,"ĠÐ¾ÑĦÐ¸ÑĨ":6176,"Ð½ÑģÐºÐ¾Ð³Ð¾":6177,"ĠÑĢÐµÐ°Ð»ÑĮÐ½Ð¾Ð¹":6178,"Ð¾Ð»Ð¾Ð³Ð¸ÑĩÐµÑģÐºÐ¸Ð¼":6179,"ĠÑĢÐ¸ÑģÐºÐ¾Ð²":6180,"ÑĢÐ¾Ð²Ð°Ð½Ð½ÑĭÐ¼":6181,"ĠÐ½ÐµÐ¾Ð±ÑħÐ¾Ð´Ð¸Ð¼ÑĭÑħ":6182,"ĠÐ³ÑĥÐ¼Ð°Ð½Ð¸ÑĤÐ°ÑĢ":6183,"ĠÐ½Ð°Ð¿ÑĢÐ¾ÑĤÐ¸Ð²":6184,"ÐľÐ¾Ð¶Ð½Ð¾":6185,"ĠÑįÑĦÑĦÐµÐºÑĤÐ°":6186,"ĠÐ¿Ð¾ÑıÐ²Ð»ÐµÐ½Ð¸Ðµ":6187,"ĠÑģÐµÐ»ÑĮÑģÐºÐ¾Ð³Ð¾":6188,"Ð½Ð¼Ð¸":6189,"ĠÐ½Ð°Ð¿ÑĢÑıÐ¼ÑĥÑİ":6190,"ĠÑģÐ²Ð¾ÐµÐ¾Ð±ÑĢÐ°Ð·":6191,"ÑīÐµÐ½Ð¸ÐµÐ¼":6192,"ÑĤÐ¾ÑģÑĤÑĮ":6193,"ĠÐ²ÑĢÐµÐ´":6194,"ĠÑĢÐ°Ð·Ð½ÑĭÐ¼":6195,"ĠÐ½Ð¾ÑĢÐ¼Ð°ÑĤÐ¸Ð²Ð½ÑĭÑħ":6196,"ĠÐºÑĥÐ»ÑĮÑĤÑĥÑĢÐ½Ð¾Ð³Ð¾":6197,"ĠÑĢÐ°Ð·Ð½ÑĭÐ¼Ð¸":6198,"ĠÐ¿ÑĢÐµÐ´ÑģÐµÐ´Ð°":6199,"ĠÑĢÐµÐ°Ð»Ð¸Ð·Ð°ÑĨÐ¸Ñı":6200,"ĠÐ½Ð¾Ð²Ð¾Ðµ":6201,"ĠÑĥÑģÑĤÑĢÐ°Ð½":6202,"ĠÑĢÐµÐ¹ÑĤÐ¸":6203,"ĠÐ²Ð¾ÑĤ":6204,"ĠÑģÐ¾Ð²Ð¾ÐºÑĥÐ¿Ð½Ð¾ÑģÑĤÑĮ":6205,"ĠÐ²ÐµÐ´ÐµÐ½Ð¸Ñı":6206,"ĠÐ»Ð¸ÐºÐ²Ð¸Ð´":6207,"ĠÑĢÑĥÐ±ÐµÐ¶":6208,"ĠÐ·Ð°Ð²Ð¸ÑģÐ¸Ð¼Ð¾ÑģÑĤÑĮ":6209,"ÑĢÐ¾ÐºÑĢÐ°":6210,"ÑĢÐ°Ð±":6211,"ÐºÑĥÑİ":6212,"Ð¸ÑģÐ¾Ðº":6213,"ĠÐ¾ÑĤÑĢÐ°Ð¶ÐµÐ½Ð¸Ðµ":6214,"ÑĤÐ¾Ð½":6215,"ĠÐ¿ÑĢÐ¾Ð´ÐµÐ¼":6216,"ĠÐ½Ð°ÐºÐ°Ð·Ð°Ð½Ð¸Ñı":6217,"Ð¿ÐµÐ´Ð°Ð³Ð¾Ð³Ð¸ÑĩÐµÑģÐº":6218,"ĠÐ´Ð¾ÐºÑĥÐ¼ÐµÐ½ÑĤÑĭ":6219,"ĠÑģÐ»ÑĥÐ¶Ð¸ÑĤ":6220,"Ð²Ð°Ð½Ð½ÑĭÑħ":6221,"ĠÐ±Ð»":6222,"ĠÐ¿Ð¸ÑģÐ°":6223,"ĠÐŁÑĢ":6224,"ĠÐ¼Ð¾Ð½Ð°ÑģÑĤÑĭ":6225,"ĠÐ²Ð·Ð°Ð¸Ð¼Ð¾ÑģÐ²ÑıÐ·Ð¸":6226,"ĠÐ¸Ð½ÐºÐ»Ñİ":6227,"ĠÐºÐ¾Ð½ÑģÑĤÐ°":6228,"ĠÐºÐ°ÑĦÐµÐ´":6229,"ĠÐ½ÐµÑģÐ¾":6230,"ĠÑģÐ¸ÑĤÑĥÐ°ÑĨÐ¸ÑıÑħ":6231,"ĠÐºÐ¾Ð¼Ð¿Ð¾Ð½ÐµÐ½ÑĤÐ¾Ð²":6232,"Ð¾Ð±ÑĢÐ°Ð·Ð¾Ð²Ð°Ð½Ð¸Ñı":6233,"ĠÐĺÑħ":6234,"ĠÐ¿Ð¾Ð½Ð¸Ð¼Ð°ÑĤÑĮ":6235,"ĠÐ¿ÑģÐ¸ÑħÐ¾Ð»Ð¾Ð³Ð¸Ð¸":6236,"ĠÐºÐ¾Ð½ÑĦÐ»Ð¸ÐºÑĤ":6237,"ĠÐľÐ¾ÑģÐºÐ²Ðµ":6238,"ĠÐ¿ÐµÑĢÑģÐ¿ÐµÐºÑĤÐ¸Ð²Ðµ":6239,"ĠÐļÐ¾Ð¼Ð¸":6240,"ĠÐ¾Ð±Ð¾ÑĢÐ¾ÑĤ":6241,"ĠÐ²ÑĭÑĢÐ°Ð·":6242,"ĠÐ²ÑĭÑģÑĤÑĢÐ°Ð¸":6243,"ĠÐ²Ð°ÑĢ":6244,"ĠÐ¾Ð´Ð¾Ð±":6245,"ÑĢÐ½ÑĭÑħ":6246,"Ð¢Ð°ÐºÐ¶Ðµ":6247,"ĠÑĤÑĢÑĥÐ´Ð½Ð¾ÑģÑĤÐ¸":6248,"Ð¶Ð´Ð°Ñı":6249,"Ð¼Ð¾ÑĤÑĢÐ¸Ð¼":6250,"ĠÐ¾Ð¿ÑĢÐµÐ´ÐµÐ»ÐµÐ½Ð½Ð¾Ð³Ð¾":6251,"ĠÐ°ÑĤÑĢÐ¸":6252,"ÑĨÐ¸Ð½Ð°":6253,"ĠÐ·Ð°Ð´Ð°ÑĩÑĥ":6254,"Ð¼Ð°ÑĢ":6255,"ĠÐ±ÑĥÐº":6256,"ĠÐ±Ð¾ÑĢÑĮÐ±Ðµ":6257,"ĠÑģÐ¾ÑİÐ·Ð°":6258,"ĠÐ¼ÐµÑĤÐ°Ð»":6259,"ĠÑĦÐ¸Ð³Ñĥ":6260,"ĠÐ¿ÑĢÐµÐ´Ð¼ÐµÑĤÐ°":6261,"ĠÐ½Ð°ÑĪÐ¸Ñħ":6262,"ĠÑįÐºÐ·Ð°":6263,"ĠÑĢÐ°Ð·ÑĥÐ¼":6264,"ĠÐ¿ÐµÑĢÐ²Ð¾Ð½Ð°ÑĩÐ°":6265,"Ð½ÐµÑĢÐ°":6266,"ĠÐ·Ð°Ð´Ð°Ð½Ð¸Ð¹":6267,"ĠÐ¿ÐµÑĢÑģÐ¿ÐµÐºÑĤÐ¸Ð²Ñĭ":6268,"ĠÐ¶ÑĥÑĢÐ½Ð°":6269,"ĠÐ½Ð°ÑĢÑĥÑĪÐµÐ½Ð¸Ðµ":6270,"ĠÐ²Ð²ÐµÐ´ÐµÐ½Ð¸Ñı":6271,"Ð¾ÑĢÑĭ":6272,"ĠÐ½Ð°Ð·Ð²Ð°ÑĤÑĮ":6273,"ĠÐ¿ÑĢÐ¾Ð´ÑĥÐºÑĤÐ¾Ð²":6274,"ĠÐ½Ð¾ÑģÐ¸ÑĤ":6275,"ĠÐ¿ÑĢÐµÐ¶":6276,"ĠÑĩÐ°ÑģÑĤÐ¸ÑĩÐ½Ð¾":6277,"ĠÐ¿ÑĢÐµÐ´Ð½Ð°":6278,"ĠÐ²ÐµÐ´ÑĥÑīÐ¸Ñħ":6279,"ĠÐ´Ð°Ð»ÐµÐµ":6280,"ĠÑģÐ»Ð°Ð²ÑıÐ½":6281,"ĠÑįÐºÑģÐ¿ÐµÑĢÑĤÐ¸":6282,"ÑĤÐµÐ»ÑĮÑģÐºÐ¸Ñħ":6283,"ĠÐ¿ÑĢÐµÐ´ÐµÐ»Ñĭ":6284,"ĠÑĪÐºÐ¾Ð»ÑĮÐ½Ð¾Ð³Ð¾":6285,"ĠÐºÐ»Ð°ÑģÑģÐ¸ÑĦÐ¸ÐºÐ°ÑĨÐ¸Ð¸":6286,"Ð¾Ð´Ñĭ":6287,"ÑĪÐµÐº":6288,"Ð¼Ð°Ð½Ð°":6289,"ĠÑĢÑĥÐºÐ¾Ð²Ð¾Ð´ÑģÑĤÐ²Ð°":6290,"ĠÐºÐ¾Ð½ÐµÑĩÐ½Ð¾":6291,"ĠÑĢÐµÑĦÐ¾ÑĢÐ¼Ð¸":6292,"ĠÑĢÐ¾ÑģÑģÐ¸Ð¹ÑģÐºÐ¾Ð¼":6293,"ĠÐ¾ÐºÐ°Ð·ÑĭÐ²Ð°ÐµÑĤ":6294,"ĠÐ²Ð¾ÐµÐ½Ð½Ð¾Ð³Ð¾":6295,"ĠÐ²ÑģÑĤÑĥÐ¿Ð°":6296,"Ð´ÐµÑıÑĤÐµÐ»ÑĮ":6297,"ĠÐ¿ÑĢÐ¾Ð±Ð»ÐµÐ¼Ð¾Ð¹":6298,"ĠÐ¿Ð°ÑĢÐ°Ð´Ð¸Ð³":6299,"ĠÐ¸Ð¼Ð¿ÐµÑĢ":6300,"ÑģÑĤÐ°Ð½Ð°":6301,"ĠÑĩÐµÑĤÑĭÑĢÐµÑħ":6302,"Ð°ÑĤÑĮ":6303,"Ð°ÐºÐ¾Ð²":6304,"ĠÑĤÐ°Ð¹":6305,"ĠÑįÑĤÐ¸Ð¼Ð¸":6306,"ĠÐ¿ÑĢÐ¾Ð³Ð½Ð¾Ð·":6307,"ÑģÑİ":6308,"ĠÐ¾Ð±ÑģÑĤÐ¾ÑıÑĤÐµÐ»ÑĮÑģÑĤÐ²":6309,"ĠÐ¼ÐµÑģÑĤÐ°Ñħ":6310,"ĠÐ¾Ð±ÑģÑĥÐ¶Ð´ÐµÐ½Ð¸Ñı":6311,"ĠÑģÐ»Ð¾Ð¶Ð½Ð¾ÑģÑĤÐ¸":6312,"ĠÐ¿Ð¸ÑĤÐ°":6313,"ĠÐ¸ÑģÑĤÐ¾ÑĢÐ¸Ñİ":6314,"ĠÐ·ÐµÐ¼Ðµ":6315,"ĠÐ°ÑĢÐ³ÑĥÐ¼ÐµÐ½ÑĤÐ°":6316,"ĠÐ³Ð¾ÑģÑĥÐ´Ð°ÑĢÑģÑĤÐ²ÐµÐ½Ð½ÑĭÐµ":6317,"ĠÐ³ÑĥÐ±ÐµÑĢÐ½Ð¸Ð¸":6318,"Ð½ÐµÐ½Ð½Ð¾":6319,"ĠÐ¾Ð¿ÑĢÐµÐ´ÐµÐ»ÐµÐ½Ð¸Ð¸":6320,"ĠÐ´Ð²Ð¸Ð¶ÐµÐ½Ð¸Ðµ":6321,"ĠÐºÐ¾Ð½ÐºÑĥÑĢÐµÐ½ÑĤÐ¾ÑģÐ¿Ð¾ÑģÐ¾Ð±":6322,"ĠÐºÐ¸":6323,"ĠÑģÐ²ÐµÐ´":6324,"ĠÐ´Ð¾ÐºÑĤÑĢÐ¸":6325,"ĠÐ³Ð°ÑĢ":6326,"ĠÐ¸ÑģÐ»ÐµÐ´":6327,"ĠÐ²Ð¾Ð¹ÑģÐº":6328,"ĠÐ¾Ð±ÑīÐµÑģÑĤÐ²ÐµÐ½Ð½Ð¾":6329,"ÑģÑĤÐ²ÑĥÑİÑīÐ¸Ñħ":6330,"ÑİÑīÐµÐ¼":6331,"ĠÐ½ÐµÐ´Ð¾Ð²":6332,"ĠÐĳÐµÑĢ":6333,"ĠÐ¿Ð¾ÑĤÑĢÐµÐ±Ð½Ð¾ÑģÑĤÐµÐ¹":6334,"ĠÐºÐ¾Ð¼Ð¸ÑģÑģÐ¸Ð¸":6335,"ĠÐ¿ÑĢÐ¸ÑĩÐ¸Ð½Ð¾Ð¹":6336,"ĠÑģÑĤÑĢÐ¾Ð¸ÑĤÐµÐ»ÑĮÑģÑĤÐ²Ð°":6337,"Ð±Ð°Ð½":6338,"ÑİÑīÐ¸Ð¹ÑģÑı":6339,"ĠÐ¾Ð¿ÑĢÐµÐ´":6340,"ĠÐ¾Ð±Ð¾ÑĢÑĥÐ´":6341,"ÑħÐ¾Ð¶Ð´":6342,"ÑħÐ¾Ð¶Ð´ÐµÐ½Ð¸Ðµ":6343,"ĠÐ¿ÑĢÐ¾Ð²ÐµÐ´ÐµÐ½Ð¸Ðµ":6344,"ÑĢÐµÐ³ÑĥÐ»Ð¸":6345,"ĠÐ°Ð¿ÑĢÐµ":6346,"ĠÐ¾Ð·":6347,"ĠÐ¾Ð¿ÑĢÐ¾ÑģÐ°":6348,"ĠÐ¾Ð¿ÑĢÐµÐ´ÐµÐ»Ð¸":6349,"ÑĢÐ¸ÑĦ":6350,"ÑįÐºÐ¾Ð½Ð¾Ð¼Ð¸ÑĩÐµÑģÐºÐ¾Ð³Ð¾":6351,"ĠÐľÐŀ":6352,"ĠÑĢÐ°Ð·Ð´ÐµÐ»Ðµ":6353,"ĠÐ°Ð´ÐµÐºÐ²Ð°":6354,"ĠÑĢÐ°ÑģÐ¿ÑĢÐµÐ´ÐµÐ»ÐµÐ½Ð¸Ðµ":6355,"ĠÐ±Ð¾Ð»ÑĮÑĪÑĥÑİ":6356,"ĠÑĤÐµÐºÑģÑĤÑĭ":6357,"ÐķÑīÐµ":6358,"ĠÑĢÐµÐ¿":6359,"ÑģÑĤÐ¾Ð¼":6360,"ĠÐ¿Ð¾Ð²Ð»Ð¸Ñı":6361,"ÑĤÐµÐ»ÑĮÑģÑĤÐ²Ñĥ":6362,"Ð½Ð¸Ð·Ð°":6363,"ĠÐ¿ÑĢÐ¸Ð¾ÑĢÐ¸ÑĤÐµÑĤ":6364,"ĠÐ¾Ð±ÑĥÑģÐ»Ð¾Ð²Ð»Ð¸":6365,"ĠÐĴÐµÐ»Ð¸ÐºÐ¾Ð±ÑĢÐ¸ÑĤÐ°Ð½Ð¸Ð¸":6366,"ĠÐ¿ÑĢÐ¾Ð¼ÐµÐ¶":6367,"ĠÐ²ÑĭÐ±Ð¾ÑĢÐµ":6368,"ÑģÐµÐ½":6369,"ĠÐ¿ÐµÐ´Ð°Ð³Ð¾Ð³Ð¸":6370,"ĠÐ¿Ð»Ð¾Ñħ":6371,"ÑĩÐµÑģÐºÐ¾Ð¼Ñĥ":6372,"ÑĤÐ¸Ð²Ð¾Ð²":6373,"ĠÑģÐ¾ÑĨÐ¸Ð°Ð»ÑĮÐ½ÑĥÑİ":6374,"ĠÐ¿Ð¾ÐºÐ°Ð·Ð°Ð½Ð¾":6375,"ĠÐµÐ´Ð¸Ð½Ð¸ÑĨÑĭ":6376,"ĠÐ¿ÑıÑĤÑĮ":6377,"ĠÑĢÐ°Ð²Ð¸":6378,"Ð¾Ð³ÑĢÐ°ÑĦÐ¸ÑĩÐµÑģÐºÐ¸Ñħ":6379,"ĠÐĵÐ¾ÑĢ":6380,"ĠÐ²ÐµÑĢÐ±":6381,"Ð¾Ð³Ð¾Ð²Ð¾ÑĢ":6382,"ĠÐ¾Ð´Ð°ÑĢÐµÐ½":6383,"ĠÐ¼Ð°Ð³Ð¸":6384,"ĠÐ´Ð¸Ð½Ð°Ð¼Ð¸ÐºÐ¸":6385,"ĠÐ´ÐµÐ¼Ð¾ÐºÑĢÐ°ÑĤÐ¸Ð¸":6386,"ĠÐ¼ÐµÑĢÐ¾Ð¿ÑĢÐ¸ÑıÑĤÐ¸Ñı":6387,"ÑĨÐ°Ð¼":6388,"ĠÐ¿Ð»Ð°ÑĤ":6389,"ĠÐĲÐ»":6390,"ĠÐ½ÐµÐ·Ð°ÐºÐ¾Ð½":6391,"ĠÐµÐ´Ð¸Ð½Ð¾Ð³Ð¾":6392,"ĠÐ¸ÑģÐºÐ»ÑİÑĩÐµÐ½Ð¸ÐµÐ¼":6393,"ĠÐľÐ°Ðº":6394,"ĠÑģÑĥÐ´ÐµÐ±Ð½ÑĭÑħ":6395,"ĠÐ°Ð´ÑĢÐµÑģÐ°":6396,"ĠÐ¿ÑĢÐ¸Ð¼ÐµÐ½Ð¸ÑĤÐµÐ»ÑĮÐ½Ð¾":6397,"ĠÐ²Ð¸Ð·Ñĥ":6398,"Ð»ÑĮÐ½Ð¾Ð¼Ñĥ":6399,"Ð¾Ð³ÑĢÐ°ÑĦÐ¸Ñı":6400,"ĠÐ¸Ð´Ð¸":6401,"ĠÑĪÐºÐ¾Ð»Ð°":6402,"ĠÐ¿ÑĢÐµÑģÐ»ÐµÐ´":6403,"ĠÐ¸Ð·Ð½Ð°ÑĩÐ°Ð»ÑĮÐ½Ð¾":6404,"ĠÐĴÐµÑĢÑħÐ¾Ð²":6405,"ĠÑģÑĢÐµÐ´ÑģÑĤÐ²Ð°Ð¼Ð¸":6406,"ĠÐ²Ð¾Ð²ÑģÐµ":6407,"Ð»Ð¸Ð·Ð°ÑĨÐ¸Ñı":6408,"ĠÑģÐ½Ð¸Ð¶ÐµÐ½Ð¸Ñı":6409,"ĠÑģÑĥÑīÐ½Ð¾ÑģÑĤÐ¸":6410,"ĠÑĢÐ°Ð·Ð²ÐµÑĢ":6411,"Ð°Ð»ÑĮÐ½Ð¾ÑģÑĤÐ¸":6412,"ĠÐ¾Ð¿ÑĢÐ¾ÑĪÐµÐ½Ð½ÑĭÑħ":6413,"ĠÑĨÐµÐ½Ð½Ð¾ÑģÑĤÑĮ":6414,"Ð½Ð°ÑĩÐ°Ð»Ð°":6415,"ĠÑĥÑĤÐ²ÐµÑĢÐ¶Ð´Ð°ÑĤÑĮ":6416,"ĠÐ´Ð¾Ð¿":6417,"Ð¾Ð´ÐµÑĢÐ¶Ð°":6418,"ĠÐ¸Ð³ÑĢ":6419,"ĠÐ¿ÑĢÐ¸Ð½Ð°Ð´Ð»ÐµÐ¶Ð½Ð¾ÑģÑĤÐ¸":6420,"ĠÑģÑĨÐ¸Ð°Ð»ÑĮ":6421,"ĠÐ½Ð°Ð¸Ð¼ÐµÐ½":6422,"ĠÐ¾ÑģÑĥÐ¶Ð´ÐµÐ½":6423,"ĠÐ¿ÑĢÐ¾Ð²Ð¸Ð½":6424,"ĠÐ¾ÑĢÑĥÐ¶":6425,"ĠÑĦÐ¾ÑĢÐ¼Ð¸ÑĢÐ¾Ð²Ð°Ð½Ð¸Ñİ":6426,"ĠÑĥÑħ":6427,"ĠÐ´Ð°Ð½Ð½Ð¾Ðµ":6428,"ÑĨÐ¸Ð¾Ð½Ð°Ð»":6429,"ĠÑįÑĦÑĦÐµÐºÑĤÐ¸Ð²Ð½Ð¾Ð³Ð¾":6430,"ÑĩÐ¸ÐºÐ°":6431,"Ð½Ð¾Ð²ÐµÐ½Ð¸Ñı":6432,"ĠÑģÐ¸ÑģÑĤÐµÐ¼Ð¾Ð¹":6433,"ĠÐ²Ð¿ÑĢÐ°Ð²":6434,"ÑģÑĤÐ°Ð±Ð¸":6435,"ĠÐ¾ÑģÑĤÐ°Ð½Ð¾Ð²":6436,"ĠÐ³Ð»Ð°Ð³Ð¾Ð»Ð°":6437,"ĠÑĢÐµÐ´ÐºÐ¾":6438,"ĠÐ´Ð¸Ðº":6439,"ĠÑĢÐµÐ·ÐµÑĢ":6440,"ÐĿÐ°Ð¸Ð±Ð¾Ð»ÐµÐµ":6441,"ĠÐ£ÐºÑĢÐ°Ð¸":6442,"ĠÐ½ÐµÐ¾Ð±ÑħÐ¾Ð´Ð¸Ð¼ÑĭÐ¼":6443,"ĠÐ¿ÑĢÐ¸ÑĢÐ¾Ð´Ðµ":6444,"ÑĢÐ°Ð¶ÐµÐ½Ð¸Ðµ":6445,"ĠÐ¸ÑģÑģ":6446,"ĠÐ´ÐµÑģÑıÑĤÐ¸Ð»ÐµÑĤÐ¸Ñı":6447,"ĠÑĤÐµÑģÐ½Ð¾":6448,"ĠÐ¼Ð°ÐºÑģÐ¸Ð¼Ð°Ð»ÑĮÐ½Ð¾":6449,"ĠÐ½Ð°ÑĩÐ¸Ð½Ð°Ñı":6450,"ĠÐ¸Ð½Ð´Ð¸Ð²Ð¸Ð´ÑĥÐ°Ð»ÑĮÐ½ÑĭÑħ":6451,"ĠÐ°Ð²ÑĤÐ¾Ð¼Ð°":6452,"ĠÐ¼Ð¾ÑģÐº":6453,"ĠÑĤÐµÑģÑĤÐ¸":6454,"ÑīÐ°ÑİÑĤÑģÑı":6455,"ĠÐĲÐ¼ÐµÑĢÐ¸":6456,"ĠÐ°Ð½Ð°Ð»Ð¸Ð·Ð¸ÑĢÑĥ":6457,"Ð¶Ð½ÐµÐ¼Ñĥ":6458,"ĠÑģÑĥÐ´ÐµÐ¹":6459,"Ð¢Ðµ":6460,"ĠÐ»ÑİÐ±Ð¾Ð³Ð¾":6461,"ĠÐ´Ð¾Ð¿Ð¾Ð»Ð½Ð¸ÑĤÐµÐ»ÑĮÐ½Ð¾Ð³Ð¾":6462,"ĠÐ²ÑĭÐ±Ð¾ÑĢÐºÐµ":6463,"ĠÐºÐ°Ð¶ÐµÑĤÑģÑı":6464,"ĠÐ·Ð°ÑīÐ¸ÑĤÐµ":6465,"ĠÑģÐ¾ÑħÑĢÐ°Ð½ÐµÐ½Ð¸Ñı":6466,"ÑĪÐµÐ³Ð¾ÑģÑı":6467,"ĠÐ½ÐµÑĢÐ°Ð²ÐµÐ½ÑģÑĤÐ²Ð°":6468,"ĠÑĢÐ°Ð·Ð½Ð¾Ð²Ð¸Ð´":6469,"ÑģÐ¸Ð¼":6470,"Ð³Ð»ÑıÐ´":6471,"ĠÐ´Ð¾Ð¿Ð¾Ð»Ð½Ð¸ÑĤÐµÐ»ÑĮÐ½ÑĭÐµ":6472,"ÐłÐµÐ·ÑĥÐ»ÑĮÑĤÐ°ÑĤÑĭ":6473,"ÑĢÐµÐ»Ð¸":6474,"ĠÑĦÑĢÐ¾Ð½":6475,"ĠÐ¼Ð¸Ñģ":6476,"ĠÐ²ÑĭÑĢÐ¾Ñģ":6477,"ĠÑĤÐµÐ¼Ð¸":6478,"ÐºÐ»Ð¸":6479,"ĠÐ»ÐµÐ¶Ð¸ÑĤ":6480,"ĠÐ½Ð°ÑĪÐµÐ¼":6481,"ĠÑģÐ¾Ð²ÐµÑĤÐ°":6482,"ĠÐ²Ð»Ð¸ÑıÑİÑĤ":6483,"Ð°ÑĢÐ°ÐºÑĤÐµÑĢÐ¸":6484,"ĠÐ´Ð°Ð½Ð½ÑĭÐ¼Ð¸":6485,"ĠÑģÑĤÑĥÐ´ÐµÐ½ÑĤÐ°":6486,"Ð»Ð¾ÑĤÑĮ":6487,"ĠÐ¿Ð¾Ð»ÑĥÑĩÐ°ÐµÑĤ":6488,"ĠÑİÑĢÐ¸Ð´Ð¸ÑĩÐµÑģÐºÐ¾Ð³Ð¾":6489,"ÑĢÐ¾Ð±Ð»ÐµÐ¼Ð°":6490,"ĠÐļÑĥ":6491,"ĠÐ¿ÑĢÐ¸Ðº":6492,"Ð±ÐµÑĢÐµ":6493,"ĠÐ¿ÑĢÐ¸Ð±ÑĭÐ»Ð¸":6494,"ĠÐ³Ð¾Ð¼":6495,"ĠÐ²Ð¾Ð¼Ð¾Ð¶":6496,"Ð¿Ð¾Ð»Ð°Ð³Ð°":6497,"ĠÐ¿ÐµÑĢÐµÑĩÐµÐ½ÑĮ":6498,"ĠÑģÐ¾Ð·Ð´Ð°Ð½Ð¸Ñİ":6499,"ĠÐ¿ÐµÑĢÐµÐ½":6500,"ĠÐĵÐµÐ½":6501,"ĠÐ¾ÑģÑĤÐ°Ð»ÑĮÐ½ÑĭÑħ":6502,"ĠÑģÐµÐ»ÑĮÑģÐºÐ¸Ñħ":6503,"ĠÐ±Ð¸Ð±Ð»Ð¸Ð¾ÑĤÐµ":6504,"ĠÑĩÐ¸ÑģÐ»ÐµÐ½Ð½Ð¾ÑģÑĤÑĮ":6505,"ĠÐ¿ÑĢÐµÐ´Ð»Ð¾Ð¶ÐµÐ½Ð¸Ð¹":6506,"Ð¾ÐºÐµ":6507,"Ð²Ð¸Ð¸":6508,"ÐºÐ°ÑĢ":6509,"ĠÐ±Ð¾Ðµ":6510,"ĠÐ¾Ð¿ÑĢÐµÐ´ÐµÐ»ÑıÑİÑĤ":6511,"ÑĢÐµÐ²Ð¾Ð»Ñİ":6512,"ÑģÑĤÐ²ÐµÐ½Ð½Ð¾Ð¼Ñĥ":6513,"ĠÐŀÐŀÐĿ":6514,"ĠÐ¾ÑģÑĤÐ°ÑİÑĤÑģÑı":6515,"ĠÑĥÐ±":6516,"ĠÑĤÐ¸Ð¿Ñĭ":6517,"ĠÑģÐ¾Ð¾ÑĤÐ½Ð¾ÑĪÐµÐ½Ð¸Ðµ":6518,"ĠÑģÑĥÑīÐµÑģÑĤÐ²ÑĥÑİÑīÐ¸Ñħ":6519,"ĠÑģÐ¾ÑĨÐ¸Ð°Ð»ÑĮÐ½ÑĭÐ¼":6520,"ĠÑģÐ¿ÑĢÐ°Ð²ÐµÐ´Ð»Ð¸Ð²Ð¾ÑģÑĤÐ¸":6521,"ĠÐ¿ÑĢÐ°ÐºÑĤÐ¸ÐºÑĥ":6522,"ĠÐ²Ð¸ÑĢ":6523,"ĠÑĦÐ°ÐºÑĤÐ¾ÑĢÐ°Ð¼Ð¸":6524,"ĠÐ¿ÑĢÐ¸Ð·Ð½Ð°Ð½Ð¸Ðµ":6525,"ÑģÑĤÐ²Ð¾Ð²Ð°Ð½Ð¸Ðµ":6526,"ĠÑĪÐ°Ð½":6527,"ĠÐ·Ð°ÑīÐ¸ÑĤÑĥ":6528,"ĠÐ¿Ð¾Ð»ÑĥÑĩÐ¸Ð»":6529,"ĠÐ¿Ð¾Ð»Ð¸ÑĤÐ¸ÑĩÐµÑģÐºÐ°Ñı":6530,"ĠÐ²Ð°ÑĢÐ¸Ð°Ð½ÑĤÐ¾Ð²":6531,"ĠÐºÑĢÐ°Ñı":6532,"ĠÑģÐ¿Ð¾ÑģÐ¾Ð±Ð°":6533,"Ð¾Ð»Ð³":6534,"ĠÐ´ÐµÐ¼Ð¾Ð½":6535,"Ð¿ÑĢÐ°Ð²Ð¸":6536,"ĠÐ¿ÑĢÐ¾Ð´ÐµÐ¼Ð¾Ð½ÑģÑĤÑĢÐ¸":6537,"ĠÑĢÐµÑĪÐ¸ÑĤÑĮ":6538,"ĠÐ¡Ð¼":6539,"ĠÐ¼ÐµÐ´":6540,"ĠÐ°ÐºÑĤÑĭ":6541,"ÐµÐºÑĤÑĥ":6542,"ĠÑĢÐ°Ð·ÑĢÐµÑĪÐµÐ½Ð¸Ñı":6543,"ĠÐ¸Ð¼Ð¿":6544,"ĠÐ´Ð¸Ð½Ð°Ð¼Ð¸ÐºÑĥ":6545,"ĠÐ¸ÑģÐ¿Ð¾Ð»ÑĮÐ·ÑĥÑİÑĤ":6546,"ĠÐ»Ð¾Ð³Ð¸ÑĩÐµÑģÐº":6547,"Ð²Ð¸Ð´ÐµÑĤÑĮ":6548,"ĠÐ´ÐµÐ»Ð°Ð¼":6549,"ÑĢÐ¾Ð²Ð°Ð½Ð½Ð°Ñı":6550,"ĠÑĥÐ¼ÐµÑĢ":6551,"Ð³Ð¾ÑĢÐ¸ÑĤ":6552,"ÐĹÐ´ÐµÑģÑĮ":6553,"ĠÐ¿Ð¾Ð½Ð¸Ð¼Ð°Ð½Ð¸Ð¸":6554,"Ð¿ÐµÑĢÐµ":6555,"ĠÐ½Ð¸ÑĩÐµÐ³Ð¾":6556,"ĠÑĢÐ°Ð±Ð¾ÑĩÐµÐ³Ð¾":6557,"ĠÑĤÑĢÐ°Ð´Ð¸ÑĨÐ¸Ð¾Ð½Ð½ÑĭÑħ":6558,"ĠÐ¯Ð¿Ð¾":6559,"ĠÐ°Ð´Ð¼Ð¸Ð½Ð¸ÑģÑĤÑĢÐ°ÑĨÐ¸Ð¸":6560,"ÑĩÑģÐºÐ¸Ñħ":6561,"Ð½Ð¸ÐºÐµ":6562,"Ð¼ÐµÑģÑĤ":6563,"Ð±Ð°Ð¹":6564,"Ð¾Ð±Ð¸Ð»Ð¸":6565,"ĠÑģÐ½Ð¸Ð·Ð¸":6566,"ĠÐ²ÐµÑĢÐ¾ÑıÑĤÐ½Ð¾":6567,"Ð¾ÑģÐ»ÐµÐ´ÑģÑĤÐ²Ð¸Ð¸":6568,"ĠÐ²ÑĢÐµÐ¼ÐµÐ½ÐµÐ¼":6569,"ĠÐĿÐµÑģÐ¼Ð¾ÑĤÑĢÑı":6570,"Ð¾Ð·Ð½Ð°Ð½Ð¸Ñı":6571,"ĠÑĥÑĩÐ°ÑģÑĤÐ½Ð¸ÐºÐ°Ð¼Ð¸":6572,"ĠÐ´Ð¾ÑģÑĤÐ¸Ð¶ÐµÐ½Ð¸Ð¹":6573,"ĠÐ¼Ð¾ÑĤÐ¸Ð²Ð¸":6574,"ĠÐ°Ð±ÑģÑĤÑĢÐ°Ðº":6575,"ĠÑĢÐ¸ÑģÐºÐ¸":6576,"ĠÑĥÑģÐ¿ÐµÑĪÐ½Ð¾":6577,"ĠÐ¿ÑĢÐ¾Ð¸Ð·Ð¾ÑĪÐ»Ð¾":6578,"ĠÑģÐ¾Ñħ":6579,"ĠÑģÑĤÐ°Ð´Ð¸":6580,"Ð¾Ð½ÐµÑĩÐ½Ð¾":6581,"ÑĤÑĭÐ¼Ð¸":6582,"ĠÐ·Ð»Ð¾":6583,"ĠÑģÑĥÐ¼Ð¼Ð°":6584,"Ð´ÑĢÐ°":6585,"ĠÐ¿Ð¾ÑĤÑĢÐµÐ±Ð½Ð¾ÑģÑĤÑĮ":6586,"ÐŁÐ¾ÑģÐºÐ¾Ð»ÑĮÐºÑĥ":6587,"ĠÐ·Ð°Ð¿ÑĢÐ¾Ñģ":6588,"ĠÑģÐµÑĢÐµÐ´Ð¸Ð½Ðµ":6589,"ĠÑıÐ·ÑĭÐºÑĥ":6590,"ĠÑĥÐ´Ð°ÑĢ":6591,"ĠÐļÐ¾ÑĢÐµ":6592,"ĠÐ¤ÐµÐ´":6593,"ĠÑģÑĤÐ°ÑĢÐ¾":6594,"ĠÐºÐ¾Ð¼Ð¿Ð»ÐµÐºÑģÐ°":6595,"ĠÐ³Ð¾ÑĢÐ¾Ð´Ðµ":6596,"ĠÐ²Ð¾ÑģÐ¿ÑĢÐ¸ÑıÑĤÐ¸Ðµ":6597,"ĠÐ¸ÑģÐºÑĥÑģÑģÑĤÐ²Ð°":6598,"Ð²Ð°Ð»ÐµÐ½":6599,"Ð³ÑĢÑĭ":6600,"ĠÐ¾Ð±Ð²Ð¸Ð½Ñı":6601,"ĠÐ¸Ð¼ÐµÑİÑīÐ¸Ðµ":6602,"ĠÐ¿Ð¾Ð»Ð¾Ð²":6603,"ĠÐ½Ð°ÑĥÑĩÐ½ÑĭÐµ":6604,"ĠÑĢÐµÐ³Ð¸Ð¾Ð½Ð°Ð»ÑĮÐ½Ð¾Ð¹":6605,"ĠÐ°Ð²Ð³Ñĥ":6606,"Ð·Ð¸Ð½":6607,"ĠÐ¾ÑģÑĥÑīÐµÑģÑĤÐ²Ð»ÑıÑĤÑĮ":6608,"Ð¸ÑģÑĤÐ¾ÑĢÐ¸":6609,"ĠÑĦÐµÐ²ÑĢÐ°":6610,"ĠÐ¿ÑĢÐ¾ÑĨÐµÐ´ÑĥÑĢ":6611,"ÑĢÐµÑĨ":6612,"ĠÐ´ÐµÐ»Ñĥ":6613,"ĠÐºÑĢÐ°Ð¹Ð½ÐµÐ¹":6614,"ÐŀÐļ":6615,"ĠÑģÑĤÑĢÐ°ÑħÐ¾Ð²":6616,"ÑĢÐ¾ÑģÐ¾Ð²ÐµÑģÑĤ":6617,"ĠÐ¸Ð³ÑĢÐ°ÐµÑĤ":6618,"Ð´Ð¸Ñģ":6619,"ĠÐ¿Ð¾ÑģÐ¾Ð±":6620,"ĠÐ¸Ð¼ÐµÐ»":6621,"ĠÐ²ÐµÑĢÑħ":6622,"ĠÐ¸ÑģÑĩÐµ":6623,"ĠÐ¾ÑĤÐ¼ÐµÐ½":6624,"ĠÐŁÐ¾Ð´Ð¾Ð±":6625,"Ð½Ð¸ÑĨÐ°Ñħ":6626,"ĠÑįÐ»Ð¸ÑĤÑĭ":6627,"ĠÐ¿ÑĢÐ¾ÑĪÐµÐ´":6628,"ĠÑĦÐ¸Ðº":6629,"ĠÐ¼ÑĥÑģ":6630,"ĠÑĢÐ°Ð·Ð³ÑĢÐ°Ð½Ð¸":6631,"ĠÐ¾ÑĤÑĢÐ°ÑģÐ»Ðµ":6632,"ĠÑĤÐµÐ·Ð¸Ñģ":6633,"ĠÑįÐ»ÐµÐ¼ÐµÐ½ÑĤÐ°":6634,"ĠÑĢÐµÐ·ÑĥÐ»ÑĮÑĤÐ°ÑĤÐ°":6635,"ĠÑģÐ¾Ð²ÑĢÐµÐ¼ÐµÐ½Ð½ÑĭÐµ":6636,"ĠÐ¾Ð¿ÑĢÐ´Ðµ":6637,"Ð²Ð°Ð¸":6638,"ĠÐ´Ð¾ÑģÑĤÐ¸Ð¶ÐµÐ½Ð¸Ðµ":6639,"ĠÐķÐ³Ð¾":6640,"ĠÑģÑĥÐ´Ð¾Ð¼":6641,"ĠÐ´Ð¸ÑģÐºÑĥÑģÑģÐ¸Ð¸":6642,"ĠÐ´Ð¾ÑĢÐ¾Ð³":6643,"ĠÐ¿ÑĢÐ¾Ð´Ð¾Ð²Ð¾Ð»ÑĮ":6644,"ĠÐ½Ð°ÑģÑĤÐ¾ÑıÑīÐµÐ³Ð¾":6645,"ĠÐ²ÑĭÑģÑĤÑĥÐ¿Ð°ÑĤÑĮ":6646,"ĠÐ²ÑģÑĤÑĢÐµÑĩÐ°ÑİÑĤÑģÑı":6647,"ÑħÐ¾Ð·":6648,"ĠÐ´ÐµÑıÑĤÐµÐ»":6649,"ĠÐ¾Ð¿ÑĥÐ±Ð»Ð¸Ðº":6650,"ĠÐ¿ÐµÐ´Ð°Ð³Ð¾Ð³Ð°":6651,"ĠÐ¿ÑĢÐµÐ´Ð»Ð¾Ð¶ÐµÐ½Ð¸Ðµ":6652,"Ð¶Ð´ÐµÐ½Ð¸Ñİ":6653,"ĠÐ³Ð»Ð°Ð²Ð½ÑĭÑħ":6654,"ĠÐºÐ¾Ð»Ðµ":6655,"ĠÐ»ÐµÐºÑģÐµÐ¼":6656,"ĠÐ²Ð¾ÑģÐ¿":6657,"ĠÐ·Ð°ÐºÐ¾Ð½Ð¾Ð´Ð°ÑĤÐµÐ»ÑĮÑģÑĤÐ²Ðµ":6658,"ĠÐ³Ð¸Ð¼":6659,"ĠÐ¾ÑģÐ²Ð¾ÐµÐ½Ð¸Ñı":6660,"Ð¡Ð¡":6661,"ĠÐ½Ð°Ð´ÐµÐ¶":6662,"ÑĤÐ½Ð°Ñı":6663,"ĠÐ²ÑĭÑģÐ¾ÐºÐ¾Ð³Ð¾":6664,"ĠÐ´Ð¾Ð»Ð³":6665,"ĠÐ¾Ð±ÑģÑĤÐ°Ð½Ð¾Ð²":6666,"ĠÐ¸Ð¼ÐµÐµÑĤÑģÑı":6667,"Ð½Ð¸ÑĩÐµÑģÑĤÐ²Ð°":6668,"ĠÐ»ÑĮ":6669,"ĠÐ²ÑĭÐ±ÑĢÐ°Ð½":6670,"ĠÑĢÐµÐ³ÑĥÐ»Ð¸ÑĢÐ¾Ð²Ð°Ð½Ð¸Ðµ":6671,"ĠÐ¿ÑĢÐ¸ÑģÐ¾ÐµÐ´Ð¸":6672,"ĠÐ·Ð¾Ð½Ñĭ":6673,"ĠÑĢÐ·":6674,"ĠÑĩÑĤÐµÐ½Ð¸Ñı":6675,"ĠÐŃÐº":6676,"ĠÐľÐ¾ÑģÐºÐ²Ñĭ":6677,"ĠÐ¶ÐµÐ»ÐµÐ·":6678,"ĠÐ¸Ð½Ð½Ð¾Ð²Ð°ÑĨÐ¸Ð¹":6679,"ĠÐ³Ð¾Ð²Ð¾ÑĢÑıÑĤ":6680,"ĠÐ²ÑħÐ¾Ð´ÑıÑĤ":6681,"ĠÐ¾ÑħÐ²Ð°ÑĤÑĭ":6682,"ĠÑĢÐ±Ð¾ÑĤ":6683,"ĠÐļÐ¾Ð»":6684,"Ð½ÐµÐ½Ñĭ":6685,"ĠÐ²Ð¿ÑĢÐ°Ð²Ðµ":6686,"ĠÐ§ÐµÑĢ":6687,"ĠÐ²Ð»Ð¸":6688,"Ð¿ÑĢÐ°Ð²Ð¾Ð²Ð¾Ð³Ð¾":6689,"Ð²ÑĪÐµÐµ":6690,"ÑģÑĤÑĢÑĥÐºÑĨÐ¸Ð¸":6691,"ĠÐ¿Ð¾Ð²ÐµÑĢÑħ":6692,"ĠÐ½ÐµÑĢÐµ":6693,"ÑĦÐ¸ÐºÐ°ÑĨÐ¸Ñİ":6694,"ĠÐ²Ð½ÑĥÑĤÑĢÐµÐ½Ð½ÐµÐ³Ð¾":6695,"ĠÑĩÐ°ÑģÑĤÐµÐ¹":6696,"ÑĢÐ¸Ð½":6697,"ĠÐ¿ÑĢÐ¾ÑĤÐ¸":6698,"ĠÑĥÐ½Ð¸Ð²ÐµÑĢÑģÐ¸ÑĤÐµÑĤÐµ":6699,"ĠÑģÑĢÐµÐ´Ñĥ":6700,"ĠÐ¿ÑĢÐ¾ÑıÐ²Ð¸":6701,"ĠÐ¾Ð´Ðµ":6702,"ĠÐ¾ÑĤÐ²ÐµÑĤÐ°":6703,"ÐºÐ¸Ð½":6704,"ĠÑĥÑģÑĤÑĢÐ¾Ð¹":6705,"ĠÑĢÐµÐ³Ð¸Ð¾Ð½Ð°Ð»ÑĮÐ½Ð¾Ð³Ð¾":6706,"ĠÑĩÐ°ÑģÑĤÐ½Ð¾Ð¹":6707,"ĠÐºÐ¾Ð¾Ð¿ÐµÑĢÐ°":6708,"ĠÐ¿Ð¾Ð´Ð³Ð¾ÑĤÐ¾Ð²ÐºÐµ":6709,"ĠÑģÑĤÐµÑĢÐµ":6710,"ÐµÐºÑĤÐ¸Ð²Ð°":6711,"ĠÐ¸Ð·Ð¼ÐµÑĢÐµÐ½Ð¸Ñı":6712,"ĠÐ¾Ð»":6713,"Ð»Ð¾Ð²Ðµ":6714,"ĠÐ´Ð¸ÑģÑĤÐ°Ð½":6715,"ĠÐ²ÑĭÑģÐ¾ÐºÐ¾":6716,"Ð½Ð¸Ð·Ð¼Ð°":6717,"Ð¼Ð¸Ð½Ð°Ð»Ð¸":6718,"Ð¾ÑĢÑıÐ´Ð¾":6719,"ĠÑĦÐ¾ÑĢÐ¼Ð¸ÑĢÑĥÐµÑĤÑģÑı":6720,"ĠÐ¿ÑĥÐ±Ð»Ð¸ÐºÐ°ÑĨÐ¸Ð¹":6721,"ĠÑĤÑĥÑĢÐ¸":6722,"ĠÐ·Ð°ÑĢÐ¿Ð»Ð°":6723,"ĠÐ½ÐµÐ¹ÑĤÑĢÐ°":6724,"ĠÐ¿ÑĢÐµÐ´Ñĥ":6725,"ĠÐ¿ÑĢÐ¾Ð²Ð¾Ð´Ð¸ÑĤÑĮ":6726,"ĠÑĢÐ°ÑģÑĪÐ¸ÑĢÑı":6727,"ĠÐ½Ð¾Ð¼Ð¸Ð½Ð°":6728,"ÑĪÐ°ÑİÑĤ":6729,"Ð¾Ð²ÐµÐ´":6730,"ĠÑĤÑĢÑĥÐ´Ð¾Ñĥ":6731,"Ð±Ð¸Ð½":6732,"ĠÐ¾ÑģÐ¾Ð±ÐµÐ½Ð½Ð¾ÑģÑĤÑıÐ¼Ð¸":6733,"ĠÑģÐ»ÐµÐ´ÑĥÑİÑīÐ¸Ñħ":6734,"ÑĢÐ¾Ð²Ð°Ð½Ð½Ð¾Ðµ":6735,"ĠÑįÐºÐ¾Ð½Ð¾Ð¼Ð¸ÑĩÐµÑģÐºÐ¸Ð¹":6736,"ĠÐ²ÑĭÑıÐ²Ð»ÐµÐ½Ð¸Ñı":6737,"ĠÐ¿ÑĢÐµÐ´ÐµÐ»Ð°Ð¼Ð¸":6738,"Ð½Ð°Ð»Ð¾Ð³Ð¸":6739,"ĠÐ¾Ð±Ð½Ð¾Ð²":6740,"ĠÐ¾Ð¿Ð¾ÑģÑĢÐµÐ´":6741,"ĠÐ¼Ð¸ÑĢÐ¾Ð²Ð¾Ð³Ð¾":6742,"ĠÐļÐ¡":6743,"ĠÑĤÑĢÐµÐ±ÑĥÑİÑĤ":6744,"ÑĩÑģÐºÐ¾Ð¹":6745,"Ð½Ð¸ÐµÐ¹":6746,"ĠÑĢÐ°Ð±Ð¾ÑĤÐ½Ð¸ÐºÐ°":6747,"ÐľÐµÐ¶Ð´Ñĥ":6748,"ĠÐ´ÐµÐ½ÐµÐ³":6749,"ĠÑĥÐ±ÐµÐ´Ð¸":6750,"Ð°Ð»Ð¸Ð·Ð°ÑĨÐ¸Ñı":6751,"ĠÐ°ÐºÑĨÐµÐ½ÑĤ":6752,"ĠÑĦÐ¸Ð½Ð°Ð½ÑģÐ¾Ð²ÑĭÐµ":6753,"ĠÑįÐºÑģÐ¿ÐµÑĢÑĤÐ¾Ð²":6754,"Ð¿Ð¸ÑģÐº":6755,"ĠÑĦÐ¸Ð·Ð¸":6756,"ĠÐ¿Ð¾ÑıÐ²Ð»":6757,"ĠÐºÐ°ÑĤÐ°":6758,"ĠÑĥÐ²Ð°":6759,"ĠÐ¿Ð»Ð°Ð½Ð¾Ð²":6760,"ĠÐ¾ÑĤÐ²ÐµÑĤÐ¾Ð²":6761,"ĠÐ·Ð°ÑĤÑĢÐ°ÑĤ":6762,"ĠÐ´ÐµÐ½ÐµÐ¶Ð½ÑĭÑħ":6763,"ĠÐ¿ÑĢÐ¸ÑĪ":6764,"ĠÑĤÐµÑħÐ½Ð¾Ð»Ð¾Ð³Ð¸Ñı":6765,"Ð²Ð°Ð½Ð¸ÐµÐ¼":6766,"ĠÐºÐ¾Ð½ÐµÑĩÐ½Ð¾Ð¼":6767,"Ð¾Ð²Ð°Ð½Ð¸Ñİ":6768,"ĠÐ¿ÑĢÐµÐ´ÑģÐºÐ°":6769,"Ð±Ð°Ð»Ð°Ð½":6770,"ĠÑħÐ°ÑĢÐ°ÐºÑĤÐµÑĢÐ½Ð¾":6771,"Ð³Ð¸Ñı":6772,"ĠÐ¿ÑĢÐ¸Ð¾Ð±ÑĢÐµÑĤÐ°ÐµÑĤ":6773,"ĠÐĳÑĭ":6774,"Ð±ÑĥÑĢÐ³":6775,"Ð¿ÐµÑĤ":6776,"ÑĪÑĥ":6777,"ĠÐ³Ð¾ÑĢÐ¾Ð´ÑģÐºÐ¾Ð¹":6778,"Ð°ÑĨÐ¸Ð¸":6779,"ÐļÐ»ÑİÑĩÐµÐ²ÑĭÐµ":6780,"ĠÐļÐ°Ð·Ð°Ñħ":6781,"ĠÐ´Ð¾Ð»Ñİ":6782,"ĠÑĢÑĥÑģÑģÐºÐ¸Ð¹":6783,"ĠÑĢÐµÐ°Ð»Ð¸Ð·Ð°ÑĨÐ¸Ñİ":6784,"ĠÐ¾ÑĤÐ¼ÐµÑĩÐ°ÐµÑĤÑģÑı":6785,"ĠÐ³Ð¾ÑĢÐ¾Ð´ÑģÐºÐ¸Ñħ":6786,"ĠÐ´Ð¾ÑģÑĤÐ¾Ð²ÐµÑĢ":6787,"ĠÑĩÐ°ÑģÑĤÐ½Ð¾Ð³Ð¾":6788,"ĠÑĥÑģÑĤÐ°Ð½Ð¾Ð²ÐºÐ¸":6789,"ĠÑģÑĤÐ°ÑĢÐ°":6790,"ĠÐºÑĢÐ¸ÑĤÐµÑĢÐ¸Ð¸":6791,"ÑĤÐ¸ÐºÐ¾Ð¹":6792,"ĠÐ¸ÑģÑģÐ»ÐµÐ´Ð¾Ð²":6793,"ĠÐ¿ÑĢÐ°Ð²Ð¾Ð¿":6794,"ĠÐ·ÐµÐ¼Ð»Ðµ":6795,"ĠÐĶÐ¾":6796,"ĠÐļÐ¸ÑĤÐ°Ð¹":6797,"ĠÑįÑĤÐ½Ð¾":6798,"ĠÐ²ÑĭÑģÑĪÐµÐµ":6799,"ĠÐ¾Ð±ÐµÐ¸Ñħ":6800,"ĠÐ¿ÑĢÐ¾Ð²ÐµÑĢÐºÐ¸":6801,"ĠÐ½Ð°Ð±Ð»ÑİÐ´":6802,"ĠÐ¿Ð¾Ð»Ð½Ð¾Ð¼Ð¾ÑĩÐ¸Ñı":6803,"Ġ%.":6804,"ĠÐ°Ð³ÐµÐ½ÑĤ":6805,"ĠÐ¸Ð½ÑĭÐ¼":6806,"ĠÐºÑĢ":6807,"ÐĶÑĢÑĥÐ³":6808,"ĠÑĤÑĢÐ°Ð´Ð¸ÑĨÐ¸Ð¾Ð½Ð½Ð¾":6809,"ĠÑĢÐµÐ°Ð³Ð¸":6810,"ĠÐ¸ÑģÑģÐ»Ð´":6811,"ĠÐ°ÑĢÐ±Ð¸ÑĤ":6812,"ĠÑĥÑħÑĥÐ´":6813,"Ð¾Ð¼Ð°Ð½":6814,"ĠÐ¿ÑĢÐ¸Ð»Ð°Ð³Ð°":6815,"ĠÐ¿ÑĢÐ¾Ð²Ð¾Ð´Ð¸Ð¼":6816,"ÑĥÐ¿Ð¾ÑĤÑĢÐµÐ±":6817,"ĠÐ²ÑħÐ¾Ð´Ñı":6818,"ÑħÐ´":6819,"Ð¿ÑĢÐµÐ¶Ð½ÐµÐ¼Ñĥ":6820,"ĠÐ½ÐµÐ¼Ð°":6821,"ĠÑģÑĢÐ°Ð²Ð½ÐµÐ½Ð¸Ñı":6822,"ĠÐĿÐ°ÑĢ":6823,"ĠÑģÐ¾Ð»Ð¸":6824,"ĠÑģÑĬ":6825,"ĠÐ¿ÑĢÐµÐ¸Ð¼ÑĥÑīÐµÑģÑĤÐ²Ð°":6826,"ÐµÐ¼Ð¾ÑģÑĤÑĮ":6827,"ĠÐ±Ð»Ð°":6828,"Ð³Ð¾Ð²Ð¾ÑĢÐ¾Ð²":6829,"ĠÐ°Ð½Ð°Ð»Ð¾Ð³":6830,"ĠÑģÐ¾ÑģÐ»Ð¾Ð²":6831,"Ð½Ð¾Ð²Ðµ":6832,"Ð¸Ð½Ð°Ð¼Ð¸":6833,"ĠÐºÐ¾Ð½ÑĦÐ¸":6834,"ĠÐ¾Ð¿ÑĢÐµÐ´ÐµÐ»ÐµÐ½Ð½ÑĭÐ¹":6835,"ĠÐ¿ÑĢÐµÐ´Ð½Ð°Ð·Ð½Ð°":6836,"ĠÑĤÐ°ÐºÐ¸Ð¼Ð¸":6837,"ĠÐ¿ÑĢÐ¾Ð±Ð»ÐµÐ¼Ðµ":6838,"ĠÐ±ÑİÑĢÐ¾ÐºÑĢÐ°":6839,"ĠÐ²ÐµÑīÐ¸":6840,"ĠÑħÑĢÐ°Ð½":6841,"Ð¼ÑĥÐ½Ð¸ÐºÐ°":6842,"ĠÑĨÐ²ÐµÑĤ":6843,"ĠÐ²Ð°ÑĢÐ¸Ð°Ð½ÑĤÑĭ":6844,"ĠÑĦÐ¾ÑĢÐ¼Ð°Ñħ":6845,"ĠÐ³ÑĢÐ°Ð¶Ð´Ð°Ð½Ð¸Ð½Ð°":6846,"ĠÐ¿Ð¾ÐºÐ°Ð·Ð°ÑĤÑĮ":6847,"ÑĤÐ°Ð¹":6848,"ĠÐ·Ð°Ð¸Ð½ÑĤÐµÑĢÐµÑģÐ¾Ð²Ð°Ð½":6849,"ĠÐ²ÐµÐ»Ð¸":6850,"ĠÐ¼Ð¾ÑģÐºÐ¾Ð²":6851,"ÑģÑĤÐ°Ð²Ð»ÐµÐ½":6852,"Ð¸Ð¼Ð°":6853,"ĠÐ²ÑĭÑģÐ¾ÐºÑĥÑİ":6854,"ĠÑģÐ¾Ð±ÑģÑĤÐ²ÐµÐ½Ð½ÑĭÐµ":6855,"ĠÐ±ÐµÐ·ÑĢÐ°Ð±Ð¾ÑĤÐ¸":6856,"ĠÑĢÐ°ÑģÑĪÐ¸ÑĢÐµÐ½Ð¸Ðµ":6857,"Ð¶Ð´ÐµÐ½Ð¸ÐµÐ¼":6858,"Ð²Ð°Ð½Ñĭ":6859,"ĠÐ¸Ð¼Ñı":6860,"ĠÑĢÑĥÑģÑģÐºÐ¾":6861,"ĠÐ½ÐµÐ±Ð»Ð°Ð³":6862,"ÑģÑĤÐ°Ð²Ð»ÑıÐµÑĤÑģÑı":6863,"ĠÑģÑĤÐ°ÑĤÐ¸ÑģÑĤÐ¸ÑĩÐµÑģÐºÐ¸":6864,"ÐµÑĤÐ¸Ð²":6865,"ĠÑıÐ½Ð²Ð°ÑĢÑı":6866,"ĠÐ³Ð¾ÑĢÐ¸":6867,"ĠÐ¿Ð¾ÑĤÐ¾Ð¼":6868,"ĠÑĢÐµÐ°Ð»ÑĮÐ½Ð¾Ð³Ð¾":6869,"Ð¾ÑĨÐ¸":6870,"ĠÐ²ÑĭÑģÐ¾ÐºÐ°Ñı":6871,"ĠÐ¿ÑĢÐ°Ð²Ð¾ÑģÐ»Ð°Ð²":6872,"ĠÐ½ÐµÐ¼Ñĥ":6873,"ĠÑģÑĤÐ°Ð½Ð¾Ð²Ð»ÐµÐ½Ð¸Ñı":6874,"ĠÐĹÐ°Ð¿Ð°Ð´Ð½Ð¾Ð¹":6875,"ĠÐ¾ÐºÐ°Ð·Ð°Ð»Ð°ÑģÑĮ":6876,"ĠÐ¸Ð½ÐºÐ»ÑİÐ·Ð¸Ð²":6877,"ÑģÑģÐµ":6878,"ĠÐµÑģÑĤÐµÑģÑĤÐ²ÐµÐ½Ð½Ð¾":6879,"ĠÑĤÑĢÐµÐ±Ð¾Ð²Ð°Ð½Ð¸ÑıÐ¼":6880,"ÑĢÐ°Ð¶Ð´Ð°Ð½":6881,"ĠÐ½Ð¾Ð²ÑĥÑİ":6882,"ĠÑĦÐ¸Ð»ÑĮ":6883,"ĠÐ¾ÑģÐ»Ð°Ð±":6884,"ĠÑģÐ°Ð¼ÑĭÐµ":6885,"ĠÐ½ÐµÑĥÐ´Ð°":6886,"ÐºÐ¾ÑģÑĤÐ¸":6887,"ĠÐ·Ð°Ð¼ÐµÑĤÐ½Ð¾":6888,"ĠÑĢÐ¾ÑģÑģÐ¸Ð¹ÑģÐºÐ¸Ðµ":6889,"Ð²Ð°ÐµÐ¼Ð¾Ð³Ð¾":6890,"Ð½Ð½ÑĭÐµ":6891,"ĠÐ¸Ð½Ð¾":6892,"ĠÐŁÐµÑĢÐµ":6893,"ĠÑĥÑģÐ¸Ð»Ð¸Ð¹":6894,"ÐºÐ¾Ð²Ð¾Ð¹":6895,"ĠÐĿÐĺ":6896,"ÐŁÐ¾Ð´Ð¾Ð±":6897,"ĠÐ¿ÐµÑĢÑģÐ¾Ð½Ð°Ð»Ð°":6898,"ĠÐ²ÑģÐ¿Ð¾Ð¼":6899,"ĠÑģÐ´Ð°":6900,"ĠÐ·Ð°Ð»":6901,"Ð¿ÑĢÐ¾ÑĨÐµÑģÑģ":6902,"Ð¾ÑĤÐ²ÑĢÐ°":6903,"ĠÐ¸Ð½ÑĤÐµÐ³ÑĢÐ¸":6904,"ÑĦÐ¸Ð½Ð¸":6905,"ĠÐ¿Ð¾Ð·Ð½Ð°Ð½Ð¸Ñı":6906,"ĠÑģÐ»ÐµÐ´Ð¾Ð²Ð°":6907,"ĠÐ²ÐµÑģÑĤÐ¸":6908,"Ð¾Ð»Ð¾Ð³Ð°":6909,"ÑĨÐ¾Ð½":6910,"ĠÐ½Ð°Ð¿Ð¾Ð»":6911,"ĠÑģÐ¾Ð²ÐµÑĤÑģÐºÐ¸Ñħ":6912,"ĠÐ¿ÑĢÐ¸Ð·Ð½Ð°Ð½Ð¸Ñı":6913,"ĠÑĢÐµÑģÐ¿ÑĥÐ±Ð»Ð¸ÐºÐ¸":6914,"ĠÑĢÐµÑĪÐ¸":6915,"Ð¼Ð¾ÑĢ":6916,"ĠÑįÐ½":6917,"ĠÑĥÑģÐ²Ð¾":6918,"ĠÐ°ÑģÐ¿ÐµÐºÑĤ":6919,"ĠÑĢÐµÑĦÐ¾ÑĢÐ¼Ð°":6920,"Ð¾Ð²Ð°ÑĤÑĮÑģÑı":6921,"ĠÑģÐµÐ¼Ð¸":6922,"ĠÑĢÐ°Ð·Ð»Ð¸ÑĩÐ¸Ðµ":6923,"ĠÑįÐ¿":6924,"ĠÐ¢Ð°Ð¼":6925,"ĠÑĤÐµÐ¾ÑĢÐµÑĤÐ¸ÑĩÐµÑģÐºÐ¸Ñħ":6926,"ĠÐ¸Ð³Ð½Ð¾ÑĢÐ¸":6927,"ĠÐ¾Ð±ÑģÑĤÐ¾ÑıÑĤÐµÐ»ÑĮÑģÑĤÐ²Ð¾":6928,"ÑīÐµÐ½Ñĭ":6929,"Ð¼Ð¸Ð½Ð°ÑĨÐ¸Ð¸":6930,"ÑĤÐµÐ»ÑĮÑģÐºÐ¾Ð³Ð¾":6931,"ĠÐ´ÐµÐ»Ð¾Ð²":6932,"ĠÐ´Ð½ÐµÐ¹":6933,"ĠÑįÐºÐ¾Ð½Ð¼Ð¸":6934,"ĠÑĥÑĩÐ°ÑģÑĤÐ²Ð¾Ð²Ð°":6935,"ĠÐ¼Ð½Ð¾Ð³Ð¾Ð¾Ð±ÑĢÐ°Ð·":6936,"Ð¼Ð°Ñħ":6937,"ĠÐ¿ÑĢÐ¸Ð²Ð»ÐµÑĩÐµÐ½Ð¸Ñı":6938,"ĠÐ¾Ð±ÑģÐ»ÐµÐ´":6939,"ÑĢÑĥÑİÑīÐµÐ¹":6940,"ĠÐ°Ð»Ð³Ð¾ÑĢÐ¸ÑĤ":6941,"ĠÑĢÐ°Ð·Ð¼ÐµÑĢÐ°":6942,"ĠÐ½Ð°ÑĪÐµÐ¼Ñĥ":6943,"ĠÐ¸ÑģÐ¿Ð¾Ð»Ð½Ð¸ÑĤÐµÐ»ÑĮÐ½Ð¾Ð¹":6944,"ĠÐ¾ÑģÐ½Ð¾Ð²Ð½Ð¾Ð³Ð¾":6945,"ĠÐ²Ð¾Ð·Ð¼Ð¾":6946,"ĠÐ¼Ð°ÑĤÑĢÐ¸":6947,"ĠÐ½Ð°ÑĩÐ¸Ð½Ð°ÐµÑĤ":6948,"ĠÑĢÐ·ÑĥÐ»ÑĮÑĤÐ°":6949,"ĠÑĥÐ¿Ð»Ð°":6950,"ĠÐºÐ¾Ð½ÑģÑĤÐ¸ÑĤÑĥÑĨÐ¸Ð¾Ð½Ð½ÑĭÑħ":6951,"ĠÐ²Ð¿Ð»Ð¾ÑĤÑĮ":6952,"Ð¸Ð²ÑĪÐ¸Ðµ":6953,"Ð¾Ð»Ð¾Ð³Ð¸ÑĩÐµÑģÐºÐ¾Ð¼":6954,"ĠÐ¾ÑħÑĢÐ°Ð½":6955,"ĠÐ¾Ð±ÑīÐ¸Ð¼":6956,"ĠÑįÑĦÑĦÐµÐºÑĤÐ¸Ð²Ð½Ð¾Ð¹":6957,"ĠÐ¿Ð¾Ð½Ð¸Ð¼Ð°ÐµÑĤÑģÑı":6958,"ĠÑĥÑĤÐ¾Ð¿":6959,"Ð¼Ð¾Ð³Ð¾":6960,"ĠÐºÐ¾Ð½ÑĤÑĢÐ°":6961,"ĠÐ°ÐºÑĨÐ¸Ð¾Ð½":6962,"ĠÑĥÑĩÐ¸Ð»Ð¸":6963,"ĠÐŁÐµÑĤÐµÑĢÐ±ÑĥÑĢ":6964,"ÐŀÐ½Ð°":6965,"ĠÐ¿Ð°ÑĤÑĢÐ¸":6966,"ĠÐ±Ð»Ð°Ð³Ð¾ÑģÐ¾":6967,"ÐĶÐµ":6968,"ĠÐ¿Ð¾ÐºÐ°Ð·Ð°ÑĤÐµÐ»ÑıÐ¼Ð¸":6969,"Ð¼Ð¾ÑĤÑĢÐµÑĤÑĮ":6970,"ĠÑģÑĢÐ¾ÐºÐ°":6971,"ÑģÑĤÐ¸ÑĩÐµÑģÐºÐ¸Ð¹":6972,"ĠÐ¼Ð°ÑĤÐµÑĢÐ¸Ð°Ð»Ðµ":6973,"Ð»ÐµÐ²Ð°Ð½":6974,"ĠÐ¿ÑĢÐ¾Ð²ÐµÑģÑĤÐ¸":6975,"ĠÑĩÐ»ÐµÐ½Ñĭ":6976,"ĠÐľÐ¸":6977,"ĠÑįÐºÐ½Ð¾Ð¼":6978,"ÑĢÐµÐ¼Ñı":6979,"ĠÐ¿Ð¾Ð¿ÑĭÑĤÐºÐ°":6980,"ĠÐ¿Ð¾Ð»Ð½Ð¾ÑĨÐµÐ½":6981,"ĠÐ²Ð¸ÑĢÑĤÑĥÐ°Ð»ÑĮ":6982,"ĠÐ¿ÑĢÐ¾Ð·":6983,"ĠÐ¾ÑĤÐµÑĩÐµÑģÑĤÐ²ÐµÐ½Ð½ÑĭÑħ":6984,"ĠÑģÐ½Ð°":6985,"ĠÐ¼ÐµÐ´Ð¸ÑĨÐ¸Ð½ÑģÐºÐ¾Ð¹":6986,"ĠÐ¼Ð¸Ð½Ð¸ÑģÑĤÐµÑĢ":6987,"ÐµÐ½Ð½ÑĥÑİ":6988,"ĠÐ¾ÑĢÐ³":6989,"ĠÐ¼Ð¸Ð³ÑĢÐ°ÑĨÐ¸Ð¸":6990,"ĠÑĢÐµÑĪÐµÐ½Ð¸Ñİ":6991,"ÑĪÐµÐ¹ÑģÑı":6992,"ĠÐ³ÐµÐ¾Ð¿Ð¾Ð»Ð¸":6993,"ĠÐĴÑĤÐ¾ÑĢÐ¾Ð¹":6994,"ĠÐºÐ°ÐºÐ¾Ð³Ð¾":6995,"Ð³Ð¾Ð»Ð¾Ð²":6996,"ĠÐ¿ÑĢÐ¸Ð´ÐµÑĢÐ¶Ð¸":6997,"ĠÐ¾Ð¿ÐµÑĢÐ°ÑĨÐ¸Ð¹":6998,"ĠÑĢÐ°ÑģÑģÑĥ":6999,"Ð¾ÑĤÑĭ":7000,"ĠÐ°ÑĤÑĢÐ¸Ð±Ñĥ":7001,"ĠÑģÐ²ÐµÐ´ÐµÐ½Ð¸Ð¹":7002,"ĠÐ¾ÑģÐ²Ðµ":7003,"ĠÐ¿Ð¾Ð´Ð¾Ð·":7004,"ĠÐĴÐ¾ÑģÑĤÐ¾ÑĩÐ½Ð¾Ð¹":7005,"ĠÑĥÑģÑĤÑĢÐ¾Ð¹ÑģÑĤÐ²Ð°":7006,"ĠÐ¸Ð¼ÐµÑİÑĤÑģÑı":7007,"ĠÐ³Ð¸Ð¼Ð½Ð°":7008,"ĠÑĩÐµÐ»Ð¾Ð²ÐµÐºÐ¾Ð¼":7009,"ĠÐ¼ÑĥÐ»ÑĮ":7010,"ĠÐ¿Ð¾Ð²ÑĭÑĪÐµÐ½Ð¸Ñİ":7011,"ĠÐ´Ð¾Ð±ÑĢÐ¾Ð²Ð¾Ð»ÑĮ":7012,"ÑģÐ¸ÑģÑĤÐµÐ¼":7013,"ĠÐ¿ÑĢÐµÐ±Ñĭ":7014,"ĠÐ´ÐµÐ½ÑĮÐ³Ð¸":7015,"ĠÑģÐ³Ð»Ð°":7016,"ÐµÑĤÑĢÐ¸":7017,"ĠÐ¾ÐºÐ°Ð·Ð°Ð»Ð¾ÑģÑĮ":7018,"ĠÑĢÑĭÐ½Ð¾ÑĩÐ½Ð¾Ð¹":7019,"Ð·Ðµ":7020,"Ð²Ð°ÐµÐ¼ÑĭÐµ":7021,"ĠÐ»Ð¸Ð½Ð¸Ð¸":7022,"Ð²ÑĪÐ¸ÑģÑĮ":7023,"ĠÐĵÐ»Ð°Ð²":7024,"ĠÐļÐ¾":7025,"ĠÐ¸ÑģÑĤÐ¾ÑĩÐ½Ð¸ÐºÐ¸":7026,"ĠÑĥÐ¼ÐµÐ½Ð¸Ñı":7027,"ĠÐ¸Ð¼ÑĥÑīÐµ":7028,"ĠÑģÑĤÐµÑĢÐµÐ¾ÑĤÐ¸":7029,"ÐµÐ½ÑĤÑĥ":7030,"Ð±Ð¸Ð½Ð°":7031,"ĠÐĶÑĥ":7032,"ĠÑĢÐµÑĪÐ°ÑĤÑĮ":7033,"ÑģÐ¾Ðº":7034,"ĠÐºÐ¾Ð½ÑĨÑĥ":7035,"ĠÐ¾Ð±ÑīÐµÑģÑĤÐ²ÐµÐ½Ð½ÑĭÐµ":7036,"ĠÑģÐ¿ÐµÑĨ":7037,"ĠÐ³Ð¸Ð¿Ð¾ÑĤÐµÐ·Ñĭ":7038,"ĠÑĢÑĥÐºÐ¾Ð²Ð¾Ð´Ð¸ÑĤÐµÐ»ÐµÐ¹":7039,"ĠÐ¸Ð½Ð¸ÑĨÐ¸Ð°ÑĤÐ¸Ð²Ñĭ":7040,"ĠÐ±Ð¾Ð»ÑĮÑĪÐ°Ñı":7041,"ĠÐ¿ÑĢÐ¾Ð¸Ð·Ð²Ð¾Ð´ÑģÑĤÐ²Ðµ":7042,"ĠÐĿÐļ":7043,"ĠÐ½ÐµÑģÐ¾Ð¼":7044,"ĠÐ²ÑĭÑıÐ²Ð»Ñı":7045,"Ð¼ÐµÑĤÐ¸Ð¼":7046,"ĠÐ¿ÑĢÐ¸Ð²Ñı":7047,"ĠÐ¾Ð±ÑīÑĥÑİ":7048,"ĠÐ¸ÑĤÐ¾Ð³Ð¾Ð²":7049,"ĠÐ¿Ð¾Ñį":7050,"Ð¾Ð³ÑĢÐ°ÑĦÐ¸":7051,"ÐºÐ°ÐµÑĤ":7052,"ĠÐ¼Ð°ÑģÑģÐ¾Ð²Ð¾Ð¹":7053,"Ð¾Ð»Ð¾Ð³Ð¾":7054,"ÑĢÐ°Ð·Ð½Ð¾Ð¼Ñĥ":7055,"ĠÐ¾Ð±ÑĢÐ°ÑīÐµÐ½Ð¸Ðµ":7056,"ĠÐºÐ¾Ð½ÑĦÐ»Ð¸ÐºÑĤÐ¾Ð²":7057,"ĠÐ°ÑĢÑħÐµ":7058,"ĠÐ¾Ð¿Ð¾ÑĢ":7059,"ĠÐ¿ÑĢÐ¸Ð¼ÐµÑĢÑĥ":7060,"ĠÐ½ÐµÑĢÐ°Ð·":7061,"ĠÐ¿Ð¾Ð»Ð¸ÑĤÐ¸ÑĩÐµÑģÐºÐ¸Ð¹":7062,"ÑįÑĤÐ½Ð¸":7063,"ĠÐ¿ÑĢÐµÐ´ÑģÑĤÐ°Ð²Ð¸ÑĤÐµÐ»ÑıÐ¼Ð¸":7064,"ĠÑĤÐµÐºÑģÑĤÐ°Ñħ":7065,"ĠÐ²Ð¼ÐµÑģÑĤÐ¾":7066,"ĠÐ´Ð²Ð¾Ð¹":7067,"ĠÐ¿ÑĢÐ¾Ð¸Ð·Ð²ÐµÐ´ÐµÐ½Ð¸Ñı":7068,"ĠÐ¾ÑģÐ¾Ð±Ð¾Ð³Ð¾":7069,"ĠÐµÐ´Ð¸Ð½Ð¾Ð¹":7070,"ĠÑĥÐ²ÐµÐ»Ð¸ÑĩÐµÐ½Ð¸Ñı":7071,"Ð²ÑĪÐ¸Ð¼Ð¸":7072,"Ð±Ð°Ð»":7073,"ĠÐ¡ÐĿ":7074,"ĠÐ°ÐºÑĤÑĥÐ°Ð»Ð¸":7075,"ĠÑĥÑģÑĤÐ°Ð½Ð¾Ð²Ð»ÐµÐ½Ð¸Ðµ":7076,"ĠÑģÐ¾Ð²ÐµÑĢÑĪÐµÐ½Ð¸Ñı":7077,"ĠÐ¿ÐµÐ´Ð°Ð³Ð¾Ð³":7078,"ĠÐ²ÐµÑīÐµÐ¹":7079,"ĠÐ²Ð½ÐµÐ´ÑĢÐµÐ½Ð¸Ñı":7080,"ÑĢÐ¾Ð²Ð°Ð½Ð½ÑĭÐ¼Ð¸":7081,"ĠÑģÐ¿ÐµÑĨÐ¸Ð°Ð»Ð¸Ð·Ð¸":7082,"ĠÐ³ÑĢÐ°Ð¶Ð´Ð°Ð½ÑģÐºÐ¾Ð¹":7083,"ÑĢÐ½Ð¾Ð³Ð¾":7084,"ĠÐ·Ð°ÐºÐ¾Ð½Ñĭ":7085,"ĠÑģÐ»ÐµÐ´ÑģÑĤÐ²Ð¸ÐµÐ¼":7086,"ĠÐ¾ÐºÐ°Ð·Ð°Ð»ÑģÑı":7087,"ĠÐ²Ð»Ð°ÑģÑĤÑĮÑİ":7088,"ĠÐ²Ð²ÐµÐ´ÐµÐ½":7089,"ĠÐ¾ÑģÐ¾Ð±ÑĭÐ¹":7090,"ĠÑģÑĤÑĥÐ´ÐµÐ½ÑĤÐ°Ð¼Ð¸":7091,"ĠÑĢÑĭÐ½ÐºÐ°Ñħ":7092,"ĠÐ²Ð»Ðµ":7093,"Ð°Ð¼ÐµÑĤ":7094,"ĠÐ½ÐµÐ¾Ð±ÑħÐ¾Ð´Ð¸Ð¼Ð¾ÑģÑĤÑĮÑİ":7095,"ĠÑģÐµÐºÑģÑĥ":7096,"ĠÐ·Ð½Ð°ÑĩÐµÐ½Ð¸ÐµÐ¼":7097,"Ð¾Ð¿ÑĭÑĤ":7098,"ĠÐľÐµ":7099,"ĠÐľÐ¸Ð½":7100,"ĠÐ´Ð°Ð½Ð½Ð¾Ð¼Ñĥ":7101,"ĠÑĢÐµÐ»Ð¸Ð³Ð¸Ð¸":7102,"ĠÐ¿ÑĢÐµÐ´Ð¾Ð¿ÑĢÐµÐ´Ðµ":7103,"ĠÐ¾ÐºÐ°Ð·ÑĭÐ²Ð°ÑİÑĤ":7104,"ÑĢÐ°Ð½Ð¸ÑĤÑĮ":7105,"ĠÐ¼Ð¸ÑĦ":7106,"ĠÑģÑĢÐµÐ´Ð½Ð¸Ð¹":7107,"ĠÐ¼ÐµÐ½ÑĮÑĪÐµÐ¹":7108,"ĠÐ°ÑĢÑħÐ¸Ð²":7109,"Ð½Ð¾Ðº":7110,"ĠÐ²ÑĢÑıÐ´":7111,"ĠÑĤÐ¾ÑĩÐ½Ð¾":7112,"Ð²ÐµÐ»Ð¸":7113,"ĠÑĥÐ½Ð¸Ð²ÐµÑĢÑģÐ¸ÑĤÐµÑĤÑĭ":7114,"ĠÑģÐ¿ÐµÑĨÐ¸Ð°Ð»ÑĮÐ½Ð¾":7115,"ĠÐ¾Ð±Ð»Ð°ÑģÑĤÑıÑħ":7116,"ĠÐ¿ÑĢÐ¸Ð¿":7117,"Ð¾Ð»Ð¾Ð³Ð¸ÑĩÐµÑģÐºÑĥÑİ":7118,"ĠÑģÐ¾Ð¾Ð±ÑīÐµÐ½Ð¸Ñı":7119,"ĠÑĤÑĢÐ°ÐµÐºÑĤÐ¾ÑĢÐ¸":7120,"ĠÐ¿ÑĢÐ¾ÑĤÐ¸Ð²Ð¾Ð´":7121,"ĠÐ°ÐºÑĤ":7122,"ÑĢÐ¾Ð²Ð°Ð»Ð°":7123,"ĠÐ±ÑĥÐ´ÑĥÑīÐ¸Ñħ":7124,"ĠÐ±ÐµÐ»":7125,"ĠÐ´Ð¸ÑģÑģÐµÑĢ":7126,"ĠÑĢÐ¾ÑģÑĤÑĥ":7127,"Ð¾Ð²ÑĭÐ¼Ð¸":7128,"ĠÐ¿ÑĢÐ¸Ð½":7129,"ĠÑĢÐ°ÑģÑģÐ¼Ð°ÑĤÑĢÐ¸Ð²Ð°ÑĤÑĮÑģÑı":7130,"ĠÐ±Ð¾Ð»ÑĮÑĪÐµÐ²Ð¸":7131,"ĠÑģÐ¿ÐµÑĨÐ¸ÑĦÐ¸ÐºÑĥ":7132,"Ð¸ÑģÐ¿Ð¾Ð»":7133,"ĠÐĴÐ»Ð°Ð´Ð¸":7134,"Ð¡Ðļ":7135,"ĠÐ²Ð·ÑıÑĤ":7136,"Ð¡ÑĤ":7137,"ÑĢÐµÐ½Ð´":7138,"ÐĶÐ°Ð½Ð½ÑĭÐµ":7139,"Ð¸ÑĤÐµÐ»ÑĮÐ½Ð¾ÑģÑĤÑĮ":7140,"ĠÑĥÐ±Ñĭ":7141,"ĠÐ¿ÑĢÐ¾Ð²ÐµÐ´ÐµÐ½Ð¸Ð¸":7142,"ĠÐ¼ÑĥÐ½Ð¸ÑĨÐ¸Ð¿Ð°Ð»ÑĮÐ½ÑĭÑħ":7143,"ĠÐ´ÐµÑĦ":7144,"ĠÐ²Ð°Ð¶Ð½ÑĥÑİ":7145,"ÑĥÐ¼ÐµÐµÑĤÑģÑı":7146,"ĠÐ³Ð¾ÑĢÐ¾Ð´ÑģÐºÐ¾Ð³Ð¾":7147,"ĠÐ²ÑħÐ¾Ð´Ð¸ÑĤ":7148,"ĠÑģÑĤÐ°Ð±Ð¸Ð»ÑĮÐ½Ð¾ÑģÑĤÐ¸":7149,"ĠÑģÐ¾ÐºÑĢÐ°ÑīÐµÐ½Ð¸Ðµ":7150,"ĠÐ¸Ð³ÑĢÐ¾Ðº":7151,"ĠÑħÐ¾ÑĤ":7152,"ĠÑģÐ¾ÑģÑĤÐ°Ð²Ð»ÑıÑİÑīÐµÐ¹":7153,"ĠÐ½Ð°ÑĨÐµ":7154,"ĠÑģÐµÐ¼ÑĮÐµ":7155,"ĠÐ½Ð¸Ð·ÐºÐ¾Ð¹":7156,"ĠÐ»Ð¸ÑĨÐµ":7157,"ĠÐ¾ÑģÐ¾Ð±Ð¾":7158,"ÑĩÑĤÐ¸":7159,"ĠÐ»Ð¸ÑĨÐ¾Ð¼":7160,"ĠÐ¿Ð¾Ð·Ð²Ð¾Ð»Ð¸Ð»Ð¾":7161,"Ð²Ð¸Ð´Ð¸Ð¼Ð¾Ð¼Ñĥ":7162,"Ð¾Ð²Ð°Ð½Ð½Ð¾Ð¹":7163,"ĠÐ£ÐŁÐļ":7164,"ĠÑĢÐ°Ð±Ð¾ÑĤÐ¾Ð¹":7165,"Ð±Ð¾Ð²":7166,"ĠÐ¾Ð±ÑĪÐ¸ÑĢ":7167,"ĠÑĢÐ°Ð½ÑĮ":7168,"ĠÐ·Ð°Ð¼ÐµÑĤÐ¸ÑĤÑĮ":7169,"ĠÑĢÐ°Ð½ÑĮÑĪÐµ":7170,"ĠÑĢÑĭÐ½ÐºÐ¾Ð²":7171,"ĠÐ³ÑĢÐ°Ð½":7172,"ĠÑģÑĢÐµÐ´Ð½Ð¸Ñħ":7173,"ĠÐ²ÑĭÑģÑĪÐµÐ¹":7174,"ĠÑįÐ¿Ð¾ÑħÑĥ":7175,"ĠÑģÑĤÑĢÐ¾Ð³Ð¾":7176,"ĠÐ·Ð´ÑĢÐ°Ð²Ð¾Ð¾ÑħÑĢÐ°Ð½ÐµÐ½Ð¸Ñı":7177,"ĠÐ¾ÑĤÐ´ÐµÐ»ÑĮÐ½Ð¾Ð³Ð¾":7178,"ĠÐ½Ð°Ð·Ð½Ð°ÑĩÐµÐ½Ð¸Ñı":7179,"Ð½Ð¾Ð»ÐµÑĤ":7180,"ĠÐ¿ÐµÑĢÐµÑģÑĤÐ°":7181,"ĠÑģÐ¿Ð¾ÑģÐ¾Ð±Ð½Ð¾ÑģÑĤÐµÐ¹":7182,"ÑħÐµ":7183,"ĠÑģÐ²ÐµÑĢÑģÑĤ":7184,"Ð²Ð»ÑıÐµÑĤ":7185,"ÑģÐ»Ð°":7186,"ĠÐ¿ÑĢÐµÐ´Ð¾ÑĤÐ²ÑĢÐ°":7187,"ĠÑĥÑģÐ»Ð¾Ð²Ð¸ÐµÐ¼":7188,"ĠÐ¾Ð±ÑīÐµÐ¾Ð±ÑĢÐ°Ð·Ð¾Ð²Ð°":7189,"ĠÑĥÐ´Ð¾Ð±":7190,"ĠÑĢÐ°ÑģÑħÐ¾Ð´Ñĭ":7191,"ĠÐŁÑĥ":7192,"ĠÐ¿ÐµÐ´Ð°Ð³Ð¾Ð³Ð¸ÑĩÐµÑģÐºÐ¸Ñħ":7193,"ÑħÐ¾Ð¼":7194,"ĠÐŀÑģ":7195,"ĠÑģÐ°Ð¼Ð¾ÑĢÐµ":7196,"ĠÐ½Ð°ÑĩÐ°Ð»":7197,"ĠÑģÑĤÑĢÑĥÐºÑĤÑĥÑĢÐ¸":7198,"ÑĢÐ¾Ð²ÐµÑĢ":7199,"ĠÐ·Ð°ÐºÐ°Ð·":7200,"ĠÐºÑĥÐ»ÑĮÑĤÑĥÑĢÐ½Ð¾":7201,"ĠÐ¿Ð¾Ð¿Ð°Ð´Ð°":7202,"ÑĢÐ°Ð´Ð¸":7203,"ĠÐ¾ÑĤÐ´ÐµÐ»ÑĮÐ½Ð¾":7204,"ĠÑģÑĩÐ¸ÑĤÐ°ÐµÑĤÑģÑı":7205,"ĠÑĤÐ°ÐºÑĥÑİ":7206,"ĠÐ¿ÑĢÐ¸Ð½ÑĨÐ¸Ð¿Ðµ":7207,"ĠÑĢÐµÐ°ÐºÑĨÐ¸Ð¸":7208,"ĠÐ¿ÑĢÐ¸Ð²":7209,"ĠÑĢÐ°Ð·Ð³Ð¾Ð²Ð¾ÑĢ":7210,"ĠÑĦÐµÐ´ÐµÑĢÐ°Ð»ÑĮÐ½ÑĭÑħ":7211,"ĠÑĢÑĥÐºÐ¾Ð²Ð¾Ð´ÑģÑĤÐ²Ð¾":7212,"ĠÑĨÐµÐ½ÑĤÑĢÐ¾Ð²":7213,"ÐºÐ¾Ð³":7214,"ÑģÑĤÑģÐºÐ¸Ñħ":7215,"ĠÑģÐ±Ð¾ÑĢÐ°":7216,"ĠÑĪÐºÐ¾Ð»Ñĥ":7217,"ĠÑģÐ¿ÑĢÐ°Ð²ÐµÐ´Ð»Ð¸":7218,"ÐŁÐµÑĢÐµ":7219,"ĠÐºÐ¾Ð¼Ð°Ð½":7220,"ĠÐ¿ÑĢÐµÐ´ÑĬÑıÐ²Ð»Ñı":7221,"ĠÐµÐ´Ð¸Ð½Ð¸":7222,"ĠÐ¿ÑĢÐ¸Ð½ÑıÑĤÐ¸Ð¸":7223,"Ð´Ð°Ð½Ð¸Ñı":7224,"Ð¶ÐµÐ±":7225,"ĠÑĦÑĥÐ½ÐºÑĨÐ¸Ñı":7226,"ĠÐĴÑĭÑģ":7227,"ĠÐ´ÐµÐ¼Ð¾Ð½ÑģÑĤÑĢÐ¸ÑĢÑĥÑİÑĤ":7228,"ÑĤÐµÐ»ÑĮÐ½Ð¾Ð¼Ñĥ":7229,"ĠÐ²Ð¾Ð¹Ð½Ðµ":7230,"ĠÑĤÑĢÑĥÐ´Ð¾Ð²Ð¾Ð³Ð¾":7231,"ÑĤÐ°ÑĨÐ¸Ñı":7232,"ĠÑįÐ»ÐµÐ¼ÐµÐ½ÑĤ":7233,"ĠÐ¾Ð±Ð°":7234,"ÑģÐºÐ¾Ð²":7235,"ĠÐ´Ð¾ÑĪÐºÐ¾Ð»ÑĮÐ½Ð¾Ð³Ð¾":7236,"Ð»ÐµÐ½Ð½Ð¾Ð¼":7237,"Ð½Ð°Ð½ÑģÐ¾Ð²":7238,"ĠÐ½ÐµÐ¾Ð±ÑħÐ¾Ð´Ð¸Ð¼ÑĭÐµ":7239,"ĠÐ¾Ð±ÑĬÐµÐ¼Ðµ":7240,"ĠÐ¿ÑĥÐ±Ð»Ð¸ÑĩÐ½ÑĭÑħ":7241,"ĠÐ³Ð¾ÑĢÐ¸Ð·Ð¾Ð½":7242,"ĠÑįÑĦÑĦÐµÐºÑĤÐ¸Ð²Ð½Ð¾":7243,"ĠÑĥÐ²Ð¸Ð´ÐµÑĤÑĮ":7244,"ÑİÑīÐµÐ¼Ñĥ":7245,"ĠÐ¿Ð¾ÑģÐ»ÐµÐ´Ð½ÐµÐ³Ð¾":7246,"ĠÑģÐ°Ð¼Ð¾Ð¾ÑĨÐµÐ½":7247,"ÐŁÐ¾ÑģÐ»ÐµÐ´":7248,"ĠÐ¸Ð½ÑĦÐ¾ÑĢÐ¼Ð°ÑĨÐ¸Ð¾Ð½Ð½ÑĭÑħ":7249,"ĠÐ¸Ð·ÑĬ":7250,"ÑģÐ°Ð¹":7251,"ĠÐºÐ¾Ð½ÑĨÐµÐ¿ÑĨÐ¸Ñı":7252,"ĠÐ¾ÑĤÑħÐ¾Ð´":7253,"ĠÐºÐ¾Ð»Ð¾Ð½Ð¸":7254,"ĠÑıÐ²Ð¸":7255,"ĠÐ¾Ð±ÑīÐµÑģÑĤÐ²Ð¾Ð¼":7256,"ĠÐ³Ð¾ÑĤÐ¾Ð²Ð½Ð¾ÑģÑĤÐ¸":7257,"ÐŀÐ´Ð½Ð¸Ð¼":7258,"ĠÐ²ÑĤÐ¾ÑĢÐ¸":7259,"ÑĢÐ¾Ð²ÐºÐ°":7260,"Ð¾Ð²Ð°Ð½Ð°":7261,"Ð¾ÐºÐ¾Ð½":7262,"ĠÐ¾Ð¿ÐµÑĢÐ°ÑĨÐ¸Ð¸":7263,"ĠÐ²ÐµÑĤ":7264,"ĠÐŁÐ¾ÑģÐºÐ¾Ð»ÑĮÐºÑĥ":7265,"ĠÐ²ÑĭÑħÐ¾Ð´Ð°":7266,"Ð¼Ð¾ÑĤÑĢ":7267,"ÑĢÐ¾Ð´Ð°":7268,"ĠÐ·Ð½Ð°ÑĩÐ¸ÑĤÐµÐ»ÑĮÐ½Ð¾Ðµ":7269,"ĠÐ¿ÑĢÐ¾ÑģÑĮ":7270,"ĠÐ¿ÑĢÐ¾Ð¸ÑģÑħÐ¾Ð¶Ð´ÐµÐ½Ð¸Ñı":7271,"ÑĥÑİÑīÑĥÑİ":7272,"ĠÑĢÐ¾Ð´ÑģÑĤÐ²ÐµÐ½":7273,"ĠÑĦÐµÐ½Ð¾Ð¼ÐµÐ½Ð°":7274,"ĠÑĢÐµÐºÐ¾Ð¼ÐµÐ½Ð´Ð°":7275,"ĠÐºÐ°Ð¼Ð¿Ð°":7276,"ĠÑĢÐ°ÑģÑģÐ¼Ð°ÑĤÑĢÐ¸Ð²Ð°ÐµÑĤ":7277,"ĠÐĵÐ°":7278,"ĠÐ½Ð°ÐºÐ¾Ð½ÐµÑĨ":7279,"ĠÐĲÐº":7280,"ĠÐ²Ð¾ÐµÐ½Ð½Ð¾":7281,"ĠÐ²Ð²Ð¸Ð´Ñĥ":7282,"ĠÐŁÐ¾ÑģÐ»ÐµÐ´":7283,"ĠÐºÐ»Ð°ÑģÑĤÐµ":7284,"ĠÐ·Ð°Ð²ÐµÐ´ÐµÐ½Ð¸Ð¹":7285,"Ð¾ÑĢÐ¼Ð°":7286,"ĠÑĥÑĢÐµÐ³ÑĥÐ»Ð¸":7287,"ĠÑģÑĢÐ°Ð²Ð½Ð¸ÑĤÐµÐ»ÑĮÐ½Ð¾":7288,"ÑĢÑĥÐµÐ¼ÑĭÑħ":7289,"ĠÐ¿ÑĢÐ°ÐºÑĤÐ¸ÑĩÐµÑģÐºÐ¾Ð¹":7290,"Ð¡Ð¤":7291,"ĠÑĢÐ°ÑģÑģÐ¼Ð¾ÑĤÑĢÐµÐ½Ð¸Ð¸":7292,"ĠÑĦÐ¾ÑĢÐ¼Ð°Ð»ÑĮÐ½Ð¾":7293,"ĠÐºÐ¾ÑĢÐ¿ÑĥÑģÐ°":7294,"ĠÑģÑĤÐ°ÑĤÑĮÑı":7295,"ĠÐ¸Ð´":7296,"ĠÐ½Ð°Ð³Ð»ÑıÐ´":7297,"Ð¶Ð½Ð¾Ð³Ð¾":7298,"ĠÐłÐĲÐĿ":7299,"ĠÐĲÑĦÑĢÐ¸":7300,"ĠÐºÐ¾Ð½ÐºÑĢÐµ":7301,"ĠÑĩÑĥÐ¶":7302,"ĠÑįÐºÐ·":7303,"ÑĩÐµÐ½Ð½Ð¾Ð³Ð¾":7304,"ĠÑģÑĭÑĢ":7305,"ĠÑĢÐ¾ÑģÑĤÐ¾Ð¼":7306,"ĠÐĴÐµÐ»Ð¸":7307,"ÑĩÐ¸Ðº":7308,"ĠÑĥÑģÑĤÐ°Ð½Ð¾Ð²Ð¾Ðº":7309,"ĠÑĢÐµÐ»Ð¸Ð³Ð¸Ð¾Ð·Ð½ÑĭÑħ":7310,"ĠÐ¥Ð°":7311,"Ð·ÑĭÐ²":7312,"ÑĤÐ¾Ðµ":7313,"ĠÐĲÐ½Ð´":7314,"ĠÐ²Ð·Ð°Ð¸Ð¼Ð¾Ð¾ÑĤÐ½Ð¾ÑĪÐµÐ½Ð¸Ð¹":7315,"ĠÐ´Ð¾ÐºÐ°Ð·ÑĭÐ²Ð°":7316,"ĠÐ½Ð¸Ð¶":7317,"ĠÐ¿Ð°ÑĢÐ»Ð°Ð¼ÐµÐ½ÑĤ":7318,"ĠÐ¼ÑĥÑģÑĥÐ»ÑĮ":7319,"ÑģÑĤÐ¸ÑĤÑĮ":7320,"ĠÑĢÐ¸ÑĤÐ¾ÑĢÐ¸":7321,"ĠÐ³ÑĢÐ°Ð¶Ð´Ð°Ð½ÑģÐºÐ¸Ñħ":7322,"ĠÑĢÑĥÐ±ÐµÐ¶Ð¾Ð¼":7323,"ĠÐ¿Ð¾ÑħÐ¾Ð´":7324,"Ð³Ð°Ð»":7325,"ĠÐ¸Ð·Ð±Ñĭ":7326,"ĠÐĺÑĤÐ°":7327,"ĠÐ´ÐµÑĤÐµÐ»ÑĮÐ½Ð¾ÑģÑĤÐ¸":7328,"ĠÑģÐ¾Ð³Ð»Ð°ÑģÐ¸Ñı":7329,"ÑĤÐµÑĤÐ¾Ð²":7330,"ĠÑģÐ°Ð¼Ð¾Ðµ":7331,"Ð¾Ð»Ð¾Ð³Ð¸ÐµÐ¹":7332,"Ð·Ð¸Ð°ÑĤ":7333,"ĠÐ¾ÑĤÑģÑĥÑĤÑģÑĤÐ²ÑĥÑİÑĤ":7334,"ĠÑĢÑĥÐºÐ¾Ð²Ð¾Ð´ÑģÑĤÐ²Ð¾Ð¼":7335,"ĠÐ¿ÐµÑĢÐ²ÑĭÐ¼":7336,"ÑģÑĥÑĤÑģÑĤÐ²Ð¸Ðµ":7337,"ÑĤÐ°ÐºÐ¸":7338,"ĠÐ¿Ð¾ÑĢÑĤÑĦÐµ":7339,"ĠÐ¿Ð¾ÑģÑĤÑģÐ¾Ð²ÐµÑĤ":7340,"ĠÐ¸Ð·Ð´Ðµ":7341,"ĠÐ¾Ð¿ÑĢÐµÐ´ÐµÐ»ÐµÐ½Ð½ÑĭÐ¼":7342,"ĠÑĨÐµÐ½ÑĤÑĢÐµ":7343,"ÑīÐµÐ½Ð½ÑĭÑħ":7344,"ĠÑĢÐ°ÑģÑģÐ¼Ð¾ÑĤÑĢÐµÐ½Ð¸Ðµ":7345,"ĠÐ°ÑģÐ¿ÐµÐºÑĤÐ¾Ð²":7346,"ĠÐ´Ð¾ÑģÑĤÐ¾":7347,"ĠÐºÐ¾Ð¼Ð¿Ð¾Ð½ÐµÐ½ÑĤ":7348,"Ð·ÐµÑĢ":7349,"Ð¾ÑĢÐ¾Ð¶":7350,"ĠÑĢÐµÐ°Ð»ÑĮÐ½ÑĭÑħ":7351,"ĠÐ·Ð°Ð¿Ð¾Ð»":7352,"Ð»Ð¾Ðµ":7353,"ĠÑģÐ¾Ð¿ÑĢÐ¾ÑĤÐ¸Ð²":7354,"ĠÑģÐ¿Ð¾ÑģÐ¾Ð±Ð½Ñĭ":7355,"ĠÐ¿Ð¾Ð´Ð²ÐµÑĢÐ³":7356,"ĠÐĿÐ°Ð¸Ð±Ð¾Ð»ÐµÐµ":7357,"ÑģÐ¸Ñİ":7358,"ĠÐĴÐµÐ½":7359,"ĠÐ¸Ð·Ð¼ÐµÐ½Ñı":7360,"ĠÑģÑĥÐ´Ð¾Ð¿ÑĢÐ¾Ð¸Ð·Ð²Ð¾Ð´ÑģÑĤÐ²Ð°":7361,"ĠÐ°Ð³ÑĢÐ°":7362,"Ð¾ÐºÐ¾":7363,"ĠÑĥÐ³Ð»ÑĥÐ±":7364,"ÑĢÐ¾Ð²Ð°Ð»Ð°ÑģÑĮ":7365,"ĠÐºÐ¾Ð³Ð¾":7366,"ĠÑĩÐ¸ÑģÑĤ":7367,"ĠÐ¿ÑĢÑıÐ¼Ð¾Ð¹":7368,"ĠÐ¸Ð½ÑĭÐ¼Ð¸":7369,"ĠÑĢÐµÐ·ÐºÐ¾":7370,"ĠÐ»Ð¸ÑĩÐ½Ð¾Ð³Ð¾":7371,"ĠÐ´ÐµÐ¼Ð¾Ð³ÑĢÐ°ÑĦÐ¸ÑĩÐµÑģÐº":7372,"ĠÐ¼Ð¾Ð½Ð¸ÑĤÐ¾ÑĢÐ¸Ð½Ð³Ð°":7373,"ĠÐ²Ð°ÑĢÑĮÐ¸":7374,"Ð¾Ð¼Ð¾":7375,"ĠÐ´Ð¸ÑĦÑĦÐµÑĢÐµÐ½ÑĨÐ¸":7376,"ÑįÐ½":7377,"ĠÐ±Ð¾Ð»ÑĮÑĪÐ¸Ð¼":7378,"Ð¡Ðµ":7379,"ĠÐ·Ð½Ð°ÑĩÐ¸Ð¼ÑĭÐµ":7380,"ÑĢÐºÑĥ":7381,"ÑģÑİÐ´Ð°":7382,"Ð¾ÑħÑĢÐ°Ð½Ð¸":7383,"ĠÐ¾ÑĢÑĦ":7384,"Ð½ÐµÐ²ÐµÐº":7385,"ĠÐ´Ð°Ð²Ð½Ð¾":7386,"ÐŃÐº":7387,"ĠÐ½Ð¾ÑĢÐ¼Ð°ÑĤÐ¸Ð²Ð½Ð¾":7388,"ĠÑģÐ°Ð¹":7389,"ĠÐ´ÐµÐ¹":7390,"ĠÐ¿Ð»Ð°Ð½Ð¸ÑĢÐ¾Ð²Ð°Ð½Ð¸Ñı":7391,"ĠÐ¼Ð¸Ð½":7392,"ÑĢÑĭÐ²Ð°":7393,"ĠÑģÐ¾Ð¿Ð¾ÑģÑĤÐ°Ð²Ð¸":7394,"Ð´Ð°Ð¼Ð¸":7395,"ÑĢÐ°Ð²Ð½Ð¸":7396,"ĠÐ´Ð¸ÑģÐºÑĥÑĢÑģ":7397,"ĠÑģÑĤÐ°ÑĤÐ¸ÑģÑĤÐ¸ÐºÐ¸":7398,"ĠÐ´Ð¸ÑģÐºÑĥÑĢÑģÐ¸Ð²":7399,"ÐŀÑĩÐµÐ²Ð¸Ð´Ð½Ð¾":7400,"ÐºÑĢÐ¸":7401,"ĠÐ°ÐºÑĤÐ¾ÑĢÐ¾Ð²":7402,"Ð¸ÑģÑĤÐµÐ¼":7403,"ĠÐ¿ÑĢÐ¾ÐºÑĥ":7404,"ÑĳÑĤ":7405,"ĠÐ°Ð´ÑĢÐµÑģ":7406,"ĠÐĶÐ¸":7407,"ĠÐ²Ð·ÑĢÐ¾ÑģÐ»ÑĭÑħ":7408,"ÐŁÐ¾Ð¼Ð¸Ð¼Ð¾":7409,"Ð¦ÐµÐ»ÑĮ":7410,"ĠÑģÐµÑĤÑĮ":7411,"ĠÐ³Ð¾Ð»Ð¾Ð²":7412,"ĠÑĢÐ°Ð·Ð±Ð¸ÑĢÐ°":7413,"ĠÑįÐºÑģÐ¿Ð»Ñĥ":7414,"ĠÐ¿ÐµÐ´Ð°Ð³Ð¾Ð³Ð¸ÑĩÐµÑģÐºÐ¾Ð¹":7415,"ÑģÑħÐ¾Ð´Ñı":7416,"Ð¸Ð·Ð¼Ð°":7417,"ĠÑģÑĥÐ±ÑĬÐµÐºÑĤÐ¾Ð¼":7418,"ÑįÐºÐ¾Ð½Ð¾Ð¼Ð¸ÑĩÐµÑģÐºÐ¾Ð¹":7419,"ĠÑģÑĥÐ¼Ð¼Ñĭ":7420,"ĠÑĥÐ½Ð¸ÑĩÑĤ":7421,"ĠÐ¸Ð´ÐµÑİ":7422,"ĠÐ¿ÑĢÐµÐ´Ð¿ÑĢÐ¸Ð½Ñı":7423,"ĠÐºÐ¾Ð½ÐºÑĢÐµÑĤÐ½ÑĭÐµ":7424,"ĠÐ½Ð¸Ð·ÐºÐ¸Ð¼":7425,"ĠÐ¾Ð´Ð½Ð¾Ð¼Ñĥ":7426,"ĠÐ¸Ð½Ð½Ð¾Ð²Ð°ÑĨÐ¸Ð¾Ð½Ð½Ð¾Ð¹":7427,"ĠÑĤÐµÑĢÑı":7428,"ĠÐ¿Ð¾Ð¿ÑĭÑĤÐ°":7429,"ĠÑģÐ´ÐµÐ»Ð¾Ðº":7430,"ĠÐºÐ¾Ð¼Ð¿Ð¾Ð½ÐµÐ½ÑĤÑĭ":7431,"ĠÐ³ÑĢÑĥ":7432,"ÑīÐ°ÑĤÑĮÑģÑı":7433,"ĠÑĥÑģÑĤÐ¾Ð¹ÑĩÐ¸Ð²Ð¾Ð³Ð¾":7434,"ĠÐ²Ð·ÑĢÐ¾ÑģÐ»":7435,"ĠÐ¿ÑĢÐµÐ´Ð¿Ð¸ÑģÐ°":7436,"ĠÐĴÐ¾Ð¿ÑĢÐ¾Ñģ":7437,"ĠÐ»Ð¸ÑĩÐ½ÑĭÑħ":7438,"Ġ2":7439,"ĠÑĢÐ°Ð·Ð»Ð¸ÑĩÐ½ÑĭÐ¼":7440,"ĠÑģÐ¾Ð¾ÑĤÐ²ÐµÑĤÑģÑĤÐ²Ð¸Ðµ":7441,"ĠÐºÐ¾Ð¼Ð¼ÑĥÐ½Ð¸ÐºÐ°ÑĤÐ¸Ð²Ð½Ð¾Ð¹":7442,"ĠÐ¼ÑĭÑģÐ»ÑĮ":7443,"ĠÑģÑĢÐµÐ´ÑģÑĤÐ²Ð¾Ð¼":7444,"ĠÐ¡ÐŁ":7445,"ĠÐºÐ¾Ð½ÑĨÐµÐ½ÑĤÑĢÐ°":7446,"ĠÐºÐ¾Ð»Ð»ÐµÐ´":7447,"ĠÐ¿ÑĢÐ¾Ð°Ð½Ð°Ð»Ð¸Ð·Ð¸":7448,"ÑĪÐµÐ½Ñĭ":7449,"ĠÐ½Ð°Ð·Ð²Ð°Ð½Ð¸Ñı":7450,"ĠÐ³ÑĢÑĥÐ¿Ð¿Ð°Ð¼Ð¸":7451,"ĠÐ¿ÑĢÐ¸Ð²Ð¸":7452,"Ð½Ð¸Ð·Ð¼":7453,"ĠÑģÑĤÐµÐ¿ÐµÐ½ÑĮÑİ":7454,"ÑĢÐ°ÑīÐ¸":7455,"ĠÑģÑĤÐ°Ð²ÐºÐ¸":7456,"ĠÐ±Ð°Ð½ÐºÐ¸":7457,"ĠÐ¼Ð°ÑĢÑĤÐ°":7458,"ĠÐ´Ð¾Ð»Ð³Ð¾Ð²":7459,"ĠÐ¾Ð±ÑĬÐµÐ´Ð¸Ð½Ñı":7460,"ĠÐ¸Ð·Ð±ÐµÐ¶Ð°ÑĤÑĮ":7461,"ÑģÑĤÐ¾ÑıÐ½Ð¸Ðµ":7462,"Ð¿Ð¾Ð»Ð¸ÑĤÐ¸ÑĩÐµÑģÐºÐ¾Ð¹":7463,"Ð±ÑĢÐµ":7464,"Ð½ÐºÐ¾Ð²":7465,"ĠÐ±Ð¾Ð»ÑĮÑĪÐ¸Ñħ":7466,"ĠÐ½Ð¾ÑĢÐ¼Ð°Ð¼Ð¸":7467,"ĠÐ¿ÑĢÐ°Ð²Ð¸ÑĤÐµÐ»ÑĮ":7468,"Ð¾Ð»Ð¾ÑĤ":7469,"ĠÐ»Ð¸ÑĨÐµÐ½":7470,"ĠÑģÑĭÐ³ÑĢÐ°":7471,"ĠÑģÑĨÐµÐ½Ð°":7472,"ĠÐ½ÐµÐ¼Ð½Ð¾Ð³Ð¾":7473,"ĠÐ´Ð¸Ð½Ð°Ð¼Ð¸ÐºÐ°":7474,"ĠÐ½ÐµÐ¸Ð·Ð±ÐµÐ¶Ð½Ð¾":7475,"ĠÐºÐ°Ð½":7476,"ĠÐ¾ÑĤÑĩÐ°ÑģÑĤÐ¸":7477,"ĠÑģÑĢÐµÐ´Ð°":7478,"ÑģÑģÐ¸Ð¾Ð½":7479,"ĠÐ´ÐµÐ¹ÑģÑĤÐ²Ð¾Ð²Ð°ÑĤÑĮ":7480,"ĠÐ²ÑĭÑģÑĪÐ¸Ñħ":7481,"ĠÐ¿ÑĢÐ¾ÑĤÐ¸Ð²Ð¾Ð´ÐµÐ¹ÑģÑĤÐ²":7482,"ĠÐ¸ÑģÑĩÐµÑĢ":7483,"ĠÑĢÐµÑģÑĥÑĢÑģ":7484,"ĠÐŁÐ°ÑĢ":7485,"ÑĤÑĢÑĥ":7486,"ĠÐ³ÐµÐ¾Ð³ÑĢÐ°ÑĦÐ¸ÑĩÐµÑģÐº":7487,"ĠÐ¿Ð¾ÑıÐ²Ð»ÐµÐ½Ð¸Ñı":7488,"ĠÐ±ÑĥÐ´ÑĥÑĩÐ¸":7489,"ĠÑĢÐ°Ð·Ð»Ð¸ÑĩÐ°ÑİÑĤÑģÑı":7490,"ĠÐºÐ¾Ð¼Ð¼ÐµÐ½ÑĤÐ°":7491,"ĠÐ¿ÑĢÐ¸ÑĩÐ¸Ð½Ð°Ð¼":7492,"ĠÐºÐ¾Ð¼Ð¿ÐµÑĤÐµÐ½ÑĤÐ½Ð¾ÑģÑĤÐ¸":7493,"ĠÑĩÐ°ÑģÐ¾Ð²":7494,"ĠÐ¿Ð¾ÑģÐ²ÑıÑīÐµÐ½Ð½ÑĭÑħ":7495,"ÑĢÐ½Ð¾Ð¹":7496,"ĠÐ±Ð°Ðº":7497,"ĠÐ¾ÑĨÐµÐ½Ð¾":7498,"ĠÐ¿ÑĢÐ¾ÑģÐ»ÐµÐ¶Ð¸":7499,"ĠÐ²ÑĭÐ±Ð¾ÑĢÐ¾Ð²":7500,"ÑİÐ½":7501,"ĠÐ±Ð°Ð½ÐºÑĢÐ¾ÑĤ":7502,"ĠÐ¾ÑĤÐ²ÐµÑĢ":7503,"ĠÑģÐ¾Ð´ÐµÑĢÐ¶":7504,"ÐĶÐ°Ð½Ð½ÑĭÐ¹":7505,"ĠÐ¿ÑĢÐµÐ·Ð¸Ð´ÐµÐ½ÑĤ":7506,"ĠÐ¸ÑģÑĤÐ¾ÑĢÐ¸Ð¾Ð³ÑĢÐ°ÑĦÐ¸Ð¸":7507,"ĠÐ¥Ð¾ÑĤÑı":7508,"ÑİÑīÐ¸Ð¼Ð¸ÑģÑı":7509,"ÐĴÐ¾Ð¿ÑĢÐ¾Ñģ":7510,"ĠÑģÐ¾ÑģÑĥ":7511,"ĠÐ¼Ð¸Ð½Ð¸Ð¼ÑĥÐ¼":7512,"ÑĢÐµÐ¿Ð¸":7513,"Ð¾Ð»Ð¸Ð½Ð³":7514,"ĠÐ·ÐµÑĢ":7515,"ĠÐ¿Ð¾Ð´Ð³Ð¾ÑĤÐ¾Ð²ÐºÑĥ":7516,"Ð²ÑĪÐµÐ¹ÑģÑı":7517,"ĠÐ²ÑĭÑĢÐ°Ð¶Ð°ÐµÑĤÑģÑı":7518,"ĠÐ¿Ð¾ÑģÑĤÑĥÐ¿Ð¸":7519,"ĠÑĨÐ¸ÐºÐ»Ð°":7520,"ĠÑģÐµÐ½ÑĤÑıÐ±ÑĢÑı":7521,"ĠÐ½ÐµÐ²ÐµÑĢ":7522,"ĠÑĩÑĢÐµÐ·Ð²ÑĭÑĩÐ°Ð¹Ð½Ð¾":7523,"Ð¡Ð¢":7524,"ÑİÑģÑı":7525,"ĠÑģÐ¾Ð¾Ð±ÑīÐµÑģÑĤÐ²Ð¾":7526,"ÐµÑĤÐ¾Ð´":7527,"ÑĳÐ¼":7528,"ĠÑģÐ¾Ð¾ÑĤÐ²Ðµ":7529,"ĠÐ¿ÑĢÐ¾Ð¸Ð·Ð¾":7530,"ĠÐ²ÑĭÐ¿Ð¾Ð»Ð½ÐµÐ½Ð¸Ðµ":7531,"ĠÑĦÐ¾ÑĤ":7532,"ĠÐĳÑĥÑĢ":7533,"ĠÑİÑĢÐ¸Ñģ":7534,"ĠÐºÐ¾ÑĢÑĢÐµÐºÑĤÐ¸":7535,"ĠÑĥÐ½":7536,"ÑĢÐµÑĩÐ¸":7537,"ĠÐ³Ð»Ð°Ð²Ðµ":7538,"ĠÐµÐ´Ð¸Ð½ÑģÑĤÐ²Ð°":7539,"ĠÑĥÐºÐ°Ð·ÑĭÐ²Ð°ÑİÑĤ":7540,"ĠÐ½ÐµÐ¾Ð´Ð½Ð¾ÐºÑĢÐ°ÑĤÐ½Ð¾":7541,"ĠÑģÑĢÐ°Ð²Ð½ÐµÐ½Ð¸Ð¸":7542,"ĠÐºÑĢÐµÑģÑĤÑĮÑı":7543,"ĠÐ²Ð¿ÐµÑĩÐ°ÑĤ":7544,"ĠÐ´ÑĥÐ¼Ð°":7545,"ĠÐ¸Ð³ÑĢÐ°ÑİÑĤ":7546,"ĠÐ¢Ð°ÐºÐ¸Ðµ":7547,"Ð»ÐºÐ°":7548,"ĠÑģÑĤÐµÐ½":7549,"ĠÐºÐ¾ÑĢÐ¾ÑĤ":7550,"ĠÐĳÐµÐ·":7551,"ĠÐ¸Ð½ÑĦÐ¾ÑĢÐ¼Ð°ÑĨÐ¸Ð¾Ð½Ð½Ð¾Ð¹":7552,"ĠÑĦÐ°ÐºÑĤÑĭ":7553,"ĠÐ¾Ð¿ÑĭÑĤÐ¾Ð¼":7554,"ÑĩÐ¸ÑĤÑĭÐ²Ð°Ñı":7555,"ÑģÑĤÐµÑĤ":7556,"Ð¾ÑĢÐ¸ÐµÐ½ÑĤÐ¸":7557,"ĠÐ¾Ð±ÑıÐ·Ð°ÑĤÐµÐ»ÑĮÐ½Ð¾":7558,"ÑĤÐºÐ°":7559,"ÑģÐ¿ÐµÑĪ":7560,"ĠÑĤÐ°ÑĤÐ°ÑĢ":7561,"ĠÐ¿ÑģÐ¸ÑħÐ¾Ð»Ð¾Ð³Ð¸ÑĩÐµÑģÐºÐ¾Ð¹":7562,"ĠÐ¸ÑģÑĤÐ¾ÑĩÐ½Ð¸Ðº":7563,"ĠÐ²ÑĭÐ¿Ð¾Ð»Ð½ÐµÐ½":7564,"ĠÑĢÐ¾Ð¶Ð´Ð°":7565,"ÑģÑĥÐ´Ð°ÑĢ":7566,"ĠÑĥÐ±Ð¸Ð¹":7567,"ĠÐ¿Ð¾Ð¶Ð¸":7568,"Ð¾ÑĢÐ¾Ð´":7569,"ĠÐľÐ¸Ñħ":7570,"ĠÐ´Ð¸ÑģÐºÑĢÐ¸":7571,"ĠÑģÐ¿ÐµÑĨÐ¸ÑĦÐ¸ÐºÐ¸":7572,"Ð¼ÑĭÐ¹":7573,"Ð¾Ð²Ð°Ð½Ð¾":7574,"Ð¿ÐµÑĢÐ°":7575,"ĠÐºÐ²Ð°":7576,"Ð°Ð»Ð¸ÑĩÐ¸Ðµ":7577,"ĠÑĢÐ°ÑģÑģÐ¼Ð°ÑĤÑĢÐ¸Ð²Ð°ÐµÐ¼ÑĭÑħ":7578,"ĠÑĥÑģÐ»Ð¾Ð²Ð¸Ð¸":7579,"ÑıÐ²":7580,"ĠÐ·Ð°ÑīÐ¸ÑĤ":7581,"ÐĶÐ°Ð»ÐµÐµ":7582,"ĠÐ¿Ð¾Ð´Ð´ÐµÑĢÐ¶ÐºÐ°":7583,"ĠÑĥÐ¼ÐµÐ½Ð¸Ð¹":7584,"ÐºÐ°Ðº":7585,"ĠÐ´ÑĢÑĥÐ³Ð¾Ðµ":7586,"ÐĺÑģÐ¿":7587,"Ð´ÐµÑıÑĤÐµÐ»ÑĮÐ½Ð¾ÑģÑĤÐ¸":7588,"ÑĩÑģÐºÐ¾Ð³Ð¾":7589,"ĠÐ½Ð¾Ð²Ð°Ñı":7590,"Ð»Ð¾Ð¶ÐµÐ½Ð¸Ðµ":7591,"ĠÐºÐ»Ð°ÑģÑģÐµ":7592,"ĠÐ¿ÑĢÐ¾ÑĤÐ¸Ð²Ð¾ÑĢÐµÑĩÐ¸Ñı":7593,"ĠÑģÐ¾Ð¾ÑĤÐ²ÐµÑĤÑģÑĤÐ²ÑĥÑİÑīÐµÐ¹":7594,"ĠÐ¸ÑģÐ¿Ð¾Ð»Ð½ÐµÐ½Ð¸Ðµ":7595,"ĠÐ¿ÑĢÐ¸Ð¾Ð±ÑĢÐµ":7596,"ĠÐ·Ð°ÐºÐ»ÑİÑĩÐµÐ½Ð¸Ðµ":7597,"ÑĪÐµÐ¼Ñĥ":7598,"ĠÐºÐ¾ÑģÑĤ":7599,"ĠÐ´Ð²Ð¾ÑĢÑı":7600,"ĠÐ¿Ð¾Ð¾Ñī":7601,"Ð¸ÑĤÐµÐ»Ð¸":7602,"ĠÐķÐ²ÑĢÐ¾Ð¿ÐµÐ¹ÑģÐºÐ¾Ð³Ð¾":7603,"ĠÑĦÑĢÐµÐ¹":7604,"ÐºÑĥÐ¿":7605,"Ð¸Ð½Ð»ÑıÐ½":7606,"ĠÐºÐ¾Ð¼Ð¼ÑĥÐ½Ð¸":7607,"Ð°Ð»ÑĮÐ½Ð¾ÑģÑĤÑĮ":7608,"ĠÑģÐ¾ÑģÑĤÐ°Ð²Ð»ÑıÑİÑīÐ¸Ñħ":7609,"ĠÐ²Ð°Ð¶Ð½Ð¾Ð¹":7610,"ĠÑĥÐ¿Ð¾ÑĢÑıÐ´Ð¾":7611,"ĠÑģÐ¾Ð¿ÑĢÑı":7612,"ĠÑĢÐ°Ð±Ð¾ÑĤÐ°ÑİÑĤ":7613,"ĠÐ¿ÑĢÐ¾ÑĪÐ»Ð¾Ð¼":7614,"ĠÐ´Ð²Ð¾ÑĢ":7615,"ĠÐ¾Ð±ÑĬÑıÑģÐ½ÐµÐ½Ð¸Ñı":7616,"ĠÑĪÐ¸ÑĢÐ¾ÐºÐ¸Ð¹":7617,"Ð¨ÐŃ":7618,"ÐµÐ¼ÑĥÑİ":7619,"ĠÑģÐ¾Ð¾ÑĤÐ²ÐµÑĤÑģÑĤÐ²Ð¸Ñı":7620,"ÑģÑĢÐµÐ´":7621,"ĠÑģÑĦ":7622,"Ð¼ÐµÐ½ÐµÐ½Ð¸Ðµ":7623,"ĠÐ¿Ð¾Ð»Ð¾Ð¶Ð¸ÑĤÐµÐ»ÑĮÐ½Ð¾":7624,"ĠÐµÐ²ÑĢÐ¾Ð¿ÐµÐ¹ÑģÐºÐ¾Ð¹":7625,"ĠÑģÐ¿Ð¸ÑģÐ¾Ðº":7626,"ĠÐ²Ð°Ð¶Ð½ÐµÐ¹ÑĪÐ¸Ñħ":7627,"ĠÑĢÐ°Ð±Ð¾ÑĤÐ°ÐµÑĤ":7628,"ĠÑģÑĤÑĢÐ¾Ð¸ÑĤÐµÐ»ÑĮÑģÑĤÐ²Ð¾":7629,"ĠÐ¿ÑĢÐ¾ÑĩÐ¸Ñħ":7630,"ĠÐ¿ÑĥÐ±Ð»Ð¸ÐºÐ°ÑĨÐ¸Ð¸":7631,"ĠÐ¿Ð»Ð°Ð½Ð°":7632,"ĠÑģÐ¾ÑħÑĢÐ°Ð½ÐµÐ½Ð¸Ðµ":7633,"Ð¾Ð·Ð³Ð»Ð°":7634,"ÐµÐ¼Ð¾":7635,"ÑĨÐ¸Ð°Ð»ÑĮÐ½ÑĭÐµ":7636,"ÐµÐ´ÑĮ":7637,"ĠÐ·Ð½Ð°ÐºÐ¾Ð²":7638,"ĠÐ±Ð¾Ð»ÑĮÑĪÐ¸Ðµ":7639,"ĠÑĢÐ°Ð·Ð½Ð¾Ð³Ð¾":7640,"ĠÐ¾ÑģÑĥÑīÐµÑģÑĤÐ²Ð»ÐµÐ½Ð¸Ðµ":7641,"Ð°Ð½Ðµ":7642,"ÑĢÐ¾Ð²Ðµ":7643,"Ð¢Ð¾":7644,"Ð¾Ð¿ÑĢÐ°Ð²":7645,"ĠÑģÐ¸Ð»ÑĮ":7646,"ĠÐ²ÐµÑĢÐ½Ñĥ":7647,"ĠÐ¿Ð¾Ð´Ð´ÐµÑĢÐ¶ÐºÐµ":7648,"ĠÑĢÐ°Ð·ÑĢÐ°Ð±Ð¾ÑĤÐºÐ°":7649,"ĠÐ²ÐµÑģ":7650,"Ð³ÑĢÐ°Ð¼":7651,"ĠÐ³Ð°ÑĢÐ¼Ð¾":7652,"Ð¿Ð°ÑĢÑĤÐ°":7653,"ĠÐ¿Ð¾Ð»Ð¸ÑĤÐ¸ÑĩÐµÑģÐºÑĥÑİ":7654,"ĠÑĥÑĩÐ°ÑģÑĤÐ¸ÐµÐ¼":7655,"ĠÐ¿Ð¾Ð²ÑģÐµÐ´Ð½ÐµÐ²Ð½Ð¾Ð¹":7656,"ĠÐ¾Ð±ÑĢÐ°ÑĤÐ¸ÑĤÑĮ":7657,"Ð²Ð»ÐµÐ½Ð¸ÐµÐ¼":7658,"Ð¡Ð¾Ð²ÑĢÐµÐ¼ÐµÐ½":7659,"Ð¡Ð»ÐµÐ´Ð¾Ð²Ð°ÑĤÐµÐ»ÑĮÐ½Ð¾":7660,"ÑıÐ·":7661,"ĠÐ¿Ð»Ð¸":7662,"ĠÑģÐ¾Ð·Ð´Ð°Ð²Ð°ÑĤÑĮ":7663,"ÐµÑĢÐ°Ð¼Ð¸":7664,"ĠÐ»ÑİÐ´ÑıÐ¼":7665,"Ð¾Ð»ÑĮÑĪÐµ":7666,"ĠÑģÑħÐ¾Ð¶":7667,"ĠÑģÑĤÐ¾ÑĢÐ¾Ð½Ðµ":7668,"Ð²ÐµÐ´ÐµÐ½Ð¸Ð¹":7669,"ÐµÐ¼Ñĭ":7670,"ĠÐ¿Ð°ÑĢÐ°Ð´Ð¾Ðº":7671,"ĠÐ¼ÐµÑģÑĤÐ¾Ð¸Ð¼":7672,"ĠÐ¸Ð½ÑĤÐµÑĢÐµÑģÐ°Ñħ":7673,"ÐºÐ°ÑĤÐµÑĢÐ¸":7674,"Ð²Ð¸Ð½":7675,"ĠÐ¾ÐºÐ¾Ð½ÑĩÐ°Ð½Ð¸Ñı":7676,"Ð¾Ð²Ð¾Ð¼":7677,"ĠÐ¿ÐµÑĢÐ¸ÑĦÐµ":7678,"ÑģÑĤÐ¸ÑĩÐµÑģÐºÐ¸Ðµ":7679,"ĠÐ¿Ð°ÑĢÐ°Ð¼ÐµÑĤÑĢÑĭ":7680,"Ð´Ð»Ñı":7681,"ĠÐ¼Ð¾Ð±Ð¸Ð»Ð¸":7682,"ĠÐ»Ð¸Ð½ÐµÐ¹":7683,"ĠÐ¸Ð³ÑĢÐ¾Ð²":7684,"ĠÐ±ÑĥÐ´ÐµÐ¼":7685,"ĠÐ²ÑĭÑģÑĤÑĥÐ¿Ð¸":7686,"ĠÐ½Ð°ÑĢÐ¾Ð´Ð½Ð¾Ð³Ð¾":7687,"ĠÐ¿Ð»ÐµÐ¼":7688,"Ð¡ÑĥÑīÐµÑģÑĤÐ²":7689,"ĠÐ¸Ð·Ð±ÑĢÐ°":7690,"ĠÑįÐºÑģÐ¿Ð¾ÑĢÑĤÐ°":7691,"ÑĥÐ»ÑĤÐ°":7692,"ĠÐ´Ð¾ÑģÑĥ":7693,"ĠÐŁÐ¾Ð»ÑĮÑĪ":7694,"ĠÑģÐ¸ÑģÑĤ":7695,"ÐĶÐ°Ð½Ð½Ð°Ñı":7696,"ĠÑģÑĥÐ±ÑģÐ¸":7697,"ĠÑģÐ¾Ð¾ÑĤÐ²ÐµÑĤÑģÑĤÐ²ÑĥÑİÑīÐµÐ³Ð¾":7698,"ĠÐ¾Ð´Ð½Ð¸Ñħ":7699,"ĠÑī":7700,"ĠÐ¿Ð¾Ð»Ð¸ÑĨÐ¸Ð¸":7701,"ÑĨÐ¸Ð¿Ð»Ð¸Ð½Ð°ÑĢ":7702,"ÑĢÐ°ÑĪÐ¸":7703,"ĠÐ¿ÑĢÐµÐ¿Ð¾Ð´Ð°Ð²Ð°Ð½Ð¸Ñı":7704,"ĠÐ°Ð±Ð¸":7705,"ĠÐĴÐ¾Ð·Ð¼Ð¾Ð¶Ð½Ð¾":7706,"ĠÐ½Ð°ÑĪÐ¸":7707,"ĠÑģÑĥÐ´Ñĭ":7708,"ĠÐļÑĢÐ¸":7709,"Ð½Ð¸Ð¼Ð°Ð½Ð¸Ðµ":7710,"ĠÐ°ÐºÑĨÐ¸Ð¹":7711,"ĠÐ¸Ð½Ð´Ð¸Ð²Ð¸Ð´Ð¾Ð²":7712,"ĠÐ¿Ð¾Ð´Ð°Ð²Ð»Ñı":7713,"ĠÐ½ÐµÐ¿Ð¾Ð»":7714,"ĠÐºÐ½Ð¸Ð³":7715,"ĠÐ½Ð¸ÐºÐ°ÐºÐ¸Ñħ":7716,"ĠÑĢÐµÐ·ÑĥÐ»ÑĮÑĤÐ°ÑĤÐ°Ð¼Ð¸":7717,"Ð¶ÐµÐ½Ð½Ð¾ÑģÑĤÑĮ":7718,"ĠÐ¸ÐµÑĢÐ°ÑĢÑħÐ¸Ð¸":7719,"ĠÐ¸Ð½Ð¾Ðµ":7720,"Ð¾Ð·Ð·":7721,"Ð¸ÑĩÐµÑģÐºÐ¸Ð¼Ð¸":7722,"ĠÐ²Ð´":7723,"ÐµÐ¼Ð°":7724,"ĠÑĢÐ°ÑģÑģÑĩÐ¸ÑĤÐ°":7725,"ĠÐ¾ÑģÐ½Ð¾Ð²Ð°Ð½Ð¸ÐµÐ¼":7726,"ĠÐ²ÑĭÑıÐ²Ð»ÐµÐ½Ð¸Ðµ":7727,"ĠÐ¿Ð°ÑĢÐ»Ð°Ð¼ÐµÐ½ÑĤÐ°":7728,"ÐĺÐ§":7729,"ĠÐĳÐµÐ»":7730,"ĠÐ²Ð»Ð°Ð´Ðµ":7731,"ĠÑĢÐ°Ð·ÑĢÑĭÐ²":7732,"ĠÑģÑĥÐ±ÑĬÐµÐºÑĤÐ°Ð¼Ð¸":7733,"ĠÐ¾ÑģÐ¾Ð±Ð¾Ð¹":7734,"ĠÐ¸ÑİÐ½Ñı":7735,"ĠÑİÑĢÐ¸ÑģÐ´Ð¸Ðº":7736,"ĠÑģÐ¿Ð¸ÑģÐº":7737,"ĠÐ²Ð·Ð°Ð¸Ð¼Ð¾Ð´ÐµÐ¹ÑģÑĤÐ²Ð¸Ð¸":7738,"ĠÐ¾Ð¶Ð¸Ð´Ð°Ð½Ð¸Ñı":7739,"ĠÐ¾ÑĤÑĩÐ¸Ñģ":7740,"ĠÐ¿ÑĢÐ¾ÑĨÐµÐ½ÑĤ":7741,"ĠÐºÑĥÐ´Ð°":7742,"Ð»ÑıÑĤÑĮÑģÑı":7743,"ĠÐĺÐ½ÑĭÐ¼Ð¸":7744,"ĠÐ¢Ð°ÐºÐ°Ñı":7745,"ĠÐºÐ¾Ð¼Ð¿Ð¾Ð½ÐµÐ½ÑĤÐ°":7746,"ÑģÑĤÑĢÐ¸Ð¸":7747,"ĠÐ½Ð°Ð¿ÑĢÐ°Ð²Ð»ÐµÐ½Ð½ÑĭÑħ":7748,"ĠÑģÐ²Ð¾Ð±Ð¾Ð´Ñĥ":7749,"ĠÐ¸Ð½ÑģÑĤÐ°Ð½":7750,"Ð³Ð°Ð¼":7751,"ĠÑĦÐ¸ÑĢÐ¼Ñĭ":7752,"ÑĢÑĥÑģ":7753,"ÑģÑĤÐ²Ð°Ð¼Ð¸":7754,"ĠÐ¿ÑĢÐµÐµÐ¼":7755,"ĠÐ¿Ð¾Ð´ÑĩÐµÑĢÐºÐ½ÑĥÑĤÑĮ":7756,"ĠÐ·Ð°Ð¿Ð°Ð´Ð½ÑĭÑħ":7757,"ĠÐļÐ¾Ð½ÑģÑĤÐ¸ÑĤÑĥÑĨÐ¸Ð¾Ð½Ð½Ð¾Ð³Ð¾":7758,"ĠÐ²ÑĭÐ¿ÑĥÑģÐºÐ°":7759,"ĠÐ¢Ð°ÐºÐ¾Ð¹":7760,"ĠÐłÐ¾ÑģÑģÐ¸Ñİ":7761,"ĠÐ¿Ð¾Ð´Ð¾Ð±Ð½Ð¾Ð³Ð¾":7762,"ĠÐĶÑĢÑĥÐ³":7763,"ĠÑģÑĤÐ°Ð²Ð¸ÑĤ":7764,"Ð¾Ð¿Ð¸Ñģ":7765,"ĠÐ½ÐµÐ¿ÑĢÐµÑĢÑĭÐ²":7766,"ÐºÑĢÑĭ":7767,"ÑģÑĤÑĥÐ¿Ð»ÐµÐ½Ð¸Ðµ":7768,"ĠÐ±ÑĢÐ°Ðº":7769,"Ð´Ð¸Ð¹":7770,"Ð¸ÑĤÐµÐ»ÑĮÐ½ÑĭÐµ":7771,"ĠÐ¾ÑĤÐ²ÐµÑĤÐ¸ÑĤÑĮ":7772,"ĠÑĤÑĢÐµÐ²":7773,"ĠÐ·Ð½Ð°ÑĩÐ¸Ð¼Ð¾":7774,"ĠÐ´ÐµÐ¼Ð¾Ð½ÑģÑĤÑĢÐ¸ÑĢÑĥÐµÑĤ":7775,"ĠÐĿÐ¸ÐºÐ¾Ð»Ð°":7776,"ĠÐ´ÐµÐ»Ð°ÑİÑĤ":7777,"ĠÑĪÐ¸ÑĢÐ¾ÐºÐ¾Ð¼":7778,"ĠÐ²Ð»Ð°Ð´ÐµÐ»ÑĮ":7779,"ĠÐ¼ÐµÑĤÐ°ÑĦÐ¾ÑĢ":7780,"ĠÑħÑĢÐ°Ðº":7781,"ĠÐ´Ð¾Ð»Ð»":7782,"ÑĥÐ±ÑĬ":7783,"ĠÐ³Ð»Ð°Ð²Ð½Ð¾Ð¹":7784,"Ð²Ð°ÑİÑīÐ¸Ð¹":7785,"ĠÐ¾Ð±ÑĢÐ°Ð·Ð¾Ð²Ð°Ð½Ð¸Ñİ":7786,"ĠÐ¿Ð¾Ð³ÑĢÐµÐ±":7787,"ĠÐ§ÐµÑħ":7788,"ĠÑģÑĤÑĢÐ°ÑĤÐµÐ³Ð¸Ñı":7789,"ĠÐ°Ð´ÐµÐºÐ²Ð°ÑĤ":7790,"ĠÐ±Ð¾Ð³":7791,"Ð±Ð»ÐµÐ¼":7792,"ĠÐ¿ÑĢÐµÐ¸Ð¼ÑĥÑīÐµÑģÑĤÐ²":7793,"ĠÑģÐºÐ»Ð¾Ð½Ð½Ñĭ":7794,"Ð¼ÐµÐ½ÐµÐ½Ð¸Ñı":7795,"Ð¶Ð´ÑĭÐ¹":7796,"ĠÑģÐ»Ð¾Ð²Ð°ÑĢÑı":7797,"ĠÐ´ÐµÐºÐ°Ð±ÑĢÑı":7798,"ĠÑģÐ¸Ð½ÑĤÐµ":7799,"ĠÐ¸Ð´ÐµÐ½ÑĤÐ¸ÑĩÐ½Ð¾ÑģÑĤÑĮ":7800,"ĠÐ¿ÐµÑĢÐ²Ð¾Ðµ":7801,"ĠÐ½Ð°Ð¿ÑĢÐ°Ð²Ð»ÐµÐ½Ñĭ":7802,"ÐĻ":7803,"Ð·Ð¾ÑĢÐ°":7804,"Ð´Ð°Ñħ":7805,"ĠÐ·Ð°Ð»Ð¾Ð³":7806,"ĠÐĴÐ¸":7807,"ĠÐ´Ð¸ÑģÑĨÐ¸Ð¿Ð»Ð¸Ð½Ñĭ":7808,"ĠÑıÐ²Ð»ÑıÐ»Ð¸ÑģÑĮ":7809,"ĠÐ¸Ð¼ÑĥÑīÐµÑģÑĤÐ²Ð¾":7810,"ĠÐ½Ð°ÑĥÐºÐ°":7811,"ĠÐ¾ÑĤÑģÑĭ":7812,"ĠÐ²Ð¾Ð¹ÑģÐºÐ°":7813,"ĠÐ¸Ð½Ð´ÐµÐºÑģÐ°":7814,"ĠÐ±ÑĥÐ´ÑĥÑīÐµÐµ":7815,"ÑĥÑİÑĤÑģÑı":7816,"ÐµÐ½Ð½Ð¾ÑģÑĤÑĮÑİ":7817,"ĠÐ¶ÐµÐ»Ð°Ð½Ð¸Ðµ":7818,"ĠÐ²Ð²ÐµÐ´ÐµÐ½Ð¸Ðµ":7819,"ĠÐ²ÐµÐ´ÑĮ":7820,"ĠÐ±ÑİÐ´Ð¶ÐµÑĤÐ½ÑĭÑħ":7821,"ĠÑģÐ¾Ð¾ÑĤÐ½Ð¾ÑĪÐµÐ½Ð¸Ñı":7822,"ĠÐ½ÐµÐ¶ÐµÐ»Ð¸":7823,"ĠÑģÐ»Ð¾Ð¶Ð½ÑĭÑħ":7824,"ÑıÑīÐ¸Ñħ":7825,"ĠÐ¿Ð¾ÑģÐ»ÑĥÐ¶Ð¸":7826,"ĠÐ²Ð¿Ð¾ÑģÐ»ÐµÐ´ÑģÑĤÐ²Ð¸Ð¸":7827,"ĠÑģÐ¾ÑĩÐ¸":7828,"ĠÐ¾ÑĤÐ»Ð¸Ñĩ":7829,"ĠÑģÐ¿ÐµÑĨÐ¸Ð°Ð»ÑĮÐ½ÑĭÐµ":7830,"ĠÑģÐ¼ÐµÑĪÐ°Ð½":7831,"ĠÑĢÐ°Ð·Ð²Ð¸Ð²Ð°ÑİÑīÐ¸ÑħÑģÑı":7832,"ĠÑıÑĢÐºÐ¾":7833,"ĠÐ²ÑģÐº":7834,"ĠÐ¾ÑģÐ¾Ð±ÑĥÑİ":7835,"Ð¾Ð»Ð¾Ð³Ð¸ÑĩÐµÑģÐºÐ¸Ð¼Ð¸":7836,"ĠÐ±Ð¾Ð»ÑĮÑĪÐ¾Ð³Ð¾":7837,"ĠÐ¾Ð±ÐµÑģÐ¿":7838,"ĠÑĥÑģÐ»Ð¾Ð²Ð¸ÑıÐ¼Ð¸":7839,"ĠÐ½ÐµÐ¾Ð´Ð½Ð¾Ð·Ð½Ð°":7840,"ĠÐ¿ÑĢÐ¾Ð²Ð¾Ð´Ð¸ÑĤÑģÑı":7841,"ĠÐ¾Ð±ÑĥÑĩÐµÐ½Ð¸Ð¸":7842,"ĠÐ·Ð°ÐºÐ¾Ð½Ð¾Ð´Ð°ÑĤÐµÐ»ÑĮÑģÑĤÐ²Ð¾Ð¼":7843,"ÐºÑĢÐµÐ´":7844,"ĠÐ²ÑĢÐµÐ´Ð°":7845,"ĠÑĥÑģÐ»Ð¾Ð²Ð¸ÑıÐ¼":7846,"Ð¥Ð¾ÑĤÑı":7847,"ĠÐ³ÐµÑĢÐ¼Ð°Ð½":7848,"ĠÐ¸ÑģÑĤÐ¾ÑĩÐ½Ð¸ÐºÐ°":7849,"ĠÐºÐ°ÐºÐ¾Ð¼":7850,"ĠÐ²Ð°Ð¶Ð½Ð¾ÑģÑĤÑĮ":7851,"Ð»ÑĮÐµ":7852,"ĠÑįÑĤÐ°Ð¿Ð°Ñħ":7853,"Ð²ÑĪÐ¸Ð¹ÑģÑı":7854,"ĠÐ¿Ð¾ÑĤÐµÑĢÐ¿Ðµ":7855,"Ð²Ð»ÐµÐºÐ°":7856,"ĠÐ´Ð¸ÑĢÐµÐºÑĤÐ¾ÑĢÐ¾Ð²":7857,"Ð»Ð¸Ð½Ð³":7858,"ĠÐ¼Ð¸ÐºÑĢÐ¾":7859,"ĠÑĢÐµÐ»ÐµÐ²Ð°Ð½":7860,"ĠÐ¸Ð·Ð³Ð¾ÑĤÐ¾Ð²":7861,"ÐĴÐĶ":7862,"ÑĪÐ°Ð»":7863,"ĠÐłÐ°ÑģÑģ":7864,"ĠÐ¾ÑĢÐ¸ÐµÐ½ÑĤÐ°ÑĨÐ¸Ð¸":7865,"ĠÐ²Ð¾ÑģÑģÑĤÐ°":7866,"ÑĩÐ½Ñĭ":7867,"Ð·Ð¾Ð²":7868,"Ð»Ð¸Ð½Ð°":7869,"ĠÐ¿ÑĢÐµÐ´Ð¾ÑģÑĤÐ°Ð²Ð»ÐµÐ½Ð¸Ñı":7870,"Ð¸ÑĩÐ°":7871,"ĠÐ¾ÑĢÐ³Ð°Ð½Ð¸Ð·Ð°ÑĨÐ¸Ñİ":7872,"ĠÐŁÐµÑĢÐ²Ð¾Ð¹":7873,"Ð²Ð°ÑİÑīÐµÐ³Ð¾":7874,"ĠÐµÐ²ÑĢÐµ":7875,"Ð½Ð¾Ð¼ÐµÑĢ":7876,"ĠÑģÐ¾Ð»Ð´Ð°":7877,"ĠÐľÐ¾Ð½":7878,"Ð¸ÑĤÐµÐ»ÑĮÐ½Ð¾Ð³Ð¾":7879,"ÑģÑĥÐ´":7880,"ĠÑĢÐµÐ°Ð»Ð¸Ð·ÑĥÐµÑĤÑģÑı":7881,"ĠÐ²Ð·Ð°Ð¸Ð¼Ð¾Ð¾ÑĤÐ½Ð¾ÑĪÐµÐ½Ð¸Ñı":7882,"ĠÐ¿ÑĢÐ¸Ð²ÐµÑĢ":7883,"Ð¸ÐµÐ²":7884,"Ð¸ÑĩÐµÑģÐºÑĥÑİ":7885,"ĠÑģÑĢÐµÐ´Ð½Ðµ":7886,"ĠÐ°ÑĢÐ¼Ð¸":7887,"ĠÑģÐµÐºÑĤÐ¾ÑĢ":7888,"ĠÑĥÑģÑĤÐ¾Ð¹ÑĩÐ¸Ð²Ð¾ÑģÑĤÐ¸":7889,"ĠÐ¾ÑĤÐ±Ð¾ÑĢÐ°":7890,"ĠÐ°ÑĥÐ´Ð¸ÑĤÐ¾ÑĢÐ¸Ð¸":7891,"ĠÐ¼Ð°Ð»ÑĮ":7892,"ĠÐ´Ð¾Ð³":7893,"Ð¼Ð¸Ð³ÑĢÐ°Ð½":7894,"ĠÑįÐºÐ¾Ð½Ð¾Ð¼Ð¸ÐºÐ°":7895,"ĠÐ²Ð¾Ð·Ð¼Ð¾Ð¶Ð½ÑĭÐµ":7896,"ĠÑįÑĦÑĦÐµÐºÑĤÑĭ":7897,"ĠÐ½Ð°Ð¿ÑĢÐ°Ð²Ð»ÐµÐ½":7898,"ĠÐ¼ÐµÑĤÐ¾Ð´Ð¾Ð»Ð¾Ð³Ð¸Ð¸":7899,"ĠÐ¼Ð°Ð»ÑĭÑħ":7900,"ĠÑĤÐµÐ½Ð´ÐµÐ½ÑĨÐ¸Ð¹":7901,"ĠÐ·Ð´Ð¾ÑĢÐ¾Ð²ÑĮÐµ":7902,"ÑģÑĤÐ°Ð²Ð»ÑıÐµÑĤ":7903,"ĠÐºÐ°ÑĢÑĤÐ¸Ð½Ñĥ":7904,"ĠÐļÐĿÐł":7905,"ĠÐ²ÐµÐ»Ð¸Ðº":7906,"ĠÐ·Ð½Ð°ÑĩÐ¸ÑĤÐµÐ»ÑĮÐ½ÑĭÐµ":7907,"ĠÐ¾ÑĤÐ²ÐµÑĤÑģÑĤÐ²ÐµÐ½":7908,"ĠÑĥÑĩÐµÐ±Ð½ÑĭÐµ":7909,"ĠÐ½Ð¸Ð·ÐºÐ¸Ð¹":7910,"ÐµÐ¹ÑģÑĤÐ²Ð¸ÑĤÐµÐ»ÑĮÐ½Ð¾":7911,"ĠÑģÐµÑĢÐµÐ´Ð¸Ð½Ñĭ":7912,"ÑģÐµÑĢ":7913,"ĠÐ¾Ð¿ÑĢÐµÐ´ÐµÐ»":7914,"ĠÑĦÐ°ÐºÑĤÐ¾Ð²":7915,"ĠÑģÑĤÐ¸Ð»Ð¸":7916,"ĠÐ»ÑİÐ±Ð¾Ð¼":7917,"ĠÑĢÐ°ÑģÑĪÐ¸ÑĢÐµÐ½Ð¸Ñı":7918,"ĠÑĢÐµÑĦÐµÑĢÐµÐ½":7919,"Ð²Ð¸ÑĤÐ¸Ðµ":7920,"ĠÐĳÐ°Ð»":7921,"ÐµÐ²ÑĭÑħ":7922,"ĠÐ¼Ð°ÑģÑĤÐµÑĢ":7923,"Ð¼ÐµÑĤÑĢÐ¸":7924,"ĠÑģÑĤÑĢÐµÐ¼Ð¸ÑĤÑģÑı":7925,"Ð¿Ð¾Ð»Ð½Ð¾Ð¼":7926,"Ð¾ÑģÐ½Ð¾Ð²Ð°":7927,"ĠÐ±ÑĭÑĤÐ¾Ð²":7928,"ÐĺÐļ":7929,"Ð¡Ð°Ð¼":7930,"ÐłÐ¸Ñģ":7931,"ĠÐ²ÑĢ":7932,"Ð¾ÐºÐ¾Ð¹":7933,"ĠÐ´Ð¾ÑħÐ¾Ð´Ñĭ":7934,"ĠÐ¿ÑĢÐµÐ´ÑĪÐµÑģÑĤÐ²":7935,"ĠÐ·Ð°Ð¼":7936,"ĠÐ¿Ð¾Ð¿Ðµ":7937,"ĠÑħÐ°ÑĢÐ°":7938,"ÑĩÐ»ÐµÐ½":7939,"ÐłÐŀ":7940,"ĠÐºÑĥÑĢÑģÑĭ":7941,"ĠÐ²Ð¾Ð¹Ð½Ð°":7942,"ĠÐ°Ð²ÑĤÐ¾Ð¼Ð¾Ð±Ð¸":7943,"Ð³Ð°ÑĤÑĮ":7944,"ÑĢÐµÐ´ÐµÐ»ÐµÐ½Ð¸Ðµ":7945,"ĠÐ¸Ð¼ÐµÐ»Ð°":7946,"ĠÐ¸ÑģÐ»Ð°Ð¼":7947,"ĠÑįÐ¼Ð¾ÑĨÐ¸Ð¹":7948,"Ð¿ÑĢÐ¾ÑĤÐ¸Ð²":7949,"ĠÐ½Ð°ÑĩÐ°Ð»Ð¸":7950,"Ð³Ð°Ñı":7951,"ĠÑģÐ¾Ð´ÐµÑĢÐ¶Ð°Ð½Ð¸Ñİ":7952,"ĠÐ¿Ð¾Ð»ÑĥÑĩÐ°ÑĤÑĮ":7953,"ĠÑģÑĤÐ°ÑĢÑĪÐ¸Ñħ":7954,"Ð´Ð°Ð¼":7955,"ĠÐ¾Ð±ÑģÑĥÐ¶Ð´ÐµÐ½Ð¸Ðµ":7956,"ĠÑģÑĥÐ¿":7957,"ĠÐ´ÐµÐ¿ÑĥÑĤÐ°ÑĤÐ¾Ð²":7958,"ĠÐ½Ð°ÑģÑĤ":7959,"ĠÐ¾Ð±Ð¼ÐµÐ½Ð°":7960,"ĠÐ¿Ð¾ÑĤÑĢÐµÐ±Ð¸ÑĤÐµÐ»ÐµÐ¹":7961,"ĠÐ¿ÑĢÐ°Ð²Ð¾Ð¿ÑĢÐ¸Ð¼ÐµÐ½Ð¸":7962,"ĠÐ²Ð¸Ð´ÐµÑĤÑĮ":7963,"Ð³Ð°ÐµÑĤ":7964,"ĠÐ³Ð¾ÑģÑĥÐ´Ð°ÑĢÑģÑĤÐ²ÐµÐ½Ð½ÑĭÐ¹":7965,"ĠÐ²Ð°Ð¶Ð½Ð¾Ðµ":7966,"ĠÑĩÐ»ÐµÐ½Ð°Ð¼Ð¸":7967,"ĠÐ´Ð°Ð»":7968,"Ð¾ÑģÑĮ":7969,"ĠÐ³Ð¾ÑģÑĥÐ´Ð°ÑĢÑģÑĤÐ²Ðµ":7970,"Ð¿Ð¾ÑģÑĤ":7971,"ĠÐ¿ÑĢÐµÐ´Ð¿Ð¾Ð»Ð¾Ð¶ÐµÐ½Ð¸Ðµ":7972,"ĠÑģÐ±Ð»Ð¸":7973,"ĠÐ¾ÑģÐ½Ð¾Ð²Ð½ÑĭÐ¼Ð¸":7974,"ĠÐ¾ÐºÑĤÑıÐ±ÑĢÑı":7975,"ĠÐ±Ð»Ð°Ð³Ð¾":7976,"Ð²Ð¾ÑģÑĤÑĮ":7977,"ĠÐ´ÑĢÐ³":7978,"Ð½Ð¾Ð¿ÑĢÐ°Ð²":7979,"Ð§Ð°":7980,"ĠÐ¿Ð°Ð¼ÑıÑĤÐ½Ð¸ÐºÐ¾Ð²":7981,"Ð·Ð°ÑĤÑĮ":7982,"ĠÑħÐ°ÑĢÐ°ÐºÑĤÐµÑĢÐ¸ÑģÑĤÐ¸ÐºÐ°Ð¼Ð¸":7983,"ĠÐ¿ÑĢÐµÐ·Ð¸Ð´ÐµÐ½ÑĤÐ°":7984,"ĠÐ´ÑĢÑĥÐ³Ñĥ":7985,"ĠÑģÑĤÑĢÐ¾Ð³":7986,"ĠÐ½Ð°ÐºÐ°":7987,"ĠÑģÐ»ÐµÐ´ÑĥÑİÑīÐµÐ¼":7988,"ĠÐ¿ÑĢÐ¾Ð´Ð¾Ð»Ð¶Ð°ÐµÑĤ":7989,"ĠÐ¸ÑģÐ¿ÑĭÑĤÑĥ":7990,"Ð¾Ð¿Ð»Ð°":7991,"Ð½Ð¾Ð²Ñĭ":7992,"ĠÑĢÐ°ÑģÑģÐ¼Ð¾ÑĤÑĢÐµÑĤÑĮ":7993,"ĠÐ¿ÑĢÐµÐ´Ð¿Ð¾ÑĩÐ¸ÑĤÐ°":7994,"ĠÐ´Ð¸ÑĢÐµÐºÑĤÐ¾ÑĢÐ°":7995,"ĠÐĺÑģÐ¿Ð°":7996,"ĠÑģÐµÐ³Ð¾Ð´Ð½ÑıÑĪÐ½Ð¸Ð¹":7997,"ĠÑģÐ¾ÑĨÐ¸Ð°Ð»ÑĮÐ½Ð¾Ð¼":7998,"ĠÐ°Ð²ÑĤÐ¾ÑĢÐ°Ð¼Ð¸":7999,":.":8000,"ĠÐ¡Ð¾ÑİÐ·":8001,"ĠÑģÐ¾Ð²Ð¼ÐµÑģÑĤÐ½Ð¾Ð¹":8002,"Ð±Ð»ÑİÐ´Ð°":8003,"ÑģÐ½Ð¾ÑģÑĤÐ¸":8004,"ÐºÐ¾ÑģÑĤÑĮ":8005,"ĠÐ²Ð¾Ð·ÑĢÐ¾Ñģ":8006,"ĠÐ²Ð²ÐµÐ´":8007,"ÐºÐ¾ÑģÑĢÐ¾":8008,"ĠÐ¼Ð°ÑĢÐºÑģÐ¸":8009,"Ð²Ð°Ð¼Ð¸":8010,"ĠÑĨÐµÐ½Ð½ÑĭÑħ":8011,"ĠÐ½Ð¾ÑģÑıÑĤ":8012,"Ð½Ð¸ÑĨÐµ":8013,"Ð¾Ð»ÑĮÐ·Ð¾Ð²Ð°Ð½Ð¸Ðµ":8014,"ĠÑĤÑĢÐ°Ð´Ð¸ÑĨÐ¸Ð¹":8015,"ĠÑģÐµÐ»ÑĮÑģÐºÐ¾Ð¹":8016,"ĠÐ¿ÑĢÐ°Ð²Ð¾ÑģÑĥÐ´Ð¸Ñı":8017,"ĠÐ»ÑĮÐ³Ð¾ÑĤ":8018,"ĠÐ½Ð°ÑģÐµÐ»ÐµÐ½Ð¸ÐµÐ¼":8019,"ĠÐ¾ÑĢÐ³Ð°Ð½Ð¸Ð·Ð°ÑĨÐ¸ÑıÑħ":8020,"ĠÐ²Ð·Ð°Ð¸Ð¼Ð¾ÑģÐ²ÑıÐ·ÑĮ":8021,"Ð°Ð½Ð¾Ð²":8022,"ĠÐ´Ð¾Ð¼Ð¾":8023,"ĠÐ¿ÑĢÐ¾Ð¶Ð¸Ð²Ð°Ð½Ð¸Ñı":8024,"ĠÐ°ÑĦ":8025,"ÑĤÐ¾Ð½Ð°":8026,"Ð¼Ð¸ÑĢÐ°":8027,"ĠÐ´ÐµÐ¹ÑģÑĤÐ²ÑĥÐµÑĤ":8028,"ĠÑĤÑĢÐ°Ð½ÑģÑĦÐ¾ÑĢÐ¼Ð¸":8029,"ĠÐ¾Ð±ÑĥÑģÐ»Ð¾Ð²Ð»ÐµÐ½Ð°":8030,"ĠÐ½Ð°Ð¹Ð´ÐµÐ½":8031,"ĠÐºÐ¾Ð½ÑĦÐµÑĢÐµÐ½ÑĨÐ¸Ð¸":8032,"ĠÑĥÑĤÐ²ÐµÑĢÐ¶Ð´ÐµÐ½Ð¸Ðµ":8033,"ĠÐ¼Ð½Ðµ":8034,"ĠÑģÐ¿ÑģÐ¾Ð±":8035,"ĠÑĢÐµÐ·ÑĥÐ»ÑĤÐ°":8036,"ĠÑģÑĤÑĢÐ¾Ñı":8037,"ĠÐ¸Ð½ÑĦÐ»ÑıÑĨÐ¸Ð¸":8038,"ĠÐ²Ð½ÐµÑĪÐ½ÐµÐ³Ð¾":8039,"Ð²ÐµÑģÑĤÐ½Ð¾":8040,"ĠÑģÐ½Ð°ÑĩÐ°Ð»Ð°":8041,"ÑĢÐ¾Ð²Ð°Ð½Ð½Ð¾ÑģÑĤÑĮ":8042,"ĠÐ¿ÐµÑĢÐ¸Ð¾Ð´Ñĭ":8043,"ĠÑģÐ¿ÐµÑĨÐ¸Ð°Ð»ÑĮÐ½Ð¾ÑģÑĤÐ¸":8044,"ĠÑĢÐµÐ°Ð»ÑĮÐ½Ð¾ÑģÑĤÑĮ":8045,"ÑĩÐµÐ½Ð½ÑĭÐ¼":8046,"ĠÐ¾ÑĤÐ¼ÐµÑĩÐ°Ð»Ð¾ÑģÑĮ":8047,"ĠÐ°Ð¿Ðµ":8048,"ÑĩÐµÐ½Ð½Ð¾Ð¹":8049,"ĠÐ¿ÑĢÐ¾Ð²Ð¾Ð·Ð³Ð»Ð°":8050,"ĠÑģÐ¾ÑħÑĢÐ°Ð½Ð¸ÑĤÑĮ":8051,"ĠÐºÐ¾ÑĤÑĢÑĭÐµ":8052,"ĠÐľÐµÐ¶Ð´ÑĥÐ½Ð°ÑĢÐ¾Ð´":8053,"ĠÑįÐ»ÐµÐ¼ÐµÐ½ÑĤÐ¾Ð¼":8054,"ÐºÐ»Ð°Ð´Ñĭ":8055,"ĠÑıÐ¿Ð¾Ð½":8056,"ĠÐ´ÐµÐ²Ñĥ":8057,"ĠÐ¿Ð¾Ð»Ð¾Ð¶ÐµÐ½Ð¸Ð¸":8058,"ĠÐ³ÑĢÑĥÐ¿Ð¿Ð¾Ð¹":8059,"ĠÐ¼ÐµÐ¶Ð´ÑĥÐ½Ð°ÑĢÐ¾Ð´Ð½ÑĭÐµ":8060,"ĠÐ·Ð½Ð°Ð½Ð¸ÑıÐ¼Ð¸":8061,"ĠÑĢÐµÐ¶Ðµ":8062,"ĠÐ¿Ð¾ÑĤÐµÑĢÐ¸":8063,"ÑĢÐ¾Ð½Ð¸":8064,"ĠÐ¾ÑĢÐ³Ð°Ð½Ð¸Ð·Ð°ÑĨÐ¸ÑıÐ¼Ð¸":8065,"ĠÐ²Ð°Ð¶Ð½ÑĭÐµ":8066,"ĠÑģÐµÐºÑĢÐµÑĤÐ°":8067,"ÑĨÐºÐ¾Ð³Ð¾":8068,"ĠÑģÐ¾Ð³Ð»Ð°ÑģÐ¾Ð²Ð°Ð½Ð¸Ñı":8069,"ĠÐ¸Ð·Ð´ÐµÑĢÐ¶ÐµÐº":8070,"ĠÐ¿Ð¾Ð»ÑĥÑĩÐ¸Ð»Ð°":8071,"ĠÐ³Ð¸Ð¿Ð¾ÑĤÐµÐ·Ð°":8072,"ĠÑģÑĩÐ¸ÑĤÐ°Ð»":8073,"ĠÐ´Ð¾ÑħÐ¾Ð´Ð½Ð¾ÑģÑĤÐ¸":8074,"ĠÑģÑĥÐ´ÑĮÐ¸":8075,"ÐĿÐµÐ¾Ð±ÑħÐ¾Ð´Ð¸Ð¼Ð¾":8076,"ĠÐµÐ´Ð¸Ð½ÑģÑĤÐ²Ð¾":8077,"ĠÐºÐ°ÑĤ":8078,"Ġ%,":8079,"ĠÐ³Ð¾ÑĤÐ¾Ð²Ñĭ":8080,"ĠÐ¡Ð¸Ð½":8081,"Ð¼Ð¾Ð¶ÐµÑĤ":8082,"ĠÐºÐ°Ð¶Ð´Ð¾Ð¼Ñĥ":8083,"Ð»ÑİÑĩÐµÐ½Ð¸Ðµ":8084,"ĠÐ±ÑĥÐ´":8085,"ĠÐ¿ÑĢÐµÐ²ÑĭÑĪÐ°ÐµÑĤ":8086,"Ð¸ÑģÑģÐ»ÐµÐ´Ð¾Ð²Ð°":8087,"ĠÐ·Ð°Ð¿Ñĥ":8088,"ĠÑĥÐ¿ÑĢÐ°Ð²Ð»ÐµÐ½Ð¸Ð¸":8089,"ĠÐ¾ÑģÑĤÐ°Ð»ÑĮÐ½ÑĭÐµ":8090,"ĠÐ¸ÑģÐºÐ°ÑĤÑĮ":8091,"ĠÐ¿ÑĢÐ¸ÑĢÐ¾Ð´Ñĥ":8092,"ĠÐ¼Ð°ÑĢÐºÐµÑĤ":8093,"Ð¸ÑĤÐµÐ»Ñı":8094,"Ð¼Ð¾Ñģ":8095,"ĠÐ¿ÑĢÐ¸Ð½Ð¸Ð¼Ð°ÐµÑĤ":8096,"ĠÑĥÐºÑĢÐ°Ð¸Ð½":8097,"ĠÐ¼Ð°Ð½Ð¸Ð¿Ñĥ":8098,"ĠÐ¸ÑģÐ¿Ð¾Ð»ÑĮÐ·Ð¾Ð²Ð°Ð»Ð¸ÑģÑĮ":8099,"Ð²Ð»ÐµÐ½Ð¸Ñİ":8100,"ĠÐľÐ¸Ð½Ð¸ÑģÑĤÐµÑĢÑģÑĤÐ²Ð°":8101,"ĠÐ²Ð·Ð³Ð»ÑıÐ´Ð¾Ð²":8102,"ÑĤÑİ":8103,"Ð°ÑĢÐ°ÐºÑĤÐµÑĢ":8104,"ĠÑĦÐ°ÐºÑĤÐ°":8105,"ĠÐ»Ð¸Ð´ÐµÑĢÐ¾Ð²":8106,"ÐºÑĤ":8107,"ĠÑģÐ¾ÑģÑĢÐµÐ´Ð¾ÑĤÐ¾":8108,"ÑĥÑĩÐµÐ½Ð½ÑĭÐµ":8109,"ĠÑģÐ¾ÑĨÐ¸Ð°Ð»ÑĮÐ½ÑĭÐ¼Ð¸":8110,"ĠÐ¸ÑģÑĤÐ¾ÑĢÐ¸ÐºÐ¾Ð²":8111,"ĠÐ²Ð»Ð°Ð´ÐµÐ½Ð¸Ñı":8112,"ÑģÑĤÐ¾Ñĩ":8113,"ĠÐ¾Ð±ÑīÐµÐ¿ÑĢÐ¸":8114,"ĠÐ¾Ð¿ÑĢÐµÐ´ÐµÐ»ÐµÐ½Ð½ÑĥÑİ":8115,"ĠÐ²ÑĭÐ½ÑĥÐ¶Ð´ÐµÐ½Ñĭ":8116,"Ð¾Ð¶ÐµÐ½Ð¸Ðµ":8117,"ÑģÐ¿Ð¾Ð½Ð´ÐµÐ½":8118,"ĠÐ¸ÑģÐ¿Ð¾Ð»ÑĮÐ·Ð¾Ð²Ð°Ð½Ñĭ":8119,"ĠÑĢÐ°ÑģÐ¿ÑĢÐ¾ÑģÑĤÑĢÐ°Ð½Ñı":8120,"Ð¶Ð½ÑĭÐµ":8121,"ĠÐ²ÑĭÐ´ÐµÐ»ÑıÐµÑĤ":8122,"ĠÐ¸Ð½Ð¾ÑģÑĤÑĢÐ°Ð½Ð½Ð¾Ð³Ð¾":8123,"ĠÐºÐ¾Ð½ÑģÑĤÐ¸ÑĤÑĥÑĨÐ¸Ð¾Ð½Ð½Ð¾":8124,"ĠÑģÐ°Ð¼Ð¸Ð¼":8125,"ĠÑĥÑĩÐ°ÑģÑĤÐ²Ð¾Ð²Ð°ÑĤÑĮ":8126,"ĠÐ¿ÑĢÐ¾Ð±Ð»ÐµÐ¼Ð°Ð¼":8127,"ĠÐ³Ð»Ð°Ð²Ð½Ð¾Ðµ":8128,"Ġ;.":8129,"ĠÐ²Ð¾Ð²Ð»ÐµÑĩÐµÐ½Ð½Ð¾ÑģÑĤÐ¸":8130,"ĠÐ°Ð±Ð¸ÑĤÑĥÑĢÐ¸":8131,"ĠÐ²Ð½Ð¾ÑģÐ¸":8132,"ÑĢÐ°Ñģ":8133,"ĠÐ¿ÑĢÐ°Ð²Ð¾Ð²Ð¾Ðµ":8134,"Ð°Ð¼ÐµÑĢÐ¸ÐºÐ°Ð½":8135,"ĠÐ³ÑĢÐ°Ð¼Ð¾ÑĤÐ½Ð¾ÑģÑĤÐ¸":8136,"ĠÐ¼Ð¸ÑĢÐ¾Ð²Ð¾Ð·Ð·":8137,"ĠÐ¸Ð½ÑĦÐ¾ÑĢÐ¼Ð°ÑĨÐ¸ÐµÐ¹":8138,"ĠÐ¿Ð¾Ð´Ð³Ð¾ÑĤÐ¾Ð²ÐºÐ°":8139,"ĠÐ²ÑĭÐ³Ð»ÑıÐ´Ð¸ÑĤ":8140,"ĠÐ¡Ð»ÐµÐ´Ð¾Ð²Ð°ÑĤÐµÐ»ÑĮÐ½Ð¾":8141,"Ð·Ð¼Ð¾Ð¼":8142,"ÑĨÐ¸Ð¾Ð½Ð°Ð»ÑĮÐ½Ð¾Ð¹":8143,"ĠÑĨÐµÐ»ÑĭÐ¹":8144,"ĠÑģÐ¾ÐºÑĢÐ°ÑĤÐ¸":8145,"ĠÐ¾ÑĪÐ¸Ð±ÐºÐ¸":8146,"ĠÐ¸Ð½Ð²Ð°Ð»Ð¸Ð´Ð½Ð¾ÑģÑĤÑĮÑİ":8147,"ĠÑĢÑıÐ´Ñĥ":8148,"ĠÐ½Ð°Ð»Ð¾Ð³Ð°":8149,"ĠÑģÑĦÐµÑĢÐ°":8150,"ÑĤÐ°Ð»ÑĮ":8151,"ĠÐľÐ¾Ð»":8152,"ĠÐĶÐ°Ð»ÑĮ":8153,"ÑĤÐµÑģÑĤÐ°":8154,"ĠÐĽÐµÐ½Ð¸Ð½":8155,"ĠÐ½ÐµÐ¿ÑĢÐ¾":8156,"ĠÐ¼Ð°ÑģÑĪÑĤÐ°Ð±Ð°":8157,"Ð·Ð¸Ð¹":8158,"ĠÐ³ÑģÑĥÐ´Ð°ÑĢ":8159,"ĠÐ²Ð»Ð¸ÑıÑĤÑĮ":8160,"ĠÐĴÐ¨ÐŃ":8161,"ĠÐ½Ð¾ÑıÐ±ÑĢÑı":8162,"ĠÐ»Ð¸ÑĨÐ°Ð¼Ð¸":8163,"ĠÐ½Ð°ÑĥÑĩÐ½ÑĭÐ¹":8164,"ĠÐ¾ÑĤÑĢÐ°Ð¶Ð°ÑİÑĤ":8165,"ĠÐ´Ð¾ÐºÑĤÐ¾ÑĢ":8166,"ÑģÑĤÑģÐºÐ¾Ð³Ð¾":8167,"ĠÐ°ÑģÑģÐ¸":8168,"ĠÑģÑĥÑĤÑĮ":8169,"ĠÐ¿ÑĢÐ¸Ð½Ð°Ð´Ð»ÐµÐ¶Ð¸ÑĤ":8170,"Ð¸ÑĤÐµÐ»ÑĮÐ½Ð¾Ð¹":8171,"ĠÐ·ÑĢÐ¸":8172,"ĠÑģÐµÐºÑĤÐ¾ÑĢÐµ":8173,"ĠÐ½Ð¾ÑģÐ¸ÑĤÐµÐ»ÐµÐ¹":8174,"ĠÑĢÐµÐ»Ð¸Ð³Ð¸Ð¾Ð·Ð½Ð¾Ð¹":8175,"ĠÐ±Ð»Ð°Ð³Ð¾Ð¿Ð¾Ð»ÑĥÑĩÐ¸Ñı":8176,"ĠÐ²Ð¾Ð·Ð½Ð°":8177,"ĠÐºÑĢÐ°ÑĤÐºÐ¾ÑģÑĢÐ¾":8178,"ĠÑģÐ¾ÑĨÐ¸Ð°Ð»Ð¸Ð·Ð°ÑĨÐ¸Ð¸":8179,"ĠÑĩÐµÐ»Ð¾Ð²ÐµÑĩÐµÑģÐºÐ¾Ð¹":8180,"ĠÑģÑĥÑīÐµÑģÑĤÐ²ÐµÐ½Ð½Ð¾Ðµ":8181,"ÑĥÐ»Ñı":8182,"ĠÐ¾ÑĤÑĢÐ°Ð·":8183,"ĠÑĢÐµÑģÑĥÑĢÑģÐ°Ð¼Ð¸":8184,"Ð¼Ð¿":8185,"Ð²Ð¸Ð²Ð°Ð»ÐµÐ½":8186,"ĠÐŀÑĩÐµÐ²Ð¸Ð´Ð½Ð¾":8187,"ĠÐ¿ÑĢÐµÐ´Ð»Ð°Ð³Ð°ÐµÑĤÑģÑı":8188,"ĠÑģÐ¾Ð²Ð¼ÐµÑģÑĤÐ½Ð¾":8189,"Ð»Ð¸ÑĩÐ½Ð¾ÑģÑĤ":8190,"ĠÐ½ÐµÑħ":8191,"ĠÐ¡ÑĤÑĢÐ°":8192,"ÑīÐ¸ÐºÐ°":8193,"ĠÐ°ÑĢÐ¼":8194,"ĠÐ¼Ð¾Ð´Ð¸":8195,"ÐĹÐ½Ð°ÑĩÐ¸":8196,"ĠÐ¿Ð¾Ð»Ð½Ð¾Ð³Ð¾":8197,"ĠÑĢÐ¾Ð·":8198,"ĠÐ¦ÐµÑĢ":8199,"ÑĤÐ²Ð¾ÑĢ":8200,"ĠÐ¸ÑģÐ¿Ð¾Ð»ÑĮÐ·Ð¾Ð²Ð°ÑĤÑĮÑģÑı":8201,"ÐĽÐ¸":8202,"ĠÐ¸Ð½ÑĤÐµÐ»Ð»ÐµÐºÑĤÑĥÐ°Ð»ÑĮÐ½Ð¾Ð¹":8203,"ĠÑĤÐµÑĢÑĢÐ¾ÑĢÐ¸":8204,"ĠÑįÐ¼Ð¿Ð¸ÑĢÐ¸ÑĩÐµÑģÐºÐ¸Ñħ":8205,"ĠÐ¼ÐµÑģÑıÑĨÐµÐ²":8206,"Ð°Ð½ÑģÐºÐ¾Ð¹":8207,"ĠÐ¿ÑĢÐ¾ÑģÐ²Ðµ":8208,"ĠÐ¿ÑĢÐ°Ð²Ñĥ":8209,"ĠÐ¸Ð½ÑĦÐ¾ÑĢÐ¼Ð¸":8210,"ĠÑģÑĤÐ¾Ð»ÐµÑĤÐ¸Ñı":8211,"ĠÐ´ÑĢÐ°":8212,"ĠÐĵÑĢÐ°Ð¶Ð´Ð°Ð½":8213,"ĠÑģÐ¾ÑĤÑĢÑĥÐ´Ð½Ð¸ÑĩÐµÑģÑĤÐ²Ð¾":8214,"ĠÑģÐ¾ÑģÑĤÐ°Ð²Ð¸Ð»":8215,"ĠÐºÐ°ÐºÐ¾Ðµ":8216,"ĠÑģÐ²Ð¾Ð¹ÑģÑĤÐ²":8217,"ĠÐ¿ÐµÐ½ÑģÐ¸Ð¾Ð½Ð½Ð¾Ð³Ð¾":8218,"ĠÐ¿Ð°ÑĢÑĤÐ½ÐµÑĢÑģÑĤÐ²Ð°":8219,"ĠÐ½ÑĭÐ½ÐµÑĪ":8220,"ÐĵÐ£":8221,"ĠÑĤÐµÐ¾ÑĢÐ¸Ñİ":8222,"ĠÐĹÐ°ÐºÐ¾Ð½":8223,"ÐµÑħÐ°":8224,"ĠÑĨÐµÐ»ÐµÑģÐ¾Ð¾Ð±ÑĢÐ°Ð·Ð½Ð¾":8225,"Ð½ÑģÐºÐ¾Ð¹":8226,"Ð¾ÑĢÑĥÑģ":8227,"Ð¾ÐºÐ¾Ð»":8228,"Ð¾Ð¶Ð´ÐµÐ½":8229,"ĠÐ²Ð°Ð»ÑİÑĤÑĭ":8230,"ĠÐ¿Ð¾Ð´ÑĤÐ²ÐµÑĢÐ¶Ð´Ð°ÐµÑĤ":8231,"ĠÐ·Ð°Ð½ÑıÑĤÑĭÑħ":8232,"Ð´ÑĭÑħ":8233,"Ð¸ÑĩÐµÑģÐºÐ¾Ð¼":8234,"ĠÐ¿Ð°ÑĢÑĤÐ¸":8235,"ĠÐ¾ÑĨÐµÐ½Ð¸Ð²Ð°Ð½Ð¸Ñı":8236,"ÑĩÐºÐ°":8237,"ÑĤÑĥÑİ":8238,"ĠÐºÐ¾Ð»Ð¸ÑĩÐµÑģÑĤÐ²Ðµ":8239,"ĠÑĥÐ·Ð½Ð°":8240,"Ð¾Ð¿Ð¸ÑģÐ¸":8241,"ĠÑĤÐµÐ¼Ð¿Ñĭ":8242,"ĠÐ¢Ð°ÐºÐ¾Ðµ":8243,"ĠÐ¼ÐµÑģÑĤÐ½Ð¾ÑģÑĤÐ¸":8244,"ĠÐ»ÐµÐ³Ð¸ÑĤÐ¸Ð¼":8245,"ĠÐ»ÐµÐºÑģÐ¸ÐºÐ¸":8246,"ÑĢÐ¾Ð²Ð°Ð»Ð¾ÑģÑĮ":8247,"ĠÑģÑĥÑīÐµÑģÑĤÐ²ÐµÐ½Ð½ÑĭÐµ":8248,"ĠÐ¾Ð±ÑıÐ·Ð°Ð½Ð½Ð¾ÑģÑĤÑĮ":8249,"ĠÑĦÐ¾ÑĢÐ¼Ð¸ÑĢÑĥ":8250,"ĠÑıÐ·ÑĭÐºÐ¾Ð²Ð¾Ð³Ð¾":8251,"ÐµÐ¼Ð¾Ð¼":8252,"ĠÑįÐºÐ¾Ð½Ð¾Ð¼Ð¸ÐºÑĥ":8253,"ĠÐ¾Ð±ÑīÐ°Ñı":8254,"ĠÑįÐ»ÐµÐºÑĤÑĢÐ¾":8255,"ĠÐ¾ÑĪÐ¸Ð±Ð¾Ðº":8256,"Ð¾ÑģÑĤÐ°Ð½Ð¾Ð²":8257,"ĠÐºÑĢÐ¸Ð¼Ð¸Ð½Ð°Ð»Ð¸":8258,"ĠÐ½Ð°ÑĨÐ¸Ð¾Ð½Ð°Ð»ÑĮÐ½ÑĭÐµ":8259,"ĠÑįÐ¿Ð¸Ð·":8260,"Ð»Ð¾Ð³Ð¸ÑĩÐµÑģÐº":8261,"ĠÑĢÐµÐºÐ¾Ð¼ÐµÐ½Ð´Ð°ÑĨÐ¸Ð¸":8262,"ÑģÑĤÐ°Ð½Ðµ":8263,"ÑĩÐ°ÐµÑĤ":8264,"ĠÐ¿ÑĢÐµÐ´Ð¿ÑĢÐ¸Ð½Ð¸Ð¼Ð°ÑĤÐµÐ»ÑĮÑģÑĤÐ²Ð°":8265,"ĠÑģÐ¿ÐµÑĨÐ¸Ð°Ð»Ð¸ÑģÑĤÐ°":8266,"ĠÐ²ÐµÑĢÑĤÐ¸ÐºÐ°":8267,"Ð»ÐµÐ½Ð°Ð¿ÑĢÐ°Ð²":8268,"ĠÑģÐ¾Ð»Ð¸Ð´Ð°ÑĢ":8269,"ÑģÑĤÑĤÑĥ":8270,"ĠÑĥÑĩÐ¸ÑĤÑĭÐ²Ð°Ñı":8271,"ÑĩÐ°Ñı":8272,"Ð°ÐºÑĥ":8273,"ĠÑĥÑīÐµÑĢÐ±":8274,"ÑĢÐ³":8275,"ĠÑĥÑģÐ»Ð¾Ð¶":8276,"ÑģÑĤÐ²ÑĥÑİÑĤ":8277,"ÑĤÐ¸Ð·Ð°ÑĨÐ¸Ñı":8278,"ÑĥÑİÑīÐµÐ¼":8279,"ĠÐ¾Ð±ÑĢÐ°ÑĤÐ¸ÑĤÑĮÑģÑı":8280,"ÐĿÐ°ÐºÐ¾Ð½ÐµÑĨ":8281,"ĠÐ¾ÑĤÐ²ÐµÑĤÑĭ":8282,"Ð²Ð°Ð½Ð°":8283,"ÑĩÐµÐ²":8284,"ĠÑģÐ¿Ð¾Ð½":8285,"ÑģÑĤÑĢÐ¾Ð¹ÐºÐ¸":8286,"ĠÐĶÐ°Ð½Ð½ÑĭÐµ":8287,"ĠÐ¿Ð»Ð¾ÑĤ":8288,"ĠÐ²Ð¸Ð½Ð¾Ð²":8289,"ĠÐ°Ð¼ÐµÑĢÐ¸ÐºÐ°Ð½ÑģÐºÐ¸Ñħ":8290,"ĠÐ½Ð°Ð¿ÑĢÐ°Ð²Ð»ÐµÐ½Ð½Ð¾ÑģÑĤÐ¸":8291,"ĠÑĩÐµÐ»Ð¾Ð²ÐµÐºÑĥ":8292,"Ð·Ð¸ÑĢÑĥÐµÑĤÑģÑı":8293,"ĠÐ·Ð°ÑģÐ»ÑĥÐ¶Ð¸":8294,"ĠÐŁÑĢÐ¸ÑĩÐµÐ¼":8295,"ĠÐ½ÐµÐ´Ð²Ð¸Ð¶":8296,"ĠÐ¿ÑĢÐ¸ÐµÐ¼Ð»ÐµÐ¼":8297,"ĠÐ²ÑĭÐ½ÐµÑģ":8298,"ĠÑĤÑĢÐ°Ð´Ð¸ÑĨÐ¸Ð¾Ð½Ð½Ð¾Ð¹":8299,"ÐµÑĤÐ¾Ð²":8300,"Ð·Ð°Ð´":8301,"ĠÐ¸ÑģÑģÐ»ÐµÐ´Ð¾Ð²Ð°ÑĤÐµÐ»ÑĮÑģÐºÐ¾Ð¹":8302,"Ð¿ÑĢÐ¾ÑĨÐµÑģÑģÑĥ":8303,"ĠÐ½Ð°Ð¿ÑĢÐ°Ð²Ð»ÐµÐ½Ð°":8304,"ĠÐ»Ð°Ð±Ð¾ÑĢÐ°":8305,"ÑģÐ»Ñĥ":8306,"ĠÑĥÑĩÐµÑģÑĤÑĮ":8307,"ĠÐ´Ð¾Ð»Ð¶Ð½Ð¾ÑģÑĤÐ½ÑĭÑħ":8308,"Ð½Ð°ÑĥÑĩ":8309,"ĠÐ¿ÑĢÐ¾ÑĦÐµÑģÑģÐ¸Ð¾Ð½Ð°Ð»ÑĮÐ½ÑĭÐµ":8310,"ĠÐ¿Ð¾Ð²ÑĭÑģÐ¸ÑĤÑĮ":8311,"ĠÐ¸ÑģÑĤÐ¸Ð½":8312,"ÐºÑĢÐµÐ¿":8313,"ĠÐ·Ð°Ð´Ð¾Ð»":8314,"ĠÐ¿Ð¾ÑģÑĤÑĥ":8315,"ÐŁÑĢÐ°Ð²":8316,"ĠÐ²ÑĭÐ±Ð¾ÑĢÐ°Ñħ":8317,"ĠÐ²Ð¾Ð»Ð¸":8318,"ĠÑĢÐµÐ³Ð¸Ð¾Ð½Ñĭ":8319,"ĠÐ±ÐµÑĢÐµ":8320,"ĠÐ¾ÐºÐ°Ð·Ð°Ð½Ð¸Ñı":8321,"ĠÐ¾Ð±Ð»Ð°ÑģÑĤÐµÐ¹":8322,"ĠÐ°ÑĥÑĤ":8323,"ĠÐ³ÑĢÑĥÐ¿Ð¿Ð¸":8324,"ĠÐ²ÐµÑĢÑħÐ¾Ð²":8325,"ÑĥÐ´ÑĮ":8326,"ÑİÑīÐ°ÑıÑģÑı":8327,"ĠÑĥÐ¼ÐµÐ½Ð¸Ðµ":8328,"ĠÐ¸Ð¼ÐµÑİÑīÐ¸ÑħÑģÑı":8329,"ĠÐ¿Ð¾Ð»Ð¸ÑĤÐ¸ÑĩÐµÑģÐºÐ¸Ð¼":8330,"ĠÑģÐµÐ»ÐµÐº":8331,"ĠÑĢÑıÐ´Ð¾Ð²":8332,"ĠÑģÑĤÐ°ÑĤÑĥÑģÐ¾Ð¼":8333,"ĠÑģÑĤÐ°Ð½ÐµÑĤ":8334,"Ð´ÑĨÐ°":8335,"ĠÐ²Ð°Ð¶Ð½ÑĭÐ¹":8336,"Ð»ÑıÑı":8337,"ĠÐ¸ÑģÐ¿ÑĭÑĤÐ°":8338,"ĠÐ±Ð¾Ð³Ð°ÑĤ":8339,"ĠÑĪÐ¸ÑĢÐ¾ÐºÐ¾Ð³Ð¾":8340,"Ð´Ð¸ÑģÑĨÐ¸Ð¿Ð»Ð¸Ð½Ð°ÑĢ":8341,"ĠÐ°ÑĢÐ±Ð¸ÑĤÑĢÐ°Ð¶":8342,"ĠÐºÑĢÑĥÐ¿Ð½ÑĭÐµ":8343,"ĠÐ¼ÐµÐ½ÑĮÑĪÐ¸Ð½":8344,"ĠÐ¾Ð±Ð¾ÑĢÐ¾ÑĤÐ°":8345,"ĠÑĤÐµÐ¼Ñĥ":8346,"ÑĪÐµÐ²":8347,"ĠÐ²ÑĭÑĢÐ°Ð¶ÐµÐ½Ð¸Ðµ":8348,"ĠÐ¾ÐºÑĢÑĥÐ³Ð°":8349,"ĠÐ¿Ð»Ñİ":8350,"ĠÑĥÐ»Ð¸":8351,"ĠÐŁÐ¾Ð»Ð¸":8352,"ÐºÐ¾Ð²ÑĭÑħ":8353,"ĠÑģÑĤÑĢÐ°Ð½Ð°Ð¼":8354,"ĠÑıÐ´ÐµÑĢ":8355,"ĠÐ´Ð¾ÑģÑĤ":8356,"ÑĩÐµÐ½Ð½ÑĭÐ¹":8357,"Ð²Ð°ÐµÐ¼Ð¾Ð¹":8358,"ĠÑĦÐµ":8359,"ÐĶÐ¾":8360,"ĠÐ»ÐµÑģ":8361,"ĠÐ°ÐºÑĤÑĥÐ°Ð»ÑĮÐ½Ð¾ÑģÑĤÑĮ":8362,"ĠÑįÑĤÐ½Ð¸ÑĩÐµÑģÐºÐ¾Ð¹":8363,"Ð²Ð¸Ñı":8364,"ĠÐ²ÑĭÐ¿Ð¾Ð»Ð½ÑıÑĤÑĮ":8365,"ĠÐľÐ½Ð¾Ð³Ð¸Ðµ":8366,"ĠÐ³Ð¾Ð²Ð¾ÑĢÑıÑīÐµÐ³Ð¾":8367,"ĠÐ¿Ð¾Ð·Ð´Ð½ÐµÐµ":8368,"ĠÐ»Ð¸Ð´ÐµÑĢÐ°":8369,"ĠÐ¸Ð½Ð²Ð°Ð»Ð¸Ð´Ð¾Ð²":8370,"ĠÐ¿ÑĢÐµÐ¾Ð´Ð¾Ð»ÐµÐ½Ð¸Ñı":8371,"ĠÐ¿Ð¾Ð²ÐµÐ´ÐµÐ½":8372,"ĠÐĳÐ¾Ð»":8373,"ĠÐ¿Ð¸ÑĪÐµÑĤ":8374,"ĠÐ¿ÑĢÐ¾Ð¼ÐµÐ¶Ñĥ":8375,"ÑĨÐ¸Ð°Ð»ÑĮÐ½ÑĭÑħ":8376,"ĠÑĦÐ¾ÑĢÐ¼Ð°Ð¼Ð¸":8377,"Ð±Ð°Ð»Ð°Ð½ÑģÐ¸":8378,"Ð°Ð½ÑĤÐ°":8379,"ĠÐ¿ÑĢÐ¸Ð½ÑıÐ»Ð¸":8380,"Ð²Ð°Ð½Ð½ÑĭÐµ":8381,"ĠÐ±Ð°Ð·Ð¾Ð²ÑĭÑħ":8382,"ĠÐºÐ¾ÑįÑĦÑĦÐ¸ÑĨÐ¸ÐµÐ½ÑĤ":8383,"ĠÐĲÐ½Ð³Ð»Ð¸Ð¸":8384,"ĠÐºÐ¾Ð¼Ð±Ð¸Ð½Ð°":8385,"ĠÐ¿ÑĢÐ°Ð²Ð¾Ð¾ÑħÑĢÐ°Ð½Ð¸":8386,"ĠÑĦÐ¸Ð½Ð°Ð½ÑģÐ¸ÑĢÐ¾Ð²Ð°Ð½Ð¸Ðµ":8387,"ĠÐºÑĢÐµÐ´Ð¸ÑĤÐ¾Ð²":8388,"Ð²Ð¾Ð´ÑģÑĤÐ²Ð°":8389,"ĠÐºÐ¾ÑĢÑĢÐµÐ»ÑıÑĨÐ¸Ð¸":8390,"ÐºÐ»Ð°ÑģÑģ":8391,"ĠÐ¡ÐĿÐĵ":8392,"ÑĤÐµÐ¿":8393,"ĠÑĪÐ¸ÑĢÐ¾ÐºÐ¾Ðµ":8394,"ĠÐ¿ÑĢÑıÐ¼Ð¾Ð³Ð¾":8395,"Ð½ÑĮÑİ":8396,"ÐĲÐ²ÑĤÐ¾ÑĢ":8397,"ĠÑĢÐ°Ð·Ð½":8398,"ÑĤÐ½ÑĥÑİ":8399,"ĠÑĪÐ¸":8400,"ĠÐ³ÑĢÐ°Ð¶Ð´Ð°Ð½ÑģÐºÐ¾":8401,"ĠÑģÐ»ÐµÐ´ÑĥÑİÑīÐµÐµ":8402,"Ð¿Ð¾Ð»Ð½Ð¾Ð¼Ð¾":8403,"ĠÐ·Ð°Ð²":8404,"ĠÑĥÑĩÐ¸ÑĤÐµÐ»ÑĮ":8405,"ĠÐ¿ÑĢÐµÐ´Ð¼ÐµÑĤÑĭ":8406,"ĠÐ¿ÑĥÐ±Ð»Ð¸ÑĩÐ½Ð¾Ð¹":8407,"ÑĢÐµÐ²Ð°":8408,"ÐĲÐ²":8409,"ÑģÑĤÐ¸ÑĤ":8410,"ĠÐ¾ÑģÑĤÑĢ":8411,"ĠÑįÐºÑģÑĤÑĢÐµ":8412,"ĠÐ¿ÑĢÐµÑģÑĤÐ¸":8413,"ĠÐ½Ð°Ð»Ð¸ÑĩÐ¸ÐµÐ¼":8414,"ÑĤÑģÐºÐ¾Ð¹":8415,"ĠÐ´Ð°ÑĤÐ¸":8416,"ĠÑģÐ¾Ð¾ÑĤÐ²ÐµÑĤÑģÑĤÐ²ÑĥÑİÑĤ":8417,"ĠÐµÐ²ÑĢÐ¾":8418,"ĠÐ¼Ð°Ñı":8419,"ĠÐ¾Ð¿ÑĢÐµÐ´ÐµÐ»ÐµÐ½Ð¸Ñİ":8420,"ĠÐ³ÑĢÑĥÐ¿Ð¿Ð°Ð¼":8421,"ĠÑģÐ¾Ð·Ð´Ð°ÑİÑĤ":8422,"ĠÐļÐ¸ÑĤÐ°Ðµ":8423,"ĠÐ¿ÑĢÐ¸Ð¼ÐµÑĢÐ°":8424,"Ð½Ð¾Ð²ÐµÐ½Ð¸Ðµ":8425,"ĠÑĢÐµÐ·ÑĥÐ»ÑĮ":8426,"ÑĤÐµÐ»ÑģÑĤÐ²Ð°":8427,"Ð²ÑĪÐµÐ³Ð¾ÑģÑı":8428,"ĠÐķÐºÐ°ÑĤÐµÑĢÐ¸":8429,"ĠÐºÐ²Ð°Ð»Ð¸ÑĦÐ¸ÐºÐ°":8430,"Ð¾Ð²ÑĥÑİ":8431,"ĠÐ¿ÑĢÐ¸Ð±Ðµ":8432,"ÐĳÑĭ":8433,"ÑĤÐ½Ð¾Ð¼":8434,"ÐºÐ¸Ð½Ð°":8435,"Ð¾ÑıÑĤÐ½Ð¾":8436,"ĠÐ±ÑĥÐ¼Ð°Ð³":8437,"ĠÐ¾Ð·Ð½Ð°":8438,"ĠÐ½Ð°ÑģÐ»Ðµ":8439,"ĠÑģÐ¾Ð±ÑĢÐ°Ð½Ð¸Ñı":8440,"ĠÐ¿ÑĢÐ¸Ð²ÐµÐ´ÐµÐ½Ñĭ":8441,"ĠÐ¾ÑĢÑĥÐ¶Ð¸Ñı":8442,"ĠÐ²Ð¾Ð·Ð³Ð»Ð°":8443,"Ð¾Ð¿Ð¾Ð»Ð°Ð³Ð°":8444,"ĠÐ²Ð½ÐµÑĪÐ½Ð¸Ðµ":8445,"ĠÐ¿ÑĢÐ¾ÑĦÑģÐ¾":8446,"ĠÐ¤Ð¸Ð½Ð»ÑıÐ½":8447,"ĠÑħÐ°ÑĢÐ°ÐºÑĤÐµÑĢÐ¸ÑģÑĤÐ¸ÐºÐ°":8448,"ĠÐ²ÑĭÐ´ÐµÐ»ÑıÑİÑĤ":8449,"ĠÐ¾Ð±ÑĢÐ°Ð±Ð¾ÑĤÐºÐ¸":8450,"ĠÐĺÐ¼":8451,"ĠÐºÑĢÐ°Ðµ":8452,"ĠÑĤÐµÐ¾ÑĢÐ¸Ð¹":8453,"ĠÐ¿ÑĢÐ¾ÑĦÐ¸Ð»Ð°Ðº":8454,"ÑĩÐµÑģÑĤÐ²Ðµ":8455,"ĠÐ¿ÐµÑĢÐµÐ½Ð¾Ñģ":8456,"ĠÐ¿Ð°ÑģÑģÐ¸Ð²":8457,"Ð·ÑĥÑİÑĤÑģÑı":8458,"Ð¾Ð»ÐµÐ¼":8459,"ĠÑģÑĤÑĢÐµÐ¼ÑıÑĤÑģÑı":8460,"ĠÐ¸Ð·Ð´Ð°Ð½Ð¸Ñı":8461,"ĠÐ°Ð²ÑĤÐ¾ÑĢÐ¾Ð¼":8462,"ĠÑģÑĤÐ¸Ñħ":8463,"ĠÐ¡Ð¾Ð¾ÑĤÐ²ÐµÑĤÑģÑĤÐ²ÐµÐ½Ð½Ð¾":8464,"ĠÐ³Ð¾ÑĤÐ¾Ð²Ð½Ð¾ÑģÑĤÑĮ":8465,"ĠÑĤÐµÐ¼Ðµ":8466,"ĠÐ¿ÐµÑĢÐµÐ¿":8467,"ĠÐºÐ°ÑĤÐµÐ³Ð¾ÑĢÐ¸Ñı":8468,"ĠÐ¶Ð¸Ð²Ð¾ÑĤÐ½ÑĭÑħ":8469,"ĠÐ²ÑĭÑģÐ¾ÐºÐ¸Ñħ":8470,"ĠÐ¾ÑģÐ¾Ð±ÐµÐ½Ð½Ð¾ÑģÑĤÑĮ":8471,"ĠÐ¿ÑģÐ»ÐµÐ´":8472,"ĠÑĢÐ°ÑģÑģÐ¼Ð¾ÑĤÑĢÐ¸Ð¼":8473,"ĠÐ¿ÑĢÐ¾Ð²ÐµÐ´ÐµÐ½Ð½Ð¾Ð³Ð¾":8474,"Ð¼ÐµÑĤÐ¾Ð´":8475,"ĠÐ¿ÑĢÐµÐ´Ð¿Ð¾ÑģÑĭÐ»ÐºÐ¸":8476,"ĠÐ·Ð»Ð¾ÑĥÐ¿Ð¾ÑĤÑĢÐµÐ±":8477,"ĠÐ²ÑģÐµÐ¼Ñĥ":8478,"ĠÑĤÐµÐ¾ÑĢÐµÑĤÐ¸ÑĩÐµÑģÐºÐ¾Ð¹":8479,"ĠÑĥÐ´ÐµÐ»ÑıÐµÑĤÑģÑı":8480,"ĠÐ¾ÑĤÑģÑĥÑĤÑģÑĤÐ²Ð¸ÐµÐ¼":8481,"ÑĢÐ°Ð½ÐµÐµ":8482,"ÑĢÐ¾Ð²Ð°Ð»ÑģÑı":8483,"Ð½ÐµÐ½Ð½ÑĭÐµ":8484,"ĠÐ¼Ð¸ÑĢÐ¾Ð²ÑĭÑħ":8485,"ĠÑįÐºÐ·Ð°Ð¼ÐµÐ½":8486,"ÐĵÐ»Ð°Ð²":8487,"ĠÐ¼Ð¾Ð½Ð°ÑĢÑħ":8488,"ÑĢÐ¾Ð²Ð°Ñı":8489,"Ð±Ñİ":8490,"Ġ1":8491,"ĠÐļÐ¸":8492,"ĠÐ½Ð°Ð¿ÑĢÐ°Ð²Ð»ÐµÐ½Ð½ÑĭÐµ":8493,"ĠÑģÐ¸Ð±Ð¸ÑĢ":8494,"ĠÐ¿ÑĢÐ¸Ð²Ð¾Ð´ÑıÑĤ":8495,"ĠÑĢÐ°Ð±Ð¾ÑĩÐ¸Ðµ":8496,"ĠÐ¿Ð¾ÑĤÐ¾ÐºÐ¾Ð²":8497,"Ð²ÐµÐ´ÐµÐ¼":8498,"ĠÐ¸Ð½Ð½Ð¾Ð²Ð°ÑĨÐ¸Ð¾Ð½Ð½Ð¾Ð³Ð¾":8499,"ĠÐ¼ÐµÑĤÐ¾Ð´Ð¾Ð¼":8500,"ĠÑĥÐ³Ð¾Ð»Ð¾Ð²Ð½Ð¾Ð¹":8501,"ĠÐ¾Ð±Ð»ÐµÐ³":8502,"ĠÐ´ÐµÐ»Ð¸":8503,"ĠÐ£ÑĢÐ°":8504,"ĠÐ²ÑĭÑģÑĪÐ¸Ð¼":8505,"____":8506,"Ð»ÑıÑĨÐ¸Ñı":8507,"ĠÐ´Ð¸ÑģÑĨÐ¸Ð¿":8508,"ĠÑģÑĢÐµÐ´ÑģÑĤÐ²Ð¾":8509,"ÐĹÐ°Ðº":8510,"Ð¾Ð½Ð´":8511,"ĠÐ¸Ð·Ð´ÐµÑĢÐ¶ÐºÐ¸":8512,"Ð¾Ð¶Ð¸Ð´Ð°Ð½":8513,"ĠÐ°Ð´Ð°Ð¿ÑĤÐ¸":8514,"ĠÐ°Ð³ÐµÐ½ÑĤÐ¾Ð²":8515,"ĠÑĢÐ°Ð·ÑĬÑıÑģ":8516,"ĠÐ¿Ð¾Ð²ÑĤÐ¾ÑĢÑı":8517,"ÑĤÑĥÐ¸":8518,"ĠÑģÑĥÑīÐ½Ð¾ÑģÑĤÑĮ":8519,"ĠÐ²ÑģÑĤÑĢÐµÑĩÐ°ÐµÑĤÑģÑı":8520,"ĠÐ¿Ð¾Ð¶":8521,"ĠÐĲÐ½Ð°Ð»Ð¸Ð·":8522,"ÐµÐ·Ð´Ðµ":8523,"ĠÑģÐ¸Ð»Ð¾Ð¹":8524,"Ð½Ð¾Ð¾Ð±ÑĢÐ°Ð·":8525,"ĠÐ´ÐµÑĤÑıÐ¼":8526,"ÑĤÐ¸Ð·Ð¼Ð°":8527,"ĠÐºÐ¾Ð½Ð²ÐµÑĢ":8528,"ĠÑģÐ¾ÑģÑĤÐ°Ð²Ð»ÐµÐ½":8529,"ÐľÐ°":8530,"ĠÐºÑĥÐ»ÑĮÑĤÑĥÑĢÐ½ÑĭÐµ":8531,"ĠÐ¿ÐµÑĢÐµÐ¼ÐµÐ½Ð½ÑĭÐµ":8532,"ĠÐ´Ð¾ÑģÑĤÑĥÐ¿Ð½Ð¾ÑģÑĤÐ¸":8533,"ĠÐ²Ð¾Ð·Ð½Ð°Ð³ÑĢÐ°":8534,"ĠÐ¼Ð¾Ð´Ñĥ":8535,"ĠÐ¾ÐºÐ°Ð·ÑĭÐ²Ð°ÑĤÑĮ":8536,"ĠÑģÐ½Ð¸Ð¶ÐµÐ½Ð¸Ñİ":8537,"ĠÐ¸Ð½ÑģÑĤÑĢÑĥÐ¼ÐµÐ½ÑĤ":8538,"ĠÐ²ÑģÑĤÑĥÐ¿Ð¸":8539,"ĠÐ¿ÑĢÐ°Ð²Ð»ÐµÐ½Ð¸Ñı":8540,"ĠÐ²Ð·Ð³Ð»ÑıÐ´Ñĭ":8541,"ĠÐ¼Ð¾Ð±Ð¸Ð»ÑĮÐ½Ð¾ÑģÑĤÑĮ":8542,"ĠÐ·Ð°Ð²Ð¾Ð´":8543,"ĠÑħÐ°ÑĢÐ°ÐºÑĤÐµÑĢÐ½Ñĭ":8544,"ÑĢÑĭÐ¹":8545,"ĠÐ¿ÑĢÐ°ÐºÑĤÐ¸ÑĩÐµÑģÐºÐ¸Ñħ":8546,"Ð¾ÑĢÑĥ":8547,"ĠÑĥÑĢÐ¾Ðº":8548,"Ð½ÑĥÑĤÑĭÑħ":8549,"ĠÑĥÑĩÐ°ÑģÑĤÐ½Ð¸ÐºÐ°":8550,"ĠÑĢÐµÐ³ÑĥÐ»ÑıÑĢÐ½Ð¾":8551,"ĠÐ±ÐµÑģÑģ":8552,"ĠÑįÐ²Ð¾Ð»ÑİÑĨÐ¸Ð¸":8553,"ĠÑģÐ°Ð¼Ð¾Ð¾Ð¿ÑĢÐµÐ´Ðµ":8554,"ĠÑĩÐ°ÑģÑĤÐ½ÑĭÐµ":8555,"ĠÐ¿ÐµÐ´Ð°Ð³Ð¾Ð³Ð¸ÑĩÐµÑģÐºÐ¾Ð³Ð¾":8556,"ĠÐ¿Ð¾Ð´Ð´ÐµÑĢÐ¶Ð°Ð½Ð¸Ñı":8557,"ĠÑģÑĢÐµÐ´Ð½Ð¸Ð¼":8558,"ĠÑĥÑģÐ¿ÐµÑħÐ°":8559,"ĠÐ¿ÐµÑĢÐµÐ¼ÐµÐ½Ð½Ð¾Ð¹":8560,"ĠÐ²ÑģÑĤÐ°":8561,"ĠÐ¸Ð·Ð¼ÐµÐ½Ð¸ÑĤÑĮ":8562,"ĠÐ¿ÑĢÐ¸ÐºÐ»Ð°Ð´":8563,"ĠÐ²Ð¾ÑģÐ¿Ð¾Ð¼Ð¸Ð½Ð°":8564,"ĠÐ¿ÑĢÐµÑģÐµ":8565,"ĠÐ¿ÑĢÐµÐ´Ð»":8566,"ĠÐ²Ð½ÐµÐ´ÑĢÐµÐ½Ð¸Ðµ":8567,"ĠÐ¾ÑģÐ½Ð¾Ð²Ð½Ð°Ñı":8568,"ĠÐ¸ÑģÑģÐ»ÐµÐ´Ð¾Ð²Ð°ÑĤÐµÐ»Ñı":8569,"ĠÐºÐ¾Ð»Ð»ÐµÐ³":8570,"ĠÐ²ÑĭÐ´ÐµÐ»Ð¸":8571,"ĠÐ¿ÑĥÐ±Ð»Ð¸ÑĩÐ½Ð¾":8572,"ÑĪÐ¸Ð²":8573,"ĠÐ¿Ð¾Ð»Ð°":8574,"ĠÐĳÐ¾Ð³":8575,"ĠÐ´Ð¾Ñģ":8576,"ĠÐ½Ð°ÑģÑĤÐ°":8577,"ĠÐ¿Ð¾ÑıÐ²Ð»ÑıÑİÑĤÑģÑı":8578,"ĠÑĢÐµÐ·ÑĥÐ»ÑĮÑĤÐ°ÑĤÐ°Ñħ":8579,"ĠÐ¿ÑĢÐ¸ÑĢÐ¾Ð´Ð½ÑĭÑħ":8580,"ĠÑģÐµÐ¼Ð¸Ð½Ð°":8581,"ĠÑĨÐµÐ»Ð¾Ð³Ð¾":8582,"ĠÐ¾Ð¿ÑĢÐµÐ´ÐµÐ»ÑıÑİÑĤÑģÑı":8583,"ĠÐļÐ°Ð²":8584,"ĠÐ¸Ð½Ð´Ð¸Ð²Ð¸Ð´ÑĥÐ°Ð»ÑĮÐ½Ð¾Ð³Ð¾":8585,"ĠÑĢÐ¸ÑģÑĥÐ½":8586,"ĠÐ´ÐµÐ¹ÑģÑĤÐ²Ð¸ÑıÐ¼Ð¸":8587,"ĠÐ¿ÑĢÐ¸Ð²ÐµÐ»Ð¸":8588,"ĠÐ¼ÑĥÑģÑĥÐ»ÑĮÐ¼Ð°Ð½":8589,"ĠÑĨÐµÐ»ÐµÐ½Ð°Ð¿ÑĢÐ°Ð²":8590,"ÐĳÐµÐ·":8591,"ĠÐ¡Ð»ÐµÐ´ÑĥÐµÑĤ":8592,"ĠÐ¿Ð¾ÑıÐ²Ð»ÑıÐµÑĤÑģÑı":8593,"ĠÑģÑģÑĤÐµÐ¼":8594,"ĠÑĥÑģÑĭ":8595,"ĠÐ¸ÑģÐ¿Ð¾Ð»ÑĮÐ·Ð¾Ð²Ð°Ð»Ð¸":8596,"ĠÐ¿Ð¾Ð´ÑĩÐµÑĢÐºÐ¸Ð²Ð°ÐµÑĤ":8597,"ĠÐĹÐ°ÐºÐ¾Ð½Ð°":8598,"ÑĩÐ¸Ð²Ð°ÐµÑĤÑģÑı":8599,"Ð³ÐµÐ¹":8600,"ĠÐ¾ÑĤÐºÐ°Ð·ÑĭÐ²Ð°":8601,"ĠÐ¸Ð½ÑģÑĤÑĢÑĥÐ¼ÐµÐ½ÑĤÐ¾Ð¼":8602,"ÑĦÐµÐºÑĤÐ¸Ð²":8603,"ĠÐ¸Ð½Ð¶ÐµÐ½ÐµÑĢ":8604,"ĠÐ¼ÑĥÐ·ÑĭÐºÐ°":8605,"ĠÐ¶Ð¸Ð»":8606,"ĠÑģÐ¾ÑħÑĢÐ°Ð½ÑıÐµÑĤÑģÑı":8607,"ĠÐ°ÑģÐ¸Ð¼":8608,"ĠÐ±Ð¾ÑĢÑĮÐ±Ð°":8609,").":8610,"ĠÐ´ÐµÐ²Ð¾":8611,"ĠÐ´ÐµÑĤÑģÐºÐ¸Ñħ":8612,"ĠÐ½ÐµÑĢ":8613,"ĠÑģÐ²Ð¾Ð±Ð¾Ð´Ð°":8614,"ĠÐ¿Ð»Ð°ÑĤÐ°":8615,"ĠÐ½ÐµÑģÑĤÐ°Ð±Ð¸":8616,"ĠÑģÐºÐ¾Ð½":8617,"ĠÐ½ÐµÐ¾Ð¿ÑĢÐµÐ´ÐµÐ»ÐµÐ½Ð½Ð¾ÑģÑĤÐ¸":8618,"ĠÐ¿ÐµÑĢÐµÐ³Ð¾Ð²Ð¾ÑĢÐ¾Ð²":8619,"ĠÐ¾Ð¿Ð¸ÑģÐ°ÑĤÑĮ":8620,"ĠÐ¼ÐµÐ´Ð¸ÑĨÐ¸Ð½ÑģÐºÐ¸Ñħ":8621,"ĠÐ´Ð¸ÑĦÑĦÐµÑĢÐµÐ½ÑĨÐ¸Ð°ÑĨÐ¸Ð¸":8622,"ĠÐľÐŀÐŀÐļ":8623,"ĠÐ²ÑģÑĳ":8624,"ĠÐ¿ÑĥÐ±Ð»Ð¸ÑĩÐ½Ð¾Ð³Ð¾":8625,"ĠÐ²Ð¾ÑģÑĤÑĢÐµÐ±Ð¾Ð²Ð°Ð½":8626,"ĠÐ´Ð¾Ð»Ð³Ð°":8627,"ĠÐºÐ¾ÑĢÐ¾Ð»ÐµÐ²":8628,"ĠÐ½Ð°ÑģÐ¸Ð»Ð¸Ñı":8629,"ĠÐµÐ´Ð²Ð°":8630,"ĠÐ´ÐµÐ¹ÑģÑĤÐ²ÑĥÑİÑīÐ¸Ñħ":8631,"ĠÐ½ÑĥÐ¶Ð´Ð°ÐµÑĤÑģÑı":8632,"ÐĲÐ¡":8633,"ÑĦÐµÑĢÐ°":8634,"Ð½ÑıÑİÑĤ":8635,"Ð±Ð¸Ð»Ð¸":8636,"ĠÑģÐ¿ÐµÑĨÐ¸Ð°Ð»Ð¸ÑģÑĤÑĭ":8637,"Ð½ÑģÑĤÑĮÑİ":8638,"ĠÐ±Ð¾Ð»ÑĮÑĪÐµÐµ":8639,"ĠÑįÑĤÐ°Ð¿Ð¾Ð²":8640,"ĠÐ¶Ð°Ð»Ð¾Ð±":8641,"ĠÑģÑĥÑīÐµÑģÑĤÐ²Ñĥ":8642,"ĠÑĢÐµÐ³Ð¸ÑģÑĤÑĢÐ°ÑĨÐ¸Ð¸":8643,"ĠÐ°ÑģÐ¿ÐµÐºÑĤÐµ":8644,"ĠÐ½ÐµÐ¸Ð·Ð¼ÐµÐ½":8645,"ĠÐłÐµÐ·ÑĥÐ»ÑĮÑĤÐ°ÑĤÑĭ":8646,"ĠÐ´ÐµÐ¹ÑģÑĤÐ²ÑĥÑİÑĤ":8647,"ĠÑĥÐ³ÑĢÐ¾Ð·Ñĭ":8648,"ĠÑģÐµÑĢÑĮÐµÐ·Ð½ÑĭÐµ":8649,"ĠÐºÑĢÐµÐ´Ð¸ÑĤÐ°":8650,"ĠÐ£Ð½Ð¸Ð²ÐµÑĢÑģÐ¸ÑĤÐµ":8651,"ĠÑĥÑģÑĤÐ°Ð½Ð¾Ð²Ð»ÐµÐ½Ð¾":8652,"ÑĨÐµÐ´ÐµÐ½":8653,"Ð¾Ð·Ð¸ÑĨÐ¸Ð¸":8654,"ĠÐ½Ð°Ð³ÑĢÑĥÐ·ÐºÐ¸":8655,"ĠÐ½ÐµÐ²":8656,"Ð·Ð´":8657,"ĠÐ¸ÑģÐ¿Ð¾Ð»ÑĮÐ·ÑĥÐµÑĤ":8658,"ÑīÐµÐ½Ð¾":8659,"ĠÐ¿Ð¾ÐºÑĥÐ¿":8660,"ĠÐ²Ð¾Ð·ÑĢÐ°ÑģÑĤÐ½ÑĭÑħ":8661,"ĠÐ·Ð°Ð½Ð¸Ð¼Ð°ÑİÑĤ":8662,"Ð»Ð°Ð½Ð´":8663,"ĠÐ¸Ð·Ð±ÑĢÐ°Ð½":8664,"ĠÑĥÐ¿Ð¾ÑĤÑĢÐµÐ±Ð»ÐµÐ½Ð¸Ðµ":8665,"ĠÐ³Ð¾ÑģÑĥÐ´Ð°ÑĢÑģÑĤÐ²ÐµÐ½Ð½Ð¾":8666,"ĠÑģÐ´ÐµÐ»Ð°Ð½":8667,"ĠÐºÐ°ÑĢÑĤÐ¸Ð½Ñĭ":8668,"ÐŀÐ±ÑĢÐ°":8669,"ĠÐ°Ð¿Ð¿Ð°ÑĢÐ°ÑĤÐ°":8670,"Ð½Ð³Ðµ":8671,"ĠÑģÐ»ÐµÐ´ÑĥÑİÑīÐ¸Ð¹":8672,"ĠÐºÐ°Ñĩ":8673,"ĠÐºÐ°Ð¶Ð´Ð°Ñı":8674,"ĠÐ´Ð¾Ð»Ð¶Ð½Ð¾ÑģÑĤÑĮ":8675,"ĠÐ²ÑĭÐ´ÐµÐ»ÐµÐ½Ñĭ":8676,"ĠÐ´Ð²":8677,"ĠÐ·Ð°Ð²Ð¸ÑģÑıÑĤ":8678,"ĠÐ¼Ð¸ÑĢÑĥ":8679,"ĠÐłÐ¾ÑģÑģÐ¸ÐµÐ¹":8680,"ĠÑģÑĥÐ±ÑĬÐµÐºÑĤÑĭ":8681,"ĠÑģÐ¾ÑĨÐ¸Ð¾Ð»Ð¾Ð³Ð¸Ñı":8682,"ĠÐ¿Ð°ÑĢÑĤÐ¸Ñı":8683,"ÑĤÐ¸Ð¼Ð°":8684,"ĠÑįÐºÐ²Ð¸Ð²Ð°Ð»ÐµÐ½":8685,"ĠÑģÐ»Ð¾Ð¶Ð½Ð¾Ð¹":8686,"ĠÑĦÐ¸Ð½Ð°":8687,"ĠÐ¿ÑĢÐ¾Ð¿Ð¾ÑĢ":8688,"ĠÐºÐ¾Ð¼Ñĥ":8689,"Ð³Ð¾Ð²Ð¾ÑĢÑĭ":8690,"ĠÑģÐ¿ÐµÑĨÐ¸Ð°Ð»ÑĮÐ½Ð¾Ð³Ð¾":8691,"ĠÐ¸Ð½Ð²ÐµÑģÑĤÐ¸ÑĨÐ¸Ð¸":8692,"ĠÐĺÐ²Ð°Ð½Ð¾Ð²":8693,"ĠÐ°Ð¼ÐµÑĢÐ¸ÐºÐ°Ð½ÑģÐºÐ¾Ð¹":8694,"ĠÑģÑħÐµÐ¼Ñĭ":8695,"ĠÐ¶ÑĥÑĢÐ½Ð°Ð»Ð¸":8696,"ĠÑģÐ±ÐµÑĢÐµ":8697,"ĠÐ·Ð°Ð³":8698,"Ð´Ð¸ÑĤÑģÑı":8699,"ĠÐ¿ÑĢÐµÐ²Ð¾Ñģ":8700,"ÑĩÐ°ÑĤÑĮ":8701,"ĠÐ²Ð½ÑĥÑĤÑĢÐµÐ½Ð½Ð¸Ðµ":8702,"ĠÐºÐ¾Ð½ÑģÑĥÐ»ÑĮÑĤÐ°":8703,"ĠÐ¼Ð¾Ð½Ð¾":8704,"ĠÐºÐ¾Ð´ÐµÐºÑģÐ°":8705,"ĠÐ´ÐµÑıÑĤÐµÐ»Ð½Ð¾ÑģÑĤÐ¸":8706,"ĠÑĥÑģÑĤÑĢÐ¾":8707,"ĠÐ¾ÑģÑĤ":8708,"ĠÐ¾ÐºÑĢÐ°":8709,"ĠÐ³Ð»Ð°Ð²Ñĭ":8710,"ĠÐ´Ð¾ÑģÑĤÐ¾Ð¸Ð½":8711,"ÑĩÐ¸Ð»":8712,"ĠÐ½ÐµÐ´Ð¾Ð¿Ñĥ":8713,"ĠÐŀÐŃ":8714,"ĠÐ¸ÑģÐºÐ»ÑİÑĩÐµÐ½Ð¸Ñı":8715,"Ð²Ð°Ð½Ð¾":8716,"ĠÐºÐ¾Ð»Ð»ÐµÐ³Ð¸":8717,"Ð¾Ð²Ð°ÑĢÐ¸":8718,"ĠÐ´Ð¾ÑģÑĤÐ¾Ð¹":8719,"ĠÐºÐ¾Ð½ÑĤÐ°ÐºÑĤÐ¾Ð²":8720,"ĠÐ³Ð»Ñĥ":8721,"ĠÑĢÐµÑĩÐµÐ²Ð¾Ð³Ð¾":8722,"ĠÐ¸Ð½ÑĤÐµÑĢÐ°Ðº":8723,"ĠÐ¸ÑģÐ¿Ð¾Ð»ÑĮÐ·ÑĥÑı":8724,"Ġ\"":8725,"ĠÐ¾ÑģÐ»Ð¾Ð¶":8726,"ÑĥÑĨÐ¸":8727,"ÑĨÐ°Ñħ":8728,"ĠÑģÐ¾ÑĨÐ¸Ð¾Ð»Ð¾Ð³":8729,"ĠÐ°Ð±ÑģÐ¾Ð»ÑİÑĤÐ½Ð¾":8730,"ĠÑģÐ¿ÐµÑĨÐ¸ÑĦÐ¸ÐºÐ°":8731,"ĠÐ¾ÑģÑĥÑīÐµÑģÑĤÐ²Ð»ÐµÐ½Ð¸Ð¸":8732,"ĠÐ»Ð¸ÑĩÐ½Ð¾ÑģÑĤÑĮ":8733,"ĠÐºÐ°Ð¿Ð¸ÑĤÐ°Ð»Ð¸":8734,"ĠÐ´Ð¾Ð±ÑĢÐ¾ÑģÐ¾Ð²ÐµÑģÑĤ":8735,"ĠÐ¿ÑĢÐ¸ÑĤÑı":8736,"ĠÐ´Ð¾Ð±Ð¸ÑĤÑĮÑģÑı":8737,"ĠÑĥÑģÐºÐ¾ÑĢ":8738,"ĠÐ¾ÑģÐ¾Ð±ÑĭÑħ":8739,"ĠÐ¿ÑĢÐ°Ð²Ð°Ñħ":8740,"ĠÑįÑĦÑĦÐµÐºÑĤÐ¾Ð²":8741,"ĠÐ¾ÑĨÐµÐ½Ð¸Ð²Ð°ÑĤÑĮ":8742,"ĠÐ½Ð°ÑĩÐ¸Ð½Ð°ÐµÑĤÑģÑı":8743,"ÑĢÐ¸Ð°ÑĤÐ°":8744,"ĠÐĶÐ°Ð½Ð½ÑĭÐ¹":8745,"ĠÐ¿ÐµÑĢÑĦÐµÐºÑĤ":8746,"ĠÐ·Ð°ÑĢÐ°Ð½ÐµÐµ":8747,"ĠÐ¾Ð±ÑīÐ½Ð¾ÑģÑĤÐ¸":8748,"ĠÐ½Ð°ÑĩÐ¸Ð½Ð°ÑİÑĤ":8749,"ĠÐ¸Ð·Ð¾Ð±ÑĢÐ°Ð¶":8750,"ĠÐ²Ð¾ÑĪÐ»Ð¸":8751,"ÑĥÑĩÐ¸ÑĤÑĮ":8752,"ĠÐ¸Ð½Ð¸ÑĨÐ¸Ð¸":8753,"ĠÐĽÑĥ":8754,"ĠÑĤÑĥÑĢ":8755,"ĠÑģÐ¾Ð¼Ð½ÐµÐ½Ð¸Ñı":8756,"ĠÑĥÐ´Ð¸":8757,"ĠÑħÑĢÐ°":8758,"ĠÐ±ÐµÐ·Ð¾Ð¿Ð°ÑģÐ½Ð¾ÑģÑĤÑĮ":8759,"Ð¾Ð²ÑĭÐ¹":8760,"Ð»Ð°Ð´Ðµ":8761,"ĠÐ½Ð°Ð¿ÑĢÐ°Ð²Ð»ÐµÐ½Ð½Ð¾ÑģÑĤÑĮ":8762,"ĠÐ¾ÑĤÐ¼ÐµÑĤÐ¸Ð¼":8763,"Ð²Ð¸Ð´ÐµÐ½":8764,"ĠÐ¿ÐµÑĢÑģÐ¾Ð½Ð°Ð»ÑĮ":8765,"ĠÑĤÐ¾Ð½":8766,"ĠÐºÑĥÐ»ÑĮÑĤÑĥÑĢÑĥ":8767,"ĠÑģÑĥÐ´Ð¸ÑĤÑĮ":8768,"ĠÐ¼Ð°ÑĤÐµÑĢÐ¸Ð°Ð»ÑĮÐ½Ð¾Ð³Ð¾":8769,"ĠÐ¿Ð¸ÑģÐ°Ð»":8770,"ĠÑįÐ²":8771,"ĠÐļÐ¾Ð³Ð´Ð°":8772,"ÐĲÐ¢Ðŀ":8773,"ĠÐ»Ð¸ÑĩÐ½Ð¾":8774,"ĠÐ·Ð½Ð°ÑĩÐµÐ½Ð¸Ð¸":8775,"ĠÐ½Ð°Ð·Ð°Ð´":8776,"ĠÑĩÐµÑĪ":8777,"ÐĲÐº":8778,"ĠÑģÐ¾Ð´ÐµÑĢÐ¶Ð°ÑĤ":8779,"ĠÑģÑĢÐµÐ´Ð½ÐµÐµ":8780,"ĠÐ¾Ð±ÑīÐµÑģÑĤÐ²ÐµÐ½":8781,"ĠÐ·Ð½Ð°ÑĩÐ¸Ð¼ÑĭÐ¼":8782,"ĠÐ¼Ð½Ð¾Ð¶ÐµÑģÑĤÐ²Ð°":8783,"Ð²Ð°ÑİÑīÐ¸Ð¼":8784,"ĠÐŀÐ½Ð¾":8785,"ĠÐ¸Ð¼ÐµÐµÐ¼":8786,"ĠÑĤÑĢÐµÑĤÐ¸":8787,"ĠÑĤÐ²ÐµÑĢ":8788,"ĠÐ´ÐµÐºÐ»Ð°ÑĢÐ°":8789,"ĠÐ¿ÐµÑĢÐµÐ²Ð¾Ð´Ðµ":8790,"ĠÐºÐ¾Ð»Ð»ÐµÐºÑĤÐ¸Ð²":8791,"Ð¾ÑĤÐ¾ÑĩÐ¸":8792,"ĠÐºÐ¾Ð½ÑģÐ¾Ð»Ð¸":8793,"ĠÐ°Ð»ÐºÐ¾Ð³":8794,"ĠÐ·Ð°Ð±Ñĭ":8795,"ÑģÑĤÐ¸Ð½":8796,"ĠÑħÐ°ÑĢÐ°ÐºÑĤÐµÑĢÐ½Ð°":8797,"ĠÐ»Ð¸ÑĩÐ½Ð¾Ð¹":8798,"ĠÐ¸Ð½ÑģÑĤÑĢÑĥÐ¼ÐµÐ½ÑĤÑĭ":8799,"ĠÐ´Ð¾ÑģÑĤÐ¸Ð³Ð½Ñĥ":8800,"ĠÐ¿Ð¾ÑıÐ²Ð¸Ð»Ð¸ÑģÑĮ":8801,"ĠÑĢÑĥÑģÑģÐºÐ¸Ðµ":8802,"ĠÑģÑĤÑĢÑĥÐºÑĤÑĥÑĢÐ½ÑĭÑħ":8803,"ĠÑĩÐµÑĢÑĤ":8804,"ĠÑĤÑīÐ°":8805,"ĠÑĤÐµÑĢÐ¼Ð¸Ð½Ð°":8806,"ĠÐ»ÑİÐ±ÑĭÐµ":8807,"ĠÐ¾ÑĤÐ¾Ð±":8808,"ĠÑĢÐ¾Ð¶Ð´ÐµÐ½Ð¸Ñı":8809,"ĠÐ¤Ð°Ðº":8810,"ĠÑģÐ¾Ð±ÑĢÐ°Ð½":8811,"ĠÐ¿ÑĢÐ¾ÑĤÐ¸Ð²Ð¾ÑĢÐµÑĩÐ¸Ðµ":8812,"ĠÐºÑĢÑĥÐ³Ð°":8813,"ÑĤÑĮÐµÐ²":8814,"ÑĢÐ°Ð±Ð¾ÑĤÐ°Ð½":8815,"ĠÑģÐ»ÑĥÐ¶Ð°ÑīÐ¸Ñħ":8816,"ĠÑĤÑĢÐµÐ½":8817,"ĠÐĳÐ°ÑĢ":8818,"ĠÐ¿Ð¾ÐºÐ°Ð·Ð°ÑĤÐµÐ»ÐµÐ¼":8819,"ĠÑģÑĥÑīÐµÑģÑĤÐ²ÑĥÑİÑīÐ¸Ðµ":8820,"Ð½Ð¸ÑĩÐµÑģÑĤÐ²Ð¾":8821,"ĠÐ¸ÑİÐ»Ñı":8822,"Ð¾Ð³Ð¾Ð¾Ð±":8823,"ĠÐ¿ÑĢÐ°Ð²Ð¾Ð²Ð°Ñı":8824,"Ð´Ð°Ð½Ð½ÑĭÑħ":8825,"ĠÐ½Ð°Ð»Ð¾Ð³Ð¾Ð²ÑĭÑħ":8826,"ĠÑģÐ¾Ð³Ð»Ð°ÑģÐ¸ÑĤÑĮÑģÑı":8827,"ĠÐ²ÑĭÐ±":8828,"Ð¸Ð·Ð¼":8829,"ĠÐ¿Ð»Ð°Ð½Ñĭ":8830,"ĠÑĥÑĤÐ²ÐµÑĢÐ¶Ð´ÐµÐ½Ð¸Ñı":8831,"ÑĤÐ¸ÐºÐ¾":8832,"ĠÑĢÐ°ÑģÐ¼Ð°ÑĤÑĢÐ¸":8833,"ĠÐ´ÐµÑĤÑģÐºÐ¾Ð¹":8834,"ĠÑĤÐ¾Ð²Ð°ÑĢ":8835,"ĠÐ¾Ð±ÑĥÑĩÐµÐ½Ð¸Ñİ":8836,"Ð¾ÑĢÑĦ":8837,"ĠÐ¾Ð±Ð»":8838,"ĠÑĢÐµÐ°Ð»":8839,"ĠÐ¼Ð¶ÐµÑĤ":8840,"ĠÐ°ÐºÑĤÐ¸Ð²Ð½Ð¾Ðµ":8841,"ĠÐ¿Ð»Ñĥ":8842,"Ð¿ÑĢÐ°Ð²Ð¾Ð²ÑĭÐµ":8843,"ĠÐ¿Ð¾Ð·Ð¶Ðµ":8844,"ĠÑĦÐ¸Ð½Ð°Ð½Ñģ":8845,"ĠÐ¿Ð¾ÐºÑĢÑĭ":8846,"ĠÐłÐ¡Ð¤":8847,"Ð·Ð°Ð½Ð½ÑĭÑħ":8848,"ĠÑİÐ½Ð¾":8849,"ÑĤÐ½ÑĭÐ¼Ð¸":8850,"ĠÐ´Ð°Ð½Ð½ÑĥÑİ":8851,"ĠÑĦÐ¸Ð»":8852,"ĠÐ·Ð°ÐºÐ¾Ð½Ð¾Ð´Ð°ÑĤÐµÐ»ÑĮÐ½Ð¾Ð¹":8853,"ĠÐ¾Ð±ÑĬÐµÐ¼Ð¾Ð²":8854,"ĠÐ¿Ð¾Ð´Ñģ":8855,"ĠÐ½Ð°ÑħÐ¾Ð´Ð¸ÑĤ":8856,"ĠÑĢÐµÐ±ÐµÐ½ÐºÐ¾Ð¼":8857,"ĠÐ¼Ð³":8858,"ĠÐļÐ¾Ð½Ð²ÐµÐ½ÑĨÐ¸Ð¸":8859,"ĠÐ²ÐµÑĢÐ¾ÑıÑĤÐ½Ð¾ÑģÑĤÐ¸":8860,"ÑıÐ·ÑĭÑĩÐ½ÑĭÑħ":8861,"ÑģÐºÐ³Ð¾":8862,"ĠÐ¿ÐµÑĢÐµÐ²Ð¾Ð·":8863,"ĠÐ²Ð¾Ð¿ÑĢÐ¾ÑģÐ¾Ð¼":8864,"ĠÑĢÐ¾ÑģÑģÐ¸ÑıÐ½":8865,"ĠÐ²ÐºÐ»ÑİÑĩÐ°ÑİÑĤ":8866,"ĠÐ¾ÑĢÐ³Ð°Ð½Ð¸Ð·Ð¾Ð²Ð°Ð½":8867,"ÑĤÑĢÐµÐ±":8868,"ĠÐłÐ¡Ð¤Ð¡Ðł":8869,"ĠÐ¸Ð´ÑĤÐ¸":8870,"ĠÐ¾Ð³Ð°":8871,"ĠÐ³Ð¾ÑģÑĥÐ´Ð°ÑĢÑģÑĤÐ²Ñĥ":8872,"ĠÑģÑĤÐ°Ð½Ð´Ð°ÑĢÑĤÐ°":8873,"ĠÐŁÐ¾Ð¼Ð¸Ð¼Ð¾":8874,"ĠÐ¾ÑĤÑĩÐµÑĤÐ½Ð¾ÑģÑĤÐ¸":8875,"ĠÐ¾Ð±Ð¾Ð±ÑīÐµÐ½":8876,"ĠÐĿÐµÐºÐ¾ÑĤÐ¾ÑĢÑĭÐµ":8877,"ĠÐ²Ð¾Ð¿ÑĢÐ¾ÑģÐµ":8878,"ÑģÑĤÐ¸ÑĩÐµÑģÐºÐ°Ñı":8879,"ĠÐ±Ð»Ð°Ð³Ð°":8880,"ÑĢÐ¾Ð²Ð½Ð¸Ñı":8881,"ĠÐ¼ÐµÑģÑĤÐ½ÑĭÐµ":8882,"ĠÐ¸ÑģÐ¿Ð¾Ð»Ð·":8883,"ĠÑĩÑĥÐ²ÑģÑĤÐ²Ð°":8884,"ĠÐ¿Ð¾Ð´ÑĢÐ°Ð·ÑĥÐ¼ÐµÐ²Ð°ÐµÑĤ":8885,"ÑĩÐ¸Ð¹":8886,"ĠÐ³Ð»Ð°Ð³Ð¾Ð»Ñĭ":8887,"Ð¾Ð¿Ð¾Ð»ÑĮ":8888,"ÑĢÐ°Ð·Ð²Ð¸":8889,"ĠÐ¸ÑģÐ¿Ð¾Ð»ÑĮÐ·ÑĥÐµÐ¼ÑĭÑħ":8890,"ĠÐ³ÑĢÐ°Ð¶Ð´Ð°Ð½Ðµ":8891,"ÑĢÑĥÐ³Ð¸Ð¼Ð¸":8892,"ÑģÑĤÐ¾ÑĢÐ¸Ñı":8893,"Ð¼ÑĥÐ½Ð¸":8894,"ÑĨÐ¸Ð¾":8895,"ĠÑģÐ¾Ð±Ð»ÑİÐ´":8896,"ĠÐ¿ÑĢÐ¸Ð¼ÐµÑĢÐ¾Ð¼":8897,"ĠÐ½Ð°ÑĨÐ¸Ð¸":8898,"ĠÐ¢Ð¾Ð»ÑĮÐºÐ¾":8899,"ĠÑĦÐ°ÐºÑĥÐ»ÑĮÑĤÐµÑĤÐ°":8900,"ĠÐ¿ÑĢÐµÐ´ÑĥÐ¿ÑĢÐµ":8901,"Ð¾Ð½ÑıÑĤ":8902,"ĠÐ¿Ð¾Ð»Ð½Ð¾Ðµ":8903,"ĠÐ¼ÐµÐ»":8904,"ĠÑįÐ½ÐµÑĢÐ³ÐµÑĤ":8905,"ĠÐ£ÐºÑĢÐ°Ð¸Ð½Ñĭ":8906,"ĠÐļÑĥÑĢ":8907,"ÑħÐ¾Ð¶":8908,"ĠÐ¿ÑĢÐ¸Ð¼":8909,"ĠÑĢÐ°ÑģÐ¿ÑĢÐ¾":8910,"ĠÑĨÐµÐ¿Ð¾":8911,"ĠÐļÐ¾Ð½ÑģÑĤÐ°Ð½":8912,"ĠÑĢÐ°Ð·Ð´ÐµÐ»ÐµÐ½Ð¸Ñı":8913,"ĠÐ½ÐµÑģÐ¾Ð²ÐµÑĢÑĪÐµÐ½Ð½Ð¾Ð»ÐµÑĤ":8914,"Ð¿Ð¾Ð¼":8915,"ĠÐ¿ÑĢÑĨÐµÑģÑģ":8916,"ĠÐ¸Ð¼ÐµÐ»Ð¾":8917,"ĠÐ¿Ð¾Ð»ÑĮÐ·Ð¾Ð²Ð°ÑĤÐµÐ»ÐµÐ¹":8918,"Ð»ÑĭÐµ":8919,"ĠÑĢÐ°Ð²ÐµÐ½ÑģÑĤÐ²Ð°":8920,"ĠÐ±Ð»Ð°Ð³Ð¾ÑģÐ¾ÑģÑĤÐ¾ÑıÐ½Ð¸Ñı":8921,"ĠÐĻ":8922,"Ð°Ð½Ñĭ":8923,"ÑīÐ°Ð»Ð¸":8924,"ĠÐ¿ÑĢÐ¾ÑĦÐµÑģÑģÐ¾ÑĢÐ°":8925,"ĠÐ¸ÑģÑĩÐµÐ·":8926,"ĠÐĿÐ°ÐºÐ¾Ð½ÐµÑĨ":8927,"ÑĢÐ¾Ð²Ð°Ð½Ð½ÑĥÑİ":8928,"ĠÐ²Ð¾ÐµÐ½Ð½ÑĭÐµ":8929,"ĠÐ³ÐµÐ½ÐµÑĢÐ°Ð»":8930,"ĠÑĥÑģÑĭÐ½Ð¾Ð²":8931,"ĠÐ¸ÑģÑģÐ»ÐµÐ´Ð¾Ð²Ð°ÑĤÐµÐ»ÑĮÑģÐºÐ¸Ñħ":8932,"Ð¸ÐºÐ¸":8933,"ĠÐ¿Ð»Ð°ÑģÑĤÐ¸":8934,"ÐµÑĢÑĮ":8935,"Ð³ÑĥÑĢÐ°":8936,"ĠÐ½Ð°Ð´Ð»ÐµÐ¶Ð°":8937,"ĠÐ¶Ð¸Ð·Ð½ÐµÐ´ÐµÑıÑĤÐµÐ»ÑĮÐ½Ð¾ÑģÑĤÐ¸":8938,"Ð¾Ñĥ":8939,"ÑĤÐµÐ»Ð½Ð¾":8940,"ĠÐ¸Ð½ÑĤÐµÑĢÐµÑģÐ°Ð¼":8941,"ĠÐºÐ°ÑĩÐµÑģÑĤÐ²":8942,"Ð¾Ð»Ð¶":8943,"ÑĨÐ¸Ð¾Ð½Ð°Ð»ÑĮÐ½Ð¾Ð³Ð¾":8944,"ĠÑħÐ¸Ð¼Ð¸":8945,"ĠÑģÐµÐ¼Ð°Ð½ÑĤÐ¸ÐºÐ¸":8946,"ĠÐ½ÐµÐºÐ¾Ð¼":8947,"ÑĦÑĥÐ½Ðº":8948,"ĠÐĺÐ½Ð´Ð¸Ð¸":8949,"ĠÑĤÐµÑĢÐ¼Ð¸Ð½Ð¾Ð²":8950,"ĠÑĤÐ¾Ð»ÐºÐ¾Ð²Ð°Ð½Ð¸Ñı":8951,"ĠÑģÐ¾Ð±Ðµ":8952,"ĠÑĢÐ°ÑģÑģÐ¼Ð°ÑĤÑĢÐ¸Ð²Ð°ÑİÑĤ":8953,"ĠÐ¾ÑģÐ¾Ð·Ð½Ð°Ð½":8954,"ĠÐ¿Ð¾Ð´ÑĤÐ²ÐµÑĢÐ¶Ð´Ð°ÐµÑĤÑģÑı":8955,"ĠÑĥÑĩÑĢÐµÐ¶Ð´ÐµÐ½Ð¸ÑıÑħ":8956,"ĠÑģÐ»ÑĥÑĩÐ°Ð¹Ð½Ð¾":8957,"ĠÐ¾ÑĤÐ´ÐµÐ»":8958,"ĠÐ»Ð¸ÐºÐ²Ð¸Ð´Ð½Ð¾ÑģÑĤÐ¸":8959,"Ð·ÑĭÐ²Ð°ÐµÑĤÑģÑı":8960,"ĠÐłÐµÑģÐ¿ÑĥÐ±Ð»Ð¸ÐºÐµ":8961,"ĠÑĪÐµÑģÑĤÐ¸":8962,"ĠÐºÐ¸Ð±":8963,"ĠÐ¿Ð¾Ð±Ðµ":8964,"ĠÑĢÐ°Ð·Ð´ÐµÐ»Ñı":8965,"ĠÐ¿ÑĢÐ¾ÑĤÐµÑģÑĤ":8966,"ĠÑģÐ¾Ð²ÐµÑĢÑĪÐµÐ½ÑģÑĤÐ²Ð¾Ð²Ð°Ð½Ð¸Ñı":8967,"ĠÐ¸Ð½Ð²ÐµÑģÑĤÐ¾ÑĢÐ¾Ð²":8968,"ĠÑģÐ¾Ð¾Ð²ÐµÑĤ":8969,"ĠÐ½ÐµÐ³Ð°ÑĤÐ¸Ð²Ð½ÑĭÐµ":8970,"ĠÐłÑĥÑģÐ¸":8971,"ĠÑģÑĤÑĥÐ¿":8972,"ĠÐ»ÑİÐ±Ð¾Ðµ":8973,"ĠÐ¿ÑĢÐµÐ´Ð¾ÑģÑĤÐ°Ð²Ð»ÐµÐ½":8974,"ĠÐ¿ÑĢÐµÐ´ÑĥÑģÐ¼Ð°ÑĤÑĢÐ¸Ð²Ð°ÐµÑĤ":8975,"ÑĢÐµÐ³Ð¸ÑģÑĤÑĢÐ¸":8976,"ÑİÑīÐµÐµÑģÑı":8977,"ĠÑģÐ¿Ð¾ÑģÐ¾Ð±Ð°Ð¼Ð¸":8978,"ĠÐ¾Ð±ÑĥÑģÐ»Ð¾Ð²Ð»ÐµÐ½":8979,"ĠÐ»Ð°Ð³ÐµÑĢ":8980,"ÑĩÑĥÐ²":8981,"ÑĤÐµÐ»ÑĮÑģÑĤÐ²Ðµ":8982,"ĠÑģÑĥÐ¶Ð´ÐµÐ½Ð¸Ñı":8983,"ÑģÐ¿ÐµÐº":8984,"ĠÑģÑĢÐ°Ð²Ð½ÐµÐ½Ð¸Ðµ":8985,"ĠÐ±Ð°Ð»Ð°Ð½ÑģÐ°":8986,"ĠÑĢÐ¾Ð´Ð¸ÑĤÐµÐ»ÑıÐ¼Ð¸":8987,"ĠÐ³Ð°ÑĢÐ°Ð½ÑĤÐ¸Ð¹":8988,"ĠÐ·Ð°ÐµÐ¼":8989,"ĠÐ²Ð°ÑĢÐ¸Ð°Ð½ÑĤÐ°":8990,"ĠÐ´Ð¾Ð¼Ð¾ÑħÐ¾Ð·ÑıÐ¹":8991,"ĠÐ½Ð°ÑĩÐ°Ð»ÑĮÐ½Ð¾Ð¹":8992,"ĠÐ¾Ð´Ð½Ð¾Ð·Ð½Ð°ÑĩÐ½Ð¾":8993,"ĠÑĤÑĢÐ°Ð²":8994,"ĠÑĢÐ°ÑģÑĤÑĥ":8995,"ĠÐķÑīÐµ":8996,"ĠÑĥÑĩÐµÐ½Ð¾Ð³Ð¾":8997,"ĠÑĤÑĢÐ°ÐµÐºÑĤÐ¾ÑĢÐ¸Ð¸":8998,"ĠÐ·Ð°Ð¿Ð¸ÑģÐ¸":8999,"ĠÐ¾Ð±ÑĭÐ´ÐµÐ½":9000,"ĠÐ¿ÑĢÐ¸Ð¼ÐµÐ½ÑıÑĤÑĮ":9001,"ĠÐ¾Ð±Ð¾ÑģÑĤ":9002,"ĠÐ³Ð»Ð¾Ð±Ð°Ð»ÑĮÐ½Ð¾Ð¹":9003,"ĠÐ²Ð¾Ð·ÑĢÐ°ÑģÑĤÐ½Ð¾Ð¹":9004,"ĠÑģÐ¾Ð¿ÑĢÑıÐ¶ÐµÐ½":9005,"ÑĪÐµÐ½Ð¾":9006,"ĠÑģÐ¾Ð·Ð½Ð°Ð½Ð¸Ðµ":9007,"Ð¢Ð°ÐºÐ¾Ð¹":9008,"ĠÐºÐ°ÑĢÑĤÐ¸Ð½Ð°":9009,"ĠÐ½ÐµÐ¶ÐµÐ»Ð°":9010,"ĠÐµÑİ":9011,"ĠÐ¢Ñĥ":9012,"ĠÐ´Ð¸Ð²ÐµÑĢÑģÐ¸":9013,"ĠÐ¿ÑĢÐ¾Ð±Ð»ÐµÐ¼Ð°Ð¼Ð¸":9014,"ĠÐ¿Ð¾Ð´Ð»Ð¸Ð½":9015,"ÐĲÐŃÐ¡":9016,"Ð»Ð¸Ð·Ð¸":9017,"ĠÐºÐ¾Ð½Ð²ÐµÐ½":9018,"ĠÐ¼Ð¸Ð½Ð¸Ð¼Ð¸":9019,"ÑĢÐ¾Ð²ÐµÐ´ÐµÐ½":9020,"ĠÐ¼Ð½Ð¾Ð³Ð¾ÑĩÐ¸ÑģÐ»ÐµÐ½Ð½ÑĭÐµ":9021,"ĠÐ½ÐµÑįÑĦÑĦÐµÐºÑĤÐ¸Ð²":9022,"ĠÑĥÑĩÐ°ÑīÐ¸ÐµÑģÑı":9023,"Ð¾ÑĢÐ¼Ð¸":9024,"ÐļÐ¾Ð¼":9025,"ĠÐ½Ð¾Ð²ÑĭÐ¼Ð¸":9026,"ĠÐ²ÐºÐ»ÑİÑĩÐµÐ½Ñĭ":9027,"ĠÐ³Ð°Ð·ÐµÑĤ":9028,"ÐµÑĢÐ¾Ð¼":9029,"ĠÐ½ÐµÑģÐ¾Ð¼Ð½ÐµÐ½Ð½Ð¾":9030,"ÑīÑĳ":9031,"ĠÐ·Ð°ÑĤÑĢÐ°ÑĤÑĭ":9032,"Ð°Ð»ÑĮÐ½Ð¾Ð¼Ñĥ":9033,"ĠÑģÐ°Ð¼Ð¾ÑģÑĤÐ¾ÑıÑĤÐµÐ»ÑĮÐ½Ð¾ÑģÑĤÐ¸":9034,"ĠÐ¿ÑĢÐµÐ²ÑĢÐ°ÑĤÐ¸":9035,"ĠÐ¾Ð±ÑĬÐµÐºÑĤÐ°Ð¼Ð¸":9036,"ĠÐ¾Ð¿Ð¸ÑģÑĭÐ²Ð°ÐµÑĤ":9037,"ĠÐ»Ð¾Ð³Ð¸ÐºÐµ":9038,"ĠÐ¿Ð¾Ð´Ð´ÐµÑĢÐ¶Ð¸Ð²Ð°ÑĤÑĮ":9039,"ĠÑĢÐ°ÑģÑĩÐµÑĤÐ°":9040,"ĠÑģÐ¾Ð´Ðµ":9041,"ÑĤÐ¸Ð½Ð°":9042,"ĠÐ¡Ð²Ñı":9043,"ĠÐ¿ÑĢÐµÐ´ÑģÑĤÐ°Ð²Ð»ÐµÐ½Ð¾":9044,"ĠÐĶÐ°Ð¶Ðµ":9045,"ÐµÑĤÑĮ":9046,"ÑĢÑĥÑİÑīÐµÐ³Ð¾":9047,"ĠÑħÐ¾Ð»":9048,"ÑĢÐ¸ÑģÑĤ":9049,"ĠÑģÐ¿Ð¾ÑĢÐ°":9050,"ĠÑģÐ»ÑĥÐ¶ÐµÐ±":9051,"ĠÑĢÐ°Ð²Ð½Ð¾Ð²Ðµ":9052,"ĠÑĦÑĢÐ°Ð·Ðµ":9053,"ĠÐºÐ¾Ð¼ÑĦÐ¾ÑĢ":9054,"ĠÑĤÑĢÐµÐ±Ð¾Ð²Ð°Ð½Ð¸Ðµ":9055,"ĠÐ¿ÑĥÐ½ÐºÑĤÐ¾Ð²":9056,"ĠÐ½Ð°Ð»Ð¾Ð³Ð¾Ð¾Ð±":9057,"ĠÐ¿Ð¾Ð²ÐµÑģÑĤ":9058,"ÐĿÐµÐºÐ¾ÑĤÐ¾ÑĢÑĭÐµ":9059,"ĠÑĤÐµÑĢÑĢÐ¸ÑĤÐ¾ÑĢÐ¸Ñİ":9060,"ĠÐ²ÐºÐ»ÑİÑĩÐµÐ½Ð¸Ñı":9061,"ĠÑģÐ¾Ð¾ÑĢÑĥÐ¶":9062,"ÑĥÑĤÐ±":9063,"ĠÐ»ÑİÐ±ÑĭÑħ":9064,"ĠÑĪÐºÐ¾Ð»ÑĮÐ½Ð¾Ð¹":9065,"ĠÑĢÐ°ÑģÑģÐ¼Ð°ÑĤÑĢÐ¸Ð²Ð°ÐµÐ¼Ð¾Ð¹":9066,"ĠÐ²ÑĭÐ´ÐµÐ»ÑıÑİÑĤÑģÑı":9067,"ĠÑĢÐµÐ¶Ð¸Ð¼Ðµ":9068,"ĠÐ½Ð°ÑģÑĤÐ¾Ð»ÑĮÐºÐ¾":9069,"ĠÐ²ÑĢÐµÐ¼ÐµÐ½Ð½Ð¾Ð¹":9070,"ĠÐ¿ÑĢÐ¸ÑģÑĥÑĤÑģÑĤÐ²ÑĥÐµÑĤ":9071,"ĠÑģÐ»Ð¾Ð¶Ð¸Ð²ÑĪÐµÐ¹ÑģÑı":9072,"ĠÑħÐ¾Ð·ÑıÐ¹ÑģÑĤÐ²":9073,"Ġ20":9074,"ĠÐ§ÑĤÐ¾Ð±Ñĭ":9075,"ĠÐ¿ÑĢÐ¾ÑĦÐµÑģÑģÐ¸Ð¾Ð½Ð°Ð»ÑĮÐ½Ð¾Ðµ":9076,"ĠÑĥÐ½Ð¸Ð²ÐµÑĢÑģÐ¸ÑĤÐµÑĤÐ°Ñħ":9077,"ÑĢÐ¸Ñİ":9078,"ĠÐ¿ÑĢÐ¾Ð¸ÑģÑħÐ¾Ð´Ð¸Ð»Ð¾":9079,"ĠÑİÐ¶":9080,"ĠÐ¿Ð¾Ð»ÑĥÑĩÐµÐ½Ñĭ":9081,"ÑīÐ¸Ð¼Ð¸ÑģÑı":9082,"ĠÑģÑĥÐ¼Ð¼Ñĥ":9083,"ĠÐ¿ÑĢÐ¾ÑĤÐ¸Ð²Ð¾ÑĢÐµÑĩÐ¸Ð¹":9084,"ĠÑģÐ¾Ð³Ð»Ð°ÑģÑĥ":9085,"ĠÑĥÑĩÐµÐ±Ñĭ":9086,"ĠÐ·Ð½ÑĩÐ¸":9087,"ÑĤÑģÐºÐ¸Ñħ":9088,"ĠÐ¿ÑĢÐ¸Ð³Ð»Ð°":9089,"ĠÐŁÐ°ÑĢÐ¸":9090,"ĠÐ¿ÑĢÐµÐ¾Ð±ÑĢÐ°Ð·Ð¾Ð²Ð°Ð½Ð¸Ñı":9091,"ĠÐ¿ÑĢÐ¸Ð¼ÐµÐ½ÐµÐ½Ð¸Ð¸":9092,"ÑĨÐ¸Ð°Ð»ÑĮÐ½Ð¾Ð³Ð¾":9093,"ĠÑıÐ²Ð»ÑıÐ»ÑģÑı":9094,"ÑĨÐ¸Ð°Ð»ÑĮÐ½Ð¾Ð¹":9095,"ĠÐĿÐ¾ÑĢ":9096,"ÑĢÐ°Ð±Ð¾ÑĤÐºÐ°":9097,"Ð»Ð¾Ð²Ð°ÐºÐ¸":9098,"ĠÐºÐ¾Ð¼Ð¸ÑĤÐµÑĤÐ°":9099,"ĠÑĦÐ¸Ð½":9100,"ĠÑģÐ¿Ð»Ð¾":9101,"ĠÑħÐ°ÑĢÐ°ÐºÑĤÐµÑĢÐµ":9102,"ĠÑĥÐºÐ°Ð·Ð°Ð½Ð½ÑĭÐµ":9103,"Ð¢Ð°ÐºÐ°Ñı":9104,"ĠÑģÐµÑĢÐ²Ð¸":9105,"ÑĬÐµÐ¼Ð»ÐµÐ¼":9106,"ĠÑĢÐ°ÑģÑĤÐµÑĤ":9107,"ĠÑĢÐ¾ÑģÐ¸Ð¹":9108,"ĠÐ³Ð¾Ð´Ð°Ñħ":9109,"ĠÐ¸Ð¼Ð¿Ð¾ÑĢÑĤ":9110,"ĠÑģÑĥÐ¿ÑĢÑĥ":9111,"ÑĩÐ¸Ð²Ð°ÐµÑĤ":9112,"ĠÐ¿Ð¾Ð»Ð¸ÑĤÐ¸ÑĩÐµÑģÐºÐ¾Ðµ":9113,"ÑĪÐ»Ð°":9114,"ĠÐ·Ð°Ð´ÐµÐ¹ÑģÑĤÐ²":9115,"ĠÑĢÐ°Ð¹Ð¾Ð½Ð¾Ð²":9116,"ĠÐ¾Ð±ÑĬÐµÐºÑĤÐ¸Ð²Ð½Ð¾":9117,"ĠÑĥÑģÐ¿ÐµÐ²Ð°ÐµÐ¼Ð¾ÑģÑĤÐ¸":9118,"ÑģÐºÑĢÐ¸":9119,"Ð¼Ð¸Ð½Ð°Ð½":9120,"ĠÐ¿Ð¾ÑģÑĤÑĥÐ¿Ð»ÐµÐ½Ð¸Ñı":9121,"ĠÐ°Ð½Ð³Ð»Ð¾":9122,"ĠÑĥÑģÑĤÑĥÐ¿Ð°":9123,"ĠÐ´Ð¸ÑģÑĨÐ¸Ð¿Ð»Ð¸Ð½":9124,"ĠÐ¾Ð±ÑĢÐ°Ð·Ð¾Ð²Ð°Ð½":9125,"ĠÐºÑĢÐ¸ÑĤÐ¸ÐºÐ¸":9126,"ĠÑģÐ¾Ð´ÐµÑĢÐ¶Ð°Ð½Ð¸ÐµÐ¼":9127,"ĠÐķÐĲÐŃÐ¡":9128,"ĠÐ½ÐµÐ·Ð°Ð²Ð¸ÑģÐ¸Ð¼Ð¾ÑģÑĤÐ¸":9129,"ĠÐ¿Ð¾Ð´Ð¿Ð¸ÑģÐ°":9130,"ÑĤÐ¾ÑĩÐ½ÑĭÑħ":9131,"ĠÐºÐ°ÑĢÐ°":9132,"ĠÐ¾Ð¿Ð¸ÑĢÐ°ÐµÑĤÑģÑı":9133,"ĠÐ°Ð²Ð³ÑĥÑģÑĤÐ°":9134,"ĠÐ¾Ð±ÐµÑģÐ¿ÐµÑĩÐµÐ½Ð¸Ð¸":9135,"ĠÐ±ÐµÑģÐ¿Ð»Ð°":9136,"Ð½ÐºÐ°":9137,"Ð´Ð°ÑĩÐ°":9138,"ĠÐ±ÑĥÑħ":9139,"ĠÐ¾ÑģÑĥ":9140,"ĠÐ¼ÐµÑģÑĤÐ½Ð¾Ð¹":9141,"ĠÑģÐ¾ÑģÑĤÐ°Ð²Ð»ÑıÐ»Ð¸":9142,"ĠÑĤÐµÐ»ÐµÑĦ":9143,"ÐŁÑĢÐµÐ¶Ð´Ðµ":9144,"ÑīÐ°Ð»Ð¸ÑģÑĮ":9145,"ĠÑĥÑģÐ»Ð¾Ð²Ð¸Ðµ":9146,"ĠÐ¾Ð´Ð½Ð¾ÑĢÐ¾Ð´":9147,"ĠÐ½Ð°ÑĢÐ°ÑģÑĤÐ°":9148,"ĠÑıÐ·ÑĭÐºÐ¸":9149,"ĠÑģÐ»ÑĥÐ¶Ð°ÑĤ":9150,"ĠÐ½ÐµÐ±Ð»Ð°Ð³Ð¾Ð¿ÑĢÐ¸ÑıÑĤ":9151,"ĠÐ¼Ð¸Ð½Ð¸ÑģÑĤÑĢÐ°":9152,"ĠÑĥÐ¼Ðµ":9153,"Ð¼ÐµÐ½Ñı":9154,"ĠÐ¿ÑĢÑıÐ¼ÑĭÑħ":9155,"ĠÐ´Ð¾Ð»ÐµÐ¹":9156,"ĠÑĦÐ¾Ð½Ð´Ñĭ":9157,"ĠÐ¿ÑĢÐ¸Ð±ÑĭÐ»ÑĮ":9158,"Ð°ÑĢÐ°ÐºÑĤÐµÑĢÐ¸Ð·":9159,"ĠÑģÐ¾Ð±ÐµÑģÐµÐ´":9160,"Ð¿ÑĢÐ¾ÑģÑĤÑĢÐ°Ð½":9161,"ĠÑĢÐ°Ð±Ð¾ÑĤÐ°ÑİÑīÐ¸Ñħ":9162,"ĠÐ¿ÑĢÐµÐ´Ð¿ÑĢÐ¸Ð½Ð¸Ð¼Ð°ÑĤÐµÐ»ÑĮÑģÐºÐ¾Ð¹":9163,"Ð±ÑĥÐ´ÑĮ":9164,"ĠÐ¿Ð¾Ð½Ð¸Ð¼Ð°Ð½Ð¸Ñİ":9165,"ĠÐ¾ÑģÐ½Ð¾Ð²Ð°Ð½Ð¸Ðµ":9166,"ĠÑģÑĤÑĥÐ´ÐµÐ½ÑĤ":9167,"ĠÐ´Ð²ÑĥÐ¼":9168,"ÑĤÑĥÐ°Ð»Ð¸Ð·Ð°ÑĨÐ¸Ð¸":9169,"ĠÐ¼Ð°ÑĤÐµÑĢÐ¸Ð°Ð»ÑĮÐ½ÑĭÑħ":9170,"ĠÑģÐ´ÐµÐ»":9171,"ĠÐºÐ¾Ð¼Ð¿ÐµÐ½ÑģÐ¸":9172,"ĠÐ¾Ð½Ð¾Ð²":9173,"ĠÐ³Ð¾ÑĢÐ¾Ð¶":9174,"ĠÐ¿ÑĢÐ¸Ð½Ð°Ð´Ð»ÐµÐ¶Ð½Ð¾ÑģÑĤÑĮ":9175,"ÐµÐ»ÐµÐ½":9176,"ĠÐ½Ð°Ð±Ð¾ÑĢÐ°":9177,"Ð³Ð°ÑİÑĤ":9178,"ĠÑģÑĤÐ°Ð½Ð´Ð°ÑĢÑĤÑĭ":9179,"ĠÑĢÐ°Ð·Ð½Ð¾Ð¹":9180,"ĠÐ·Ð½Ð°ÑĩÐ¸ÑĤÐµÐ»ÑĮÐ½ÑĭÐ¹":9181,"ĠÐ½ÐµÐ¾Ð±ÑħÐ¾Ð´Ð¸Ð¼Ñĭ":9182,"ĠÐ¿Ð¾ÑģÐ»ÐµÐ´Ð½ÐµÐ¹":9183,"ĠÐ±ÐµÑģ":9184,"ĠÐ¿ÑĢÐ°Ð²Ð¸Ð»Ð°Ð¼":9185,"ÑĤÐ»ÐµÐ¹":9186,"ÑģÐ½Ð¸ÐºÐ¾Ð²":9187,"ĠÐ¿ÑĥÑĤÐµÐ¹":9188,"ĠÐºÐ°ÐºÑĥÑİ":9189,"ĠÐ²Ð¾Ð·Ð¼Ð¾Ð¶Ð½Ð¾ÑģÑĤÑıÐ¼Ð¸":9190,"ĠÐ·Ð°Ð½Ð¸Ð¼Ð°ÑĤÑĮÑģÑı":9191,"ĠÐ¾Ð±Ð·Ð¾ÑĢ":9192,"ĠÐ¸Ð·Ð¼ÐµÐ½ÐµÐ½Ð¸ÑıÐ¼":9193,"ĠÐ¾ÑĤÐ²ÐµÑĩÐ°ÐµÑĤ":9194,"ÑģÐ½ÑĭÐ¹":9195,"ÐµÐ½ÑģÑĤÐ²Ð°":9196,"ĠÐ°ÐºÑĤÐ°Ð½":9197,"ĠÐ¿Ð¾ÐºÐ°Ð·Ð°ÑĤÐµÐ»ÑıÐ¼":9198,"ĠÐ»Ð¸ÑĩÐ½Ð¾ÑģÑĤÐ½ÑĭÑħ":9199,"ÑĤÐ¸ÑĦÐ¸ÐºÐ°ÑĨÐ¸Ð¸":9200,"ĠÐ¾ÑĦ":9201,"Ð§ÐŁ":9202,"ĠÐ¿Ð¾ÐºÐ°Ð·":9203,"ĠÐ·Ð°Ð¿Ð°Ð´Ð½Ð¾Ð¹":9204,"Ð²ÐµÑģÐ¸":9205,"ĠÐ°ÐºÑĤÐ¸Ð²Ð½Ð¾Ð³Ð¾":9206,"ĠÐ¿ÑĢÐ°Ð²Ð°Ð¼":9207,"ĠÑĤÐ²Ð¾ÑĢÑĩÐµÑģÑĤÐ²Ð°":9208,"ĠÑģÑĩÐµÑĤÐµ":9209,"ĠÑĤÐ¾Ð²Ð°ÑĢÑĭ":9210,"ĠÑģÐ¾Ð¾ÑĤÐ½Ð¾ÑģÐ¸":9211,"ĠÐ²ÑĭÑģÐ¾ÐºÐ¸Ð¼Ð¸":9212,"ĠÑįÑĦÑĦÐµÐºÑĤÐ¸Ð²Ð½ÑĭÑħ":9213,"ĠÐ³ÑĥÐ±ÐµÑĢÐ½Ð°":9214,"ĠÐ¶Ð¸Ð»Ð¸Ñī":9215,"ĠÐ½Ð°ÑĢÐº":9216,"ĠÑĤÐµÑħÐ½Ð¸ÑĩÐµÑģÐºÐ¸Ñħ":9217,"ĠÐ¿ÑĢÐ¾ÑģÐ»ÐµÐ´Ð¸ÑĤÑĮ":9218,"ÑĥÐ·Ð°":9219,"ĠÑĢÐ°ÑģÑģÐ¼Ð°":9220,"ĠÐ¸Ð½Ð´Ð¸Ð²Ð¸Ð´ÑĥÐ°Ð»ÑĮÐ½ÑĭÐµ":9221,"ĠÐ¼ÐµÐ½ÑıÐµÑĤÑģÑı":9222,"ĠÐ¿ÑĢÐ¾Ð³ÑĢÐ°Ð¼Ð¼Ðµ":9223,"ÑĤÑĥÐ´ÐµÐ½":9224,"ĠÐ½ÐµÐ´Ð°Ð²":9225,"ĠÐĲÐ»ÑĮ":9226,"ĠÑģÐ¾Ð³Ð»Ð°ÑĪÐµÐ½Ð¸Ð¹":9227,"ĠÐ¸ÑĦÐ¾ÑĢÐ¼Ð°":9228,"ĠÐĽÐ°ÑĤ":9229,"ĠÐ·Ð°ÐºÐ¾Ð½Ð¾Ð¿ÑĢÐ¾":9230,"ĠÑģÐ¾Ð±ÑĭÑĤÐ¸Ðµ":9231,"ĠÑĤÑĭÑģÑıÑĩ":9232,"ÐľÐ½Ð¾Ð³Ð¸Ðµ":9233,"ĠÐ°Ð¿ÑĢÐµÐ»Ñı":9234,"ÑıÐ´Ñĥ":9235,"Ð³Ð¸Ð¾Ð·":9236,"ĠÐ¿ÐµÑĢÐµÑĩ":9237,"ĠÑģÐ°Ð¼ÑĭÐ¹":9238,"Ð»Ð¾Ð¶ÐµÐ½Ð¸Ð¹":9239,"ĠÐ³Ð¾ÑģÑĥÐ´Ð°ÑĢÑģÑĤÐ²ÐµÐ½Ð½ÑĭÐ¼":9240,"ĠÐ½ÐµÐºÐ¾ÑĤÐ¾ÑĢÐ¾Ð¹":9241,"ĠÐ¾Ð³ÑĢÐ°Ð½Ð¸ÑĩÐµÐ½Ð¸Ðµ":9242,"ĠÐ²ÑĭÑıÐ²Ð»ÐµÐ½Ð¾":9243,"ĠÐ±Ð»Ð¾ÐºÐ°":9244,"ĠÑģÑĭÑĢÑĮÑı":9245,"Ð´Ñı":9246,"ÑĨÐ¾Ð¼":9247,"ĠÑıÑģÐ½Ð¾":9248,"ĠÑĢÑĥÐ±Ðµ":9249,"ĠÐ§ÐµÐ¼":9250,"ĠÐ´ÐµÑıÐ½Ð¸Ñı":9251,"ÑģÑĤÐ¾ÑĢÐ¾Ð½Ð½Ð¸Ñħ":9252,"Ð»Ð¾Ð²ÐµÐº":9253,"ĠÐ¿ÑĢÐ¾Ð¸Ð·Ð²ÐµÐ´ÐµÐ½":9254,"ĠÐ½Ð°Ð»Ð¾Ð³Ð¾Ð²Ð¾Ð¹":9255,"Ð¾Ð²Ð°Ð»Ð¸ÑģÑĮ":9256,"ĠÐ¿ÑĢÐ¸Ð½ÑĨÐ¸Ð¿Ñĥ":9257,"ĠÐ°ÐºÐ°Ð´ÐµÐ¼Ð¸ÑĩÐµÑģÐºÐ¸Ñħ":9258,"ĠÑįÐ½ÐµÑĢÐ³Ð¸Ð¸":9259,"ĠÑĢÐµÑĩÐµÐ²ÑĭÑħ":9260,"Ð¾ÑĢÐ³Ð°Ð½Ð¸Ð·Ð°ÑĨÐ¸Ð¸":9261,"ĠÐ¾ÑģÑĤÐ°Ð²Ð»Ñı":9262,"ĠÐ¿ÑĥÑĤÐµ":9263,"ĠÐ¿Ð¾Ð»Ð¸ÑĤÐ¸ÐºÐ¾":9264,"ÑįÐ½ÐµÑĢ":9265,"Ð¼Ð¾ÑĤÑĢÐ°":9266,"ĠÐ¦Ðļ":9267,"ĠÐ¼Ð°ÑģÑģÑĭ":9268,"ĠÐ½ÐµÐ¾Ð¶Ð¸Ð´Ð°Ð½":9269,"ĠÐ¾Ð±Ð¾ÑģÐ½Ð¾Ð²Ñĭ":9270,"Ð½Ð¾Ð´":9271,"ÑĢÐ¾Ð²Ð°Ð»Ð¾":9272,"ĠÐ±Ð°Ð·Ð°":9273,"ĠÐºÑĢÐ¾Ð²":9274,"Ð¡ÐµÐ³Ð¾Ð´Ð½Ñı":9275,"ĠÐ´ÑĢÑĥÐ¶Ðµ":9276,"ĠÐ¾Ð±ÑīÐ¸Ð½":9277,"ĠÐ¿ÑĢÐ¸Ð½Ð¸Ð¼Ð°ÑİÑĤ":9278,"ĠÐ²ÑģÑĤÑĥÐ¿":9279,"Ð¾ÑĢÐµÐ½":9280,"ĠÐ·Ð°ÐºÐ¾Ð½Ðµ":9281,"ĠÐ¾ÐºÐ°Ð·Ð°ÑĤÑĮÑģÑı":9282,"ĠÐ´Ð¾ÐºÑĥÐ¼ÐµÐ½ÑĤÐ°Ñħ":9283,"ĠÑĢÐ°Ð¹Ð¾Ð½Ð°Ñħ":9284,"ĠÐ½ÐµÐ´Ð°Ð²Ð½Ð¾":9285,"ĠÐºÐ¾ÑĢÐ¿Ð¾ÑĢÐ°ÑĨÐ¸Ð¸":9286,"ĠÑģÐ¼Ð¾Ð³Ð»Ð¸":9287,"ĠÐ·Ð°Ð´":9288,"Ð¸Ð¼ÑĭÑħ":9289,"ĠÐ´Ð¸Ð½Ð°Ð¼Ð¸ÐºÐµ":9290,"Ð·Ð¸Ñı":9291,"ĠÐ¾Ð±ÑĬÑıÑģÐ½ÐµÐ½Ð¸Ðµ":9292,"ÐŁÐ¾Ð»Ð¸":9293,"ÑĤÐµÑĢÐ¿Ðµ":9294,"ĠÑĢÐ°Ð±Ð¾ÑĤÐ½Ð¸ÐºÐ¸":9295,"ĠÑĤÐ°Ð½":9296,"ÑĩÐ¸ÐºÐ¸":9297,"Ð²Ð¾ÑģÑĤÐ¸":9298,"ĠÐ¿ÐµÑĩÐ°ÑĤÐ¸":9299,"ĠÐ¾Ð´Ð½Ð¸":9300,"ÑĪÐµÐ½Ð°":9301,"ĠÐ¿Ð¾Ð´ÑĤÐ²ÐµÑĢÐ´Ð¸":9302,"ĠÑĢÐ°Ð·Ð¼ÐµÑĢÐµ":9303,"ĠÑģÐ¾ÑģÑĤÐ°Ð²Ð¸Ð»Ð¸":9304,"Ð¾Ð²ÑĭÐ²Ð°ÑĤÑĮ":9305,"ÑĢÐ¸Ð´":9306,"Ð²ÐµÐ»":9307,"ĠÐŀÐ±ÑĢÐ°Ð·":9308,"ĠÐ²ÑĭÐ¿Ð¾Ð»Ð½ÑıÐµÑĤ":9309,"ĠÐ¿ÑĢÐ¾ÐµÐºÑĤÐ¸":9310,"ĠÑĤÐµÑģÑĤÐ°":9311,"ĠÑĤÐ°Ð¶Ðµ":9312,"ĠÐ¿Ð¾ÑģÐ²ÑıÑīÐµÐ½Ð°":9313,"\".":9314,"ĠÐĵÐµ":9315,"ĠÐ·Ð°Ð´Ð°Ð½":9316,"ĠÐ´ÐµÑĤÐ°Ð»Ð¸":9317,"ĠÐ¿Ð¾Ð¼Ð¾ÑĩÑĮ":9318,"ĠÐ½ÐµÐ½":9319,"Ð»ÐµÐ³Ð¸":9320,"ÑĤÐ¾Ð¸ÑĤ":9321,"ĠÐ²ÑĭÑģÐºÐ°Ð·Ð°":9322,"ÐĲÐł":9323,"ĠÐ½Ð°ÑĩÐ°Ð»Ñĥ":9324,"ĠÐ¼ÐµÑĤÐ¾Ð´Ð°Ð¼Ð¸":9325,"ĠÐ¼ÑĥÐ·Ðµ":9326,"Ð¿Ð¾Ð´Ð°":9327,"ĠÐ¾ÑģÐºÐ¾ÑĢ":9328,"Ð¶Ð°ÐµÑĤ":9329,"ĠÐ°Ð´Ð¼Ð¸Ð½Ð¸ÑģÑĤÑĢÐ°ÑĤÐ¸Ð²Ð½ÑĭÑħ":9330,"ĠÐ½ÐµÐ³Ð°ÑĤÐ¸Ð²Ð½Ð¾":9331,"ĠÐ³ÐµÑĢÐ¾":9332,"ĠÐ¿Ð¸ÑĤÐ°Ð½Ð¸Ñı":9333,"Ð¿Ð°Ð»Ð¸":9334,"ĠÐ¼ÑıÐ³":9335,"ĠÐ¾ÑĢÐ°":9336,"ĠÐ¿Ð¾ÑģÐ»Ð°":9337,"ĠÑĢÐµÑĩÐµÐ²Ð¾Ð¹":9338,"ĠÐĶÐ°Ð½Ð½Ð°Ñı":9339,"ĠÑĩÐ¸ÑģÑĤÐ¾":9340,"Ð¾Ð¶Ð´ÐµÑģÑĤÐ²":9341,"ĠÐ¿Ð¾ÑĤÐµÑĢÑĮ":9342,"ĠÐ¼Ð°Ð»Ð¾Ð³Ð¾":9343,"ĠÐ¾Ð±ÑīÐµÐ½Ð¸Ðµ":9344,"ĠÐ½Ð°ÑħÐ¾Ð´Ð¸Ð»Ð¸ÑģÑĮ":9345,"ĠÑģÐ¾Ð¿ÐµÑĢ":9346,"ĠÑĦÐµÐ²ÑĢÐ°Ð»Ñı":9347,"ĠÐ´Ð¸Ð°Ð»Ð¾Ð³":9348,"ĠÑĤÐ°Ð±Ð»Ð¸ÑĨÐµ":9349,"ÑĩÐ¸Ð½":9350,"ĠÐ²ÑĭÐ´ÐµÐ»ÐµÐ½Ð¸Ñı":9351,"ÑģÐ¸Ð½":9352,"ĠÑģÐ¸Ð³Ð½Ð°":9353,"Ð¿Ð°Ð¼Ð¸":9354,"ĠÑģÑĤÑĢÐ°Ð´Ð°":9355,"ĠÐ¾Ð±ÑĬÐµÐ´Ð¸Ð½ÐµÐ½Ð¸Ð¹":9356,"ĠÑģÐ¼ÑıÐ³":9357,"ÑĥÑĩÐ°ÑģÑĤ":9358,"ÑıÐ·Ð°":9359,"Ð°ÐºÐ¸":9360,"ĠÐ´Ð¾ÑĢÐµÐ²Ð¾Ð»Ñİ":9361,"Ð¾Ð´ÐµÐ»ÑĮ":9362,"ĠÐ¿ÑĢÐ¾Ð³ÑĢÐ°Ð¼Ð¼Ñĥ":9363,"ĠÐ¸Ð·Ð²ÐµÑģÑĤÐ½ÑĭÑħ":9364,"ĠÐ³ÐµÐ½ÐµÑĤ":9365,"ĠÐ¾ÑĤÐºÐ°Ð·Ð°ÑĤÑĮÑģÑı":9366,"Ð¶Ð°Ð»":9367,"Ð¬":9368,"ĠÐºÑĢÑĥÐ¶":9369,"ĠÐ±ÐµÐ·ÑĢÐ°Ð±Ð¾ÑĤÐ¸ÑĨÑĭ":9370,"ĠÐ¾Ð´Ð½Ð¾Ð²ÑĢÐµÐ¼ÐµÐ½":9371,"ĠÑĥÐ´ÐµÐ»Ñı":9372,"ĠÐ¾Ð±Ð½Ð°ÑĢÑĥÐ¶Ð¸ÑĤÑĮ":9373,"ĠÐ¿Ð¾ÐºÐ°Ð·Ð°Ð»Ð¾":9374,"ĠÐ½Ð°ÑĢÑĥÑĪÐµÐ½Ð¸Ð¹":9375,"ĠÐ¿ÑĢÐ¾ÑĤÐ¸Ð²Ð¾ÑĢÐµÑĩÐ¸ÑĤ":9376,"Ð½Ð¾Ð´Ð°":9377,"Ð»Ð¸ÑıÐ½Ð¸Ðµ":9378,"ĠÑģÐ¾Ð·Ð´Ð°Ð½Ñĭ":9379,"ĠÐ¿ÑĢÐ¾Ð¸Ð·Ð²Ð¾Ð´ÑģÑĤÐ²ÐµÐ½Ð½ÑĭÑħ":9380,"ĠÑĢÐµÐ³Ð»Ð°Ð¼ÐµÐ½ÑĤÐ°":9381,"ĠÑĥÐ¿Ð¾Ð»Ð½Ð¾Ð¼Ð¾":9382,"Ð´ÐµÐ»":9383,"ÐĴÐµ":9384,"ĠÑĦÐ¾Ð½Ð´":9385,"ĠÑĦÐ¾Ð½ÐµÑĤ":9386,"ĠÐ²Ð·Ñĭ":9387,"ÑĪÑĤÐµÐ¹":9388,"ĠÐ¢ÑĢÑĥ":9389,"ĠÐ¿ÑĢÐ¸Ð½ÑıÑĤÑĭÑħ":9390,"Ð²ÑĪÐ°ÑıÑģÑı":9391,"ĠÐŁÐ»Ð°":9392,"ĠÑĢÐµÐ°Ð»ÑĮÐ½Ð¾":9393,"ĠÐ´Ð²Ð¸Ð³Ð°":9394,"ĠÐ½ÐµÐ±Ð¾Ð»ÑĮÑĪÐ¾Ð¹":9395,"ĠÐ½ÐµÐ´Ð¾Ð²Ð¾Ð»ÑĮ":9396,"Ð¾ÑĩÐ½ÑĭÑħ":9397,"ÑĢÐ¸ÑĤÐ¾ÑĢÐ¸":9398,"ÑģÐºÑĥ":9399,"ĠÐ¸Ð½Ð²":9400,"ĠÐ¯Ð¿Ð¾Ð½Ð¸Ð¸":9401,"ĠÐ¾Ð»Ð°":9402,"ĠÐ·Ð¾Ð½Ðµ":9403,"ĠÑģÐ¾ÑģÑĤÐ°Ð²Ð¸Ð»Ð°":9404,"ĠÐ¾Ð¿Ð°ÑģÐ½Ð¾ÑģÑĤÐ¸":9405,"ÐµÐ¿ÐµÑĢÑĮ":9406,"ĠÐłÐµÑĩÑĮ":9407,"Ð¿Ð¾Ð»Ð¸ÑĤÐ¸ÑĩÐµÑģÐºÐ¸Ñħ":9408,"ĠÑĥÑģÐ»Ð¾Ð²Ð½Ð¾":9409,"ĠÐ¿Ð¾ÑĢÐ¾Ð¹":9410,"ĠÐ¸Ð½Ð½Ð¾Ð²Ð°ÑĨÐ¸Ð¾Ð½Ð½ÑĭÑħ":9411,"ĠÐ¼Ð¸Ð»Ð»Ð¸":9412,"ĠÐ»Ð¸ÑĨÐ°Ð¼":9413,"ÑĢÐ¸Ð·Ð°ÑĨÐ¸Ð¸":9414,"ĠÑģÐ´ÐµÑĢÐ¶Ð¸":9415,"ĠÑĢÐ°Ð·Ð´ÐµÐ»ÐµÐ½Ð¸Ðµ":9416,"ĠÐ½Ð°Ð±Ð»ÑİÐ´ÐµÐ½Ð¸Ð¹":9417,"ÑĩÐ½Ð°":9418,"ĠÐ¿ÑĢÐµÐ´ÑģÑĤÐ°Ð²Ð»ÐµÐ½Ð½ÑĭÑħ":9419,"ĠÑĤÐµÐ¾ÑĢÐµÑĤÐ¸ÑĩÐµÑģÐºÐ¸Ðµ":9420,"ĠÑģÑħÐµÐ¼Ð°":9421,"ĠÐ¿ÑĢÐµÐ¿ÑĢÐ¸":9422,"Ð¸ÑĤÐµÐ»ÑĮÑģÑĤÐ²Ð°":9423,"ÑıÐ²Ð»ÐµÐ½Ð¸Ð¹":9424,"Ð»ÐµÐ½Ð¸ÑıÑħ":9425,"ĠÐ¡Ð¸Ð±Ð¸ÑĢ":9426,"ĠÐ´Ð½ÐµÐ²":9427,"ĠÑģÐ»ÑĩÐ°":9428,"ÐĹÐŁ":9429,"ĠÐ¾Ð±ÑĢÐ°Ð·Ð¾Ð²Ð½Ð¸Ñı":9430,"ĠÑĦÑĢÐ°Ð³Ð¼ÐµÐ½ÑĤÐ°":9431,"ĠÐŀÐŃÐ¡Ðł":9432,"ĠÐ¼ÐµÑĤÐ¾Ð´Ð¸Ðº":9433,"ĠÐºÐ½Ð¸Ð³Ðµ":9434,"ĠÐ¿Ð°ÑĨÐ¸ÐµÐ½ÑĤÐ¾Ð²":9435,"ĠÑıÐ²Ð»ÑıÑĤÑĮÑģÑı":9436,"Ð³ÑĢÐ¸Ð¸":9437,"ĠÑįÐ»ÐµÐ¼ÐµÐ½ÑĤÐ°Ð¼Ð¸":9438,"ĠÑĤÑĢÐµÑĤÑĮÐµÐ³Ð¾":9439,"ĠÐļÐ°Ð½Ð°":9440,"ÑģÐ²ÐµÐ½":9441,"ÑĢÑĥÑİÑīÐ¸Ð¼":9442,"Ð³ÑĥÐ±":9443,"ĠÐ¿ÑĢÐµÐ¼":9444,"ĠÑıÐ²Ð»ÑıÐ»Ð¾ÑģÑĮ":9445,"ĠÐ´Ð¾Ð»Ð»Ð°":9446,"ĠÐ±Ð°Ð·Ñĥ":9447,"ĠÐ¸Ð½ÑĤÐµÐ½":9448,"ĠÐĵÑĢÐ°":9449,"ĠÐ½Ð°Ð´Ð·Ð¾ÑĢ":9450,"ĠÑģÐ¾ÐºÑĢÐ°ÑīÐµÐ½Ð¸Ñı":9451,"ĠÐ¿Ñģ":9452,"ĠÐ¾ÐºÑĢÑĥÐ³":9453,"ĠÐ¸Ð·Ð¼ÐµÐ½ÐµÐ½Ð¸Ð¸":9454,"ĠÑģÑĤÐ¸Ð»Ñı":9455,"Ð§ÑĤÐ¾Ð±Ñĭ":9456,"ĠÐ¿ÑĢÐ¸Ð¼ÐµÐ½ÑıÐµÑĤÑģÑı":9457,"ĠÐ·Ð°ÑīÐ¸ÑĤÐ°":9458,"ÑĢÐ½Ð¸":9459,"ĠÐ¿ÑĢÐ¾ÑĨÐµÑģÑģÐ¾Ð¼":9460,"ĠÐ¸ÑģÑģÐ»ÐµÐ´Ð¾Ð²Ð°Ð½Ð¸Ñİ":9461,"ÐŀÑĤÐ¼ÐµÑĤÐ¸Ð¼":9462,"ĠÐĴÐ°ÑģÐ¸":9463,"Ð¾ÑģÑĤÐµÐ¹":9464,"ĠÑĢÐ°Ð·Ð´ÐµÐ»Ð¸ÑĤÑĮ":9465,"ĠÐ²ÑĭÐ³Ð¾Ð´Ñĭ":9466,"ĠÑģÑĤÑĢÐ°Ð½Ð°":9467,"ĠÑĪÐ°Ð³":9468,"ĠÑħÐ¸":9469,"ĠÐ¿ÐµÑĢÐ²Ð°Ñı":9470,"ĠÐ½Ð°ÑĪÐµ":9471,"ÑĤÐµÐ»Ð½ÑĭÑħ":9472,"ĠÑģÐ°Ð½ÐºÑĨÐ¸Ð¹":9473,"ÐºÐ¾Ð¼Ñĥ":9474,"Ð½Ð¸Ð±ÑĥÐ´ÑĮ":9475,"ĠÑħÐ°":9476,"ĠÐ´ÑĢÑĥÐ³ÑĥÑİ":9477,"ĠÐºÑĥÐ»":9478,"ĠÑĢÐµÑĦÐ»ÐµÐºÑģÐ¸Ð²":9479,"ÑĤÐ¸Ð»":9480,"Ð°ÐºÑĢÐ°":9481,"ĠÐ·Ð°ÑıÐ²Ð»ÐµÐ½Ð¸Ñı":9482,"ĠÑĢÐ°Ð¹Ð¾Ð½Ðµ":9483,"ĠÑĢÐµÐ°Ð»Ð¸Ð·Ð¾Ð²Ð°ÑĤÑĮ":9484,"ĠÑģÐ²Ð¾Ð´Ð¸ÑĤÑģÑı":9485,"Ð·Ð¼Ñĥ":9486,"ĠÑĢÐµÑĪÐµÐ½Ð¸ÐµÐ¼":9487,"ĠÑĥÑģÐ¿ÐµÑħ":9488,"ĠÑģÑĤÑĢÐ°ÑĤÐµÐ³Ð¸Ñİ":9489,"ĠÐŁÑĢÐµÐ·Ð¸Ð´ÐµÐ½ÑĤÐ°":9490,"ĠÐºÐ¾Ð½ÑĤÐ¸Ð½Ð³":9491,"ĠÑģÐ¿Ð¾ÑĢÐ¾Ð²":9492,"ĠÐ¾Ð±Ð¾Ð³Ð°":9493,"ĠÐ½ÐµÐ¾Ð±ÑħÐ´":9494,"Ð¾Ð²Ð°Ð»Ð¾ÑģÑĮ":9495,"ĠÐ½Ð°ÑģÑĭ":9496,"ĠÐ±Ð°ÐºÐ°Ð»Ð°":9497,"ÑĩÐµÐ½ÐºÐ¾":9498,"ĠÐ°Ð²ÑĤÐ¾Ð½Ð¾Ð¼Ð¸Ð¸":9499,"ĠÑĤÐµÑģÑĤÐ¾Ð²":9500,"ĠÐ¿Ð¾Ð´ÑħÐ¾Ð´Ðµ":9501,"ĠÐ½ÐµÐ¾Ð±ÑħÐ¾Ð´Ð¸Ð¼Ð¾Ð¹":9502,"ÑĢÐ¾Ð¹":9503,"ĠÑģÑĤÐ¾Ð»":9504,"ĠÐºÐ¾Ð½ÑģÑĤÑĢÑĥÐºÑĨÐ¸Ñı":9505,"Ð¾Ñħ":9506,"Ð»ÐµÐ¶Ð¸ÑĤ":9507,"ĠÐ¿Ð¾Ð¼Ð¾Ð³Ð°ÐµÑĤ":9508,"ĠÐ¿Ð¾Ð³ÑĢÐ°Ð½Ð¸":9509,"ÑĩÐ¸Ð»Ð¸":9510,"ĠÐĴÐ¾ÑĢ":9511,"ÐĴÐµÑĢ":9512,"ĠÑģÐ²ÐµÑĢÑħ":9513,"ÐĳÐ¾Ð»ÑĮÑĪÐ¸Ð½ÑģÑĤÐ²Ð¾":9514,"ÑĢÐ¸Ð´Ð¸":9515,"ÑģÐµÐ¼Ð°Ð½":9516,"ÐµÐ½Ð¸ÑıÑħ":9517,"ĠÐ·Ð°ÑĢÐµÐ³Ð¸ÑģÑĤÑĢÐ¸":9518,"Ð³ÑĥÑĢ":9519,"ĠÐ½Ð°Ð·ÑĭÐ²Ð°ÑİÑĤ":9520,"ĠÑģÐ¿ÐµÐºÑĤÑĢ":9521,"ĠÐ¾ÑĤÐ´ÐµÐ»ÑĮÐ½ÑĭÐ¼":9522,"ĠÐĴÐµÐ»Ð¸ÐºÐ¾Ð¹":9523,"ĠÐ·Ð°ÑĤÑĢÐ¾Ð½":9524,"ĠÐ¼Ñı":9525,"ĠÑĦÑĥÑĤÐ±":9526,"Ð¿ÑĢÐµÐ´Ð¼ÐµÑĤ":9527,"ĠÐĴÐµÑĢÑħÐ¾Ð²Ð½Ð¾Ð³Ð¾":9528,"ĠÐºÐ°ÑĩÐµÑģÑĤÐ²Ð¾Ð¼":9529,"Ð³Ð¾Ð²Ð¾Ð¹":9530,"ĠÐ²ÑĭÐ¶Ð¸":9531,"Ð½ÐµÑĢÑĥÑģ":9532,"ĠÐºÐ¾Ð¼Ð¿ÐµÐ½ÑģÐ°ÑĨÐ¸Ð¸":9533,"ĠÐľÐ°Ð½":9534,"ĠÑģÐ²Ð¾ÐµÐ²ÑĢÐµÐ¼ÐµÐ½":9535,"ĠÐ´Ð¸Ð°Ð³Ð½Ð¾ÑģÑĤÐ¸ÐºÐ¸":9536,"Ð«":9537,"ĠÐ¾ÑģÐ½Ð¾Ð²Ð¾Ð¿Ð¾Ð»Ð°Ð³Ð°":9538,"ĠÐ¿ÑĢÐ°ÐºÑĤÐ¸ÐºÐ¾Ð¹":9539,"ĠÐ¿Ð¾ÐºÐ¾Ð»ÐµÐ½Ð¸Ð¹":9540,"ĠÑģÐ»Ð¾ÐµÐ²":9541,"ÑĩÐ¸Ð½Ñĭ":9542,"ÑĨÐ¸Ð¿Ð¸":9543,"ĠÐ½Ð¾ÑĢÐ¼Ð°ÑĤÐ¸Ð²Ð½Ð¾Ð³Ð¾":9544,"Ð°Ð½ÑģÐºÐ¾Ð³Ð¾":9545,"ĠÑĥÐºÐ°Ð·Ð°Ð½Ð½Ð¾Ð¹":9546,"ĠÐ´Ð¾Ð±Ð°Ð²Ð»ÐµÐ½":9547,"Ð»ÐµÑĢÐ°":9548,"ĠÐ±Ð°ÑĢÑĮ":9549,"ÑĤÐµÑĤÐµ":9550,"ĠÐ¼Ð¾Ð»Ð¾Ð´ÐµÐ¶":9551,"ĠÐºÐ²Ð°ÑĢÑĤÐ¸":9552,"ĠÐ¿Ð¾Ð·Ð²Ð¾Ð»Ð¸Ð»":9553,"ĠÑĢÑĥÐºÐ°Ñħ":9554,"ÑĢÐ¾Ð¼Ð¸":9555,"ĠÐ¾ÑĢÐ³Ð°Ð½Ð¸Ð·Ð°ÑĨÐ¸ÐµÐ¹":9556,"ÑĢÐ²Ð°ÑĤÑĮ":9557,"ĠÐĲÐ´":9558,"ĠÐ¿ÑĢÐ¾ÑĨÐµÐ´ÑĥÑĢÐ°":9559,"ĠÑģÑĤÐ¾Ð»ÐºÐ½Ñĥ":9560,"Ð¾ÑĩÐ½Ð¾Ð¹":9561,"ÑģÑıÑĤÑģÑı":9562,"Ð¾ÑģÑĤÑĮÑİ":9563,"ĠÐ¸Ð·Ð²Ð»Ðµ":9564,"ĠÐ¿Ð¾ÑģÐ»ÐµÐ´Ð½Ð¸Ð¹":9565,"ĠÐºÐ¾Ð½ÑĤÐµÐºÑģÑĤÐ°Ñħ":9566,"Ð¢Ð°ÐºÐ¾Ðµ":9567,"ĠÑģÐ¸Ð»ÑĮÐ½ÐµÐµ":9568,"ĠÐ¾ÑĤÐ²Ð¾Ð´":9569,"Ð±Ð¾ÑĤÐ°":9570,"ĠÑįÐºÐ¾Ð½Ð¾Ð¼Ð¸ÑĩÐµÑģÐºÐ¾Ðµ":9571,"ĠÑĤÐ¾ÑĩÐºÐ°":9572,"ĠÐ²ÑĭÑıÐ²Ð»ÐµÐ½Ñĭ":9573,"ĠÐ½ÐµÐ¾ÑĤÑĬÐµÐ¼Ð»ÐµÐ¼":9574,"ĠÑĢÐ°ÑģÑģÐ»ÐµÐ´Ð¾Ð²Ð°Ð½Ð¸Ñı":9575,"ĠÐ´Ð¸ÑģÐºÑĥÑĢÑģÐµ":9576,"ÑĤÐ¸ÑĩÐµÑģÐºÐ¾Ð¼Ñĥ":9577,"Ð´ÑĮÐµ":9578,"ĠÑģÐ½Ñı":9579,"ĠÐĵÐ¾Ð»":9580,"ĠÐ»Ð¸ÑĨÑĥ":9581,"ĠÐ¿ÑĢÐ¾Ð´ÑĥÐºÑĤÐ°":9582,"ĠÐ¿Ð¾Ð·Ð½Ð°Ð²Ð°ÑĤÐµÐ»ÑĮÐ½Ð¾Ð¹":9583,"ÐĺÑģÑģÐ»ÐµÐ´Ð¾Ð²Ð°Ð½Ð¸Ðµ":9584,"ĠÐ°Ð½Ð³Ð»Ð¸Ð¹ÑģÐºÐ¾Ð³Ð¾":9585,"ĠÐ´Ð¾Ð²ÐµÑĢÐ¸Ðµ":9586,"Ð¾Ð¶ÐµÑĤ":9587,"ĠÐ¾Ð±ÐµÑģÐ¿ÐµÑĩÐµÐ½Ð¸Ñİ":9588,"Ð´Ð½ÐµÐ²":9589,"ĠÑĥÐ¿ÑĢÐ°Ð²Ð»ÐµÐ½Ð¸Ñİ":9590,"ĠÑįÐºÑģÐ¿ÐµÐ´Ð¸":9591,"ÑĥÑĢÐ¾Ð²Ð½Ðµ":9592,"ÑĢÐ°ÑģÑĤ":9593,"Ð½Ð¾ÑĢ":9594,"ÑĤÐµÐ»ÐµÐ½":9595,"ĠÐ¼Ð°ÑĪÐ¸":9596,"ĠÐ¿Ð°Ð¼ÑıÑĤÑĮ":9597,"ĠÑĨÐ¸ÑĦÑĢÐ¾Ð²Ð¾Ð¹":9598,"ÐºÑĢÐµÐ´Ð¸ÑĤ":9599,"ĠÐ²ÑģÑĤÑĥÐ¿Ð»ÐµÐ½Ð¸Ñı":9600,"ĠÐ¿ÑĢÐ¸ÑĪÐ»Ð¸":9601,"ÑģÐ¸Ð¼Ð°":9602,"ÑĩÑĤÐ°":9603,"ĠÐ²Ð¾ÑģÐ¿Ð¾Ð»ÑĮÐ·":9604,"ĠÐ¼Ð°ÑĤÐµÑĢÐ¸Ð°Ð»ÑĮÐ½Ð¾Ð¹":9605,"ĠÐ³Ð¾ÑģÑĥÐ´Ð°ÑĢÑģÑĤÐ²Ð°Ñħ":9606,"ĠÐ¾Ð±Ñĥ":9607,"ÐºÑĥÐ»ÑĮ":9608,"ĠÑĢÐ°Ð±Ð¾ÑĤÐ¾Ð´Ð°ÑĤÐµÐ»ÐµÐ¹":9609,"ĠÐ½ÐµÑħÐ²Ð°ÑĤ":9610,"ÑĨÐºÐ¸Ð¹":9611,"ĠÐ·Ð°Ð¹":9612,"ĠÑĢÐµÐ³Ð¸Ð¾Ð½":9613,"ĠÐ¨ÑĤÐ°":9614,"Ð¿ÑĥÑģÐº":9615,"ĠÑıÐ²Ð»ÐµÑĤÑģÑı":9616,"ÑģÐ°Ð¹Ð´ÐµÑĢ":9617,"ĠÐ¿ÑĢÐµÐ´Ð»Ð¾Ð¶Ð¸ÑĤÑĮ":9618,"Ð»ÑıÐ»Ð¸ÑģÑĮ":9619,"ĠÐĲÐ¼ÐµÑĢÐ¸ÐºÐ¸":9620,"ĠÐ·Ð²ÐµÐ½":9621,"ÑįÐ¹":9622,"ÑĪÐ¸ÑħÑģÑı":9623,"ĠÐ¿Ð¾Ð²ÐµÐ´ÐµÐ½Ð¸Ð¸":9624,"ĠÐĺÐ½ÑģÑĤÐ¸ÑĤÑĥÑĤÐ°":9625,"ĠÐ¿ÑĢÐ¾ÑģÑĤÐ¸ÑĤÑĥ":9626,"ĠÐ¸Ð·Ñĭ":9627,"ĠÐ¾Ð¿ÑĢÐµÐ´ÐµÐ»ÐµÐ½Ð½Ð¾Ðµ":9628,"ĠÐ¾Ð±Ð¾ÑĢÑĥÐ´Ð¾Ð²Ð°Ð½Ð¸Ñı":9629,"ĠÐ¾Ð±ÑĢÐ°Ð·Ð¾Ð²Ð°ÑĤÐµÐ»ÑĮÐ½ÑĭÐ¹":9630,"ĠÐ¼Ð¾ÑĤÐ¸Ð²Ñĭ":9631,"ÑĦÑĢÐ¸ÐºÐ°Ð½":9632,"ĠÐĲÐ²ÑĤÐ¾ÑĢ":9633,"ĠÐ·Ð°Ð¿ÑĢÐµÑĤ":9634,"ĠÐ²Ð½ÐµÐ´ÑĢ":9635,"ĠÐºÑĢÐµÐ°ÑĤÐ¸Ð²Ð½Ð¾ÑģÑĤÐ¸":9636,"ĠÑįÐºÐ¾Ð½Ð¾Ð¼Ð¸ÑĩÐµÑģÐºÐ¸Ð¼":9637,"ĠÐĺÐ½ÑĤÐµÑĢÐ½ÐµÑĤÐ°":9638,"ĠÑĤÑĥÑĤ":9639,"Ð¿Ð°ÑĢÐ¸":9640,"ĠÐ»Ð¾Ð¶":9641,"ĠÐ·Ð½Ð°ÑĩÐ¸Ð¼Ð¾Ð¹":9642,"ÑıÑĢ":9643,"ĠÑĦÐ¾ÑĢÐ¼Ð¸ÑĢÑĥÑİÑĤÑģÑı":9644,"ĠÐ·Ð°Ð±Ð¾ÑĤÑĭ":9645,"ĠÐ²Ð¼ÐµÑĪÐ°ÑĤÐµÐ»ÑĮÑģÑĤÐ²Ð°":9646,"ĠÐ¾ÑħÐ°ÑĢÐ°ÐºÑĤÐµÑĢÐ¸Ð·":9647,"ĠÐľÐ°ÑĢÐº":9648,"ĠÐ¼Ð½Ð¾Ð³Ð¾ÑĩÐ¸ÑģÐ»ÐµÐ½Ð½ÑĭÑħ":9649,"ÐĴÐ°Ð¶Ð½Ð¾":9650,"ĠÐ³ÑĢÐ°ÑĦ":9651,"ĠÐ´Ð¾ÑģÑĤÐ¸ÑĩÑĮ":9652,"ĠÐ¸ÑģÑģÐ»ÐµÐ´Ð¾Ð²Ð°ÑĤÐµÐ»ÑıÐ¼Ð¸":9653,"ĠÑĢÐµÑģÐ¿ÑĥÐ±Ð»Ð¸ÐºÐ°Ð½":9654,"Ð²ÑģÐµ":9655,"ĠÑħÑĢÐ¾Ð½":9656,"ĠÐ¾Ð±ÑĢÐ°Ð·Ð¾Ð²Ð°Ð½Ð¸Ð¹":9657,"ĠÐ¿ÑĢÐ¾Ð¸Ð·Ð²Ð¾Ð´Ð¸ÑĤÐµÐ»ÑĮÐ½Ð¾ÑģÑĤÐ¸":9658,"ĠÑģÐ¾Ð³Ð»Ð°ÑĪÐµÐ½Ð¸Ðµ":9659,"ĠÑĢÐµÐ°Ð»ÑĮÐ½ÑĭÐµ":9660,"ĠÑģÐ»Ð¾Ð²Ð°Ð¼":9661,"ĠÐ¿ÑĢÐµÐ´Ð»Ð°Ð³Ð°ÑİÑĤ":9662,"ĠÑģÐ¿Ð¾ÑģÐ¾Ð±ÑģÑĤÐ²ÑĥÑİÑĤ":9663,"ĠÑģÐ¾ÑĢ":9664,"ĠÐ¸Ð½ÑĦÐ»Ñı":9665,"Ð»Ð°ÑģÑģÐ¸":9666,"ĠÐ½ÐµÐºÐ¾ÑĤÐ¾ÑĢÐ¾Ðµ":9667,"ĠÐ¨Ð²Ðµ":9668,"ĠÐ½ÐµÐ¼ÐµÑĨÐºÐ¸Ñħ":9669,"Ð¾ÐºÐ»Ð°ÑģÑģ":9670,"ĠÐ´ÐµÐ¹ÑģÑĤÐ²Ð¸ÑıÑħ":9671,"ĠÐ¾ÑĢÐ³Ð°Ð½Ð¾Ð¼":9672,"ĠÐ°Ð¼Ð±Ð¸":9673,"ĠÐ¸Ð½ÑĤÐµÐ»Ð»Ð¸":9674,"ĠÐŁÐµÑĤÑĢ":9675,"Ð¾ÑĤÑĥ":9676,"ĠÐµÐ¶ÐµÐ³Ð¾Ð´Ð½Ð¾":9677,"ĠÑĤÐµÑģÑĤÐ¸ÑĢÐ¾Ð²Ð°Ð½Ð¸Ñı":9678,"ÑĤÐ¸ÐºÐ¾Ð²":9679,"ĠÑĢÐµÐ¼Ð¾Ð½":9680,"ĠÐ¿Ð¾Ð¿ÐµÑĩÐ¸":9681,"ĠÐ¾ÐºÐºÑĥ":9682,"ĠÐ¿ÑĢÐ¸ÑģÑĥÑĤÑģÑĤÐ²Ð¸Ðµ":9683,"ĠÐ¼ÑĥÐ¶ÑĩÐ¸Ð½Ñĭ":9684,"Ð¾Ð±ÑīÐµ":9685,"ĠÐ¾Ð±ÑīÐµÑģÑĤÐ²ÐµÐ½Ð½Ð¾Ðµ":9686,"ÑīÐµÐ½Ð½ÑĭÐµ":9687,"ĠÐ³Ð»Ð¾Ð±Ð°Ð»ÑĮÐ½Ð¾Ð³Ð¾":9688,"ÑĤÐ¾Ð¼Ñĥ":9689,"ĠÑģÐ¿Ñĥ":9690,"ÑĨÐ¸Ð¾Ð½Ð½Ð¾Ð¼Ñĥ":9691,"Ð½ÐµÐ½Ð½Ð¾Ð³Ð¾":9692,"ĠÐ¿ÑĢÐ¾Ð³ÑĢÐµÑģÑģÐ°":9693,"ĠÑģÐ¾Ð²ÐµÑĢÑĪÐ°":9694,"ĠÐ¿Ð¾Ð³Ð»Ð¾":9695,"ÑıÐ´":9696,"ĠÐ¿ÑĢÐµÐ´Ð¿Ð¾Ð»Ð°Ð³Ð°ÐµÑĤÑģÑı":9697,"ĠÑĥÐ´Ð¾Ð²Ð»ÐµÑĤÐ²Ð¾ÑĢÑı":9698,"ÑĤÐ°ÑĨÐ¸Ñİ":9699,"ĠÐ¸Ð½ÑĤÑĥÐ¸":9700,"ĠÑįÐºÐ¾Ð½Ð¾Ð¼Ð¸ÑĩÐµÑģÐºÐ°Ñı":9701,"ĠÑĥÑĤÐ²ÐµÑĢÐ¶Ð´ÐµÐ½":9702,"Ð¡ÐĴ":9703,"ĠÐ½Ð°ÑĩÐ°Ð»Ð¾Ð¼":9704,"ĠÐ¿ÑģÐ¸ÑħÐ¾Ð»Ð¾Ð³Ð¸ÑĩÐµÑģÐºÐ¸Ñħ":9705,"ĠÐ¸Ð½ÑģÑĤÐ¸ÑĤÑĥÑĨÐ¸Ð¾Ð½Ð°Ð»ÑĮÐ½ÑĭÑħ":9706,"ĠÑįÐºÑģÐ¿ÐµÑĢÑĤÐ¸Ð·Ñĭ":9707,"ĠÐºÐ¾Ð½ÐºÑĥÑĢÐµÐ½ÑĤÐ¾ÑģÐ¿Ð¾ÑģÐ¾Ð±Ð½Ð¾ÑģÑĤÐ¸":9708,"Ð¿ÑĢÐ°Ðº":9709,"ĠÑĤÐ¾ÑĩÐºÑĥ":9710,"Ð¾Ð³ÑĢÐ°Ð´":9711,"ĠÐºÑĤÐ¾ÑĢÑĭÐµ":9712,"ÑĦÐ¸ÑĨÐ¸ÑĢÐ¾Ð²Ð°ÑĤÑĮ":9713,"ĠÐ¾Ð¿Ð°ÑģÐ½Ð¾ÑģÑĤÑĮ":9714,"Ð²Ð°ÑĤÐ°":9715,"ĠÐ¿ÑĢÐµÐ´Ð¾ÑģÑĤÐ°Ð²Ð»ÐµÐ½Ð¸Ðµ":9716,"ĠÐ¿ÑĢÐµÐ¿Ð¾Ð´Ð°Ð²Ð°ÑĤÐµÐ»Ð¸":9717,"ÑĤÐ¾ÑĢÑĥ":9718,"ĠÐ¿ÑĢÐ¸Ð½ÑĨÐ¸Ð¿Ð°Ñħ":9719,"ĠÐ¿Ð¾ÑĤÐµÐ½ÑĨÐ¸Ð°Ð»ÑĮÐ½ÑĭÑħ":9720,"ĠÐ±ÑĢÐµÐ½":9721,"ĠÐ¿Ð¾ÐµÐ·Ð´":9722,"ĠÐ´Ð¾ÐºÐ°Ð·Ð°ÑĤÐµÐ»ÑĮÑģÑĤÐ²":9723,"ĠÑģÑĥÐ²ÐµÑĢÐµÐ½Ð¸":9724,"ĠÑģÑĤÐ°Ð²Ð¾Ðº":9725,"ÐłÐĲ":9726,"Ð¤Ð°Ðº":9727,"ĠÑĥÐ¿ÑĢÐ°Ð²Ð»ÐµÐ½ÑĩÐµÑģÐºÐ¸Ñħ":9728,"ĠÐ²Ð·Ð½Ð¾":9729,"ĠÑĥÑģÐ¸Ð»ÐµÐ½Ð¸Ðµ":9730,"ĠÑĢÐ°Ð·Ð²ÐµÑĢÐ½Ñĥ":9731,"ĠÐ¿ÑĢÐ±Ð»ÐµÐ¼":9732,"ĠÐ²ÑĢÐµÐ¼ÐµÐ½Ð½ÑĭÑħ":9733,"ĠÐ¿ÑĢÐ¸ÑģÑĥÑĤÑģÑĤÐ²ÑĥÑİÑĤ":9734,"Ð¶Ð¸Ð²":9735,"ĠÐ¿ÑĢÐ·Ð½Ð°":9736,"ĠÐ¾ÑģÑīÐµÑģÑĤÐ²":9737,"ĠÐłÐľ":9738,"Ð»Ð°Ð³Ð¾Ð´Ð°ÑĢÑı":9739,"ĠÐ¾Ð¿Ð¿Ð¾Ð·Ð¸ÑĨÐ¸Ð¸":9740,"ĠÐŁÐ¾Ð¿":9741,"ÐµÐ½ÑĮÑİ":9742,"ĠÐºÐ¾Ð»Ð¸ÑĩÐµÑģÑĤÐ²Ð¾Ð¼":9743,"ĠÑĢÐ°Ð·Ð½Ð¾Ð¾Ð±ÑĢÐ°Ð·Ð¸Ðµ":9744,"ĠÐĵÐµÐ½ÐµÑĢÐ°":9745,"ÐµÑĤÐ¸ÐºÐ¸":9746,"ÑĪÐµÐ²Ð»ÐµÐ½":9747,"ĠÐ½ÐµÐ³Ð°ÑĤÐ¸Ð²Ð½ÑĭÑħ":9748,"ÑĦÐµÑģÑģ":9749,"ĠÐ²ÑĭÐ¸":9750,"ĠÐ¼ÐµÐ¶Ð´Ð¸ÑģÑĨÐ¸Ð¿Ð»Ð¸Ð½Ð°ÑĢ":9751,"ĠÐ±Ð°ÑĢÑĮÐµÑĢ":9752,"Ð¾Ð´Ð¾Ð²":9753,"ĠÑĩÑĥÐ²ÑģÑĤÐ²Ð¾":9754,"ĠÐ½Ð¿ÑĢÐ°Ð²":9755,"ĠÐ¾Ð¿ÑĢÐµÐ´ÐµÐ»ÐµÐ½Ñĭ":9756,"ĠÐ¿Ð°ÑĢÐ°Ð´Ð¸Ð³Ð¼Ñĭ":9757,".;":9758,"Ð¾ÑģÐ»Ð¾Ð²":9759,"ĠÑįÐºÐ¾Ð½Ð¾Ð¼Ð¸ÑĩÐµÑģÐºÑĥÑİ":9760,"ĠÐ½ÐµÑĢÐ°Ð²ÐµÐ½ÑģÑĤÐ²Ð¾":9761,"ĠÐ¿ÑĢÐ°Ð²Ð¾Ð¾ÑĤÐ½Ð¾ÑĪÐµÐ½Ð¸Ð¹":9762,"Ð»Ð¾Ð±":9763,"ĠÑĤÐµÐ»Ð¾":9764,"ĠÐ¥Ð°ÑĢ":9765,"ÑĩÐ¸ÑģÐ»ÐµÐ½Ð½ÑĭÐµ":9766,"ĠÑĥÐºÐ°Ð·Ð°Ð½Ð½Ð¾Ð³Ð¾":9767,"ĠÑĦÑĥÐ½ÐºÑĨÐ¸Ð¾Ð½Ð¸ÑĢÐ¾Ð²Ð°Ð½Ð¸Ðµ":9768,"ĠÑģÐ¾Ð³Ð»Ð°ÑģÐ¸Ðµ":9769,"ĠÐ²Ð¾Ð·ÑĢ":9770,"ĠÑįÐºÑģÑĤÑĢÐ°":9771,"ĠÐ³Ð»Ð¾Ð±Ð°Ð»Ð¸Ð·Ð°ÑĨÐ¸Ð¸":9772,"Ð¾ÑĤÐ²Ð¾ÑĢÐ¸":9773,"Ð°Ð½Ð³":9774,"ÑģÑģÐ¸Ñı":9775,"ĠÑĥÑģÐ»":9776,"ĠÑĥÑĤÐ¸Ð»Ð¸":9777,"ÑĤÐµÐ»ÑĮÐ½Ð¾ÑģÑĤÑĮÑİ":9778,"ĠÑĤÐ¸Ð¿Ñĥ":9779,"ĠÑĥÑĤÐ²ÐµÑĢÐ¶Ð´Ð°ÐµÑĤ":9780,"ÑĥÑĩÐµÐ±":9781,"ĠÐ¼ÐµÐ¼":9782,"ĠÐ½ÐµÐ¿ÑĢÐ°Ð²Ð¸":9783,"ÑıÐ±ÑĢÑĮ":9784,"ĠÐĵÐ§ÐŁ":9785,"ĠÐ¿ÑĢÐ¾Ð³ÑĢÐµÑģÑģ":9786,"Ð°Ð½ÐºÐ°":9787,"ĠÐ¿ÑĢÐµÐ¾Ð±ÑĢÐ°Ð·Ð¾Ð²Ð°Ð½Ð¸Ð¹":9788,"ĠÐºÐ¸Ð±ÐµÑĢ":9789,"ĠÑĢÐ°Ð·Ð²Ð¸Ð²Ð°ÐµÑĤÑģÑı":9790,"ĠÑĦÐ¾ÑĢÐ¼Ð¸ÑĢÑĥÐµÑĤ":9791,"ĠÑĤÐµÐ½Ð´ÐµÐ½ÑĨÐ¸Ñİ":9792,"ÑĪÐ¸Ð½Ð°":9793,"Ð¡Ñĥ":9794,"ĠÑģÑĤÐ¸Ð»ÑĮ":9795,"ĠÐ¾ÑĦÐ¸ÑĨÐ¸Ð°Ð»ÑĮÐ½Ð¾":9796,"ĠÐ±ÑĥÐºÐ²Ð°":9797,"ĠÐ¿ÑĢÐ¸Ð¿Ð¸ÑģÑĭ":9798,"ÐµÐ½Ð½Ð¾Ð¼":9799,"ĠÑģÐµÐ¼ÐµÐ¹Ð½ÑĭÑħ":9800,"ÑĤÑģÐºÐ¾Ð³Ð¾":9801,"ĠÑĢÐ°ÑģÑģÐ¼Ð°ÑĤÑĢÐ¸Ð²Ð°ÐµÐ¼Ð¾Ð³Ð¾":9802,"Ð¾ÑĢÐ¾ÑĤ":9803,"ĠÐ¸Ð¼ÑĥÑīÐµÑģÑĤÐ²":9804,"ĠÑĢÐ°Ð½Ð½Ð¸Ñħ":9805,"ĠÐ²ÑĭÑģÑĤÑĥÐ¿":9806,"ĠÐŀÑĢ":9807,"ĠÑģÐ°Ð¼Ð¾Ñģ":9808,"ĠÑĨÐ¸Ð²Ð¸Ð»Ð¸Ð·Ð°ÑĨÐ¸Ð¸":9809,"ĠÐ°ÑĢÑħÐ°":9810,"ĠÐ²ÐµÐ»Ð¸ÑĩÐ¸Ð½Ñĭ":9811,"ĠÐ²ÐºÐ»ÑİÑĩÐ°ÑĤÑĮ":9812,"ĠÐ²Ð¾ÑģÐ¿ÑĢÐ¸Ñı":9813,"ĠÑĥÑģÐ¿ÐµÑĪÐ½Ð¾Ð¹":9814,"ĠÑĥÑģÐ¿ÐµÑĪÐ½Ð¾ÑģÑĤÐ¸":9815,"ĠÑĥÐºÐ°Ð·Ð°Ð½Ð¸Ñı":9816,"ĠÐ¿Ð¾Ð»Ð¾Ð¶ÐµÐ½Ð¸ÐµÐ¼":9817,"Ð°Ð»Ð¾Ð²":9818,"ÑģÑĤÐ¸ÐºÐ°":9819,"ĠÐ¾ÑĤÐ¾Ð¶Ð´ÐµÑģÑĤÐ²":9820,"ĠÐľÑĥ":9821,"ĠÐĹÐ½Ð°ÑĩÐ¸":9822,"ĠÐ²Ð·Ð°Ð¸Ð¼Ð¾Ð´ÐµÐ¹ÑģÑĤÐ²Ð¸Ð¹":9823,"ĠÑĥÑĢÐ±Ð°":9824,"ĠÑĥÐ½Ð¸ÑĩÑĤÐ¾Ð¶":9825,"Ð»ÑĭÐ¼":9826,"ĠÐ¿Ð¾ÑģÐ»ÐµÐ´Ð¾Ð²Ð°ÑĤÐµÐ»ÑĮÐ½Ð¾":9827,"ĠÑħÐ¾Ð·ÑıÐ¹ÑģÑĤÐ²ÐµÐ½Ð½Ð¾Ð¹":9828,"ÐłÐ°ÑģÑģÐ¼Ð¾ÑĤÑĢÐ¸Ð¼":9829,"ĠÐºÐµÐ¹":9830,"ÐµÐ½Ð¸ÑıÐ¼Ð¸":9831,"ĠÐ¿ÑĢÐ¾Ð¸Ð·Ð²ÐµÐ´ÐµÐ½Ð¸Ð¹":9832,"Ð¼ÐµÐ½Ð¸ÑĤÑĮ":9833,"ĠÑĥÐ³Ð¾Ð»Ð¾Ð²Ð½Ð¾Ð¼":9834,"ÑĤÐ¸Ð²Ð½Ð¾Ð¼Ñĥ":9835,"ĠÐ·Ð°ÐºÑĥÐ¿":9836,"ĠÐ¿ÑĢÐ°Ð²Ð¸Ð»ÑĮÐ½Ð¾":9837,"ĠÐ¿ÑĢÐ¸ÑħÐ¾Ð´Ð¸Ð»Ð¾ÑģÑĮ":9838,"ĠÑĢÐµÐ³Ð»Ð°Ð¼ÐµÐ½ÑĤÐ¸":9839,"Ð¿Ð¸ÑģÐºÐ¾Ð¿":9840,"ĠÐ²ÑģÐ¿Ð¾Ð¼Ð¾Ð³Ð°":9841,"ÐºÐ¾Ð»ÑĮ":9842,"ĠÐ¿ÑĢÐ¸ÑĩÐ°ÑģÑĤÐ¸":9843,"ĠÑįÐºÐ¾Ð½Ð¾Ð¼Ð¸ÑĩÐµÑģÐºÐ¸":9844,"ĠÐ¾Ð¶Ð¸Ð´Ð°ÑĤÑĮ":9845,"ĠÑģÐ±Ñĭ":9846,"ÐŁÑĢÐ¾Ð±Ð»ÐµÐ¼Ð°":9847,"ĠÐ¿Ð¾Ð»Ð¸ÑĤÐ¸ÑĩÐµÑģÐºÐ¾Ð¼":9848,"ĠÐ±ÐµÑģÐº":9849,"ĠÑģÐ¾ÑĨÐ¸Ð¾Ð»Ð¾Ð³Ð¸ÑĩÐµÑģÐºÐ¸Ñħ":9850,"ĠÐ¾Ð¿ÑĢÐµÐ´ÐµÐ»ÑıÑĤÑĮ":9851,"Ð¾Ð»ÐµÑĤÑĮ":9852,"ĠÐ¿ÐµÑĢÐ²Ð¾":9853,"ĠÐ¸Ð½Ð´Ð¸Ð²Ð¸Ð´ÑĥÐ°Ð»ÑĮÐ½Ð¾Ð¹":9854,"ĠÑĢÐµÐºÐ»Ð°Ð¼":9855,"ĠÐ¿ÑĢÐ¸Ð½ÑĥÐ´Ð¸":9856,"ĠÐ±ÑĥÑĢÐ¶Ñĥ":9857,"ĠÐ¿ÑĢÐ¾Ð·ÑĢÐ°":9858,"ĠÐ¾ÑĤÑģ":9859,"ĠÐºÐ¾ÑĢÐ¿ÑĥÑģ":9860,"ÑģÑĤÐ²ÑĥÑİÑīÐ¸Ðµ":9861,"ĠÐ±Ð¾Ð»ÐµÐ·Ð½Ð¸":9862,"ÐķÐ³Ð¾":9863,"ĠÑģÑĤÑĢÐµÑģÑģ":9864,"ÑĩÐ½Ð¾Ð¼Ñĥ":9865,"ÑħÐ¾":9866,"ĠÐ¿ÑĢÐ¸ÐµÐ¼Ð°":9867,"ĠÑģÐ¼Ð¾Ð¶ÐµÑĤ":9868,"ĠÑģÑĥÑīÐµÑģÑĤÐ²ÐµÐ½Ð½ÑĭÐ¼":9869,"ĠÐ·Ð°Ð²Ð¾Ðµ":9870,"ĠÐ³Ð¾ÑģÑĥÐ´Ð°ÑĢÑģÑĤÐ²ÐµÐ½Ð½Ð¾Ð¼":9871,"ĠÑģÐ¾ÑģÑĤÐ°Ð²Ð»ÑıÑİÑīÐ¸Ðµ":9872,"ĠÑĥÑģÐ¸Ð»ÐµÐ½Ð¸Ñı":9873,"Ð¸ÑģÑı":9874,"Ð½Ð¾ÑĢÐ¾Ð´":9875,"ĠÐ¸Ð·Ð¼":9876,"ÑĢÐ¾ÑģÑĤÐ°":9877,"ĠÐ¼Ð¾ÑĤÐ¸Ð²Ð°ÑĨÐ¸Ñı":9878,"Ð²Ð°ÐµÐ¼ÑĭÐ¹":9879,"ĠÐļÐ¾Ð¼Ð¸Ñģ":9880,"ĠÑħÐ°ÑĢÐ°ÐºÑĤÐµÑĢÐ¸Ð·ÑĥÐµÑĤ":9881,"ĠÐ¿ÐµÑĢÑĦÐµÐºÑĤÐ°":9882,"ÑĢÐ²Ð°Ð½":9883,"ĠÐĲÐºÐ°Ð´ÐµÐ¼Ð¸":9884,"ĠÐ¿ÑĢÐµÐ´Ð¿Ð¾Ð»Ð°Ð³Ð°ÑİÑĤ":9885,"ĠÐ¸Ð¼Ð¿ÑĥÐ»ÑĮ":9886,"ĠÑıÐ»ÑıÐµÑĤÑģÑı":9887,"ĠÐ¡Ð¿Ðµ":9888,"ĠÑĦÐ¸Ð·Ð¸ÑĩÐµÑģÐºÐ¾Ð³Ð¾":9889,"ĠÐ¼ÐµÐ´Ð¸ÑĨÐ¸Ð½ÑģÐºÐ¾Ð³Ð¾":9890,"Ð¡ÐŁ":9891,"ĠÐ¸ÑģÑĩÐµÑĢÐ¿Ñĭ":9892,"ĠÑģÑĤÑĢÐ°Ð½Ñĥ":9893,"Ð¾Ð»Ð¸ÑĩÐµÑģÑĤÐ²Ð¾":9894,"ÑģÐ²Ð¾":9895,"ĠÐ¸Ð½ÑĦÐ¾ÑĢÐ¼":9896,"ĠÐĵÑĢÐµ":9897,"ÑĪÑĤÐ°Ð±":9898,"ĠÐ¾ÑĤÐ¼ÐµÑĩÐµÐ½Ð¾":9899,"ÑĤÐ°Ð»ÐºÐ¸":9900,"ÑĤÑĢÐ¾Ð»ÑĮ":9901,"ĠÐ¿ÑĢÐ¾Ð°Ð½Ð°Ð»Ð¸Ð·Ð¸ÑĢÐ¾Ð²Ð°ÑĤÑĮ":9902,"ĠÐ¿ÑĢÐ°Ð²Ð¾Ð¾ÑĤÐ½Ð¾ÑĪÐµÐ½Ð¸Ñı":9903,"Ð´Ð¶Ð°":9904,"Ð³Ð¾Ð²ÑĭÑħ":9905,"ĠÑĥÐ»ÑĥÑĩÑĪÐµÐ½Ð¸Ñı":9906,"ĠÐ¸Ð½ÑĦÐ¾ÑĢÐ¼Ð°ÑĨÐ¸Ð¾Ð½Ð½Ð¾Ð³Ð¾":9907,"ĠÐ´ÐµÑĤÑģÑĤÐ²Ð°":9908,"ĠÑģÐ¿ÐµÑĨÐ¸Ð°Ð»ÑĮÐ½Ð¾Ð¹":9909,"ĠÐ»ÐµÐºÑģÐ¸ÐºÐ¾":9910,"ĠÐ¼ÐµÑĤÐ°ÑĦÐ¾ÑĢÐ¸":9911,"ĠÐºÐ¾Ð»ÐµÐ±Ð°":9912,"Ð¼ÑĭÑģÐ»Ð¸":9913,"ĠÐ´ÐµÐ»ÐµÐ³Ð¸":9914,"ĠÑĥÐ³ÑĢÐ¾Ð·Ñĥ":9915,"ĠÑĤÐ¾Ð»ÐºÐ¾":9916,"ĠÐ¼Ð°Ð³Ð¸ÑģÑĤÑĢÐ°":9917,"Ð¾Ð»Ð¸Ð½Ð³Ð²Ð¸ÑģÑĤÐ¸":9918,"ĠÐ½ÐµÐ´Ð¾ÑģÑĤÐ°ÑĤÐºÐ¸":9919,"ĠÑģÑĥÐ´Ð°Ð¼Ð¸":9920,"ĠÐ¸Ð½ÑģÑĤÐ¸ÑĤÑĥÑĨÐ¸Ð¾Ð½Ð°Ð»ÑĮÐ½Ð¾Ð¹":9921,"ĠÐ°ÑĥÐ´Ð¸ÑĤÐ¾ÑĢÐ¸":9922,"ĠÑģÐ¸Ð»Ð°":9923,"ÐĿÐļ":9924,"ĠÑĢÐ°Ð·Ð½Ð¸ÑĨÐ°":9925,"ĠÐ±Ð°Ð»Ð»Ð¾Ð²":9926,"ĠÐ±ÑĥÑħÐ³Ð°Ð»":9927,"ĠÑĤÐµÑģ":9928,"ĠÐ²Ð¾Ð¿ÑĢÐ¾ÑģÐ°Ñħ":9929,"ĠÐ¿ÐµÑĢÐ¸Ð¾Ð´Ðµ":9930,"ĠÐ¾ÑĤÑĢÐ°ÑģÐ»ÑıÑħ":9931,"ĠÑģÐ½Ð¸Ð¶Ð°ÐµÑĤ":9932,"ÐĺÐĺ":9933,"ĠÐ½ÐµÐ´Ð¾ÑģÑĤÐ°ÑĤÐ¾Ðº":9934,"ĠÑĩÑĥÑĤÑĮ":9935,"ÐºÐ¾Ð¼Ð°":9936,"ĠÐ¾Ð±Ð¾ÑģÐ½Ð¾Ð²Ð°Ð½Ð¸Ñı":9937,"ĠÐ°ÑģÑģÐ¾ÑĨÐ¸Ð¸":9938,"ĠÐ½ÐµÐ´Ðµ":9939,"ĠÑįÐ½ÐµÑĢÐ³Ð¾":9940,"Ð²ÑĪÐ¸Ð¼ÑģÑı":9941,"ĠÐ¿ÑĢÐ¸ÑģÑı":9942,"ĠÐ¿ÑĢÐ¾ÑıÑģ":9943,"ĠÐ°ÑģÑģÐ¾ÑĨÐ¸Ð°ÑĨÐ¸Ð¸":9944,"ĠÐºÐ»ÑİÑĩÐµÐ²ÑĭÐ¼":9945,"ÑĩÐ¸Ð¼":9946,"ĠÐ¸ÑģÑĤÐ¾ÑĢÐ¸ÐºÐ¾":9947,"ĠÑįÐ»Ð¸ÑĤ":9948,"ĠÐ®Ð¶Ð½Ð¾Ð¹":9949,"ĠÐ·Ð¾Ð½":9950,"ĠÑĢÐµÐ·ÑĥÐ»ÑĮÑĤÐ°ÑĤÐ¸Ð²Ð½Ð¾ÑģÑĤÐ¸":9951,"ĠÑĢÐ°ÑģÐ¿Ð°Ð´Ð°":9952,"ĠÑĥÑĩÐµÐ±Ð½Ð¾":9953,"ĠÐµÐ´Ð¸Ð½ÑģÑĤÐ²ÐµÐ½Ð½ÑĭÐ¼":9954,"ĠÑĢÐµÑģÐ¿Ð¾Ð½Ð´ÐµÐ½ÑĤÑĭ":9955,"ĠÐ²ÑĭÐ¿Ð»Ð°ÑĤ":9956,"ĠÐ¿ÐµÑĢÐµÑĢÐ°ÑģÐ¿":9957,"ĠÐ¾ÑģÑĥÑīÐµÑģÑĤÐ²Ð»ÑıÐµÑĤ":9958,"ĠÐ±Ð»ÐµÐµ":9959,"Ð¼ÐµÑĢÐ°":9960,"ĠÐŁÑģÐ¸Ñħ":9961,"ĠÑģÐ»Ð¾Ð¶Ð½ÑĭÐµ":9962,"ĠÐŁÑĢÐ¸Ð¼ÐµÑĢ":9963,"ĠÐ¾ÑĨÐµÐ½Ð¸Ð²Ð°ÐµÑĤÑģÑı":9964,"ĠÐ¾ÑĤÑģÑĤÐ°Ð¸":9965,"ĠÑıÐ·":9966,"ĠÐºÑĢÐ¸ÑĤÐµÑĢÐ¸Ð¹":9967,"ĠÐºÐ»ÑİÑĩÐµÐ²ÑĭÐµ":9968,"ĠÐ½Ð¸ÐºÑĤÐ¾":9969,"ĠÐ¾Ð»Ð¸":9970,"ĠÐŀÑĢÐ³Ð°":9971,"ĠÐ¿ÐµÑĢÐµÐ¾Ñģ":9972,"ÑĢÑħÐ¸":9973,"ĠÐ·Ð½Ð°ÑĩÐ¸ÑĤÐµÐ»ÑĮÐ½ÑĥÑİ":9974,"ĠÑĢÐ¸Ð¼":9975,"ĠÐ²ÑĭÐ²Ð¾Ð´Ð¾Ð²":9976,"ĠÐ¡ÐµÐ²ÐµÑĢÐ½Ð¾Ð¹":9977,"ÑĤÑĥÑĢÐ½ÑĭÑħ":9978,"Ð¢Ð°ÐºÐ¸Ðµ":9979,"ĠÐ¿Ð¾Ð´Ð¾Ð±Ð½Ð¾Ð¹":9980,"ĠÑģÐ¾ÑģÑĢÐµÐ´Ð¾ÑĤÐ¾ÑĩÐ¸":9981,"ĠÐ·ÐºÐ¾Ð½":9982,"ÐĺÑģÑħÐ¾Ð´Ñı":9983,"ĠÐ»Ð¸ÑĩÐ½ÑĭÐµ":9984,"ĠÐ½Ð¾ÑĢÐ¼Ð°Ð¼":9985,"ĠÐ½Ð°Ð¿ÑĢÐ°":9986,"ĠÑĥÐ´Ð¾Ð²Ð»ÐµÑĤÐ²Ð¾ÑĢÐ¸":9987,"ÑĢÐ°Ð·Ð¸Ð¹":9988,"ĠÐ±ÑĥÐ´ÑĥÑīÐµÐ¹":9989,"ĠÑĪÐºÐ¾Ð»ÑĮÐ½ÑĭÑħ":9990,"ĠÐ¸Ð½Ð½Ð¾Ð²Ð°ÑĨÐ¸Ð¸":9991,"ĠÐ±ÑĥÐ¼Ð°Ð³Ð¸":9992,"ĠÐ»ÐµÐ²":9993,"Ð´Ð¸ÐºÐ°":9994,"ĠÐ¾ÑĤÐºÑĢÑĭÑĤÐ¸Ñı":9995,"ĠÐ»Ð°Ð½Ð´":9996,"ĠÑĤÑĢÐ°Ð´Ð¸ÑĨÐ¸Ð¾Ð½Ð½ÑĭÐµ":9997,"ĠÐºÐ¾Ð¼Ð¼ÑĥÐ½Ð¸ÐºÐ°ÑĤÐ¸Ð²Ð½ÑĭÑħ":9998,"ÐµÐ¼Ð¾Ð¼Ñĥ":9999,"Ð¾ÐµÐ²":10000,"ÑĢÐµÐ½Ð´ÑĤ":10001,"ĠÐ¾ÑĨÐµÐ½Ð¸Ð²Ð°ÑİÑĤ":10002,"ĠÑĦÐ¸ÐºÑģÐ°":10003,"ĠÑģÐ½Ð°Ð±":10004,"ĠÐ±Ð¾Ñı":10005,"ĠÐ²ÐµÑĢÑģÐ¸Ð¸":10006,"ĠÐ¸ÑģÑĤÐ¾ÑĢÐ¸ÑĩÐµÑģÐºÐ¸Ð¹":10007,"ĠÐ²ÑĭÑģÑĤÑĢÐ¾":10008,"ĠÑģÑĢÐµÐ´Ð½ÐµÐ²ÐµÐº":10009,"ÑģÐ¾ÑĢ":10010,"ĠÑĤÐµÐ¼Ð¿Ð¾Ð²":10011,"ĠÐºÐ¾Ð½ÑĨÐµÐ¿ÑĨÐ¸Ð¹":10012,"ĠÐ¾ÑģÑĥÑīÐµÑģÑĤÐ²Ð»ÑıÑĤÑĮÑģÑı":10013,"ĠÐ¿ÑĢÐ¾Ð¼Ñĭ":10014,"ĠÐ¡Ðº":10015,"ĠÑĦÐ¸ÑĢÐ¼":10016,"ÑģÐ¸Ð¾Ð½":10017,"ĠÐ¾ÑģÐ½Ð¾Ð²ÑĭÐ²Ð°ÐµÑĤÑģÑı":10018,"ĠÐ¿Ð¾Ð¼Ð¾Ð³":10019,"ĠÐ·Ð°ÐºÐ¾Ð½Ð¾Ð´Ð°ÑĤÐµÐ»ÑĮÐ½ÑĭÑħ":10020,"ĠÐ¿ÑĢÐ¸Ð¼ÐµÐ½ÐµÐ½Ð¸ÐµÐ¼":10021,"ĠÐ½Ð°ÑģÑĩÐ¸ÑĤÑĭ":10022,"ĠÐ°ÐºÑģÐ¸":10023,"ĠÐ¿ÑĢÐµÐ´Ð¼ÐµÑĤÐ°Ð¼":10024,"ĠÐ½ÐµÑĦÑĤÐ¸":10025,"ĠÐ¢Ð°ÑĤÐ°ÑĢ":10026,"ĠÑĢÐ°Ð·Ð¼ÑĭÑĪ":10027,"ĠÑģÑĩÐ¸ÑĤÐ°ÐµÐ¼":10028,"ĠÑģÑĤÑĢÐ°ÑĤÐµÐ³Ð¸ÑĩÐµÑģÐºÐ¸Ñħ":10029,"ĠÐ¿ÑĢÐ¸Ð±Ð»Ð¸Ð·Ð¸":10030,"ĠÑģÐ²ÐµÑĤÐµ":10031,"ÐłÐĵ":10032,"ĠÑģÑĤÑĥÐ´ÐµÐ½ÑĤÐ°Ð¼":10033,"ĠÑĪÐ¸ÑĢÐ¾ÐºÐ¾Ð¹":10034,"ĠÐ²Ð¾ÑģÐ¿ÑĢÐ¾Ð¸Ð·":10035,"ĠÐ¸Ð½Ð´ÐµÐºÑģ":10036,
[...]
