#version: 0.2 - Trained by `huggingface/tokenizers`
Ð ¾
Ġ Ð
Ð µ
Ð ¸
Ð °
Ñ Ĥ
Ð ½
Ñ ģ
Ð¾ Ð
Ñ Ģ
Ð »
Ð º
Ñ ĥ
Ð ²
Ñ ı
Ð ¼
Ñ ĭ
Ñģ ÑĤ
ĠÐ ¿
Ð ´
Ðµ Ð½
Ñ Į
Ñ ĩ
ĠÐ ²
Ġ Ñģ
Ð¾Ð ²
ÑĢ Ð°
Ñ ħ
ĠÐ ¸
Ð ·
ĠÐ ½
ÑĢ Ðµ
Ð ¿
Ð½ Ð¸
Ð½ Ñĭ
Ñ Ĩ
ĠÐ º
Ð ¹
Ð½ Ð¾
Ñ İ
ÑĤ Ðµ
Ð¾Ð »
Ð¾Ð ³
ÐµÐ½ Ð¸
Ð ³
ÑĢ Ð¸
ĠÐ ´
Ð¾Ð ´
Ð» ÑĮ
Ð¾ ÑĤ
Ð¾Ð ±
Ð¾Ð ¼
Ðµ ÑĤ
Ñģ Ðº
Ð» Ð¸
Ð¾Ð ¹
ÑĨ Ð¸
Ð¾ ÑĢ
ÑģÑĤ Ð²
Ð½ Ð°
Ð ¶
ĠÐ½ Ð°
ÑĤ Ð¸
Ġ Ñ
ĠÐ ¼
Ð ±
Ð¾ Ñģ
Ñ ī
Ñĩ Ðµ
Ð¾Ð³ Ð¾
Ñ Ī
Ġ ÑĤ
Ġ Ñĥ
Ð¾Ð² Ð°
Ð¾ Ð½
Ð° Ðº
Ñģ Ñı
Ð» Ð°
ÑģÑĤ Ð¸
Ð¼ Ð¸
Ðµ ÑĢ
Ġ Ð¾Ð±
Ðµ Ð¼
ĠÐ ·
ĠÐ ±
č Ċ
ĠÐ½ Ðµ
Ġ ÑĢÐ°
ÑĤ ÑĮ
Ð² Ð°
Ð½Ñĭ Ñħ
ĠÐ¿ ÑĢ
Ð» Ñı
Ð´ Ð°
ĠÐ ³
Ð» Ðµ
ÑĢ Ñĥ
ÐµÐ½Ð¸ Ñı
ÑĢÐµ Ð´
ÑģÑĤ Ð°
ÑĤ Ð°
ĠÑ į
Ñ Ħ
ĠÐ °
ÑĤ Ð¾
Ðº Ð°
N U
NU M
Ð½ Ð¾Ð¹
ÑĩÐµ ÑģÐº
Ð¸ Ñħ
Ġ Ñĩ
Ð¾Ð ¿
Ġ Ð¾ÑĤ
ÑĤÐµ Ð»ÑĮ
a b
a r
ar ab
Ġ NUM
Ð· Ð°
ĠÐ¿ ÑĢÐ¸
Ðµ Ð¹
Ð½ Ð¾Ð³Ð¾
Ġ ÑĢÐµ
Ð¾Ð ·
Ð¾Ð º
Ð² Ð¸
Ñģ Ð¸
Ð¾Ð ¶
Ġ Ð¾
Ñĩ Ð¸
Ð¼ Ð°
ĠÐ¿ Ð¾
ĠÐ· Ð°
Ð¾Ð» ÑĮ
Ð½Ñĭ Ðµ
Ð½Ð¸ Ñı
Ñĩ Ð°
ĠÑģ Ð¾
ĠÑ Ħ
ÑĨÐ¸ Ð¸
Ð¸ Ð¼
ÑģÑĤ ÑĮ
Ð´ Ðµ
Ñİ ÑĤ
ÐµÐ½Ð¸ Ðµ
ĠÐ »
ĠÐ² Ñĭ
Ġ ÑģÑĤ
Ð½Ð¾ ÑģÑĤÐ¸
Ñī Ðµ
ÑĤ Ñĥ
Ðº Ð¸
â Ģ
Ñģ Ð¿
âĢ Ĥ
ĠÐ¿ÑĢ Ð¾
Ñģ Ñģ
Ð³ Ð¾
ĠÐ µ
Ñĥ Ñİ
ĠÑĢÐ° Ð·
Ð° Ð»ÑĮ
Ð¼ ÐµÐ½
Ð¸ Ðµ
ÐµÑĤ ÑģÑı
ĠÐ¿ ÑĢÐµÐ´
ÑģÑĤÐ² ÐµÐ½
ĠÐ¸ Ð·
ĠÐ¸ Ð½
Ð° Ð½
ÑĢÐ° Ð²
ĠÑĩ ÑĤÐ¾
Ðµ Ðº
Ġ ÑĤÐµ
Ð´ Ð¸
ĠÑģ Ð²
ĠÐ¿ Ð¾Ð»
Ñħ Ð¾Ð´
ĠÐ± Ñĭ
Ð»Ðµ Ð´
ĠÐ Ĵ
Ð½ Ðµ
ĠÐº Ð°Ðº
ÑĢ Ð¾Ð²Ð°
Ñĭ Ñħ
ÑĢÐ° Ð·
Ð½Ð¾ ÑģÑĤÑĮ
ÑĤÐ¸ Ð²
Ġ Ð¾Ñģ
Ð» ÐµÐ½
ÑģÑĤÐ² Ð°
ÑģÑĤ Ð¾
ÑĨ Ðµ
Ð½ Ð¾Ð²
Ð¾ÑĤ Ð¾ÑĢ
Ð½Ð¸ Ðµ
Ġ ÑĢ
ĠÑĤ Ð°Ðº
Ð³ Ð°
ĠÐ ¡
Ð¼ Ðµ
Ðº Ð¾
ĠÐº Ð¾Ð½
Ġ Ñı
ĠÐ¿ Ð¾Ð´
Ñģ Ðµ
Ð½Ñĭ Ð¼
ĠÐ¼ Ðµ
Ġ -
Ġ Ð¾Ð¿
Ð» Ð¾
Ð½Ñĭ Ð¹
ĠÐ´ Ðµ
Ð¸ Ð¹
Ð½ Ð¾Ð¼
Ð Ĵ
ĠÐº Ð¾ÑĤÐ¾ÑĢ
ĠÐº Ð°
ĠÐ Ł
ÑĤ Ñĭ
Ð² Ð»Ñı
ĠÐ´ Ð»Ñı
ĠÐ¿ Ðµ
Ð´ Ñĥ
Ð¸ ÑĩÐµÑģÐº
Ð¸ Ñģ
ĠÑģ Ñĥ
ĠÐ ¶
Ð¾ Ð½Ð°
ĠÐ» Ð¸
Ġ ÑģÑĤÐ°
Ðº Ð¾Ð²
Ñİ Ñī
Ð¶ Ðµ
Ð» Ð¾Ð²
Ð· Ñĭ
ÑĢÐ° Ð½
Ñĭ Ðµ
Ð¸ Ð·
Ð½Ð¾ Ðµ
ĠÑģ Ð¸
ÑĤ Ð¾Ð²
Ð² Ðµ
Ñģ ÑĮ
ĠÐ ł
ÑĢ Ð¾Ð²
Ð» Ñĥ
ÑĢ Ð¾
Ð» ÐµÐ½Ð¸Ñı
ĠÐ ļ
Ð Ł
ĠÐ¾Ð± ÑĢÐ°Ð·
ĠÑģ Ð¿
Ð° Ð¼
ĠÑį ÑĤ
Ð¾ Ðµ
Ð½ Ñı
ÑĤÐ¸ ÑĩÐµÑģÐº
Ð ¡
ĠÐ² Ð¾Ð·
ÑĢÐ° Ðº
Ð½Ð° Ñı
Ð± Ð¾ÑĤ
Ġ Ñħ
ĠÐ¿ ÑĢÐµ
Ð¾Ðº Ð°
Ñĥ Ð»ÑĮ
Ð³ Ð¸
Ð¾Ð²Ð° Ð½Ð¸Ñı
ĠÐ´ Ð¾
Ð» Ñİ
Ñ Ĭ
ÑĤ Ð¾ÑĢ
ÐµÐ½Ð¸ Ð¹
Ð¿ Ð°
ÑĨ ÐµÐ½
Ð¾Ð´ Ð°
Ðº Ñĥ
ÑİÑĤ ÑģÑı
Ðµ Ðµ
Ð´ ÐµÐ½
Ð¾Ð» Ð¾Ð³
ÑĨÐ¸ Ð°Ð»ÑĮ
ÑĨÐ¸ Ñı
Ñĥ Ñĩ
Ð¶ Ð°
Ð¸ ÑĤ
Ð¸ Ñı
ĠÑį Ðº
ÑģÐº Ð¾Ð¹
Ð´Ð° ÑĢ
ĠÐ· Ð½Ð°
Ġ ÑĩÐµ
Ð½Ñĭ Ð¼Ð¸
Ñĥ ÑĤ
ÐµÐ½Ð¸ Ð¸
ĠÐ Ŀ
Ġ Ð¾Ð´
ĠÐº Ð¾Ð¼
ĠÐ ŀ
ĠÐ² ÑģÐµ
Ð² ÐµÑĢ
Ð¾Ñģ Ñĥ
ÑģÑĤÐ² Ð¾
Ð ŀ
ÑĢ Ñĭ
ÑĨÐ¸ Ð¾Ð½
ÑĪ Ðµ
Ð¼ Ñĭ
ÐµÐ¹ ÑģÑĤÐ²
ĠÐ ľ
ĠÐ¸ Ð»Ð¸
ĠÐ¼ Ð°
ĠÐ¿ Ð¾Ñģ
ĠÐ¿ ÑĢÐ°Ð²
ÑģÑģ Ð»ÐµÐ´
ĠÐ¼ Ð¾Ð¶
Ð¸ Ð½
ĠÑ Ī
ĠÐ¿Ðµ ÑĢÐµ
ÑĢÐµÐ´ Ðµ
ÑģÐº Ð¾Ð³Ð¾
Ð° Ñı
Ð½Ð¸ Ð¼Ð°
ĠÐ· Ð°Ðº
ÑĦ Ð¸
ĠÐ Ĳ
ĠÑģ Ð¾Ð²
Ð² Ð¾Ð´
Ð· Ð¸
Ð¾Ñģ ÑģÐ¸
ĠÐ¸ Ñħ
Ðº Ðµ
Ð¾Ð½Ð° Ð»ÑĮ
ĠÑĦ Ð¾ÑĢ
Ð½Ð¸ Ð¸
Ð½ ÑĥÑİ
Ð¾Ð½ Ð¾Ð¼
Ð¿ ÑĢÐ°Ð²
ÐµÐ½Ð¸ Ñİ
Ð° Ð»Ð¸
Ġ Ð¾ÑĢ
Ð¼ Ñĥ
ĠÐ ¢
ĠÐ¸ ÑģÑģÐ»ÐµÐ´
ĠÑĩ Ð°
Ð»Ðµ Ð¹
ĠÐ´ Ð°Ð½
ĠÐ ĺ
ĠÐ¾ÑĤ Ð½Ð¾
ÑĦ Ð¾ÑĢ
ÑĤÐµ ÑĢ
ĠÐ´ ÑĢÑĥ
ĠÐµ Ð³Ð¾
ÑĢ Ð¾Ñģ
Ð¾ÑģÑĥ Ð´Ð°ÑĢ
ÑĤÐ¸ Ñı
ĠÑı Ð²Ð»Ñı
ÑģÑĤ Ñĥ
ĠÑĤ Ð¾
Ð» ÐµÐ¼
ÑīÐµ ÑģÑĤÐ²
Ðµ Ð´
Ð¾Ð»ÑĮ ÐºÐ¾
Ð Ŀ
Ð² ÐµÑĤ
ĠÑģÐ² Ñı
ĠÐ¸ ÑģÐ¿
Ð¾Ð» ÐµÐµ
Ñı ÑĤÐµÐ»ÑĮ
ĠÑĢÐ°Ð· Ð²Ð¸
Ð¾Ð¼ Ñĥ
Ñģ Ð°
ĠÐ¿ÑĢÐµÐ´ ÑģÑĤÐ°
ĠÐ Ķ
ĠÑĢÐ° Ð±Ð¾ÑĤ
ĠÐ´ Ð¾Ð»
ĠÑģ Ðµ
ĠÑģ Ð¾Ð±
ĠÐ² Ð¾
ÑĤÑĮ ÑģÑı
ĠÐ¼Ðµ Ð¶
ĠÐ³ Ð¾ÑģÑĥÐ´Ð°ÑĢ
ĠÐ¿ ÑĢÐ°
ĠÐ¿ Ð¾Ð·
Ñģ ÑģÐ¸
Ð¾Ð»ÑĮ Ð·
ĠÑģÐ¾ ÑĨÐ¸Ð°Ð»ÑĮ
Ñĩ ÐµÐ½
Ð ļ
ÑĤÐµ ÑĢÐ¸
ÑģÐº Ð¸Ñħ
ĠÐ´ Ð¸
ĠÐ° Ðº
Ð± Ð¾
Ð½Ð¸ Ð¹
Ñĥ ÑĢ
Ðµ Ð·
Ð½Ð¾ ÑģÑĤ
ĠÐ¿Ð¾Ð» Ð¸
ĠÐ¿ ÐµÑĢ
Ð¸ Ð²
Ð¾Ð³ ÑĢÐ°
Ð¼ ÐµÑĢ
ÑĦ Ðµ
Ð¿ ÑĢÐ¸
ĠÑģ ÑĢÐµÐ´
ÑĢÐµ Ð¼
ÑģÑĤ ÐµÐ¼
ĠÐ¼ Ð¸
ĠÑģ Ð°Ð¼
Ð° ÑĢ
ĠÑģ Ð»Ñĥ
Ġ ÑĨÐµ
ÑĢÐµ Ð±
Ð½Ð¸ ÐºÐ°
Ñı ÑĤ
Ð¿ Ð¸
Ð¶ Ð´
Ð¿ Ð¾Ð»
ĠÑģÐ² Ð¾
Ð·Ñĭ Ð²Ð°
Ð» ÐµÐ½Ð¸Ðµ
ĠÐ¾Ð± ÑĬ
Ð·Ð° ÑĨÐ¸Ð¸
ĠÑģÑĤ ÑĢÐ°
ĠÐ¾Ð¿ ÑĢÐµÐ´Ðµ
ÑĥÑİ Ñī
ÑĢÑĥ Ð¿
ĠÐ´ÑĢÑĥ Ð³
ĠÑĤÐ°Ðº Ð¶Ðµ
Ð¼ Ð¾Ð¶
ĠÐ¾Ñģ Ð½Ð¾Ð²
ĠÐ½ Ð¾
Ñ į
ÑĨÐ¸ Ð¹
ĠÐ¶ Ðµ
ĠÐ¿ Ð¾Ð²
Ð° Ð»
Ñĭ Ð¹
ĠÐ¼ÐµÐ¶ Ð´Ñĥ
Ñģ Ð»Ð¾Ð²
ĠÐ¾Ð± ÑīÐµ
Ð» Ð¾Ð¶
ĠÑģÐ¸ ÑģÑĤÐµÐ¼
ĠÐ ĵ
Ñģ Ð¾Ð²
Ð»Ð¸ ÑģÑĮ
Ð¼ ÐµÑĤ
ÑĪ ÐµÐ½Ð¸Ñı
Ð ĺ
Ð ¢
Ð¾ÐºÐ° Ð·Ð°
ÑĢÐ° Ð¶
ĠÑĢÐµ Ð·
ÑĤÐµ Ð»ÐµÐ¹
ĠÐ¾ÑĢ Ð³Ð°
ÑģÐ¿ Ðµ
Ð¾Ð» Ð¸
Ġ ÑĢÑĥ
Ð¶ Ð¸
ÑĥÐ»ÑĮ ÑĤÐ°
ĠÐ ĳ
Ñĥ ÐµÑĤ
Ð° ÑĢÐ°Ðº
Ð½Ð° Ð»Ð¸
ĠÑįÐº Ð¾Ð½Ð¾Ð¼
Ð¸ Ð¼Ð¸
ĠÐ¿ÑĢÐ¾ ÑĨÐµ
Ð± Ðµ
ÑĢÐ¸ Ð¸
Ð» Ð¾Ñģ
ĠÐ² Ð¸
ÑĢ Ñı
Ð¸ Ð¸
Ð ł
ĠÑį ÑĤÐ¾
ĠÐ¸ Ð¼Ðµ
ÑĢ Ð¾Ð´
ÑĢÐµ Ð¼ÐµÐ½
Ð¸Ð¼ Ð¾
ÑĤÐµÐ»ÑĮ Ð½Ð¾
ĠÑĥ ÑĢÐ¾Ð²
ĠÐ´ ÐµÐ¹ÑģÑĤÐ²
Ð Ĳ
ĠÑħ Ð°ÑĢÐ°Ðº
ĠÑį ÑĤÐ¸
Ð¾Ð»ÑĮ ÑĪ
Ð»Ðµ Ðº
ÐµÐ½Ð¸ ÐµÐ¼
ĠÐł Ð¾ÑģÑģÐ¸
Ð¾Ñģ Ð¾Ð±
ĠÐ¸ ÑģÑĤÐ¾
Ð½Ð¸ ÐºÐ¾Ð²
ĠÐ´ Ð°
ĠÐ¸ÑģÐ¿ Ð¾Ð»ÑĮÐ·
ÑĢÑĥ Ðº
ÑģÑĤÐ¸ ÑĤÑĥ
ĠÐ² ÑĢÐµÐ¼
ĠÑĤ Ð¾Ð»ÑĮÐºÐ¾
ĠÑı Ð·Ñĭ
ĠÑĥ ÑĩÐ°
ÑĢ ÐµÐ½
ÑģÑĤÐ¾ Ñı
Ð¸ Ð½Ð°
Ñĭ Ð¼
ĠÐ¼ Ð½
ĠÐ´Ðµ ÑıÑĤÐµÐ»ÑĮ
ÑĤ ÑĢÐ¸
ĠÐºÐ¾ÑĤÐ¾ÑĢ ÑĭÐµ
Ð² Ð¾Ð»
ĠÑģ Ð»ÐµÐ´
Ð¾ ÑĢÐ°
Ð»Ð¸ Ñĩ
ĠÐ² Ð¾Ð¿
ÑģÑĤÐ² Ðµ
ĠÑģ Ð¾Ð·
ĠÑıÐ²Ð»Ñı ÐµÑĤÑģÑı
ĠÐ²Ð¾Ð· Ð¼Ð¾Ð¶
ĠÐ± Ñĥ
ĠÐ± Ð¾Ð»ÐµÐµ
ÐµÐº ÑĤÐ¸Ð²
ĠÐ¼Ð¾Ð¶ ÐµÑĤ
Ð»Ð¸ ÑĩÐ¸
ĠÐ ķ
ĠÑĢÐ° ÑģÑģ
ĠÑĤ Ð¾Ð¼
ÑģÑĤ Ðµ
ĠÐ¿ÑĢÐ¾ÑĨÐµ ÑģÑģ
Ñģ Ð»Ð¸
Ð¼ Ð¾
ĠÑĢÐµÐ· ÑĥÐ»ÑĮÑĤÐ°
ĠÐ½ Ð¾Ð²
ĠÐ¾ÑĢÐ³Ð° Ð½Ð¸
ÑĨÐ¸ Ñİ
ÑĤÐµ Ð»Ñı
ĠÐ¸Ð½ ÑĤÐµ
Ð¾Ð´ Ðµ
ĠÐ² Ðµ
Ġ ÑĨÐµÐ½
Ð Ķ
ĠÑĦ Ð°Ðº
Ð´ Ð¾Ð²
ÑİÑī Ð¸Ñħ
Ð¾Ð»Ð¾Ð³ Ð¸ÑĩÐµÑģÐº
ĠÐ² Ð°
Ñĥ Ð½
Ð¸ ÑĤÑĮ
Ñĥ Ð±
ĠÐ´Ð¾Ð» Ð¶
Ð»Ð¾Ñģ ÑĮ
Ð·Ð° Ð½
ĠÑĪ Ðº
ĠÑģÐ»Ñĥ ÑĩÐ°
ĠÑģÐ¾ Ð¾ÑĤ
Ð² ÑĪ
Ð½ ÐµÐ¹
Ñĩ ÐµÑĤ
ĠÐ ¤
Ð¿ Ðµ
ĠÑįÑĤ Ð¾Ð¼
Ð´ ÐµÑĢ
ÑĨ Ð°
ĠÐ¿ Ð¾ÑĤ
ĠÐ¿ÑĢ Ð¾Ð±
ÑĨÐ¸ Ð¾Ð½Ð°Ð»ÑĮ
Ð¸ Ð±
ĠÐ¼ Ð¾Ð³
ÑĢÐ¾Ð²Ð° Ð½
Ð½Ð° ÐºÐ¾
ĠÐ¸ÑģÑģÐ»ÐµÐ´ Ð¾Ð²Ð°
ÑĦÐ¾ÑĢ Ð¼Ð°
Ð¾Ð± ÑħÐ¾Ð´
Ð³ Ñĥ
Ð· Ð½Ð°
ÑĤÑĥ ÑĢ
ĠÐ¿ÑĢ Ð¾Ð²
ĠÐ³ ÑĢÑĥÐ¿
ÑĢÐ¾Ð²Ð° Ð½Ð¸Ñı
ÑĦ ÑĦ
Ð¼ Ð¾ÑĤ
ÐµÐ½ ÑĮ
ĠÑģÐ¿ Ð¾ÑģÐ¾Ð±
ĠÑĤ ÑĢÑĥ
ĠÐ¼ Ñĭ
Ðº Ð¾Ð¼
ĠÐ¼ ÐµÑĤ
ĠÐ¾Ð±ÑĢÐ°Ð· Ð¾Ð²Ð°
Ð¾ ÑģÑĤÐ°
ĠÐ²Ñĭ Ñģ
Ð¾ ÑĢÐ¸
ĠÐ²Ð¾Ð¿ ÑĢÐ¾Ñģ
Ð»Ð¸ Ñı
Ð½ Ð¾Ð²Ð°
Ð½ Ñĥ
ĠÐ¿ÑĢÐ¾ Ð¸Ð·
ĠÐºÐ° ÑĩÐµ
ÑģÐº Ð°
Ð³ ÑĢÐ°
ĠÐ¿ ÑĢÐ°Ðº
ĠÐ¿ÑĢÐ¾Ð± Ð»ÐµÐ¼
ĠÐ¾Ñģ Ð¾Ð±
ĠÐ±Ñĭ ÑĤÑĮ
ĠÑĤÐµ Ñħ
ĠÐ° Ð½Ð°Ð»Ð¸
Ñĩ ÐµÐ½Ð¸Ñı
ĠÐ Ľ
ĠÑģÐ¾ ÑģÑĤÐ°
ĠÐµ Ðµ
Ð»Ð° ÑģÑĤÐ¸
ÑĤ Ð¾Ð¼
Ð¾Ð´ Ð¸
ĠÐ±Ñĭ Ð»Ð¾
ĠÐ Ń
ĠÐ¿ Ð°
ĠÑĩÐµ Ð»Ð¾Ð²
ĠÐ¾ÑĤÐ½Ð¾ ÑĪ
Ñī Ð¸
Ð²Ð° ÑĤÑĮ
ĠÐ½Ðµ Ð¾Ð±ÑħÐ¾Ð´
Ð² Ñĭ
ĠÐºÐ¾Ð¼ Ð¿
ĠÑĥ ÑģÐ»Ð¾Ð²
ĠÑģÐ¾Ð· Ð´Ð°
Ġ Ð¾Ð½
Ð½Ð¾Ð¼ Ñĥ
ĠÐ¸ Ð¼
ÑģÑĤÑĥ Ð¿
ĠÑĤ Ð¾Ð³Ð¾
Ñĩ Ð½Ð¾
ĠÑģÐ¿ Ðµ
ĠÐ¾Ð± Ñī
ĠÐ° Ð²
ĠÐ¿ÐµÑĢ Ð²
ÑģÐº Ð¸Ð¹
ĠÐ± Ð¾Ð»ÑĮÑĪ
Ð¾ÑĤ Ð¸Ð²
ĠÐ¼Ð¾Ð¶ Ð½Ð¾
ĠÑĤÐµ Ð¼
ĠÐ» Ñİ
ĠÐ±Ñĭ Ð»Ð¸
ÑĤ ÑĢ
ĠÐ¿ Ð¾ÐºÐ°Ð·Ð°
ĠÐ·Ð½Ð° ÑĩÐ¸
ĠÑģÑĤ Ð¾ÑĢ
ĠÑĩ Ð¸Ñģ
ÑģÑĤ ÑĢÐ°Ð½
ĠÐ¾Ð± Ðµ
Ð»Ð° ÑģÑĮ
ĠÐ·Ð°Ðº Ð¾Ð½
ÑĤ ÑĢÐ°
ĠÑĢÐ° ÑģÐ¿
ĠÐ¿Ð¾Ð»Ð¸ ÑĤÐ¸ÑĩÐµÑģÐº
ĠÐº Ð¾ÑĢ
Ñĩ ÐµÐ½Ð¸Ðµ
ÑģÑĤÐ° Ð½Ð¾Ð²
ÑĢÐ° Ð±Ð¾ÑĤ
ĠÐ¿ÑĢ Ð¾Ð´
ĠÑģÐ¾Ð¾ÑĤ Ð²ÐµÑĤ
ĠÑĢÐ°Ð·Ð²Ð¸ ÑĤÐ¸Ñı
ĠÐ¾Ð±ÑĢÐ°Ð· Ð¾Ð¼
ĠÐ £
ĠÐ½ Ð¸
ĠÐ¶ Ð¸Ð·
ÑĪ Ð°
Ð ¤
ĠÐ² Ð¾Ñģ
ÐºÐ° Ñħ
ĠÐ¿ÑĢÐ¾ ÑĦÐµ
ÑģÑĤÐ²ÐµÐ½ Ð½Ð¾
ĠÑĢÐµ Ð³Ð¸
Ð± Ð¸
Ð ľ
Ð¾Ð´ ÐµÑĢ
ĠÐº ÑĥÐ»ÑĮ
Ð Ń
Ð¾Ð³ Ð´Ð°
ĠÐ´ÐµÑıÑĤÐµÐ»ÑĮ Ð½Ð¾ÑģÑĤÐ¸
Ð¾Ð³ Ð»Ð°
Ð» ÑģÑı
Ð½Ð¾ÑģÑĤÑĮ Ñİ
Ñĥ Ð¶
ĠÐ·Ð° Ð´Ð°
Ð¸ ÑĤÐµÐ»ÑĮ
ĠÐ² Ð·Ð°
Ð² Ð¾
ĠÐ± ÐµÐ·
ÑĤÑĥ Ð°
ĠÐ²ÑĢÐµÐ¼ Ñı
ĠÐ½ Ð¾ÑĢ
Ð´ ÐµÑĤ
ĠÐ¿Ð¾Ñģ Ð»ÐµÐ´
ÑģÑĤ ÑĢÐ°
ĠÐ¾ Ð½Ð¸
Ðµ Ð²
Ð¾Ð³ Ð¾Ð²
ĠÐ¿ Ð»Ð°
ÑĥÐ½ Ðº
Ð½Ð¸ Ñİ
ĠÐ¿ÑĢÐ° Ð²Ð°
ĠÑģÑĥ Ð±
Ñī Ð°
ĠÐ¿ÑĢÐ° Ð²Ð¸
Ð» Ð¾Ð¼
ĠÑĢÐ° Ñģ
ĠÐ³Ð¾ÑģÑĥÐ´Ð°ÑĢ ÑģÑĤÐ²ÐµÐ½
ĠÐ¿ Ð¾Ð¼
ĠÐ² Ð½Ðµ
Ð¼Ð° ÑĤÑĢÐ¸
Ð² Ð»ÐµÐ½
ĠÐ¾Ð±ÑĢÐ°Ð· Ð¾Ð²Ð°Ð½Ð¸Ñı
ĠÐ³ Ð»Ð°
Ð¾ ÑĢÐµ
ĠÑį ÑĦÑĦ
a t
l at
Ð¾ÑĢ Ñı
ĠÐłÐ¾ÑģÑģÐ¸ Ð¸
ÑĩÐµÑģÐº Ð¾Ð¹
Ġ Ð¾Ðº
ĠÑĪÐº Ð¾Ð»
Ð¸ ÑĢ
ĠÐ¼ Ð¾Ð´Ðµ
ÑĪ ÐµÐ½
ĠÑģÐ¾Ð¾ÑĤÐ²ÐµÑĤ ÑģÑĤÐ²
ÑĩÐµÑģÐº Ð¸Ñħ
Ð¾Ð· Ð½Ð°
Ð² Ñĥ
ĠÑģÐ¸ ÑĤÑĥÐ°
Ð´Ð° Ð½
ÑĤÐµ Ð»Ð¸
Ð³ Ð¾Ð²
Ð¾Ðº Ñĥ
Ð¿ ÑĢÐµ
ĠÐº Ð»Ð°
Ð¿ Ñĥ
ÑİÑī Ð¸Ðµ
ÑĤÐ¾ ÑĢÐ°
Ð¾ Ð½Ñĭ
ÑīÐµ Ð³Ð¾
ÑĤÐ¸ ÐºÐ¸
ĠÐ¾ ÑĨÐµÐ½
ĠÐ½Ð° ÑĩÐ°
ĠÐº ÑĢÐ¸
Ð´ Ð½Ð°ÐºÐ¾
Ð± Ð¾ÑĢ
Ðº Ð¾Ð¹
ĠÐ¿ÑĢÐ¾ÑĦÐµ ÑģÑģÐ¸
ĠÑģ ÐµÐ¼
ĠÐ¸Ð½ ÑĦÐ¾ÑĢÐ¼Ð°
ĠÐ² Ð»Ð¸Ñı
ĠÑĩÐ° ÑģÑĤ
ĠÑĤÐµ ÑĢ
Ð½Ð¸ ÐµÐ¼
ÑĢ Ð¾Ð¼
ĠÐ²Ð° Ð¶
ĠÐ Ĺ
ĠÑĢÐµ Ð°Ð»Ð¸
Ð²Ð° ÐµÑĤ
ÑĤÐ¸ Ðµ
ĠÐ²Ð·Ð° Ð¸Ð¼
ĠÐ½Ð° Ð¿ÑĢÐ°Ð²
ĠÐ¸Ð½ÑĤÐµ ÑĢÐµ
ĠÑģÑĥ ÑīÐµÑģÑĤÐ²
Ð¾Ð¿ Ð¾Ð»
ĠÐ¾Ð±Ðµ ÑģÐ¿Ðµ
ĠÐ² Ðº
ĠÑįÐºÐ¾Ð½Ð¾Ð¼ Ð¸ÑĩÐµÑģÐº
ĠÑĢ Ð¾ÑģÑģÐ¸
ÑģÐº Ð¾Ð¼
Ð° Ð·
ĠÐ±Ñĭ Ð»
Ð± Ñĭ
Ð° Ð¼Ð¸
Ð¾Ð± ÑĢÐ°Ð·
ĠÐ¸ÑģÑģÐ»ÐµÐ´ Ð¾Ð²Ð°Ð½Ð¸Ñı
ÐµÐ½ ÑĤÐ°
ÑģÐº Ð¸Ðµ
Ð¸Ñģ Ð°
Ð¾ÑĤ Ð¾Ð²
ÑĤÐ¸ Ð¹
ÐµÐ½ ÑĤ
ĠÐĿ Ð°
ĠÑģÑĤ Ñĥ
Ñī Ð¸Ñħ
Ð»ÑĮ Ð½ÑĭÑħ
ĠÑĢ Ñĭ
ÑĪ ÐµÐ½Ð¸Ðµ
. ,
Ð´ Ñĭ
ĠÐ¼Ð¾Ð³ ÑĥÑĤ
ĠÑĥ Ð½Ð¸
ĠÐ¸Ð· Ð¼ÐµÐ½
Ð½ ÑĥÑĤ
ÑĢÐ¾Ð²Ð° ÑĤÑĮ
ĠÑģÑĤ ÑĢÑĥÐº
ĠÑĤ ÑĢÐµÐ±
ĠÐ¿Ðµ ÑĢÐ¸
ĠÑĦÐ¾ÑĢ Ð¼Ð¸
Ð½Ð¾ÑģÑĤ ÐµÐ¹
Ñģ Ñĥ
ĠÐ¢ Ð°Ðº
Ñħ Ð°
ÐµÐº ÑĤÐ°
ĠÐ¿Ð¾Ð» Ð¾Ð¶
ĠÐ¿Ð¾Ð· Ð²Ð¾Ð»
ĠÑģÑĥÐ± ÑĬ
ĠÐ¿ÑĢ Ð¾ÑĤÐ¸Ð²
ĠÑĥ ÑĩÐ¸
ĠÑģÐ¾ ÑĨÐ¸
Ð¼ÐµÐ½ ÑĤÐ°
Ġ ÑĤÐ¸
Ð¢ Ð°Ðº
Ð± Ð°
Ð¾Ð± Ñĭ
Ñĥ ÑĩÐ°
ĠÐ¿ÑĢÐ°Ð² Ð¾Ð²
Ð½ Ð³
ÑģÑĤÐ² Ð¾Ð¼
ĠÑĦ ÑĥÐ½Ðº
ÑĤÑĥ ÑĢÑĭ
Ġ Ñİ
ĠÐ³ Ð¾ÑĢ
Ñı Ñħ
ĠÐ¿ÑĢÐ¾Ð¸Ð· Ð²Ð¾Ð´
ĠÐºÐ¾ÑĤÐ¾ÑĢ ÑĭÑħ
ĠÐ° ÑĢ
Ð¿ Ð¾
Ð²Ð° ÐµÑĤÑģÑı
Ð² Ñı
ĠÑĥ Ð¿ÑĢÐ°Ð²
ĠÐ½Ð° ÑĥÑĩ
ĠÐ³ÑĢÑĥÐ¿ Ð¿
Ð´Ðµ ÑĢÐ°
Ñĥ ÑīÐµÑģÑĤÐ²
ĠÐ¸ÑģÐ¿Ð¾Ð»ÑĮÐ· Ð¾Ð²Ð°
Ð½ ÑĨÐ¸
ĠÐŁ ÑĢÐ¸
ÑģÑĤ Ð¾Ð²
ĠÐ³ ÑĢÐ°Ð¶
ĠÑĩÐµ Ð¼
Ð²Ð¸ ÑģÐ¸
Ð½Ð¸ Ðº
ĠÑģ Ð¾Ð´ÐµÑĢ
ĠÐ¼Ð° ÑĤÐµÑĢÐ¸
ĠÐ² ÐµÑĢ
Ð¸Ð½Ð° Ð½
ĠÑįÑĤ Ð¾Ð³Ð¾
ÑĤÐµÐ»ÑĮ Ð½ÑĭÑħ
ÑĤÐµÐ»ÑĮ Ð½Ð¾Ð¹
ĠÑĢÐ¾ÑģÑģÐ¸ Ð¹
Ð° Ð³Ð°
ÑĤÐµ Ð¹
ĠÑĢÐ°Ð· Ð»Ð¸Ñĩ
ĠÐ¸ÑģÑĤÐ¾ ÑĢÐ¸
ÑĢ Ð¾Ð¿
Ð»Ñİ ÑĩÐ°
ÑĥÑĤ ÑģÑĤÐ²
ĠÐ¾ÑĤ Ð²ÐµÑĤ
ĠÐ¾ÑģÐ¾Ð± ÐµÐ½
ĠÑģÐ¾Ð² ÑĢÐµÐ¼ÐµÐ½
ĠÑĩÐµÐ»Ð¾Ð² Ðµ
ÑģÑĤÐ²ÐµÐ½ Ð½ÑĭÑħ
ĠÑģ Ð¾Ð³Ð»Ð°
ĠÐµ Ð´Ð¸
Ñĥ Ñģ
Ð¾ÐºÐ° Ð·ÑĭÐ²Ð°
Ñĥ Ðº
ÑĥÑĩ ÐµÐ½Ð¸Ñı
ĠÐ½Ð° ÑģÐµ
ĠÐ½ÐµÐ¾Ð±ÑħÐ¾Ð´ Ð¸Ð¼Ð¾
Ð¼ÐµÐ½ Ð½Ð¾
Ð²Ðµ Ð´
Ðµ ÑĢÐ°
ĠÐ³ ÑĢÐ°
ĠÐ¾ ÑģÑĤÐ°
ĠÑĢÐ°ÑģÑģ Ð¼Ð°ÑĤÑĢÐ¸
ĠÑģÑĤÑĥ Ð´ÐµÐ½
ĠÐ² Ð·
Ð½Ðµ Ðµ
ÑĤÐ¾ ÑĢÐ¸
ĠÐ¾Ð± Ñı
ĠÐ¾ÑĤ Ð´Ðµ
ĠÐ¼ ÐµÐ½
ĠÐ¿ Ð°ÑĢ
ĠÑģ Ðº
ÑĢÐµ ÑĤ
Ð¸ÑĤ ÑģÑı
ĠÑĦ Ð¸Ð½Ð°Ð½
Ð ĵ
ĠÐ¾Ð¿ÑĢÐµÐ´Ðµ Ð»ÐµÐ½
Ð²Ð° Ð»Ð¸
ÑĩÐ¸ ÑĤÐ°
ÑĩÐµÑģÐº Ð¾Ð³Ð¾
Ñī ÐµÐ½
ĠÐ¿Ð¾Ð· Ð¸
Ñģ Ñĭ
ĠÑĥ Ð³
ĠÑģÐ°Ð¼ Ð¾
ĠÐ¿Ð¾Ð´ ÑħÐ¾Ð´
ĠÑĤ ÑĢÐ°
ĠÑģ Ð»
Ñģ ÑĥÑĤÑģÑĤÐ²
ĠÑįÑĤ Ð¾Ð¹
ĠÑģÐ»ÑĥÑĩÐ° Ðµ
ĠÐº Ð¾Ð»
ĠÐ¾Ð± ÑĢÐ°
ĠÑĥÑģÐ»Ð¾Ð² Ð¸Ñı
ĠÑĥ ÐºÐ°
ĠÐ¿Ð¾Ð·Ð²Ð¾Ð» Ñı
ÐĿ Ð°
ĠÐ¿ÑĢÐ¸ Ð·Ð½Ð°
Ð½ ÐµÐ½Ð¸Ñı
Ð²ÐµÑĢ ÑģÐ¸
ÑĮ Ñİ
ÑģÐº Ð¾Ð»ÑĮ
Ñĥ ÑİÑĤ
ÑĪ Ð¸
ÑīÐµ Ðµ
ĠÑĢÑĥ Ñģ
ĠÐ±Ñĭ Ð»Ð°
ĠÐ³ Ð¾Ð´
Ð½ ÐµÐ½
ĠÐ¿ÑĢÐ¸ Ð½ÑĨÐ¸
ĠÐ²ÑĭÑģ Ð¾Ðº
Ð² Ð»ÐµÐ½Ð¸Ñı
ĠÐ°Ðº ÑĤÐ¸Ð²
ĠÐ¼Ð½ Ð¾Ð³
ĠÑįÐºÐ¾Ð½Ð¾Ð¼ Ð¸
Ð¾Ðº ÑĢÐ°
ĠÑĥ Ð¿
Ðµ Ð´ÐµÑĢÐ°
Ð¾ Ð½Ð¸
ĠÑĥ Ð¶Ðµ
ĠÐ½Ðµ Ðº
ĠÑĢÐ° Ð±Ð¾
ĠÐ¿ÑĢÐµÐ´ÑģÑĤÐ° Ð²Ð»Ñı
Ð° Ñħ
ĠÑĥ Ñĩ
ĠÐ³ Ð¾Ð²
Ð¿Ð¸ ÑĤÐ°
ĠÑģÐ¸ÑģÑĤÐµÐ¼ Ñĭ
ÑĤÐ¾ÑĢ Ð¾Ð²
ĠÑģÐ¿Ðµ ÑĨÐ¸
ĠÐ¸ ÑģÐº
ĠÐ¿ÑĢÐ¸ Ð½Ñı
ÑĨÐ¸ ÐµÐ¹
ĠÐ²ÑģÐµ Ð³Ð¾
Ð²Ð° ÐµÐ¼
Ð¾Ð½ Ðµ
ÐŁ ÑĢÐ¸
Ð¸ ÑĤÐ°
Ðµ Ð¿
Ð¶ ÐµÐ½Ð¸Ñı
ÑĪÐµ Ð³Ð¾
ÑģÑĤ ÑĢÐ¾
ĠÑħÐ°ÑĢÐ°Ðº ÑĤÐµÑĢÐ¸
Ð¾Ð»Ð¾Ð³ Ð¸Ð¸
ĠÐ¾Ñģ ÑĥÑīÐµÑģÑĤÐ²
ÐµÐ¼ Ñĥ
Ð¾Ð²Ð° Ð½
ĠÐ¸ Ð´Ðµ
ĠÑĩ ÑĤ
ĠÐ´ÑĢÑĥÐ³ Ð¸Ñħ
ĠÑĥ ÑĩÐµ
Ð¾Ð³ÑĢÐ° Ð¼
ÑĦÐ¸ ÐºÐ°
ÑĥÐ± Ð»Ð¸
ÑĤÐµÐ»ÑĮ ÑģÑĤÐ²Ð°
ĠÑģÐ¾Ð´ÐµÑĢ Ð¶Ð°
ĠÑĢÐ°Ð±Ð¾ÑĤ Ñĭ
ĠÐ½ Ð¸Ñħ
ĠÐ¸Ð½ Ð´Ð¸
ÑģÑĤÑĥ Ð¿Ð°
Ñĥ Ð·
ĠÐ²ÑģÐµ Ñħ
ĠÑĤÐµ Ðº
ĠÐ¶Ð¸Ð· Ð½Ð¸
Ġ ÑĢÐ¸
Ð ķ
ĠÑģÑĤÐ¾ÑĢ Ð¾Ð½Ñĭ
ĠÐ» Ðµ
ĠÐł Ð¤
ÑģÑĤ ÑĢÑĥÐº
Ð¾Ð³ÑĢÐ° Ð½Ð¸
Ñģ Ð¸Ñħ
ÑģÑĤÐ²ÐµÐ½ Ð½Ð¾Ð¹
Ð² Ð»
ĠÐ² Ñģ
Ñı Ñģ
ĠÐµ ÑģÐ»Ð¸
ÑĤ ÑģÑı
ĠÑĥ ÑģÑĤÐ°Ð½Ð¾Ð²
ĠÑħÐ°ÑĢÐ°Ðº ÑĤÐµÑĢ
ĠÐ² Ð½ÑĥÑĤ
ÑĢ ÐµÐ½Ð¸Ñı
ĠÑįÑĤÐ¸ Ñħ
ĠÑĢ Ñı
ÑĨ Ñĭ
ĠÑģÐ²Ñı Ð·Ð¸
Ð²ÐµÑĢÑģÐ¸ ÑĤÐµ
ĠÐ¸Ð½ ÑģÑĤÐ¸ÑĤÑĥ
ĠÑĢÐ° Ð¼
ĠÐº Ð¾ÑĤ
ÑĢÐ¾Ð²Ð° Ð½Ð¸Ðµ
Ð´ Ð¾
ĠÐ¿ÑĢÐ¾ÑĦÐµÑģÑģÐ¸ Ð¾Ð½Ð°Ð»ÑĮ
Ð»ÑĮ Ð½Ð¾
ĠÐ»Ð¸ Ñĩ
ĠÑį ÑĤÐ°
ĠÑįÑĦÑĦ ÐµÐºÑĤÐ¸Ð²
ÑĤÐµ ÑĢÐ°
Ñı Ð¼
ÑĤ Ð²ÐµÑĢ
Ð¾Ð²Ð° ÑĤÑĮ
Ð²Ð° Ñı
ĠÐ¾ÑĢÐ³Ð°Ð½Ð¸ Ð·Ð°
ĠÑģÑĤÐ° ÑĤÑĮ
ĠÐºÐ°ÑĩÐµ ÑģÑĤÐ²Ðµ
ÑĢÐµ Ð·
ÐµÐº ÑĤ
ĠÐ¼ÐµÑĤ Ð¾Ð´
Ð²Ð° Ð½Ð¸Ñı
ĠÐºÐ¾Ð½ ÑĨÐµ
Ð»Ð° Ð³
ĠÐ² Ð½Ð¸Ð¼Ð°
ĠÑĦ Ð¸
Ð¾Ð´ ÐµÐ¹ÑģÑĤÐ²
ĠÐ¿ÑĢÐµÐ´ Ð¿Ð¾Ð»
ĠÐ¿ Ð¾Ð¿
ÑĪ ÑĮ
Ð¾Ð» Ð¾Ð²
Ð½Ð¸ Ð¼
ĠÑĢÑĭ Ð½
Ð½Ð° ÑĢÐ¾Ð´
ĠÑģ Ð»Ð¾Ð¶
Ð»Ð¸ Ð·
ĠÐ·Ð°ÐºÐ¾Ð½ Ð¾Ð´Ð°
ĠÐ¾ ÑĩÐµ
ĠÐ³ÑĢÐ°Ð¶ Ð´Ð°Ð½
ÑģÐº Ð°Ñı
Ñĭ Ð¼Ð¸
Ð½Ð¸ ÐºÐ¸
ĠÐ¿ÑĢÐµÐ´ Ð¿ÑĢÐ¸
ĠÐ¿ÑĢ Ð¾Ð³ÑĢÐ°Ð¼
Ñį ÑĤ
Ð¸Ð± Ð¾Ð»ÐµÐµ
Ð½Ð° Ð¼Ð¸
Ð½Ð¸ Ð·
ĠÑĢÐµ Ð³Ñĥ
Ð¿ÑĢÐ¸ Ð¼ÐµÑĢ
Ð» ÐµÑĤ
ĠÐ³Ð¾ÑģÑĥÐ´Ð°ÑĢ ÑģÑĤÐ²Ð°
Ð½Ð¸ Ñħ
Ġ Ð¾Ð³ÑĢÐ°Ð½Ð¸
ĠÑģÐ² Ð¾Ðµ
ĠÐ´Ð¾ ÑģÑĤÐ¸
Ð¶ ÐµÐ½
ĠÑĥÑĩÐ° ÑģÑĤ
Ð¼Ñĭ Ñģ
ĠÐ¿ÑĢÐ¸ Ð¼ÐµÐ½
ĠÐºÐ° Ð¶Ð´
Ð´ ÐµÐ¹
Ð £
ÑĤÐµ Ðº
Ð¾Ð³ Ð°
ĠÐ¸Ð½ ÑĤÐµÑĢ
ĠÐ²Ð¾Ð· ÑĢÐ°
ĠÐ ¥
ÑĤÐ¸ Ð¸
ÐµÐº ÑĤÐ¾Ð²
ĠÐºÐ¾ÑĤÐ¾ÑĢ ÑĭÐ¹
ĠÐ¿ Ð¾Ð½
ÐµÐ´ ÐµÐ½Ð¸Ñı
ĠÐ² Ð»Ð°ÑģÑĤÐ¸
Ð¾ ÑģÑĤ
ĠÑĤÐ¾ Ñĩ
ĠÐ §
Ð² ÑĢÐ¾Ð¿
Ð² Ð¾ÑĢ
Ñĥ ÑĩÐ¸
ĠÐ±Ñĥ Ð´Ñĥ
ĠÐº Ð¾Ð³Ð´Ð°
ÑĪ Ð¸Ñħ
ĠÑģÑĤ ÐµÐ¿
ĠÐ´ ÐµÑĤ
ÑģÑĤÐ²ÐµÐ½ Ð½Ð¾Ð³Ð¾
Ñ ĳ
Ð»ÑĮ Ð½Ð¾Ð³Ð¾
ÑģÑĤÐ¾ ÑıÑĤÐµÐ»ÑĮ
ÑĢÑĥ Ð´
Ð Ĺ
Ð»ÑĮ Ð½Ð¾Ð¹
ĠÐŁ Ð¾
ĠÐ» ÐµÑĤ
ĠÐ° Ð´
ĠÐ¿Ð¾Ð¼ Ð¾
ĠÐ¿ÐµÑĢÐ¸ Ð¾Ð´
Ð° Ñģ
ÑĤÐµÐ»ÑĮ Ð½Ð¾Ð³Ð¾
Ð¾Ð³ Ð¸
ĠÐ´ Ð²Ñĥ
Ð¿ ÐµÑĢ
ĠÐ¿Ð¾Ð´ Ð´ÐµÑĢ
ĠÐ¿Ð¾ Ð½Ð¸Ð¼Ð°
Ð¾Ð»Ð¸ ÑĩÐµ
ĠÐ¿Ð¾ÑĤ ÑĢÐµÐ±
ĠÐ¼Ðµ ÑģÑĤ
Ñī ÐµÐ½Ð¸Ñı
ĠÑĤ ÑĢÐ°Ð½
ĠÐ¿Ð¾Ñģ Ð»Ðµ
ĠÐ½ÐµÐº Ð¾ÑĤÐ¾ÑĢ
Ð¾Ð¶ Ð¸
Ð´Ð° Ð³
ÑĤÑĥ Ð°Ð»ÑĮ
ĠÑĥÑĩÐµ Ð±
Ð³ Ð°Ð½
ĠÐ¾Ñģ Ð½Ð¾Ð²Ð°
ĠÐ¿ÑĢÐ°Ðº ÑĤÐ¸
ĠÐ¿ Ñĥ
Ð² ÑĭÑħ
ĠÑİ ÑĢÐ¸
Ð ĳ
ĠÐ½Ð°ÑģÐµ Ð»ÐµÐ½Ð¸Ñı
ĠÑĥÐ½Ð¸ Ð²ÐµÑĢÑģÐ¸ÑĤÐµ
ĠÐ¾Ð± Ð»Ð°
Ñģ Ð½Ð¾
Ð» Ñĭ
ÑģÑĤ ÑĢ
ĠÐ¿ÑĢÐ¸ ÑĩÐ¸
ĠÐ²Ñĭ Ð´Ðµ
Ð¾Ð²Ð° Ð½Ð¸Ðµ
ĠÐ¾ÑĤ ÑĢÐ°
ĠÑĥ Ñģ
Ð± Ð»Ñİ
ÑģÐºÐ¾Ð»ÑĮ ÐºÑĥ
Ñı Ð¼Ð¸
Ð· Ñĥ
ĠÑıÐ²Ð»Ñı ÑİÑĤÑģÑı
ĠÐº ÑĢÐ°
ÑĦ ÐµÑĢ
ĠÑĩÑĤ Ð¾Ð±Ñĭ
ĠÐ´ÐµÐ¹ÑģÑĤÐ² Ð¸Ñı
ĠÑģÐ» Ð¾Ð²Ð°
ĠÑĤ ÑĢÐµ
ĠÑģÑĤ ÑĢÐ°Ð½
ĠÐ± Ðµ
Ñĩ Ð½Ð¾Ð¹
ĠÐ»Ð¸ ÑĪÑĮ
ĠÐ¸Ð½Ð´Ð¸ Ð²Ð¸
Ñĭ ÑĤ
ĠÐµ ÑīÐµ
ÑİÑī ÐµÐ¹
ĠÑģ ÑĩÐ¸ÑĤÐ°
ĠÐ´Ðµ Ð»Ð°
ĠÐºÐ¾Ð½ ÑĤÑĢ
Ñģ ÑĥÑĢ
ÐŁ Ð¾
ĠÐ¿ ÑģÐ¸Ñħ
ĠÐ¸ Ñģ
ĠÐ¾Ð¿ÑĢÐµÐ´Ðµ Ð»Ñı
ÑģÑĤÐ²ÐµÐ½ Ð½Ð¾ÑģÑĤÐ¸
ĠÑĤÐµÑħ Ð½
ÐµÐ¼ ÑĭÑħ
ĠÑģ Ð´Ðµ
ĠÑįÐº ÑģÐ¿
ĠÐ¾Ð±ÑīÐµ ÑģÑĤÐ²Ð°
ĠÐ½ ÐµÐ¼
Ð³ Ð¾Ð´
ÑĤÐµÐ»ÑĮ ÑģÑĤÐ²
ĠÐ½Ðµ Ð¿
ĠÐ² Ð»Ð°
ĠÐ¿ÑĢÐµÐ´ Ð»Ð¾Ð¶
ĠÐº Ð¾Ð»Ð¸ÑĩÐµ
ĠÐºÐ¾Ð½ Ðº
ĠÑģÑĤÐ° Ð½Ð¾Ð²
Ð¾ÑĢ Ð¾Ð²
ĠÑĤÑĢÐ° Ð´Ð¸
ĠÑĢÐ°Ð¼ ÐºÐ°Ñħ
ĠÑģÐ¾ Ð¾Ð±
ĠÐ½Ð° ÑħÐ¾Ð´
Ð° Ð»Ð°
ĠÑĦÐ¾ÑĢ Ð¼Ð°
Ð²Ðµ ÑģÑĤÐ¸
ĠÑĤÐµÑĢ ÑĢÐ¸
ĠÑģÐ¾Ð² ÐµÑĢ
ĠÐ¾ÑĤ Ðº
ĠÐ¿ÑĢÐµÐ´ÑģÑĤÐ° Ð²Ð¸
ĠÐ¸ Ð¼ÐµÐ½Ð½Ð¾
ĠÐ¿ÑĢÐ¾ Ð¸Ñģ
ĠÑģÐ²Ñı Ð·Ð°Ð½
ĠÑģÐ¾ ÑģÑĤÐ¾Ñı
ĠÑģÐ¾ÑģÑĤÐ° Ð²Ð»Ñı
ĠÐ² Ð¾Ð¹
ĠÐļ Ð¾Ð½
ĠÐ¾Ð± Ð»Ð°ÑģÑĤÐ¸
Ð³ Ð¾ÑĤÐ¾Ð²
ÐºÐ° Ð¼Ð¸
Ð¾Ð· Ñı
Ð²Ð° ÑİÑĤ
ĠÑģ ÑĦÐµ
Ñĥ Ð´
ĠÐ¿Ð¾Ð² Ñĭ
Ð¾ÑĤ Ñı
ĠÑģÐ¾Ð² ÐµÑĤ
Ð¾Ð¶ Ð´
Ð» ÐµÐ½Ð¸Ð¸
ĠÐ¿ÑĢÐ°Ð² Ð¾
ÐºÐ° Ð·Ð°
Ð»Ð¸ Ðº
ĠÑĢÐµ ÑĪ
ĠÐ²Ð½Ðµ ÑĪ
ĠÐ½Ð° ÑĨÐ¸Ð¾Ð½Ð°Ð»ÑĮ
Ð½Ðµ Ð³Ð¾
Ð²Ð¸ Ð´
ĠÐ´ ÐµÐ¼
Ð¸ Ð»Ð¸
ÑįÑĤ Ð¾Ð¼Ñĥ
ĠÐ±Ñĥ Ð´ÐµÑĤ
ÑĥÑİÑī Ð¸Ñħ
ĠÐ¼ÐµÐ¶Ð´Ñĥ Ð½Ð°ÑĢÐ¾Ð´
ÑĤÐ¸ÑĩÐµÑģÐº Ð¸
ĠÐ²ÑĢÐµÐ¼ ÐµÐ½Ð¸
Ð¾ÑĤ Ð¸
ÑģÑĤ ÑĢÐ¸
ĠÑĩÐµÐ»Ð¾Ð²Ðµ ÐºÐ°
Ð»Ð° Ð³Ð°
Ð² Ð»ÐµÐ½Ð¸Ðµ
Ð ¨
ĠÐº Ð¾
ÑĪ ÐµÐ¹
ĠÐ·Ð° Ð²Ð¸ÑģÐ¸
ĠÐ½Ðµ Ð´
ÑĨÐ¸Ð¾Ð½ Ð½ÑĭÑħ
ĠÑģ Ð¾Ð¿
ĠÐ¾ÑĤÐ½Ð¾ ÑģÐ¸
ĠÑĦÐ¸Ð½Ð°Ð½ ÑģÐ¾Ð²
ÑĦÐ¸ ÑĨÐ¸
Ñħ ÑĢÐ°Ð½
ĠÐ²Ð·Ð°Ð¸Ð¼ Ð¾Ð´ÐµÐ¹ÑģÑĤÐ²
Ð² ÐµÐ½
ĠÐ¾ÑĢÐ³Ð°Ð½Ð¸ Ð·Ð°ÑĨÐ¸Ð¸
ĠÐ½Ð° Ð¸Ð±Ð¾Ð»ÐµÐµ
ĠÐ¿ Ð¾ÑĢ
ĠÑģ ÑĢÐ°Ð²
Ð¼Ðµ ÑĩÐ°
Ð± Ñı
ĠÐ¿ÑĢÐ¾ ÑģÑĤÑĢÐ°Ð½
ĠÐºÐ¾Ð¼ Ð¼Ñĥ
ĠÐ¿ÑĢÐµ Ð¿
Ð²Ðµ ÑģÑĤ
Ð»ÑĮ Ð½ÑĭÐµ
ĠÐ»Ð¸ ÑĨ
ĠÑĢÐµ Ð°Ð»ÑĮ
ĠÐ³ Ð³
ĠÐ½Ð° Ð±Ð»Ñİ
ÑģÐº Ð¸Ð¼
Ð² Ð¾Ð¹
ĠÐ¼Ð¾Ð´Ðµ Ð»Ð¸
Ñı ÑĤÐ¸Ñı
ĠÐ° Ð½
Ñĩ Ð½ÑĭÑħ
ĠÐ½Ð¾ÑĢ Ð¼Ð°
ÑĤÐ¸Ð² Ð½ÑĭÑħ
Ð³ Ð»Ñı
ĠÐ¾Ð´ Ð½Ð¾Ð¹
ĠÐ´ Ð¾Ð¿Ð¾Ð»
ĠÑĢÐµ ÑģÑĥÑĢ
ĠÑģÑĤÑĢÐ° Ð½Ñĭ
ĠÐºÑĥÐ»ÑĮ ÑĤÑĥÑĢ
ĠÑģÐ² Ð¾Ð±
ĠÐ¾ÑĤ ÑģÑĥÑĤÑģÑĤÐ²
Ðµ Ð´Ð¸
ĠÐ¸Ð¼Ðµ ÐµÑĤ
ĠÐ± Ð»Ð°Ð³
ĠÐ³ Ð´Ðµ
Ð¾Ð·Ñı Ð¹
Ð»Ð¸ÑĩÐ¸ Ðµ
ĠÐ´Ð°Ð½ Ð½ÑĭÑħ
ĠÐŀ Ð´Ð½Ð°ÐºÐ¾
ÑĩÐµÑģÐº Ð¸Ðµ
ÑĥÑİÑī Ð¸Ðµ
ĠÐ´Ðµ ÑĤÐµÐ¹
Ð¶Ð´ ÐµÐ½Ð¸Ñı
ĠÑĥ ÑģÐ¿Ðµ
Ð¾Ð¶ Ðµ
Ñı Ð²Ð»Ñı
Ð¾ÑĢÐ° Ñı
ĠÑĤÑĢÑĥ Ð´Ð°
Ð¶ Ð´Ð°
ĠÐ²Ñĭ ÑĪÐµ
ĠÐµ ÑģÑĤÑĮ
ĠÐ´Ð¸ ÑģÐº
ÑĤÐµÐ»ÑĮ Ð½ÑĭÐµ
Ġ ÑģÑĤÐ¸
ĠÐ²Ñĭ Ð±Ð¾ÑĢ
ĠÐ¿ÑĢÐµÐ´ Ð¼ÐµÑĤ
Ñĥ ÑģÐ»Ð¾Ð²
ĠÐºÐ¾ÑĤÐ¾ÑĢ Ð¾Ð¹
ĠÐ¾ ÑĢÐ¸
ĠÐ¾ÑģÐ½Ð¾Ð² Ðµ
ĠÐ¼ Ð¾Ð»
Ð½ ÐµÐ¼
ĠÑģ Ð¾ÑĤ
ÑĦ Ð¸ÑĩÐµÑģÐº
ĠÑĨÐµ Ð»Ð¾Ð¼
ĠÑĤ Ð°
ĠÑģÐ²Ñı Ð·Ð°
ĠÑģÐµ Ð±Ñı
ĠÐ¾ÑĤÐ½Ð¾ ÑĪÐµÐ½Ð¸Ñı
Ñĩ ÑĮ
ĠÐ´Ð¾ ÑħÐ¾Ð´
ĠÐ¼ ÐµÑĢ
ĠÐ·Ð° Ð½Ñı
Ð¼ ÐµÐ½Ð¸
ĠÐ¾ Ð½Ð°
Ð½Ð° Ñħ
ĠÐºÐ¾ÑĤ Ð¾ÑĢÐ°Ñı
ĠÑĩÐ° ÑģÑĤÐ¸
ÐµÐ½ Ð°
ĠÑģÐ¾Ð± Ð¾Ð¹
ĠÐ´ Ð¾Ð³Ð¾Ð²
ĠÐ´Ð° Ð¶Ðµ
ĠÑģÑĥ Ð´
ÑĨ ÐµÐ½Ð¸
ĠÑĥÑĢÐ¾Ð² Ð½Ñı
ĠÑıÐ·Ñĭ ÐºÐ°
ÑģÑĤ ÑĢÑĥ
ĠÑģÑĤ Ð¾
ĠÐ² ÑĤÐ¾ÑĢ
ĠÐºÐ¾Ð½Ðº ÑĢÐµÑĤ
ĠÐ²Ñĭ Ð¿Ð¾Ð»
ÑĤÐ¾ÑĢ Ñĭ
Ð² Ð»Ðµ
ĠÐ¿Ðµ Ð´Ð°Ð³
Ð¾ÑĢÑı Ð´
ÑģÐº Ð¾Ð»ÑĮÐºÐ¾
Ð¹ ÑģÐºÐ¾Ð¹
ĠÑĢÐµ ÑĪÐµÐ½Ð¸Ñı
ĠÑĩÐ° ÑģÑĤÑĮ
ĠÐ°Ð½Ð°Ð»Ð¸ Ð·
ĠÐºÐ° Ð¿Ð¸ÑĤÐ°
ÑĢÐ¾Ð¼ Ðµ
ĠÐºÐ¾Ð½ÑĨÐµ Ð¿
ĠÐ½Ð° Ñĥ
ĠÐ´Ð¾ ÑģÑĤÐ°
ĠÐ¼ÐµÐ½ ÐµÐµ
Ð½ ÐµÑĢ
ĠÑģÑĤÑĢÐ° ÑĤÐµ
ÐºÐ° Ð½
ÑĤ Ð°Ðº
ĠÐ½Ð° Ð¿
Ð½ ÐµÐ½Ð¸Ðµ
ĠÐ½Ðµ Ñģ
ÐµÐ½ Ð½ÑĭÑħ
ĠÑħÐ°ÑĢÐ°ÐºÑĤÐµÑĢÐ¸ ÑģÑĤÐ¸
ĠÐ¾Ð±Ñı Ð·Ð°
Ðµ Ð¶
ÑħÐ¾Ð´ Ð¸ÑĤ
ĠÐ²Ðº Ð»ÑİÑĩÐ°
ĠÐ¾ÑĤÐ½Ð¾ÑĪ ÐµÐ½Ð¸Ð¹
ÑĢÑĥ ÐµÑĤ
ĠÑĥÑĩÐ° ÑģÑĤÐ¸
Ġ ÑĨÐ¸
Ð± ÐµÐ½
ÑĤÐ¾ ÑĩÐ½Ð¾
ĠÐ± Ð¾Ð»ÑĮ
ĠÐ¿Ð¾Ð» ÑĥÑĩ
ĠÑģÐ²Ð¾ ÐµÐ¹
Ġ Ð¾ÐºÐ°Ð·Ð°
ĠÐ´ Ð¾Ð¼
ÑĢÐ¾ ÑģÑĤÑĢÐ°Ð½
ÑĤÐµ Ð»
Ġ Ð¾ÐºÐ°Ð·ÑĭÐ²Ð°
Ð» ÐµÐ½Ð¸Ð¹
Ñī ÐµÐ½Ð¸Ðµ
ĠÑĩÐ¸Ñģ Ð»Ðµ
Ð¶ ÐµÑĤ
ĠÑģÐ¸ÑĤÑĥÐ° ÑĨÐ¸Ð¸
ĠÑģÐ»ÐµÐ´ ÑĥÐµÑĤ
ÑģÑĤ Ð¾Ð¹
ĠÐºÐ»Ð° ÑģÑģ
. .
Ð·Ð° ÑĨÐ¸Ñı
Ð²Ð¸ Ð´Ðµ
ĠÑİÑĢÐ¸ Ð´Ð¸
ĠÐ°Ð½Ð°Ð»Ð¸ Ð·Ð°
ĠÐºÐ° ÑĢ
Ð¼Ð¸ Ð½Ð¸
Ð²Ð° ÑİÑĤÑģÑı
ĠÐļ Ð°
ĠÑĥÑĢÐ¾Ð² ÐµÐ½ÑĮ
ĠÐ¿Ð¾Ð·Ð²Ð¾Ð»Ñı ÐµÑĤ
ÑĨÐ¸Ð¾Ð½ Ð½Ð¾Ð¹
Ð¶ ÐµÐ½Ð¸Ðµ
ĠÑĤÐ°Ðº Ð¸Ñħ
Ð°Ð»ÑĮ Ð½ÑĭÑħ
Ð²Ð¾Ð» Ñİ
ĠÑĢÐ°Ð· ÑĢÐ°Ð±Ð¾ÑĤ
ĠÐ· ÑĢÐµÐ½Ð¸Ñı
ĠÐ¿Ð¾ ÑģÐºÐ¾Ð»ÑĮÐºÑĥ
ĠÑĥÑģÐ»Ð¾Ð²Ð¸Ñı Ñħ
ÑĨÐ¸Ð¾Ð½ Ð½Ð¾Ð³Ð¾
ĠÐ»Ñİ Ð±
ĠÐ²Ð¸ Ð´
ĠÐ¸ÑģÐ¿ Ð¾Ð»
ĠÐ¼Ðµ ÑħÐ°
ĠÐ¿Ð° ÑĢÐ°
ÑĨÐ¸ Ð°
ĠÑģÑĥ ÑīÐµ
ĠÑģÐ²Ð¾ Ñİ
ĠÑģÐ²Ð¾Ð± Ð¾Ð´
ĠÐŃ ÑĤÐ¾
ĠÐ± Ð°Ð½
Ðŀ Ð´Ð½Ð°ÐºÐ¾
ÑĤÐ° Ð¼Ð¸
ĠÐºÐ¾Ð¼ Ð¿Ð°
ĠÑį Ð»ÐµÐ¼
ĠÐ¿ÑĢÐµÐ´ÑģÑĤÐ° Ð²Ð»ÐµÐ½
ĠÐ´Ð°Ð½ Ð½Ð¾Ð¹
ĠÑģÑĤÐ° ÑĤÑĥ
ĠÐ¿Ð¾Ð»Ð¸ ÑĤÐ¸
ÑĤÐµ Ð³Ð¾
ĠÐ¸ÑģÑĤÐ¾ Ñĩ
ĠÐ¾Ð± ÑĥÑĩÐµÐ½Ð¸Ñı
ÐµÐ½ ÑģÐ¸
ĠÑĢÐµÐ³Ñĥ Ð»Ð¸
Ñħ Ð¾Ð²
ÑĢÐµÐ´ Ð¸
ĠÐ¤ ÐµÐ´ÐµÑĢÐ°
Ð¿ Ð¾Ð²
ĠÐ ¨
ĠÑįÑĤ Ð¾ÑĤ
ĠÑĢÑĥ ÐºÐ¾Ð²
Ð¼Ð¾ ÑģÑĤÐ¸
ĠÐ²Ð½Ð¸Ð¼Ð° Ð½Ð¸Ðµ
ĠÑģ ÐµÐº
ĠÑģÐ¾ÑĨÐ¸Ð°Ð»ÑĮ Ð½Ð¾Ð¹
Ñī Ð¸Ðµ
ÑĮ Ñı
ÑĤÐ¸ÑĩÐµÑģÐº Ð¸Ñħ
ÑĨÐµ Ð²
ĠÐ¿ÑĢÐ¾Ð´ ÑĥÐº
ĠÑĢ Ð¾Ð´Ð¸
ÑģÑĤÐ²ÐµÐ½ Ð½ÑĭÐµ
Ġ ÑĨ
ĠÑģÐ²Ñı Ð·
ĠÑĢ Ð¾Ð»ÑĮ
Ð»Ð¸ ÑĩÐ°
ĠÐ²Ð½ÑĥÑĤ ÑĢÐµÐ½
ĠÐºÐ¾Ð½ ÑĤÐµÐº
ĠÑĢÐ°Ð±Ð¾ÑĤ Ð°
ÑģÐº Ð¾
ĠÐºÐ¾Ð½ ÑģÑĤÐ¸ÑĤÑĥ
Ñı Ð²Ð¸
ÑıÑĤ ÑģÑı
ĠÑģÑĦÐµ ÑĢÐµ
ĠÑģ Ð¼ÑĭÑģ
ĠÐ¿ÑĢÐ¸ Ð¼ÐµÑĢ
ÑģÑĤ Ñĭ
ĠÑĥÑĢÐ¾Ð² Ð½Ðµ
Ñį Ðº
ÑģÐº Ð¾Ðµ
ĠÐ¿Ð¾Ð´ Ð³Ð¾ÑĤÐ¾Ð²
ĠÑĩ ÐµÑĤ
ÐµÑĤ Ð¸
ĠÑĪ Ð¸ÑĢ
ĠÐ· ÐµÐ¼
ĠÑģ Ð½Ð¸
ĠÐ¾Ð±ÑĬ ÑıÑģ
ĠÐ³ÑĢÑĥÐ¿Ð¿ Ñĭ
ĠÐ¿ÑĢÐµ ÑģÑĤÑĥÐ¿
ĠÑĢÐ°ÑģÑģ Ð¼Ð¾ÑĤ
ĠÐ¿ÑĢÐµÐ´Ð¿Ð¾Ð» Ð°Ð³Ð°
ĠÑģÐ²Ð¾ Ð¸Ñħ
ĠÐ¾Ð±ÐµÑģÐ¿Ðµ ÑĩÐ¸
ĠÐ¾ÑĢ Ð³Ð°Ð½
Ð¿ ÑĢÐ¾
ÑĢÐµ Ð¿
Ñī ÐµÐ¹
ÐµÐ½ ÑĤÐ¾Ð²
ĠÐ¿Ð¾Ð» ÑĥÑĩÐ¸
ĠÐºÐ¾Ð¼Ð¼Ñĥ Ð½Ð¸ÐºÐ°
ĠÐ° ÑģÐ¿
ĠÐ¿Ð¾Ð»Ð¸ ÑĤÐ¸ÐºÐ¸
Ð¸ Ð»
Ð² Ð¾Ð·
Ð´Ðµ Ð±
ĠÑģÐ¾ÑĨÐ¸Ð°Ð»ÑĮ Ð½ÑĭÑħ
ĠÐ½Ð° ÑģÑĤÐ¾Ñı
ĠÑĥ Ð²Ðµ
ĠÑģÐ¾ÑĤ ÑĢÑĥÐ´
ÑĤÐµÐ»Ñı Ð¼Ð¸
ĠÐ±Ð¾Ð»ÑĮÑĪ Ð¸Ð½
ÐµÐ½ ÑĤÐ¸
ÑĤÑĥ ÑĢÐ°
ĠÐ²Ð¾Ð·Ð¼Ð¾Ð¶ Ð½Ð¾ÑģÑĤÑĮ
Ð¾Ð³ Ð¸ÑĩÐµÑģÐº
ÑĤÐ¾ ÑĢÐ¸Ð¸
ÑģÑĤ ÑĢÐµ
ĠÐ¿ Ð¾ÑĢÑıÐ´
ĠÐĺ Ð½
ĠÑĢÐ°Ð· Ð½ÑĭÑħ
ĠÐ½Ð° Ð´
Ð´Ðµ ÑģÑĮ
ÑĤÑĥ ÑĢÐµ
ÑĩÐ¸ Ñģ
Ð¿Ð° Ð´
ĠÐºÐ° ÑĤÐµÐ³Ð¾
ĠÐ´Ð²Ñĥ Ñħ
ĠÑĥÐ¿ÑĢÐ°Ð² Ð»ÐµÐ½Ð¸Ñı
Ð±Ð¾ ÑĢÐ°
ĠÑĩÐµÐ»Ð¾Ð² ÐµÐº
Ð¢Ð°Ðº Ð¸Ð¼
ĠÑĪÐº Ð¾Ð»ÑĮ
ĠÑĢÐµÐ°Ð»Ð¸ Ð·Ð°ÑĨÐ¸Ð¸
ĠÐ¼ÐµÑħÐ° Ð½Ð¸Ð·
ĠÐ·Ð° ÑīÐ¸
Ð¾Ñģ ÑĢÐµÐ´
ĠÐ¾ÑĨÐµÐ½ ÐºÐ¸
ĠÐ¶ ÐµÐ½
ĠÐ²Ñĭ Ð²Ð¾Ð´
ÑĢÐ¸ Ñı
ÑĩÐµÐ½ ÑĮ
Ð²ÑĪ Ð¸Ñħ
ĠÑģ Ð²Ð¸Ð´Ðµ
Ñı ÑĤÑĮ
Ð±Ðµ Ð¶
ĠÐ¸ Ð³
ĠÑıÐ·Ñĭ ÐºÐ¾Ð²
ĠÐ´ Ñĥ
ĠÐ¾ÑĤÐº ÑĢÑĭ
ÑĦÐ¾ÑĢ Ð¼Ð¸
ĠÐ²Ñĭ ÑģÑĤÑĥÐ¿Ð°
ĠÑģÑĤÐµÐ¿ ÐµÐ½Ð¸
Ð»ÐµÐ½ Ð½ÑĭÑħ
ÑĤÐµ Ð¼
Ð §
Ð²Ð° Ð½
Ð¨ ÐĲ
ÑĤÐ¸Ð² Ð½Ð¾Ð¹
ĠÑģÑĤÑĥÐ´ÐµÐ½ ÑĤÐ¾Ð²
ĠÐĹ Ð°
ĠÐ¾ÑģÑĥÑīÐµÑģÑĤÐ² Ð»Ñı
ĠÑģÑĤ ÑĢÐ¾
ĠÑģÐ¿Ðµ ÑĨÐ¸Ð°Ð»ÑĮ
ĠÐºÐ¾Ð½ ÐºÑĥ
Ñĭ ÑĤÐ°
ĠÑĢÐ°Ð·Ð²Ð¸ ÑĤÐ¸Ðµ
ĠÐ¾ ÑĨÐµÐ½Ð¸
ĠÑģÐ¾ÑĨÐ¸Ð°Ð»ÑĮ Ð½Ð¾
ĠÑģÑĤÐ° Ð½
Ġ ÑħÐ¾Ð´
ĠÐ½Ð° Ð»
ĠÐ¾Ð´ Ð½Ð°ÐºÐ¾
ĠÐ¼ Ð½Ð¾Ð³Ð¾
ĠÑĢÐµ Ð±ÐµÐ½
ĠÑĢÐ°ÑģÐ¿ ÑĢÐ¾ÑģÑĤÑĢÐ°Ð½
ĠÐ½Ð° Ð¿ÑĢÐ¸Ð¼ÐµÑĢ
ÑĢÐµ Ðº
ĠÐ³Ð¾ÑĢ Ð¾Ð´
Ð»Ð° Ð´
Ð¼Ðµ ÑĢÐ¸
ĠÑģÐ² Ð¾Ð¹
ĠÑĪÐ¸ÑĢ Ð¾Ðº
ĠÑĩÐµ ÑĢÐµÐ·
ĠÑĢÐ°Ð·Ð»Ð¸Ñĩ Ð½ÑĭÑħ
ĠÐº ÑĥÑĢ
ÐµÐ½ Ñĭ
ĠÐ¼Ðµ ÑģÑĤÐ¾
ĠÑĢÐµ ÑģÐ¿
ĠÐ± Ñİ
ĠÐ´ Ð¾Ð²
ĠÐ²Ð¾Ñģ Ð¿ÑĢÐ¸
Ð¸Ñģ ÑĮ
ĠÐ´Ð¾Ð»Ð¶ Ð½Ñĭ
Ð»Ð¸ ÑĤÑĮ
ĠÐ¸Ð½ÑĤÐµÑĢÐµ Ñģ
ĠÐ¼Ð¸ ÑĢÐ¾Ð²
ÑĤÐ¾ Ñĩ
ĠÑĤÑĢÑĥ Ð´
ĠÐ¾ÑĩÐµ ÑĢÐµÐ´
ĠÐ³Ð¾Ð² Ð¾ÑĢÐ¸
Ð½Ðµ Ñģ
Ð² ÑĭÐµ
ĠÑģÐ¾Ð± Ñĭ
ĠÑĦ Ð¾Ð½
ĠÐ¿ÑĢÐ¾Ð´ Ð¾Ð»
ĠÑĥÐ³ Ð¾Ð»Ð¾Ð²
Ð½Ð¸ ÑĤÑĮ
Ð¼Ñĥ Ð»Ð¸
ĠÐ¿Ð¾Ð´ Ð¾Ð±
ĠÐ ¦
ĠÐ³Ð»Ð° Ð²
ĠÑįÐºÐ¾Ð½Ð¾Ð¼Ð¸ ÐºÐ¸
ĠÑĤ Ð¾ÑĢ
ÑģÑĤÐ² Ñĥ
ÑģÑĤÐ° Ð½
Ð² ÑĢÐ°
Ñħ Ð¸
ÑĤÐ¸ÑĩÐµÑģÐº Ð¾Ð¹
ĠÑģÐ´Ðµ Ð»Ð°
ĠÐ¼Ðµ Ð´Ð¸
ĠÐ¡ Ð¨ÐĲ
ĠÐ¿ÑĢÐ¾Ð±Ð»ÐµÐ¼ Ñĭ
Ð¾Ð² Ð¾Ð¹
ĠÑģÑĢÐµÐ´ Ð¸
ĠÐ¾Ð¿ Ð¸ÑģÐ°
Ð¾Ð± Ð¸
Ðº Ð¸Ñħ
ĠÐ¸Ð·Ð¼ÐµÐ½ ÐµÐ½Ð¸Ñı
ĠÐ¾ÑĤ Ð¼ÐµÑĤ
ĠÐ·Ð½Ð° ÑĩÐµÐ½Ð¸Ðµ
ĠÐ²Ð¸ Ð´Ðµ
ĠÐ´ÑĢÑĥÐ³ Ð¾Ð¹
Ð°Ð»ÑĮ Ð½Ð¾Ð³Ð¾
Ð´ ÐµÐ¹ÑģÑĤÐ²
ĠÐ¸ÑģÐº Ð»Ñİ
ÑĨÐ¸ Ð¿
ĠÑĤÐ¾Ñĩ ÐºÐ¸
Ð¶ Ð´Ðµ
ĠÐłÐ¾ÑģÑģÐ¸ Ð¹ÑģÐºÐ¾Ð¹
ĠÐ ¯
ĠÐ»Ñİ Ð´ÐµÐ¹
Ñı Ð½
ÑīÐµ ÑģÑĤÐ²Ð°
ÑĩÐµÑĤ Ð°
ĠÐ»Ð¸ Ð±Ð¾
ĠÑĢÐ°Ð· Ð´Ðµ
Ð³Ð¸ Ð¸
Ð Ľ
Ð²ÑĢÐ¾Ð¿ ÐµÐ¹
ÑĢÑĥ ÐµÑĤÑģÑı
ĠÐ¸ÑģÑģÐ»ÐµÐ´Ð¾Ð²Ð° Ð½Ð¸Ð¹
ÑİÑī Ð¸Ð¹
ĠÐ²Ð¾ ÐµÐ½
ĠÐ³ Ð¾Ð´Ð°
ĠÑĨÐµ Ð»ÑĮ
ĠÐ² ÑĥÐ·
ĠÐ¸Ð½Ð´Ð¸Ð²Ð¸ Ð´Ñĥ
ĠÐ½Ð° ÑĢÑĥ
ĠÑĥ ÑĤÐ²ÐµÑĢ
ÑİÑīÐ¸Ñħ ÑģÑı
Ð¾Ð· Ð¸
ÑĢ Ðº
ĠÐ» ÐµÐº
ĠÐ¾Ð± Ñĭ
Ð» ÐµÐ½Ð¸Ñİ
ĠÐ¼ Ð¾Ð¼
ĠÐ»Ð¸ ÑĤÐµÑĢÐ°
ĠÐĿ Ðµ
ĠÐ´ Ð¾ÐºÑĥ
ĠÐ´Ð¾Ð¿Ð¾Ð» Ð½Ð¸
ÐĿ Ðµ
ĠÑģ Ð»Ð¾Ð²
ÑĤÐ¸Ð² Ð½Ð¾Ð³Ð¾
Ġ ;
ÑħÐ¾Ð´ Ñı
ĠÐ¿ÑĢÐ¸ Ð½Ð¸Ð¼Ð°
ĠÐ½ÐµÐ¾Ð±ÑħÐ¾Ð´ Ð¸Ð¼
ĠÑģÐµ Ð»ÑĮ
ÑĢ Ð¾Ðº
ĠÐ¿ÑĢÐµÐ¿ Ð¾Ð´Ð°
ĠÑĥÑĩ ÑĢÐµ
ĠÐ½ ÐµÑĤ
ĠÐ¸ÑģÑĤÐ¾ ÑĢÐ¸Ð¸
ĠÐ½Ð° ÑĪ
Ð¿ Ñĭ
ÑĩÐµ Ð¼
ĠÐ½ Ð¸Ð·
Ð³ Ð»Ð°
ĠÑģÐ¾ ÑħÑĢÐ°Ð½
ĠÐ±Ð¾Ð»ÑĮ ÑĪÐµ
ĠÐ½Ð¾Ð² ÑĭÑħ
ĠÑĩÐ°ÑģÑĤ Ð½Ð¾ÑģÑĤÐ¸
ÑĢ Ð¾Ð±
ĠÐ²Ð° ÑĢÐ¸
ĠÐ¸ÑģÐ¿Ð¾Ð»ÑĮÐ· Ñĥ
ÑĢÑĥ Ð³
ĠÑĢÐµÐ·ÑĥÐ»ÑĮÑĤÐ° ÑĤÐµ
ĠÐ¿ Ð¾Ð»ÑĮÐ·
ÑİÑī Ð¸Ð¼
Ð¾Ð» Ñı
ĠÐ½Ð°Ð±Ð»Ñİ Ð´Ð°
ĠÐ²Ð»Ð¸Ñı Ð½Ð¸Ðµ
ĠÐł Ðµ
Ð¡ Ðł
ĠÑĦÐ¾ÑĢ Ð¼
ĠÑĥ ÑģÐ¸
ĠÐ´ Ð°Ð»ÑĮ
ÑģÑĤÑĮ Ñİ
ĠÐ·Ð° Ð½Ð¸Ð¼Ð°
ÑĤÐ¸ Ñĩ
Ð»ÐµÐ½ Ñĭ
ĠÐ¸Ð½ÑĦÐ¾ÑĢÐ¼Ð° ÑĨÐ¸Ð¸
ĠÐ¿Ð¾Ð¼Ð¾ Ñī
ÑĨÐ¸ Ð¾Ð½Ð¸
ĠÐ¿Ð¾ÑĤ ÐµÐ½
ÐĶ Ð»Ñı
ĠÐ¿ÑĢ Ð¾Ñģ
ĠÐ ®
ĠÐ¸Ð¼Ðµ ÑİÑĤ
ÑģÑĤÐ² Ð¸Ñı
ĠÐ´Ð°Ð½ Ð½ÑĭÐµ
ĠÑĪÐºÐ¾Ð» Ñĭ
ĠÐ²Ð· Ð³Ð»Ñı
ÑĤÐ° Ð¼
ÑģÑĤ ÐµÑĢ
ĠÐ´ Ð²Ð¸
ĠÑģÑĢÐµÐ´ ÑģÑĤÐ²
Ð½Ð° Ð»
ĠÑģ ÐµÑĢ
Ð´Ðµ Ð¼Ð¸
Ð²Ð° ÑĤÑĮÑģÑı
ĠÐºÐ¾Ð½ ÑģÑĤÑĢÑĥÐº
Ð¼Ð¸Ð½Ð¸ ÑģÑĤÑĢÐ°
ĠÑģÐ¿ÐµÑĨÐ¸ Ð°Ð»Ð¸
ĠÐ¾ÑĤÐ½Ð¾ÑĪ ÐµÐ½Ð¸Ð¸
ĠÐ¾ÑĤ Ð¼ÐµÑĩÐ°
Ñģ Ð¾
ĠÐ¾ÑĩÐµÑĢÐµÐ´ ÑĮ
ĠÐ½Ð° Ñģ
ĠÑĤÑĢÐ°Ð½ Ñģ
ĠÐ¸Ð½ Ð²ÐµÑģÑĤÐ¸
Ð» Ð¾Ð½
ĠÐ²Ð¾Ð·Ð¼Ð¾Ð¶ Ð½Ð¾ÑģÑĤÐ¸
Ð½Ðµ Ð²
ĠÐ¿Ðµ ÑĢÐµÐ´
ĠÐ¿ÑĢÐ¸ ÑĢÐ¾Ð´
ÑĢÑĥ ÑİÑĤ
Ð°Ð»ÑĮ Ð½Ð¾Ð¹
ĠÐ¿Ð¾Ð´Ð´ÐµÑĢ Ð¶
ÑģÑĤÑĢ Ð¾Ð¹
ĠÑħ Ð¾Ð·ÑıÐ¹
Ð½Ð¸ ÑĨ
ĠÑĥÑģ Ð»Ñĥ
Ð¾ ÑģÑĤÐ¸
ÑĤÐ° Ñħ
ĠÑģÑĥ Ð´ÐµÐ±
Ð¾Ð¿ Ñĥ
ĠÐ¸Ð· ÑĥÑĩ
ÑĦÐ¸ÐºÐ° ÑĨÐ¸Ð¸
Ð¼Ð° Ð½
Ð¾ ÑģÐº
ĠÑĦÐ¾ÑĢ Ð¼Ñĭ
Ð¾ÑĤ ÑĢÐµÐ±
ĠÐ²Ñĭ ÑĢÐ°Ð¶
Ðµ Ð»ÑĮ
ĠÐ´ Ð²Ð°
Ñİ ÑīÐµÐ³Ð¾
Ð½ÐµÐ¹ ÑĪ
ÑįÐº Ð¾Ð½Ð¾Ð¼
ĠÐ¿Ð¾Ð» ÑĥÑĩÐ°
ĠÐ¤ÐµÐ´ÐµÑĢÐ° ÑĨÐ¸Ð¸
ĠÐ¾Ð±Ð»Ð° Ð´Ð°
ĠÐ¿ÑĢ Ð¾Ð¼
ÑĤÐ° ÑĢ
ĠÐ¾Ð± ÑĥÑģÐ»Ð¾Ð²
ĠÑĢÐµÐ·ÑĥÐ»ÑĮÑĤÐ° ÑĤÑĭ
ÑĮ Ð¸
ÑģÑĤÐ² Ð¾Ð²Ð°
ĠÐ´ÐµÑıÑĤÐµÐ»ÑĮ Ð½Ð¾ÑģÑĤÑĮ
Ð±Ð¸ ÑĢÐ°
ÑĨÐ¸Ñı Ñħ
ĠÐºÐ¾Ð¼Ð¿ ÐµÑĤ
Ñĭ Ñģ
ĠÑģÐ¾ÑĨÐ¸Ð°Ð»ÑĮ Ð½Ð¾Ð³Ð¾
ĠÑĥ ÑĩÐµÐ½
Ġ %
ÐµÐº ÑĤÑĭ
Ð¾ ÑĪ
ĠÐ¾Ð±ÑĬ ÐµÐ¼
Ð½Ð° Ð´
Ð»Ñİ ÑĩÐµ
ĠÐ´Ð¸ Ð°
ĠÑĢÑı Ð´
ĠÐ½Ð° ÑĢÐ¾Ð´
Ð³ Ð´Ð°
ĠÑĢÐµÐ³Ð¸ Ð¾Ð½Ð°Ð»ÑĮ
ĠÐ· Ð´
Ð¾ ÑĢÐ¸Ð¸
ÑĤÐ¸Ð² Ð½ÑĭÐµ
ÑĤÐµÐ»ÑĮ Ð½ÑĭÐ¹
ĠÑįÑĤÐ¸ Ð¼
ĠÐ¿ÑĢÐµÐ´ Ð¾ÑģÑĤÐ°
ĠÐĴ Ð¾
Ð²Ðµ Ð´ÐµÐ½
ĠÐ¿ Ð¾Ðº
ĠÐ³Ð»Ð° Ð³
ĠÑĤ ÐµÐ½
ĠÑĥ Ðº
ĠÐºÑĥÐ»ÑĮ ÑĤÑĥÑĢÑĭ
ĠÑĢÐµÐ³Ð¸ Ð¾Ð½Ð°
ÑģÑĤÐ¸ ÑĩÐµÑģÐº
ĠÐ¿ÑĢÐ¸ Ð²Ð¾Ð´
ĠÐ½Ðµ ÑģÐºÐ¾Ð»ÑĮÐºÐ¾
ĠÑĢÐ°Ð±Ð¾ ÑĤÐµ
ĠÐ¾Ð´ Ð¸Ð½
Ð¾Ð²Ð° Ñı
ĠÐ° Ð³
ĠÐ¿ÑĢÐ¾Ð² Ðµ
ĠÐ¿ÑĢÐ¸ Ð²Ð»Ðµ
ĠÐ¸Ð· Ð²ÐµÑģÑĤ
ÑĤÐµÐ»ÑĮ Ð½Ð¾Ðµ
ĠÐ´Ð¾ÑģÑĤÐ° ÑĤÐ¾ÑĩÐ½Ð¾
ĠÐº ÑĢÐµ
ĠÐ¾Ð± ÑīÐµÑģÑĤÐ²
ĠÑĢÐµ Ð»Ð¸
Ð³ Ð¾Ñģ
Ð»ÐµÐ½ Ð½Ð¾ÑģÑĤÐ¸
ĠÐ¿ÑĢÐ¾ÑĨÐµÑģÑģ Ð°
ĠÑĤÐµ Ð¾ÑĢÐµ
ÑĢÐµ Ð²
ĠÑĤÐµ Ð¾ÑĢÐ¸Ð¸
Ð²Ð° Ð½Ð¸Ðµ
Ð¸Ñģ Ñĭ
ĠÑĤÐ°Ðº Ð¾Ð¹
ĠÐ¼Ð° ÑģÑģ
ĠÐ¾Ðº ÑĢÑĥ
ĠÑģÐ¸ÑģÑĤÐµÐ¼ Ð°
Ð»ÑĮ Ð½ÑĭÐ¹
ÑĥÐ¶ Ð´Ð°
ĠÑĢÐ°Ð· Ð»Ð¸ÑĩÐ¸
ÐºÐ° Ð¼
ÑģÑĤÐ¾Ð¹ ÑĩÐ¸
ĠÐ²Ð¾Ð· Ð½Ð¸ÐºÐ°
ĠÐ¿ÑĢÐ¾ÑĨÐµÑģÑģ Ðµ
ÑĤ Ð½ÑĭÑħ
ĠÐ½Ðµ Ð·Ð°
Ð¾Ð² ÑĭÑħ
ĠÐ¿ÐµÑĢÐµ ÑħÐ¾Ð´
ÑģÐº ÑĥÑİ
ĠÐ¾ Ñħ
Ð´ Ð¶ÐµÑĤ
ĠÐºÐ¾ÑĤÐ¾ÑĢ Ð¾Ðµ
ĠÐ² ÑĢÐµÐ¼ÐµÐ½
ĠÑĤ Ð¾Ð²Ð°
Ð± Ñĥ
ĠÐ¸Ð½ Ð½Ð¾Ð²Ð°
ĠÐ½Ð° Ð·
ĠÐºÐ¾Ð½ ÑĦ
Ð¼Ð¾ÑĤ ÑĢÑı
ĠÑģÑĤÐ° ÑĢ
ĠÐ¾ Ð½Ð¾
ĠÐ´ÐµÐ¹ÑģÑĤÐ² Ð¸Ð¹
ÑĤÐµ ÑĢÐµ
Ð½Ð¸ ÑĩÐµ
ĠÐºÐ¾ÑĤÐ¾ÑĢ Ð¾Ð³Ð¾
ĠÐ¿ÑĢÐµÐ´ Ð»Ð°Ð³Ð°
ÐŃ ÑĤÐ¾
ĠÐ¸Ð½ ÑģÑĤÑĢÑĥ
ĠÐºÐ¾Ð¼Ð¿ Ð»ÐµÐº
ĠÐ± Ð°Ð·
ÑĤÐµÐ»ÑĮ ÑģÑĤÐ²Ð¾
ĠÑĤ ÑĢÐ¸
ĠÐ¼Ð½ ÐµÐ½Ð¸Ñİ
Ð² Ð½Ð¾
ĠÑģÑĤÑĢÐ° Ð½Ð°Ñħ
ĠÑģÐµ Ð±Ðµ
ĠÑģÐ²Ð¾Ðµ Ð³Ð¾
ĠÐ¾ ÑĩÐµÐ½ÑĮ
ĠÑģÑĤÐ¾ÑĢ Ð¾Ð½
Ð»Ñı ÑĢ
ĠÐļÐ¾Ð½ ÑģÑĤÐ¸ÑĤÑĥ
ĠÐ¿Ð¾Ð»Ð¸ÑĤÐ¸ÑĩÐµÑģÐº Ð¾Ð¹
ĠÐ± Ð°
Ð· Ð¼Ð°
ĠÑģÐ²Ð¾ Ð¸
ĠÑģÑĤÐ°Ð½ Ð´Ð°ÑĢ
ĠÑĢ Ð¾Ð´
Ð¾Ð² ÐµÑĤ
ĠÐ´Ð°Ð½ Ð½Ð¾Ð³Ð¾
ĠÐ½ÐµÐ´ Ð¾ÑģÑĤÐ°
ÐµÐ½ Ð½ÑĭÐµ
ĠÐ¿ÑĢÐµ Ð¶Ð´Ðµ
ĠÐ·Ð°Ð´Ð° Ñĩ
ĠÑħ Ð¾ÑĤÑı
ĠÐ½ Ð¾Ñģ
ÑĤÐ° ÑĨÐ¸Ð¸
ÑīÐ¸Ñħ ÑģÑı
ÐµÐ¼ ÑĭÐµ
Ð» ÐµÐ½Ð¸ÐµÐ¼
ÐºÐ° Ð´ÐµÐ¼Ð¸
ĠÐº ÑĢÑĥÐ¿
ĠÐ¼Ð¸ ÑĢÐ°
Ð¾Ð½ Ð¾Ð²
ĠÐ² Ñĥ
Ð¶ Ð¸ÑĤ
ĠÐ²Ð¾Ð· Ð½Ð¸Ðº
Ðļ Ð°Ðº
ĠÐ¿ÑĢÐ¸ Ð¾Ð±
ĠÑĦ ÐµÐ´ÐµÑĢÐ°
ÑĤÐµ Ð»ÐµÐ¼
ĠÐ³ ÐµÐ½
Ð¼Ðµ ÑģÑĤÐµ
ĠÐ°Ð´ Ð¼Ð¸Ð½Ð¸ÑģÑĤÑĢÐ°
ĠÐĿ Ð¾
ĠÑģ ÑĦÐµÑĢ
ĠÐ´Ð¸ Ð½Ð°Ð¼Ð¸
Ð ¥
ĠÐ¡ Ð¾
ĠÑģÐ²Ð¸Ð´Ðµ ÑĤÐµÐ»ÑĮÑģÑĤÐ²
ĠÑģ Ð»Ð°
ĠÐ´ÑĢÑĥÐ³ Ð¸Ðµ
ĠÑĩ Ð»ÐµÐ½
Ð¾Ð¿ ÑĢÐ¸
ĠÐļ Ð°Ðº
Ð² ÑĤÐ¾ÑĢ
ÑĤÐ¸ÑĩÐµÑģÐº Ð¾Ð³Ð¾
Ð½ ÑĮ
ĠÐ¼ Ð°Ðº
ĠÑģÐ¾Ð²ÐµÑĢ ÑĪÐµÐ½
Ð¾Ð»Ð¾Ð³ Ð¸
ĠÐ¼ ÐµÐ½ÑĮ
Ð° ÑĤ
ĠÑĤÐ¾ÑĢ Ð³Ð¾Ð²
ĠÐºÐ¾Ð½ÐºÑĥ ÑĢÐµÐ½
Ð³Ð¾Ð´ Ð½Ñı
Ð¸ ÐµÐ¼
ĠÑģ ÑĩÐµÑĤ
ĠÐ²ÑģÐµ Ð³Ð´Ð°
ĠÑģ Ð°
ĠÐŀ Ð±
ĠÐ¸ Ð´ÐµÐ½
ÑĢÐ° Ð²Ð¸
Ð½Ð¸ÐºÐ° Ð¼Ð¸
Ð¼ Ð¾Ð²
ĠÐ¾Ð±ÑĬ ÐµÐ´Ð¸
ĠÑĥÑĩÐ¸ ÑĤÑĭ
ĠÐ¿ Ð¾ÐºÐ°Ð·ÑĭÐ²Ð°
Ð¼ÐµÐ½ ÑĤ
Ð¾ ÑıÑĤ
Ð» ÐºÐ¸
Ð¾Ð³ÑĢÐ° ÑĦÐ¸ÑĩÐµÑģÐº
Ð¸ÑĩÐµÑģÐº Ð¸Ñħ
ĠÐĶ Ð»Ñı
ĠÐ¸ Ð½Ð¾ÑģÑĤ
Ñĩ Ð½ÑĭÐµ
Ðµ ÑĢÐµ
ĠÐ¿ÑĢ Ð¾Ð³
ĠÐ¿Ð¾ Ñĩ
ĠÑģÐ°Ð¼Ð¾ ÑģÑĤÐ¾ÑıÑĤÐµÐ»ÑĮ
ĠÐ²Ð·Ð°Ð¸Ð¼Ð¾Ð´ÐµÐ¹ÑģÑĤÐ² Ð¸Ñı
ĠÑĤÐ°Ðº Ð¸Ðµ
ĠÐ¼Ðµ ÑĢÐµ
ĠÑģÑĢÐµÐ´ ÑģÑĤÐ²Ð°
Ð»ÑĮ Ð½ÑĭÐ¼
ĠÐ³ Ð°
ĠÐ¾ÑĢÐ³Ð°Ð½ Ð¾Ð²
ĠÐ²Ð¾Ð· Ð´ÐµÐ¹ÑģÑĤÐ²
Ñĩ Ð½Ð¾Ð³Ð¾
ĠÐ·Ð½Ð° Ð½Ð¸Ñı
ÑģÑĤÐ¾Ñı Ð½
ĠÑģÑĤÐ° ÑĤÐ¸
Ð¾Ð»Ð¾Ð³ Ð¸Ñı
ĠÐ¸Ð¼ Ð¿Ðµ
Ñĭ ÑĪ
ĠÐ¸Ð½ ÑĦ
ĠÐ»Ð¸ ÑĨÐ°
ÑĢÐ° Ð¶Ð°
ĠÐ¼ Ñĥ
ÑĢÐ¾Ð²Ð°Ð½ Ð½ÑĭÑħ
Ġ ÑĢÐµÐ´
ĠÐ´Ð¾Ð»Ð¶ ÐµÐ½
ĠÐ² ÐµÐ´
ĠÑĩÐ° ÑģÑĤÐ¾
ĠÐ¾ÑĤÐ¼ÐµÑĤ Ð¸ÑĤÑĮ
ÑĤÐ¸ÑĩÐµÑģÐº Ð¸Ðµ
ĠÐ½Ðµ Ð¹
ĠÐ¿Ð¾ ÑģÑĤÐ°
ĠÐºÐ¾Ð½ÑĦ Ð»Ð¸Ðº
ĠÐ± Ð¾ÑĢ
ĠÐ³Ð¾Ð´ Ñĭ
ĠÐ³ Ð»
Ð½ ÐµÑĤ
ĠÐ¸Ð½Ð¾ÑģÑĤ ÑĢÐ°Ð½
ÐµÐ½ ÑĤÑĭ
ĠÐ¿ÐµÑĢÐµ Ð²Ð¾Ð´
ÑĤÐµÐ»ÑĮ Ð½ÑĭÐ¼
ĠÐ·Ð°Ðº Ð»Ñİ
Ð¾Ð¶ Ð´Ð°
ÑĤÐ¸ Ð²Ð°
Ð»ÐµÐ½ Ð½ÑĭÐµ
Ð¾Ð¼ Ð¸Ð½Ð°
ĠÐ²Ñĭ Ñı
ÑĨÐ¸Ð¾Ð½ Ð½ÑĭÐµ
Ð± Ð»Ð¸
ÐµÐ¼ Ð¾Ð³Ð¾
ĠÐ²Ñĭ Ð¿Ñĥ
ĠÑĤÐµÑĢÑĢÐ¸ ÑĤÐ¾ÑĢÐ¸Ð¸
ĠÐ¿Ð¾Ð´ ÑĤÐ²ÐµÑĢ
ĠÐµÐ´Ð¸ Ð½
Ð²ÑĪ Ð¸Ðµ
ĠÐ¼ Ð¾ÑĤÐ¸
ĠÑģÐ¾Ð¾ÑĤÐ²ÐµÑĤÑģÑĤÐ² Ð¸Ð¸
ĠÐ· Ð´ÐµÑģÑĮ
ĠÐ³ Ð¸
Ð¾Ð»Ð¾Ð³Ð¸ÑĩÐµÑģÐº Ð¸Ñħ
ĠÑģÐ¾Ð± ÑģÑĤÐ²ÐµÐ½
ĠÑĤÐ°Ðº Ð¾Ð³Ð¾
ĠÐ² Ð¾Ð²
ĠÐºÐ»Ð° ÑģÑģÐ¸
ĠÐºÐ° ÑģÐ°
ĠÐºÐ¾Ð» Ð»ÐµÐº
ÑĩÐµ ÑĢ
ÑĮ Ðµ
ĠÐ·Ð½Ð° ÑĩÐµÐ½Ð¸Ñı
ĠÑĤÑĢÑĥ Ð´Ð¾Ð²
ĠÐ¿Ð¾Ð² ÐµÐ´ÐµÐ½Ð¸Ñı
ĠÑĩ Ñĥ
ĠÐ¼Ð¾Ð´Ðµ Ð»ÑĮ
Ð»Ð° Ð½
ĠÑħÐ¾Ð´ Ðµ
Ð¼ÐµÐ½ ÑĤÐ¾Ð²
ĠÐ±Ñİ Ð´Ð¶ÐµÑĤ
Ð¾Ð¿ Ð°Ñģ
ĠÑģÐ¸ Ð»Ñĥ
ĠÑĨÐµÐ½ ÑĤÑĢÐ°
ĠÐ¿ÑĢÐ¾Ð±Ð»ÐµÐ¼ Ð°
ĠÐ²Ð°ÑĢÐ¸ Ð°Ð½
Ð¾ÑĤ Ð°
ĠÑģÐ¾Ð² Ð¼Ðµ
Ð¾Ð·Ð½Ð° ÑĩÐ°
ĠÐ½Ð¸ Ðº
ĠÐ° Ð±
ĠÐ¿Ð¾Ñģ Ðµ
ĠÐ¢Ð°Ðº Ð¸Ð¼
ĠÑĤÐµÐ½ Ð´ÐµÐ½
Ð¼Ð¾ ÑģÑĤÑĮ
ĠÐ´ Ð¾Ð±
Ġ Ð¾Ð¶Ð¸
ĠÐ¿ÑĢÐ¾ÑĤÐ¸Ð² Ð¾ÑĢÐµ
ÑĤ ÑĭÑħ
ĠÐ¾ÑĢÐ¸ ÐµÐ½ÑĤÐ¸
ĠÐ¿ ÑĥÐ±Ð»Ð¸
ĠÐ¾Ð¿ ÑĭÑĤ
ĠÑĢÐ°ÑģÐ¿ ÑĢÐµÐ´Ðµ
ĠÑĢÐµÐ·ÑĥÐ»ÑĮÑĤÐ° ÑĤÐ¾Ð²
Ð¼ÐµÑĢÐ¸ ÐºÐ°Ð½
ĠÑģÑĤÐ°Ð½Ð¾Ð² Ð¸ÑĤÑģÑı
ÑĥÐ± Ð»Ð¸Ñĩ
ĠÐ¼Ð¸ Ð½Ð¸
ĠÐ·Ð½Ð° Ñĩ
ĠÐ¿ÑĢÐµÐ¿Ð¾Ð´Ð° Ð²Ð°
ĠÐ¾Ð´ Ð½Ð¾Ð³Ð¾
ĠÐ²Ð¾Ð¿ÑĢÐ¾Ñģ Ñĭ
ĠÐ´ ÐµÐ½
ĠÐ¿ÐµÑĢ ÑģÐ¿
ĠÐ² ÑģÑĤÑĢÐµ
ĠÑĥÐºÐ° Ð·Ð°Ð½
ÑĨÐ¸ Ð¾Ð½Ð°
ĠÐĴ Ðµ
ĠÐ¿ÐµÑĢÐµ Ð´Ð°
Ð´Ðµ Ðº
ÑİÑī Ð°Ñı
ĠÐ¿Ð¾Ð½ Ñı
ĠÐ³Ð¾ÑģÑĥÐ´Ð°ÑĢÑģÑĤÐ²ÐµÐ½ Ð½Ð¾Ð¹
ĠÐ½Ð¾ÑĢ Ð¼
ĠÑģ Ð¼
ÑĦÐ¾ÑĢ Ð¼
Ð½Ð° ÑĢÑĥ
ĠÐ¾ ÑĦÐ¸
ĠÐ¸ ÑĤ
Ð¾Ð½ Ð´ÐµÐ½
ĠÑģÐµÐ¼ Ð°Ð½
ÐºÐ¸ Ð¹
ĠÐ¿ÑĢÐ°Ð²Ð¸ Ð»Ð¾
ĠÑĦÐ°Ðº ÑĤÐ¾ÑĢÐ¾Ð²
ĠÐ± Ð¸Ð·
ĠÑĤ Ð¾ÑĤ
ÑĤÐµ ÑĩÐµ
ĠÐ¿ÑĢÐµÐ´ ÑĥÑģ
ĠÐ° ÐºÐ°Ð´ÐµÐ¼Ð¸
ÑĤÐ¸ Ñİ
ĠÑĢÑĥÐºÐ¾Ð² Ð¾Ð´
Ð¸Ð· Ð²Ð¾Ð´
ĠÑĥ ÑģÑĤÐ¾Ð¹ÑĩÐ¸
ĠÑĢÐµ ÑĩÐ¸
ÑĤ Ð½Ð¾Ð¹
ÑĩÐµ Ð¹
ĠÐ¾Ð¶Ð¸ Ð´Ð°
Ð²Ð° Ð»
ĠÐ¾ÑĤÑĢÐ° Ð¶Ð°
Ðº Ð»Ð°
Ð²Ð° Ð»Ð¸ÑģÑĮ
ÑĩÐµÑģÐº Ð¸Ð¹
ĠÐ³ Ð¾ÑĤÐ¾Ð²
ĠÑĥÑģÐ¿Ðµ ÑĪ
ĠÐ¿Ð¾ ÑģÑĤÑĢÐ¾
Ġ /
Ñģ Ð¾Ð±
ĠÐ¾ÑĤ Ð»Ð¸ÑĩÐ°
Ð¶ ÐµÐ½Ð¸Ð¸
Ð·ÑĭÐ²Ð° ÐµÑĤ
ĠÐ¿ÑĢÐ¾Ð¸Ð·Ð²Ð¾Ð´ ÑģÑĤÐ²Ð°
ĠÑĢÐµ ÑĪÐµÐ½Ð¸Ðµ
ĠÐ³ Ðµ
Ð¾Ð¶Ð´ ÐµÐ½Ð¸Ñı
ĠÐºÑĢÐ¸ ÑĤÐµÑĢÐ¸
Ð¹ ÑĤÐ¸
ĠÐ¾Ð±Ñı Ð·Ð°Ð½
ĠÑįÐºÑģÐ¿ ÐµÑĢ
ĠÐ²Ð¾Ð¹ Ð½Ñĭ
ÑĤÐ¾ÑĢ Ð¾Ð¼
ĠÐ¸ÑģÐ¿Ð¾Ð»ÑĮÐ· Ð¾Ð²Ð°Ð½Ð¸Ñı
Ð² Ð»Ð¸
ĠÐºÑĢÐ¸ Ð·
ĠÑģÑĤÑĢÑĥÐº ÑĤÑĥÑĢ
ĠÑĤÐµÐº ÑģÑĤÐ°
ÑģÐº Ð¸Ð¼Ð¸
Ð¸ ÑģÐº
ĠÑĤÐµÑĢÑĢÐ¸ ÑĤÐ¾ÑĢÐ¸
ĠÐ¡ Ð¡
ĠÐ¿ÐµÑĢÐµ Ð¼ÐµÐ½
ĠÐº ÑĤÐ¾
ÑĪ ÐµÐ½Ð¸Ð¹
ĠÐ²Ñĭ ÑģÐºÐ°
ÑģÑĤÐ² Ð¸Ðµ
ĠÐ¶ Ð¸
Ð¸ÑĩÐµÑģÐº Ð¾Ð³Ð¾
Ð¼ Ð¼Ð°
Ðº Ð¾Ð½
ÐµÐ¼ Ð¾Ð¹
ĠÑģÐµÐ¼ ÐµÐ¹
ĠÐºÐ°ÑĩÐµ ÑģÑĤÐ²Ð°
ĠÐ¿ ÑĥÐ±Ð»Ð¸Ñĩ
ĠÐ¿ÑĢÐµ Ð¸Ð¼
ĠÐ¼Ðµ ÑģÑĤÐ°
ĠÐ¿Ð¾ ÑģÑĤÐ¾ÑıÐ½
ĠÑĢÐµÐ±ÐµÐ½ ÐºÐ°
ÐĴ Ð¾
ĠÐ¾Ð± Ñģ
ĠÑĢÐµ Ð²Ð¾Ð»Ñİ
Ð¶Ð´ ÐµÐ½Ð¸Ðµ
ÑĦÐ¸ Ð¸
ĠÐ²Ðº Ð»Ñİ
ĠÑģÐ¸ÑģÑĤÐµÐ¼ Ðµ
Ð½ ÐµÐ½Ð¸Ñİ
Ð¾Ð» Ðµ
ĠÐ²Ðµ ÑģÑĮ
ĠÑĦÐ¾ÑĢÐ¼Ð¸ ÑĢÐ¾Ð²Ð°Ð½Ð¸Ñı
ĠÐ¸ Ð½Ð¸
ĠÐ¿ÑĢÐµÐ´ Ðµ
ÑĤÐ° Ð½
Ð»ÑĮ Ð½Ð¾ÑģÑĤÐ¸
Ð¸ ÑĢÐ°
ĠÐ»Ð¸ Ð½Ð³
ÑĪ Ð¸Ðµ
ĠÐ¿ Ð°Ð¼
ĠÑģÑĥÐ±ÑĬ ÐµÐºÑĤÐ°
ÑĤÐ¸Ð² Ð½Ð¾
Ðº ÑĢÐ°
Ð½Ð¸ ÑĨÑĭ
ĠÑĦ Ð¸Ð·
ĠÑĢ Ð¾ÑģÑĤ
ÑĢ Ð¾Ð½
ĠÐ´Ð¾ ÑģÑĤÑĥÐ¿
ĠÐľ Ð¾ÑģÐº
ĠÐºÐ¾Ð»Ð¸ÑĩÐµ ÑģÑĤÐ²Ð¾
ĠÑģ Ð°Ð¼Ð¸
ĠÑĩÐµ ÑĢ
Ð¾ ÑĩÐ¸
ĠÐ¿Ð¾Ð·Ð¸ ÑĨÐ¸Ð¸
ĠÑĨÐµÐ»ÑĮ Ñİ
Ð¾ ÑĦ
Ðµ ÑĨ
ĠÐ¿ÑĢÐ¾Ð² Ð¾Ð´
ĠÑģ Ð¾ÐºÑĢÐ°
Ð¾Ð» Ð°
Ð»ÐµÐ½ Ð¾
Ð³ Ðµ
ĠÑĤÐ¸ Ð¿Ð°
ĠÐ½Ð° ÑĩÐ¸
Ð»ÐµÐ½ Ð°
Ñı ÑģÑĮ
ĠÐŀ ÑĤ
ĠÐ¾Ð± Ð¾ÑĢ
Ð»Ñĥ Ð±
ĠÐ¾Ð± Ð½Ð°ÑĢÑĥ
Ð°Ð»ÑĮ Ð½ÑĭÐµ
ĠÐ´Ð°Ð½ Ð½Ð¾Ð¼
ĠÑģÐ»ÐµÐ´ ÑĥÑİÑī
ĠÐŁ ÐµÑĢ
Ð· Ñı
ĠÐ¾Ð¿ ÐµÑĢÐ°
Ñı Ð±
ĠÑĥ ÑģÑĤÐ°
ĠÐ¿Ð¾Ñģ Ð²Ñı
ĠÑģÐ¾Ð· Ð½Ð°
Ð¾Ñģ Ð¿
Ð½Ð°Ð´ Ð»Ðµ
ĠÐ¾ÑĤÐ½Ð¾ÑģÐ¸ ÑĤÐµÐ»ÑĮÐ½Ð¾
ÑģÑĤÐ²ÐµÐ½ Ð½Ð¾Ðµ
ĠÐ³Ð¾ÑĢ Ð¾Ð´Ð°
ÑĢÐ¸ Ð¹
ĠÐ²Ð¾Ð·ÑĢÐ° ÑģÑĤÐ°
ĠÐ¾Ð± Ð¾Ñģ
Ð²Ð¾Ð· Ð¼Ð¾Ð¶
ÑĢÐ¾Ð²Ð° Ð½Ð¸Ð¸
ĠÑĥ ÑĩÐµÑĤ
Ð¼Ð¸ Ð½Ð°
Ð³Ð¸ Ð¼Ð¸
Ð°Ð»ÑĮ Ð½Ð¾
ĠÐ¿ Ð¸ÑģÑĮ
ĠÐ¿ÑĢÐµÐ´Ð¿ÑĢÐ¸ Ð½Ð¸Ð¼Ð°
ÑĪ Ðº
ĠÑģÑĤÐ° Ð»Ð¸
Ð¾ÑĤ Ð½Ð¾
ĠÑĥÑĩÐ°ÑģÑĤ Ð½Ð¸ÐºÐ¾Ð²
Ð»ÑĮ Ð½Ð¾Ðµ
Ñĥ Ð´Ð¸
ĠÐºÐ¾Ð¼Ð¿ Ð¾Ð½
ĠÐ¾Ð± ÑĥÑĩ
ĠÑĢÐ¸ ÑģÐº
Ñĥ Ð¼Ð°
ÑĤÐ¸ ÐºÐ°
ÑģÐ¸ Ð¸
ĠÐ±ÑĥÐ´Ñĥ ÑĤ
ĠÑģ Ñħ
ĠÐ±ÐµÐ· Ð¾Ð¿Ð°Ñģ
Ð½Ð¸ ÐºÐ¾Ð¼
ĠÐ¿Ð¾ ÑįÑĤÐ¾Ð¼Ñĥ
Ð± ÑĥÑĢ
ĠÐ½Ð° Ð»Ð¸ÑĩÐ¸Ðµ
ĠÐ´Ð¸ÑģÐº ÑĥÑĢ
ÑĢÑĥ ÑİÑĤÑģÑı
ĠÐ²Ð½ÑĥÑĤ ÑĢÐ¸
ĠÐ½Ðµ Ð³Ð¾
ĠÑĤÐ¸ Ð¿
ĠÑĢÐµÐ»Ð¸ Ð³Ð¸
ĠÐ»ÐµÐº ÑģÐ¸
ÑĪ ÑĤÐ°
ĠÑĥÐ¿ Ð¾ÑĤÑĢÐµÐ±
ÑĥÐ»ÑĮ ÑĤÑĥÑĢ
Ð¾ÐºÑĥ Ð¿
ĠÐ¿ÑĢÐµÐ´ÑģÑĤÐ°Ð²Ð»Ñı ÐµÑĤ
Ð¸ Ð½Ð¸
ĠÐ·Ð°Ðº Ð»ÑİÑĩÐ°
Ñĥ Ð¼
ĠÑį Ð¼Ð¾
Ð²ÐµÐ´ ÐµÐ½Ð¸Ñı
ĠÑĦÑĥÐ½Ðº ÑĨÐ¸Ð¾Ð½Ð¸
ĠÐ½Ð° Ð²Ñĭ
ĠÐĵ ÐµÑĢ
ĠÐ¿Ð¾Ð» Ð½Ð¾Ð¼
ĠÐ³Ð» Ð¾Ð±
ĠÐ¾ÑģÐ½Ð¾Ð² Ð½ÑĭÑħ
Ðº ÑģÐ¸
ÑĨÐ¸Ñı Ð¼Ð¸
ÐºÐ° Ð·
ĠÐº Ð½Ð¸
ĠÐ½Ðµ Ð³Ð°
Ð»Ñı Ñħ
Ð² Ð¾Ð³Ð¾
ĠÐ¾Ð± ÑģÑĤÐ¾ÑıÑĤÐµÐ»ÑĮ
ÑģÑģÐ¸ Ð²
ĠÐ¸Ð½ÑĤÐµ Ð»
ĠÐ±Ð¾ÑĢ ÑĮ
ĠÐº Ð²Ð°Ð»Ð¸
ĠÐ¿Ð¾Ð»Ð¸ÑĤÐ¸ÑĩÐµÑģÐº Ð¸Ñħ
ĠÐ¿ÑĢÐ¾Ð³ÑĢÐ°Ð¼ Ð¼
ĠÐ¿ÑĢÐ¾ÑĤÐ¸Ð²Ð¾ÑĢÐµ ÑĩÐ¸
ÑģÑĤÐ²ÐµÐ½ Ð½ÑĭÐ¼
Ð½ Ñİ
Ð¾Ð»Ð¾Ð³Ð¸ÑĩÐµÑģÐº Ð¾Ð¹
ĠÑģ Ð¸Ð¼
ÑģÐº Ð¾Ð¼Ñĥ
ĠÑĥ Ð´Ð¾Ð²
Ð± ÑĢÐ°
ĠÐµ Ð¼Ñĥ
ĠÑĨÐµ Ð»Ð¸
Ð»Ð¸ Ð¹
ĠÑĢÐ° Ð²
ĠÑĤ Ð¾Ð¹
ĠÐº Ð»ÑİÑĩÐµ
ĠÐ¸Ð½ÑĤÐµÑĢ Ð¿ÑĢÐµ
ĠÐº Ñĥ
ĠÐ½ÐµÐ¿ Ð¾ÑģÑĢÐµÐ´
ĠÐ°Ðº ÑĤÑĥÐ°Ð»ÑĮ
ĠÑĥÑģÐ»Ð¾Ð² Ð¸Ð¹
ĠÐ½Ð° Ðº
ÑĨÐ¸Ð¾Ð½ Ð½Ð¾
ĠÐ¿ÑĢÐ¸ Ð½Ð°Ð´Ð»Ðµ
ĠÐ¾ÑĤÐ´Ðµ Ð»ÑĮÐ½ÑĭÑħ
ÑģÑĤÐ¾ Ð¸ÑĤ
Ñİ ÑīÐµÐµ
ĠÐ´Ð¾Ð»Ð¶ Ð½Ð°
ÐµÐ½ Ð¾Ð¼
ĠÑıÐ·Ñĭ ÐºÐµ
ĠÐ¿ÑĢÐ°Ð²Ð¾Ð² Ð¾Ð¹
ĠÐ¡Ð¡ Ð¡Ðł
ĠÐ·Ð°Ðº Ð¾Ð½Ð°
ĠÐ²ÐµÑĢ Ð¾ÑıÑĤ
ĠÐ¾ÑĢÐ³Ð°Ð½Ð¸Ð·Ð° ÑĨÐ¸Ð¹
ĠÐ¾ÑģÐ¾Ð±ÐµÐ½ Ð½Ð¾
ĠÑĢÐµÑĪ ÐµÐ½Ð¸Ð¹
ÑĢÐµ ÑĤÐ°
ĠÐ¼Ð¾Ð» Ð¾Ð´
ĠÐ¿ ÐµÐ½ÑģÐ¸
Ð°Ð½ Ð´
ĠÐ¿Ð¾Ð² ÐµÐ´
ĠÐ¿ Ð»Ð¾
ĠÐ´ ÑĢ
ĠÐ½Ð°Ñĥ ÐºÐ¸
Ð»Ñı ÐµÑĤÑģÑı
ĠÑģÐ¿Ð¾ÑģÐ¾Ð± ÑģÑĤÐ²
ĠÐ¾Ð±ÑĢÐ°Ð·Ð¾Ð²Ð° ÑĤÐµÐ»ÑĮÐ½ÑĭÑħ
ĠÐ¿ÐµÑĢÑģÐ¿ ÐµÐºÑĤÐ¸Ð²
ĠÐ¾ÑĤ ÑĢÐ¸
ĠÐ¼Ð½Ð¾Ð³ Ð¸Ñħ
Ð»Ð¸ Ð·Ð°ÑĨÐ¸Ð¸
ĠÐ½Ð° Ð»Ð¸ÑĩÐ¸
ĠÐ¾Ð´ Ð½Ð¸Ð¼
ĠÐ¾ÑģÐ¾Ð±ÐµÐ½ Ð½Ð¾ÑģÑĤÐ¸
ĠÑģÐµ Ð³Ð¾Ð´Ð½Ñı
ĠÑĩ Ð¸
Ñģ Ð¾Ð¼
ĠÐ·Ð° Ð¿
ĠÐ¿ÑĢÐ°Ðº ÑĤÐ¸ÑĩÐµÑģÐºÐ¸
Ð¶ Ð¸Ð¼
ĠÐ¼ÐµÐ´Ð¸ ÑĨÐ¸
Ð¾Ð²Ð° Ð½Ð¸Ð¹
ÑĤÐµÐ»ÑĮ Ð½Ð°Ñı
ĠÐ½Ð¾ÑĢ Ð¼Ñĭ
ĠÐ½Ð¾Ð² ÑĭÐµ
ĠÐ´ Ð¾Ð¿Ñĥ
ĠÐ¿Ð¾Ð¼Ð¾Ñī ÑĮÑİ
âĢ Ķ
ÑĤ Ð½Ð¾
ĠÑįÐºÐ¾Ð½Ð¾Ð¼Ð¸ÑĩÐµÑģÐº Ð¾Ð¹
Ð½Ð¾Ð² ÑĢÐµÐ¼ÐµÐ½
ĠÑĤ Ð¾Ð¼Ñĥ
Ð»Ð¸ Ð½
Ñģ ÐµÐ¼
Ð¶Ð´ ÐµÐ½Ð¸Ð¹
Ð¾Ð¿ ÑĢÐµÐ´Ðµ
ĠÐ´ Ð¾Ðº
ÑĤ Ð¾Ð¹
ĠÐºÐ¾Ð¼Ð¿ÐµÑĤ ÐµÐ½
Ð½Ð° Ð¼
ÑģÐ¿ Ð¾ÑĢ
ĠÑģÐ¸ Ð½
ĠÐ·Ð°Ð´Ð° ÑĩÐ¸
ĠÐ¾Ð±ÑĢÐ°Ð·Ð¾Ð²Ð° Ð½Ð¸Ðµ
ĠÐ´Ð¾Ð»Ð¶ Ð½Ð¾
ĠÐ¿ÑĢÐ¾Ð¸Ñģ ÑħÐ¾Ð´Ð¸ÑĤ
ÑĢ Ð¾Ð·
ĠÑĥ Ð´Ð°
Ð»Ð° Ð²
Ð¸Ð¼Ð¾ ÑģÑĤÐ¸
Ñģ Ð½Ð¾Ð²
Ð·Ð¸ Ð´ÐµÐ½
ĠÐ²Ñĭ Ð·
ĠÑĢÐ° Ð¹
ÑĢÐµ ÑĤÑĮ
ĠÑģÐ¿ ÑĢÐ°Ð²
Ð¿ ÐµÐ½
ĠÑĥ Ð¼
Ð¸ÑĩÐµÑģÐº Ð¾Ð¹
ĠÑĢÐ¾ÑģÑģÐ¸Ð¹ ÑģÐºÐ¸Ñħ
Ñİ Ð·
ĠÑĨÐµ Ð»Ðµ
ĠÐºÐ¾ÑĤÐ¾ÑĢ Ð¾Ð¼
ÑĤ ÐµÐ½
ĠÐ½Ð° ÑĢ
ĠÐºÐ¾Ð½ Ñģ
ĠÑĢ Ð¾Ð´Ð°
ĠÐ»Ð¸Ñĩ Ð½Ð¾ÑģÑĤÐ¸
ÐµÑĢ Ð¾Ð²
ÑĩÐ° ÑģÑĤ
ĠÑĥÑģÐ»Ñĥ Ð³
ĠÐ¿Ð¾Ð»Ð¾Ð¶ ÐµÐ½Ð¸Ñı
ĠÑĢ Ð¾ÑģÑĤÐ°
ÑĤÐµÐ»ÑĮ Ð½Ð¾ÑģÑĤÐ¸
ĠÑģÑĢÐµÐ´ Ñĭ
ĠÐºÑĢÐ° Ð¹
ĠÐ¸ Ð¼Ñĥ
ÑĤÐ¸ Ð²Ð¸
ÑİÑī Ð¸Ð¼Ð¸
Ð¾Ð» Ð¾
ĠÐ¼ Ð¾Ð½
ĠÑģÐ»ÑĥÑĩÐ° ÑıÑħ
ĠÐ¿ÑĢÐ¾ ÑĪ
ĠÐ¾ÑĢÐ³Ð°Ð½Ð¸ Ð·
ĠÐ¾ÑĤÐ½Ð¾ ÑģÑı
Ð²Ð» ÐµÐ½Ð¸Ð¹
Ð¿ÐµÑĢ Ð²ÑĭÑħ
ĠÐ²ÑĥÐ· Ð¾Ð²
Ñī Ð¸Ð¹
ĠÑįÐº ÑģÐ¿Ðµ
ĠÐ½Ðµ Ð±
ĠÐ¸ Ð³ÑĢÐ°
ĠÐ¼ Ð»
ĠÐ¾ÑĤÐ²ÐµÑĤ ÑģÑĤÐ²ÐµÐ½Ð½Ð¾ÑģÑĤÐ¸
ĠÑĢÐµÑģÑĥÑĢ ÑģÐ¾Ð²
ĠÐ½ÐµÐ·Ð° Ð²Ð¸ÑģÐ¸
Ð¾Ð»Ð¾Ð³ Ð¸Ð¹
Ð¾Ð» ÐµÑĤ
Ð¾Ð² Ð¸
ĠÐ´ Ð¸Ñģ
ĠÐ¼ Ð¾
ĠÐ·Ð°Ð²Ð¸ÑģÐ¸ Ð¼Ð¾ÑģÑĤÐ¸
Ð»Ð¸ Ð±Ð¾
Ġ âĢĶ
ĠÐ¡ Ðµ
ĠÐ³ÑĢÑĥÐ¿ Ð¿Ð°
ĠÐĿ Ð¸
ĠÐ·Ð´ Ð¾ÑĢÐ¾Ð²
ĠÐ¶Ðµ Ð»Ð°
ÑĪ Ð¸ÑĢ
ĠÑģÑĥÐ±ÑĬ ÐµÐºÑĤÐ¾Ð²
ĠÐ¼Ð° ÑĢ
Ġ Ð¾Ð³
ÑģÐµ Ð´
ĠÐķ Ð²ÑĢÐ¾Ð¿
ĠÑĢ Ð¾Ð»Ð¸
* *
ÑĮ ÐµÐ·
ĠÐ¿ÑĢÐ°Ðº ÑĤÐ¸ÐºÐ¸
Ðº Ð¾Ð³Ð¾
ĠÐ¸Ð½ÑĤÐµÑĢÐµ ÑģÐ¾Ð²
ÑĢÐ¾ ÑģÑĤ
ĠÐ¾Ð±ÐµÑģÐ¿Ðµ ÑĩÐµÐ½Ð¸Ñı
ĠÐ´ÐµÐ¼ Ð¾ÐºÑĢÐ°
ĠÐ²ÑĤÐ¾ÑĢ Ð¾Ð¹
ĠÑĤÑĢÐµÐ± Ð¾Ð²Ð°Ð½Ð¸Ñı
Ð´ ÐµÐ½Ð¸Ñı
Ð¾Ð² Ð¾Ð³Ð¾
ĠÐº Ð»Ð¸
ĠÑĢÐ°Ð· Ð½Ð¾
ĠÐ¿Ð¾Ð¼Ð¾ ÑīÐ¸
ĠÐķ ÑģÐ»Ð¸
ĠÐ¼Ð¾ÑĤÐ¸ Ð²Ð°
ĠÐ²Ð·Ð³Ð»Ñı Ð´
ĠÐ½Ðµ Ð²Ð¾Ð·Ð¼Ð¾Ð¶
ÑģÑĤÐ²ÐµÐ½ Ð½Ð¾ÑģÑĤÑĮ
ĠÑįÑĦÑĦÐµÐºÑĤÐ¸Ð² Ð½Ð¾ÑģÑĤÐ¸
ĠÐ½ÐµÐºÐ¾ÑĤÐ¾ÑĢ ÑĭÐµ
Ð» Ð¾Ð³Ð¾
ĠÐ²Ð¾Ð·ÑĢÐ° ÑģÑĤ
Ð¿ Ð¾ÑĢÐ°
ĠÐ¿Ð¾ÑģÐ²Ñı ÑīÐµÐ½
ĠÑĢÐ°Ð· ÑĢÐµ
ÑģÑĤ Ð¾ÑĢ
Ð¾Ð½ ÑģÑĤÑĢÐ¸
ĠÑĤÑĢÐµ Ñħ
ĠÐ¿ÑĢÐ¾Ð¼ ÑĭÑĪ
ĠÑĤÐ°Ðº Ð¸Ð¼
ĠÑģÐ¾ÑģÑĤÐ° Ð²
ÑĢÐ¾Ð²Ð° Ð½Ñĭ
ĠÐ± Ð¸
ĠÑĢÑĭÐ½ ÐºÐ°
ĠÑĦÐ¸ Ð»Ð¾Ñģ
ĠÐ²Ñĥ Ð·Ð°
ĠÑģÐ¾Ð·Ð´Ð° Ð½Ð¸Ñı
Ð²Ð¸ ÑģÑĤÐ¸
Ñĥ ÑīÐµ
ÑĢ Ñħ
ĠÐ¿ÑĢÐ¸ ÑħÐ¾Ð´
ĠÐ¾ ÑĤÐµÑĩÐµ
ĠÑĤÐµ Ð¾ÑĢÐ¸
ĠÑħ Ð¾ÑĢ
ĠÑģÑĤÑĢÑĥÐº ÑĤÑĥÑĢÑĭ
Ð¾Ð» Ðº
ĠÐºÐ°Ð¿Ð¸ÑĤÐ° Ð»Ð°
ĠÐ¾ÑĤÑĢÐ¸ ÑĨÐ°
ĠÑĢÐµÑģÐ¿ Ð¾Ð½Ð´ÐµÐ½
ĠÐ¿ÑĢÐ¾ ÑıÐ²Ð»Ñı
ĠÐ¸ Ð½ÑĭÑħ
ĠÑĤ Ñĥ
ĠÐ¿ÑĢÐ¾ÑĨÐµ Ð´Ñĥ
ĠÑĤ ÑĭÑģ
ĠÑģÑĤÑĢÐ° Ð½Ðµ
Ð½Ð¾ÑģÑĤ ÑıÐ¼Ð¸
ĠÐ´Ðµ ÑģÑı
Ñĩ Ð¸Ñħ
ĠÐ¿ÑĢÐµÐ´ Ð¿
ĠÐµ Ð²ÑĢÐ¾Ð¿ÐµÐ¹
Ð»ÐµÐ½ Ð½Ð¾ÑģÑĤÑĮ
Ð¾Ð»Ð¾Ð³Ð¸ÑĩÐµÑģÐº Ð¾Ð³Ð¾
ĠÐµ ÑģÑĤÐµ
ÑĤÐµ ÑĤ
ĠÑģÐ¾Ð³Ð»Ð° Ñģ
Ð´ Ð²Ð¸
Ð³ ÑĢÐ°Ð½
ĠÐļ Ð¸ÑĤÐ°
ĠÑĥÐºÐ° Ð·Ð°
ĠÐ¾Ð± ÑĥÑĩÐ°
ĠÑģÐ¿ Ð¾ÑĢ
ĠÐ¸ Ð´ÐµÑĤ
ĠÐ½Ð° Ð´Ðµ
ĠÑĢÑĥ Ð±
ĠÑıÐ·Ñĭ Ðº
ÑĥÑİ ÑīÐµÐ³Ð¾
ĠÐĺ Ð·
Ð¾ ÑģÑĤÑĮ
ĠÑĦÐ°Ðº ÑĤ
ĠÑģÐ´ÐµÐ»Ð° ÑĤÑĮ
ÑĤÐ¸ Ð½
ĠÐ¿ÑĢÐ¾Ð³ÑĢÐ°Ð¼ Ð¼Ñĭ
Ð¿ Ð¾ÑĢ
Ð¿Ð¾ ÑĤÐµ
ĠÑĥÐ²Ðµ Ð»Ð¸Ñĩ
Ð·Ð¸ Ð¸
ĠÑĦÐ¾ÑĢ Ð¼Ðµ
ĠÑį Ð¼
ĠÐ° Ð½Ð°Ð»
ĠÑģÐ¾Ð¾ÑĤ Ð½Ð¾
ÐµÐ½ Ð½Ð¾Ð¹
Ð³ÑĢÐ° ÑĨÐ¸Ð¸
ÑĤÐ¸ ÑĤÑĮ
ĠÐ¿ Ð¾ÐºÐ°
ĠÐ°Ð² ÑĤÐ¾ÑĢ
Ð²ÑĤÐ¾ÑĢ ÑĭÑħ
ĠÐ¿ÐµÑĢÐ² ÑĥÑİ
ÑĢÑĥ Ð±ÐµÐ¶
ĠÐ¼Ð½ Ð¾Ð¶Ðµ
ĠÐ¸ÑģÑģÐ»ÐµÐ´Ð¾Ð²Ð° ÑĤÐµÐ»ÑĮ
Ð½Ñı Ñı
ĠÐ¡ Ð¾Ð²ÐµÑĤ
ÑĤÐ¾ÑĢÐ° Ð¼Ð¸
ĠÐ¿ÑĢÐ¾Ð²Ðµ Ð´ÐµÐ½
Ð¿ Ð»Ð°
ĠÐ³Ð¾ÑģÑĥÐ´Ð°ÑĢÑģÑĤÐ²ÐµÐ½ Ð½ÑĭÑħ
ĠÐ¸Ð½Ð¸ ÑĨÐ¸Ð°
Ð ¦
Ð½ ÑģÑĤÐ¸
Ð´Ð¸ Ð¸
ĠÑģÑĤ ÑĢÐµÐ¼
ĠÐ¶ Ð¸Ð²
ĠÐ·Ð°Ðº ÑĢÐµÐ¿
ĠÑģÑĤ ÑĢÐµ
ĠÐ» Ð°
ĠÐ²ÑĭÐ¿Ñĥ ÑģÐº
ĠÑĢÐ°Ð· Ð¼Ðµ
ĠÐ¿Ð¾ ÑģÑĤ
Ð¾Ð²Ð° ÑĤÐµÐ»ÑĮÐ½Ð¾
ĠÐ·Ð° ÑĢÐ°Ð±Ð¾ÑĤ
Ð· Ð¼
ĠÐ¾ÑĤÑĢÐ° Ñģ
ÑĤÐµÐ»ÑĮ Ð½ÑĥÑİ
Ð»Ð¸ Ð²Ð¾
ĠÐ¿ÑĢÐ¸ Ð·
ĠÑĨ ÐµÑĢ
ĠÐ°Ð½ ÑĤÐ¸
ĠÐ¿ÑĢÐµÐ´ÑģÑĤÐ° Ð²Ð»ÐµÐ½Ð¸Ñı
ĠÑĢÐµÐ»Ð¸Ð³Ð¸ Ð¾Ð·
ĠÐ¿Ð¾ÑĤÐµÐ½ ÑĨÐ¸
ĠÑĢÐ°Ñģ ÑħÐ¾Ð´
ĠÐ·Ð° Ð¼ÐµÑĤ
Ðŀ ÑĤ
ĠÐ¿Ð¾Ð¿ ÑĭÑĤ
ĠÐ·Ð½Ð°ÑĩÐ¸ Ð¼
ĠÑĥÐ´Ð¾Ð² Ð»ÐµÑĤ
ĠÐ·Ð°Ðº Ð¾Ð½Ð¾Ð¼
ĠÐ¿Ð¾ÐºÐ°Ð·Ð° ÑĤÐµÐ»ÐµÐ¹
ÑĮ Ð¼Ð¸
ĠÐ¿ÑĢÐ¾ ÑģÑĤÐ¾
Ð°Ð»Ð¸ Ð·Ð°ÑĨÐ¸Ð¸
ĠÐ²Ð»Ð¸Ñı Ð½Ð¸Ñı
ĠÑĩÐ° ÑīÐµ
ĠÐ¾Ð±ÑĬ ÐµÐºÑĤÐ¸Ð²
ĠÐ¶ÐµÐ½ Ñī
ÑĢÐµ Ðµ
ĠÐ²Ñģ ÐµÐ¹
Ð¶ Ð´ÐµÐ½
Ð¿Ð¾Ð» Ð¸
ĠÐ³Ð¾ÑģÑĥÐ´Ð°ÑĢÑģÑĤÐ²ÐµÐ½ Ð½Ð¾Ð³Ð¾
ÑĤÐµ Ñħ
ĠÐ´ÑĢÑĥ Ð³Ð¸Ð¼Ð¸
Ð» Ð¾Ðº
ÑĢÐµ Ð¹
ÑģÑĤÐ²ÐµÐ½ Ð½ÑĭÐ¹
ÑĢ Ð¾ÑĤÐ¸Ð²
ĠÐ¾ÑĩÐµ Ð²Ð¸Ð´
ĠÑĥÑĩÐ°ÑģÑĤÐ¸ Ðµ
ĠÐ½ ÑĥÐ¶
ĠÐ¿ÐµÑĢ Ñģ
Ð·Ð° ÑĨÐ¸Ñİ
ĠÑĦÐ¸Ð½Ð°Ð½ ÑģÐ¸
ĠÐ½ÐµÐºÐ¾ÑĤÐ¾ÑĢ ÑĭÑħ
ĠÑģ ÐºÐ°Ð·Ð°
Ð½ Ð¾Ð²Ð°Ð½Ð¸Ñı
ĠÐ¿Ð¾Ð´ÑħÐ¾Ð´ Ð°
Ð¼ÐµÐ½ ÑĤÑĭ
ĠÐ° Ð¼ÐµÑĢÐ¸ÐºÐ°Ð½
Ð² Ð¾Ðµ
ĠÐ¼Ð¾Ð¼ ÐµÐ½ÑĤ
ĠÐ² Ð¿
ĠÐ¿ÐµÐ´Ð°Ð³ Ð¾Ð³Ð¸ÑĩÐµÑģÐº
ĠÑģÑĥ Ð´Ð°
Ð½Ð¸ ÑĨÐ°
ÐºÐ¸ Ðµ
ÑģÐµ Ð´Ð°
ĠÐ·Ð° ÑĤÑĢÐ°
ĠÐ½Ð°ÑĩÐ° Ð»Ð°
ÑĤ Ð¾ÑĤ
ĠÐ¸Ð½ÑĤÐµÐ» Ð»ÐµÐº
Ñģ Ð»ÐµÐ´
ĠÐ·Ð½Ð° Ð½Ð¸Ð¹
ĠÐ½Ð° Ð·ÑĭÐ²Ð°
Ñı Ð²Ð»ÐµÐ½Ð¸Ñı
Ð½Ð¸ Ð·Ð°ÑĨÐ¸Ð¸
ĠÐ´Ð¾Ð³Ð¾Ð² Ð¾ÑĢ
ĠÑĤÐµÑĢ Ð¼Ð¸
ĠÐ½Ð°Ð» Ð¾Ð³Ð¾Ð²
Ñī Ð¸Ð¼
Ð»Ðµ Ðµ
ÑĢÐ° Ñħ
ĠÑģÐ¾Ð± ÑģÑĤÐ²ÐµÐ½Ð½Ð¾ÑģÑĤÐ¸
ĠÑĩÐ¸Ñģ Ð»Ð°
ĠÐ¾Ð±ÑīÐµ Ð³Ð¾
ĠÐ¿ÑĢÐ¸ ÐµÐ¼
ĠÐ²Ð¸ Ð´Ð°
Ġ Ð¾Ð·Ð½Ð°ÑĩÐ°
Ð°Ð½ Ðº
Ð»Ð° Ð´Ð°
ĠÑĢÐµ ÑĩÑĮ
ĠÑģÑĤÐ°ÑĤÑĮ Ð¸
ĠÐ¸ Ð¼ÐµÐ½
ĠÐ¸ Ð¼Ð¸
Ð¸ ÑĤÐµÐ»ÑĮÐ½Ð¾
ĠÐ¼ ÑĥÐ¶
ĠÑģÑĤÐ°ÑĤÑĮ Ðµ
ĠÑĩÐ¸Ñģ Ð»Ð¾
ĠÑĢÐ°Ð±Ð¾ÑĤ Ð½Ð¸ÐºÐ¾Ð²
ĠÐ° Ð½Ð³
ĠÐ¿Ð¾Ñĩ ÑĤÐ¸
Ñı ÐµÑĤÑģÑı
ĠÑĢÐ°ÑģÑģÐ¼Ð°ÑĤÑĢÐ¸ Ð²Ð°ÐµÐ¼
ÐµÐº ÑĤÐ¾Ð¼
ĠÑĢÐ°Ð±Ð¾ÑĤ Ñĥ
ĠÐ²Ñĭ Ð±Ð¾ÑĢÐ°
ĠÐ¿ÑĢÐ¾Ð´Ð¾Ð» Ð¶Ð°
ĠÐ²ÐµÑģÑĮ Ð¼Ð°
ĠÐ¿ÑĢ Ð¾Ð¿
ĠÐ¼Ð° Ñģ
ĠÑģÐµÑĢ ÑĮÐµÐ·
Ðŀ Ð±
ĠÐĵÐµÑĢ Ð¼Ð°
ĠÐ´ Ð²Ðµ
ĠÐ¾Ð´ Ð½Ð¾
ĠÐ½Ð°Ð¿ÑĢÐ°Ð² Ð»ÐµÐ½Ð¸Ñı
ÑĤÑĥ ÑĢÑĥ
ĠÐ¿ Ð¾Ð±
Ð¿Ð¾Ð» Ð½Ðµ
ĠÐ²ÑĭÐ´Ðµ Ð»Ñı
ĠÐ½Ð° Ð¼
ĠÑĢÐµÐ°Ð»Ð¸ Ð·
ĠÐ¿Ð¾Ñģ ÑĢÐµÐ´
ĠÐ²Ð¾Ð¿ÑĢÐ¾Ñģ Ð¾Ð²
Ð½Ð° Ð²Ð»Ð¸
ÑģÑģÐ¸ Ð¸
Ð² Ð¾Ð´Ð°
ĠÐĶ Ð¶
Ð° Ð¹
ĠÐ¿ÑĢ ÑıÐ¼
ĠÑģÐ¾Ð²Ð¼Ðµ ÑģÑĤ
Ð¾Ð² ÑĭÐµ
ÑĩÐµÐ½ Ñĭ
Ñı ÑĤÐ¸
ĠÑĦÑĥÐ½Ðº ÑĨÐ¸Ð¸
ĠÐ¿ÑĢÐ¸ Ð²Ðµ
ĠÑģÑĥ Ñī
ĠÐ¿ÑĢÐµÐ´Ð¿Ð¾Ð»Ð°Ð³Ð° ÐµÑĤ
ĠÑĢÐµÐ³ÑĥÐ»Ð¸ ÑĢÐ¾Ð²Ð°Ð½Ð¸Ñı
Ð¾Ð´ Ñĥ
ĠÐ² Ð¾Ð»
ĠÐ¸Ñģ ÑħÐ¾Ð´
ĠÐĴ ÑģÐµ
ĠÐ¿Ð°ÑĢ ÑĤ
ĠÑĦ ÐµÐ½Ð¾Ð¼
ĠÑģÐ¸ÑĤÑĥÐ° ÑĨÐ¸Ñı
ĠÐ½Ð°ÑĩÐ° Ð»Ðµ
ĠÑģÐµÐ¼ ÑĮÐ¸
ÑģÑģ Ð°
ÑĥÐ± ÐµÑĢ
ĠÑģÑĤ ÑĢ
ĠÐ½Ðµ Ð¸Ð·
ĠÐ²Ð¾Ñģ Ð¿Ð¸ÑĤÐ°
ĠÐ¿ÑĢÐ¸ ÑģÑĥÑĤÑģÑĤÐ²
ĠÐ¾Ð±ÑĬÑıÑģ Ð½Ñı
ĠÐĶ Ð°
ÑĩÐµÑģÐº Ð°Ñı
ĠÑģ Ð¼Ðµ
ĠÑģ ÑĦÐ¾ÑĢÐ¼Ð¸
ĠÐ·Ð° ÑĢÑĥÐ±ÐµÐ¶
ĠÐ´Ð¾ÑģÑĤÐ¸ Ð¶ÐµÐ½Ð¸Ñı
ÐµÐ½ Ð½Ð¾Ð³Ð¾
ĠÑĥ Ð´Ðµ
ĠÐ¿ÑĢÐ°Ð²Ð¸ Ð»Ð°
ĠÑĩÑĥ Ð²
Ð´Ð° Ð¿
Ñī Ð°Ñı
ĠÑģÐ¸ÑģÑĤÐµÐ¼ Ñĥ
ĠÐ²Ð¾Ð·Ð¼Ð¾Ð¶ Ð½Ð¾
Ðµ ÑĢÐ¸
ĠÐ¾ÑĤÐ½Ð¾ÑĪ ÐµÐ½Ð¸Ðµ
ÑĤÐ¸Ð² Ð½ÑĭÐ¹
ĠÐ¾Ð±ÑĬ ÐµÐºÑĤÐ°
ĠÐ¿ÑĢÐµÐ´Ð¿Ð¾Ð» Ð¾Ð¶
ĠÑĢÐ° ÑģÐº
ĠÐ³Ð¾ÑģÑĥÐ´Ð°ÑĢ ÑģÑĤÐ²
ĠÐ½Ð°ÑģÑĤÐ¾Ñı ÑīÐµÐµ
ĠÐ» ÑĥÑĩ
ĠÐ¸ÑģÐºÐ»Ñİ ÑĩÐ¸
ĠÑįÐºÑģÐ¿Ðµ ÑĢÐ¸
ĠÑĥÑĩÐµÑĤ Ð¾Ð¼
ĠÐ½Ðµ Ñĥ
Ð»Ñı ÑĨÐ¸Ð¸
ĠÐ¾Ð±Ñī ÐµÐ¹
Ð¾Ñģ Ð²Ñı
Ð¾Ð»ÑĮ Ð½Ð¾
ĠÐ¸Ð´ÐµÐ½ ÑĤÐ¸Ñĩ
ĠÐ½Ð° Ð·Ð½Ð°
ĠÑĤ Ð¾Ð³Ð´Ð°
% .
Ð½ Ð³Ð¾
ĠÐ²Ñĭ ÑħÐ¾Ð´
ĠÑģÐ¾ ÑģÑĤÐ¾Ð¸ÑĤ
ĠÐ¸Ð· ÑĥÑĩÐµÐ½Ð¸Ñı
ĠÑģÑĤÑĢÐ°ÑĤÐµ Ð³
ĠÐºÐ¾Ð½ÑĤÑĢ Ð¾Ð»Ñı
ÑģÐ¸ Ñı
ĠÐ¿ÑĢÐ°ÐºÑĤÐ¸ ÐºÐµ
ĠÐ³ÑĢÐ°Ð¶ Ð´Ð°
ĠÑĤÐµÑħ Ð½Ð¸
Ð¿Ð¸ ÑĢÐ¸
Ñī ÐµÐ¼
ĠÑģÑĤÐ°ÑĤÑĥ Ñģ
ĠÑģÐ¾Ð²ÑĢÐµÐ¼ÐµÐ½ Ð½Ð¾Ð¹
ĠÐ¸ÑģÐ¿Ð¾Ð»ÑĮÐ·Ð¾Ð²Ð° Ð½Ð¸Ðµ
ĠÑĢÐ° Ð½
Ð·Ð¸ ÑĢÑĥ
ĠÐ¿ÑĢÐµÐ´ÑģÑĤÐ°Ð²Ð»Ñı ÐµÑĤÑģÑı
ĠÑĨÐµ Ð»ÐµÐ¹
ÑĢÐ¾Ñģ Ð°
ÑĤÐµÐ»Ñı Ð¼
ĠÐ´Ð¾Ð» Ñı
ĠÐ¿Ð°ÑĢÐ° Ð¼ÐµÑĤ
ÑĢÐ° Ð½Ð¸
ĠÐ° Ð»
Ġ .
ĠÐ¸Ð· ÑĥÑĩÐ°
ĠÐ¾ÑĦÐ¸ ÑĨÐ¸Ð°Ð»ÑĮ
ÑĪ ÐµÐ½Ð¸Ð¸
ĠÐļ ÑĢÐ¾Ð¼Ðµ
ĠÐ²Ðµ Ð´Ñĥ
Ñĩ ÑĤ
ĠÐ³Ð¾Ð²Ð¾ÑĢÐ¸ ÑĤÑĮ
ĠÐ´ÐµÐ½ ÐµÐ¶
Ð»ÑĮ Ð·Ñı
ĠÐ·Ð° Ð¿Ð°Ð´
ĠÑĤÑĢÐµ ÑĤÑĮ
ĠÑģÐ²ÑıÐ· ÑĮ
ĠÐ½ Ð¸Ð¼
ĠÑģÑĤÐ° Ð±Ð¸
ĠÐ° ÑģÑģ
Ð½Ð° ÑĩÐ°
ĠÐ²Ð¾Ð² Ð»Ðµ
ĠÑĢÐ¾Ð´Ð¸ ÑĤÐµÐ»ÐµÐ¹
ĠÑģÑĤÐ°ÑĤÐ¸ ÑģÑĤÐ¸
ÑĨÐ¸Ð¾Ð½ Ð½ÑĭÐ¹
ĠÑĤ Ð°Ð¼
ĠÐ¼Ð½Ð¾Ð³ Ð¸Ðµ
ĠÑĥÑĩ ÐµÐ½Ð¸
ÑĢÐ°Ð· Ñĥ
ĠÑģÐ¾Ð² Ð¾ÐºÑĥÐ¿
ÑİÑīÐ¸Ðµ ÑģÑı
ĠÐ¿Ð¾Ð»Ð½Ð¾Ð¼ Ð¾ÑĩÐ¸
ĠÐ¾ÑĤ Ð»Ð¸ÑĩÐ¸Ðµ
ĠÑģÐ»Ñĥ Ð¶
ĠÑĤÐµÑħÐ½ Ð¾Ð»Ð¾Ð³Ð¸Ð¹
ĠÑģÑĤÐ° Ð»Ð¾
ĠÑĢÐ°ÑģÐ¿ Ð¾Ð»
Ðµ ÑģÑĤ
ĠÐºÐ¾Ð½ Ðµ
ĠÐŁ Ð¾Ð´
ĠÑĥÑĩÐ¸ ÑĤÐµÐ»ÐµÐ¹
ĠÑįÐºÐ¾Ð½Ð¾Ð¼Ð¸ÑĩÐµÑģÐº Ð¾Ð³Ð¾
Ð½Ð¾Ð²ÑĢÐµÐ¼ÐµÐ½ Ð½Ð¾
ĠÐ¿Ð¾Ð»Ð¾Ð¶ ÐµÐ½Ð¸Ðµ
ĠÑģÐ°Ð¼ ÑĭÐ¼
Ð½Ñĥ ÑĤÑĮ
ĠÐ²Ð¾ Ð¾Ð±
ĠÑĤ Ð²Ð¾ÑĢ
ĠÐ¼Ð°Ñģ ÑĪÑĤÐ°
ĠÐ´Ðµ Ñı
ĠÐ´Ðµ Ð»
ĠÑĢÑĭÐ½ ÐºÐµ
ĠÐºÐ¾ÑĤÐ¾ÑĢ ÑĭÐ¼
ĠÑģÐ¾ÑģÑĤÐ° Ð²Ð¸
ĠÐ± Ð¾Ð»
ĠÑģÑĤÐµÐ¿ ÐµÐ½ÑĮ
ĠÐºÐ¾Ð½ÑĤÐµÐº ÑģÑĤÐµ
ÐµÐ½ Ð¾
ĠÐ½ÐµÐ¾Ð±ÑħÐ¾Ð´Ð¸Ð¼Ð¾ ÑģÑĤÐ¸
ĠÐºÐ¾Ð¼Ð¿Ð° Ð½Ð¸Ð¸
ĠÑģÑĥÑīÐµÑģÑĤÐ² ÑĥÐµÑĤ
Ð¾Ð¿ ÑĢÐ¾
ĠÑģÐ¾ÑĤÑĢÑĥÐ´ Ð½Ð¸ÑĩÐµ
ÐºÐ¾ ÑĢÐµÐµ
ĠÑĢÐ°Ð·Ð»Ð¸Ñĩ Ð½ÑĭÐµ
ĠÐ¿Ð¾ÑĤ Ð¾Ð¼Ñĥ
ĠÐ¾Ð±ÑīÐµÑģÑĤÐ² Ðµ
ÐĿ Ð¾
ĠÐ²ÑĭÑģÐºÐ° Ð·ÑĭÐ²Ð°
ĠÐ¿ÑĢÐ°Ð²Ð¾Ð² ÑĭÑħ
ĠÑĢÐ¾ÑģÑģÐ¸Ð¹ ÑģÐºÐ¾Ð¹
ĠÑģÐ»ÐµÐ´ ÑĥÑİÑīÐ¸Ðµ
ĠÐ± Ð»Ð¸Ð·
Ðĺ Ð·
ÐĹ Ð°
Ðº Ð²Ð¸
ĠÑģÐ¾Ð±Ñĭ ÑĤÐ¸Ñı
ĠÐ´ ÐµÐ½ÑĮ
ĠÐ¿ÑĢÐ¾ ÐµÐºÑĤÐ°
ÑĤÐ¸Ð² Ð½Ð¾ÑģÑĤÐ¸
ĠÑģÐ²ÑıÐ·Ð° Ð½Ð¾
Ð³Ð¾Ñģ Ñı
ĠÐ¼ÐµÐ´Ð¸ÑĨÐ¸ Ð½
ĠÐ¼Ð¾Ð³ Ð»Ð¸
ĠÐ¼Ð°ÑĤÐµÑĢÐ¸ Ð°Ð»
ĠÑĥÑĩÐ° ÑīÐ¸ÑħÑģÑı
ĠÐ» Ð¾Ð³Ð¸
ÑĢÐ° Ð¼Ð¸
ÑĩÐµÑģÐº Ð¸
Ð¾Ð»Ð¾Ð³Ð¸ÑĩÐµÑģÐº Ð¸Ðµ
ĠÐ¿Ð¾ÐºÐ°Ð·Ð° ÑĤÐµÐ»Ð¸
ĠÐ¿ÑĢÐ¸ Ð¼Ðµ
ĠÑĤÐµ ÑĩÐµÐ½Ð¸Ðµ
Ð±Ðµ ÑĢÐ°
ĠÑį Ð»ÐµÐº
ĠÑį Ð½ÐµÑĢ
ÑĤ Ð½Ð¾Ð³Ð¾
ĠÐ³Ð° ÑĢÐ°Ð½
ÑĨÐ¸Ð¿ Ð»Ð¸
ĠÐ½Ð°ÑĩÐ¸ Ð½Ð°
ÑĢÐ¾Ð²Ð° Ð½Ð¸Ñİ
Ð»Ñĥ Ð¶Ð¸
ĠÐ¸Ð· Ð´Ð°
ĠÐ½Ð¾Ð² Ð¾Ð¹
ĠÑģ Ñĭ
ÑĤÐ¾ ÑģÑĤÐ¸
ĠÐ¼ÐµÑĤ Ð°
Ñĥ Ð¿
Ð» ÑĭÑħ
ÑģÑĤÑĥ Ð¿Ð¸
ĠÐ½ÐµÐ¾Ð±ÑħÐ¾Ð´Ð¸Ð¼Ð¾ ÑģÑĤÑĮ
ĠÐ²Ñĭ ÑĢÐ°Ð¶Ð°
ĠÐ° Ð´Ð°Ð¿
Ð° Ð¶
ĠÐ¿ Ð¾Ð³
ĠÐ²Ð¸ Ð´Ð¾Ð²
ĠÐ² Ð¿Ð¾Ð»Ð½Ðµ
ĠÐ¼ Ð¾Ð´ÐµÑĢ
ÐĶ Ð°Ð½
ĠÐ¾ÑģÐ½Ð¾Ð² Ð½ÑĭÐµ
ĠÐ°Ð² ÑĤ
ĠÐ¿ÑĢÐ¸Ð¼ÐµÐ½ ÐµÐ½Ð¸Ñı
ĠÐ¾Ðº Ð¾Ð½
ĠÐ´Ð¾Ð³Ð¾Ð² Ð¾ÑĢÐ°
ĠÐ²ÑĭÑģ ÑĪÐµÐ³Ð¾
ĠÑĢÐ°Ð·Ð»Ð¸ÑĩÐ¸ Ñı
Ð¾Ñģ Ð»ÐµÐ´
ĠÐ¼Ð¸ ÑĢ
ĠÐ²Ð½Ð¸Ð¼Ð° Ð½Ð¸Ñı
Ñı Ð·Ñĭ
ÑĤÐµÑĢÐµ Ñģ
ĠÐ¿ÑĢÐ¾ÑģÑĤÑĢÐ°Ð½ ÑģÑĤÐ²Ð°
ÑĩÐ¸ ÑĤÑĭ
ÑģÑĤ ÐµÐ¹
ĠÑĥÐ²Ðµ Ð»Ð¸ÑĩÐ¸
ĠÐ¾ÑģÐ½Ð¾Ð²Ð° Ð½Ð¸Ð¸
ĠÐ¿ Ð¸
ĠÑĥÑĤÐ²ÐµÑĢ Ð¶Ð´Ð°
ĠÐ° Ð»ÑĮ
ĠÐłÐµ ÑģÐ¿
ĠÐ¼ÐµÑĤ Ð¾Ð´Ð¸
ĠÐ²ÑĭÐ¿Ð¾Ð» Ð½Ñı
ĠÐ±ÐµÐ·Ð¾Ð¿Ð°Ñģ Ð½Ð¾ÑģÑĤÐ¸
Ñĩ Ð½ÑĭÐ¼
ĠÐ¶Ð¸Ð· Ð½ÑĮ
Ð¾Ð· Ð°
ĠÐºÐ¾ÑĢ ÑĢÐµ
ĠÐ´Ð°Ð½ Ð½ÑĭÐ¼
ÑĤÐµ ÑĤÐ°
ĠÐ½Ð° Ð¼Ð¸
ĠÐ¿ÑĢÐ°Ð²Ð¾Ð² Ð¾Ð³Ð¾
ĠÑģ Ð¾Ñģ
ĠÐ¿Ð¾Ð»Ð¾Ð¶ Ð¸ÑĤÐµÐ»ÑĮ
ĠÐ¼Ð°Ðº ÑģÐ¸
ĠÐ¼ Ð¾Ð±Ð¸
ÐµÑĢ ÐµÐ½
ĠÐ¸Ð½ ÑĤ
Ð² Ð¾Ð»Ð¸
ĠÐĴ Ñĭ
ĠÐ¿Ð»Ð° Ð½Ð¸
ĠÑģÐ¾Ð³Ð»Ð° ÑģÐ½Ð¾
ĠÐ ĸ
ÑĢ ÑĮ
Ñĩ Ñĥ
ÑĥÑİÑī ÐµÐ¹
Ðļ ÑĢÐ¾Ð¼Ðµ
ĠÑĢÐµ ÑĪÐ°
ÑİÑī ÑĥÑİ
ĠÐ¿Ð¾ÑģÐ»ÐµÐ´ Ð½Ð¸Ðµ
Ñĩ Ð½ÑĭÐ¹
ĠÐ½Ð¸ Ð¶Ðµ
Ð²ÑĪ Ð¸Ð¹
Ð¡ Ð»ÐµÐ´
ĠÐ½Ð¾Ð² Ð¾Ð³Ð¾
ĠÐ¿Ð¾Ð´Ð³Ð¾ÑĤÐ¾Ð² ÐºÐ¸
ĠÑģ ÐµÑĤÐ¸
Ð¼ÐµÑĤ ÑĮ
ÑĤÐµÐ»ÑĮ Ð½Ð¾ÑģÑĤÑĮ
ĠÑģÐ¾Ð²ÑĢÐµÐ¼ÐµÐ½ Ð½ÑĭÑħ
ĠÐºÐ°Ðº Ð¾Ð¹
ÑĪÐº Ð¾Ð»ÑĮ
ĠÐļ Ð¾Ð¼
ĠÐ¿Ð¾Ð· Ð½Ð°
ĠÐ·Ð°ÐºÐ¾Ð½Ð¾Ð´Ð° ÑĤÐµÐ»ÑĮÑģÑĤÐ²Ð°
ĠÐº Ð¾Ñģ
ĠÐº ÑĢÐµÐ´
ĠÐ° Ð¿
ĠÐ¾ÑĤÑģÑĥÑĤÑģÑĤÐ² Ð¸Ðµ
ĠÐ²Ñģ ÐµÐ¼
ĠÐ³Ð¾Ð² Ð¾ÑĢÑı
ĠÐ¸ÑĤ Ð¾Ð³
Ð¾Ð³Ð»Ð° ÑģÐ½Ð¾
ĠÑħÐ°ÑĢÐ°Ðº ÑĤÐµÑĢÐ°
ÑģÑĤÐµ Ð¿ÐµÐ½
ĠÐ¿ÑĢÐ¾Ð² ÐµÑĢ
ĠÐ¾Ð³ÑĢÐ°Ð½Ð¸ ÑĩÐµÐ½
Ðķ ÑģÐ»Ð¸
ĠÑĢÐ° Ð½ÐµÐµ
Ð¸ÑĩÐµÑģÐº Ð¸Ðµ
ĠÑĥÐ½Ð¸Ð²ÐµÑĢÑģÐ¸ÑĤÐµ ÑĤÐ°
ÑĩÐ¸ ÑĤÑĮ
ĠÑģÑĤÑĢÐ¾ Ð¸ÑĤÐµÐ»ÑĮ
ÑĪ ÐµÐ½Ð¸Ñİ
ÑĢ ÐµÐ½Ð¸Ðµ
ĠÐ¾Ð¿ ÑĭÑĤÐ°
ÑģÑĤÐ° Ð²Ð»Ñı
ĠÑģÑĢÐ°Ð² Ð½Ð¸
ĠÐ±Ð¾Ð»ÑĮÑĪ ÐµÐ¹
ĠÐ¿ÑĢÐ¾ÑĨÐµÑģÑģ Ð¾Ð²
Ð´ÐµÑĢ Ð¶
ĠÐ¾Ð¿ Ð¸ÑģÑĭ
Ð³ ÑĢÐµ
ĠÑĢÑĥÑģ ÑģÐºÐ¾Ð³Ð¾
ĠÐ¼Ð¸ ÑĢÐµ
Ñģ Ð¾Ð»
Ðº Ð¸Ð¼
ĠÑĢÐ° Ð´Ð¸
ÑĩÐµÑģÐº Ð¸Ð¼
ĠÑģÐ¾Ð·Ð´Ð° Ð½Ð¸Ðµ
ĠÐ¸ÑģÑģÐ»ÐµÐ´Ð¾Ð²Ð° Ð½Ð¸Ðµ
ĠÑģÐ¿ÑĢÐ°Ð² ÐµÐ´
Ð ¯
ĠÐ¾Ð±Ð¾Ñģ Ð½Ð¾Ð²Ð°
ÐŁ Ð¾Ð´
ĠÐł Ð°
ĠÐ²Ð·Ð°Ð¸Ð¼ Ð¾ÑģÐ²Ñı
ĠÑĩ Ð¸ÑĤÐ°
ĠÐ°ÑĢ Ð³Ñĥ
ĠÐ´Ð¸Ð° Ð»ÐµÐº
Ð»Ñĥ Ñĩ
Ð¾Ð² Ñĭ
ĠÐ¸ Ð½Ð¾Ð¹
ĠÐ¾ÑģÐ½Ð¾Ð² Ð½Ð¾Ð¼
ĠÐ¿ÑĢÐ¸ÑĩÐ¸ Ð½
ĠÐ³Ð¸ Ð¿Ð¾ÑĤÐµ
ĠÐ¾Ð± ÑģÑĥ
ĠÐ´Ð°Ð»ÑĮ Ð½ÐµÐ¹ÑĪ
ĠÐ½Ð°ÑĥÑĩ Ð½ÑĭÑħ
ÑĤÐ¸ ÐºÐµ
ĠÑħÐ¾ÑĢ Ð¾ÑĪ
ĠÑģÑĦÐµÑĢ Ñĭ
ĠÐºÐ°Ð¶Ð´ Ð¾Ð³Ð¾
Ð»ÑĮ Ð½Ð°Ñı
ÑĤÐ¸ Ð¼
ĠÐ¿Ñĥ ÑĤÐµÐ¼
ĠÐ¾ÑģÐ½Ð¾Ð² Ñĭ
Ð°Ð½ Ð´Ð¸
ĠÐ½Ð°ÑĥÑĩ Ð½Ð¾Ð¹
Ð¾Ð¶ Ð½Ð¾
ĠÑģÑĤÐ° Ð²
ÑĤÐµÑĢ Ð½Ð°
ĠÐºÐ¾ÑĢ Ð¿Ð¾ÑĢÐ°
ĠÑħÐ°ÑĢÐ°ÐºÑĤÐµÑĢÐ¸ÑģÑĤÐ¸ ÐºÐ¸
Ð¾Ð²Ð° Ð»Ð¸
ĠÐ´Ð° ÐµÑĤ
ĠÐºÑĢÐµ ÑģÑĤÑĮ
ĠÐ¿ÑĢÐ¸Ð½ÑĨÐ¸ Ð¿
Ð´Ð¸ ÑĤÑĮ
ĠÐ»Ðµ Ð³
Ð° ÑĢÐ¸
Ñĩ ÐµÐ½Ð¸ÐµÐ¼
ĠÐ·Ð° Ð¿ÑĢÐµ
ĠÑģÐ¾Ð¿ ÑĢÐ¾Ð²
ĠÑģÑĤÐ° Ð»
Ñĩ ÐµÐ½Ð¸Ð¸
ĠÐºÐ° Ð´
ĠÐ¿ÐµÑĢÐ² Ð¾Ð¹
ĠÑģÐ¾Ð´ÐµÑĢÐ¶Ð° Ð½Ð¸Ðµ
ÑĦÐµÑĢ ÐµÐ½
ĠÑįÑĤÐ° Ð¿Ðµ
ĠÐ½Ð° ÑĥÐº
ĠÐ¿Ð¾Ð»Ð¸ÑĤÐ¸ÑĩÐµÑģÐº Ð¾Ð³Ð¾
Ð²Ð° ÑİÑīÐ¸Ñħ
ÑĪ Ð¸Ð¼
ĠÐ±Ð°Ð½ ÐºÐ¾Ð²
ĠÐ»Ñİ Ð´Ð¸
ĠÑģÑĤÑĢÐ°ÑĤÐµ Ð³Ð¸Ð¸
ĠÐ¿ÑĥÐ±Ð»Ð¸ ÐºÐ°
ĠÐ¿ÑĢÐ¾ÑĦÐµÑģÑģÐ¸Ð¾Ð½Ð°Ð»ÑĮ Ð½Ð¾Ð¹
ĠÑģ Ð¼ÐµÑĢ
ĠÐ¾ÑĤ Ð²Ðµ
Ð¸Ñģ Ð°Ð½
ĠÐŀ Ð½
ĠÑģÐ² ÐµÑĢ
ĠÑį ÑĤÑĥ
ĠÑģÐ¿ÐµÑĨÐ¸ ÑĦÐ¸
ĠÑĤÑĢÐµÐ± ÑĥÐµÑĤ
ĠÑģÑĢÐ°Ð² Ð½ÐµÐ½Ð¸Ñİ
ĠÐ¼ Ð¾ÑĢ
Ð»ÑĮ Ð½Ð¾ÑģÑĤÑĮ
ĠÐ¤ ÑĢÐ°Ð½
ÑĢÐ¾Ð²Ð°Ð½ Ð½ÑĭÐµ
ĠÑĩÐµÑĤ Ñĭ
ÐŁ ÑĢÐµÐ´
ÑĪ ÐµÐµ
ÐµÐ½ Ð½Ð¾ÑģÑĤÐ¸
Ð¾Ð³ÑĢÐ° ÑĦÐ¸Ð¸
ĠÐ¿Ð¾Ð» Ð°Ð³Ð°
ĠÐ¸ÑģÐ¿Ð¾Ð»ÑĮÐ·Ð¾Ð²Ð° ÑĤÑĮ
Ñħ Ð¾Ð·ÑıÐ¹
ĠÑĢÐµ Ð¶Ð¸Ð¼
ĠÐ³ Ð»ÑĥÐ±
ĠÐ·Ð°ÑīÐ¸ ÑĤÑĭ
Ð±Ð° ÑĤÑĭ
ĠÐ¾Ð¿ÑĢÐµÐ´Ðµ Ð»ÐµÐ½Ð¸Ñı
ĠÑĢÐµ Ð°Ðº
ĠÐ²ÑģÑĤÑĢÐµ ÑĩÐ°
ĠÐ¸Ð·Ð¼ÐµÐ½ ÐµÐ½Ð¸Ð¹
Ð»Ð° Ñħ
ÑĤ Ð½ÑĭÐµ
ĠÐ¿ÑĢÐµÐ´ Ð¿Ð¾
ĠÐ¾Ð¿ Ð°Ñģ
ĠÑģÐ¾Ð¾Ð± ÑīÐµÑģÑĤÐ²Ð°
ĠÑįÑĤ Ð¾Ð¼Ñĥ
ĠÐ¾ÑĤÐ½Ð¾ÑĪ ÐµÐ½Ð¸Ñİ
ĠÐ¼Ð°ÑĤÐµÑĢÐ¸ Ð°Ð»Ð°
ĠÑĥÑĩÐ°ÑģÑĤÐ¸ Ñı
Ð¸Ð¼Ð¾ ÑģÑĤÑĮ
Ð± Ð»
ĠÐ³ ÐµÑĢ
ĠÐ·Ð°Ð´Ð° ÑĩÐ°
ĠÐ½Ðµ Ð»ÑĮÐ·Ñı
ĠÐº ÑĢÑĥ
Ð»ÑĮ Ð½Ð¾Ð¼
ĠÑĢÐµ ÑĩÐµ
ĠÐ²Ð½Ðµ Ð´
ĠÑĢÐ°Ð·Ð½Ð¾ Ð¾Ð±ÑĢÐ°Ð·
ĠÐ¸ÑģÐº ÑĥÑģ
ĠÐ³ Ð¾Ð»
ĠÑģÑĤÐ° Ð»Ð°
Ð»Ð° Ð¼Ð¸
ĠÑĨÐµÐ½ Ð½Ð¾ÑģÑĤÐµÐ¹
ĠÐ¿Ð¾Ð»ÑĮÐ· Ñĥ
ĠÐºÐ¾Ð½ÑĤÑĢ Ð¾Ð»ÑĮ
ĠÐ¸ Ð¼ÐµÑĤÑĮ
ÑĩÐµÑģÐº Ð¾Ðµ
ĠÐ·Ð°Ð²Ð¸ÑģÐ¸ ÑĤ
ĠÐŁÐ¾ ÑįÑĤÐ¾Ð¼Ñĥ
ĠÑĥ Ð±Ðµ
ĠÐºÐ°ÑģÐ° ÐµÑĤÑģÑı
Ð´Ð¸ Ð½Ð°
ÑĤÐ¸Ð² Ð½Ð¾Ðµ
ÑĢÐ°Ð¶ ÐµÐ½Ð¸Ñı
ÑĮ ÐµÑĢ
ĠÐ¿Ð¾Ð¿ Ñĥ
ĠÐ¿ÐµÑĢÐ¸ Ð¾Ð´Ð°
Ð½Ð¾ ÑģÐ¸
ĠÑģ ÑĢÐ¾Ðº
ÑģÐµÐ´ Ð½ÐµÐ²
ĠÐ½ Ð¸Ð¼Ð¸
Ð¼Ð¾ÑĤ ÑĢÐµÐ½
Ð°Ðº Ð¾Ð½
Ð½ ÐµÐ½Ð¸Ð¸
Ð»Ð° Ð´Ñĭ
ĠÐ¿ÑĢÐµÐ´ÑģÑĤÐ°Ð²Ð¸ ÑĤÐµÐ»ÐµÐ¹
ĠÐ¿Ð¾Ð» Ð¾Ð²Ð¸
ĠÐ¿ÑĢÐµÐ´Ð»Ð¾Ð¶ ÐµÐ½Ð¸Ñı
ĠÑģÑĥÑīÐµ ÑģÑĤÐ²ÐµÐ½Ð½Ð¾
ĠÐ² ÑĢÐ°
ĠÐ¾ÑģÑĤÐ° ÐµÑĤÑģÑı
ĠÐ¾Ð¿ ÑĤÐ¸
ĠÐ´Ð°Ð½ Ð½ÑĭÐ¹
Ð²Ð¸ ÑĤÑĮ
ĠÑį Ð»Ð¸
ĠÐ¿Ð¾Ð´ ÑĢÐ¾ÑģÑĤ
ĠÑģÑĥÐ±ÑĬ ÐµÐºÑĤÐ¸Ð²
Ð¾Ð´Ð° ÑĢÑı
ÑĤÐ¸ÑĩÐµÑģÐº Ð¸Ð¹
ÑĤÑĭ Ðµ
ĠÑĤÐµ Ð»Ðµ
ĠÑģÐ¼ÑĭÑģ Ð»Ðµ
ĠÑĢÐ°Ð· Ð½ÑĭÐµ
ĠÑģ ÐºÐ¾ÑĢÐµÐµ
ĠÐ¶ÐµÐ½Ñī Ð¸Ð½
ĠÐłÐµÑģÐ¿ ÑĥÐ±Ð»Ð¸
Ð»Ðµ Ð¶Ð°
ĠÐ¼Ð¸ÑĢÐ¾Ð² Ð¾Ð¹
ĠÑįÐ¼ Ð¿Ð¸ÑĢÐ¸
Ð° Ð½Ð°Ð»Ð¸
ÑĢÑı Ð´
ĠÐ± Ð°Ð»
ĠÐº Ð¾Ð³
ĠÐ¡ Ñĥ
ĠÐ²ÑĭÑģÑĤÑĥÐ¿Ð° ÐµÑĤ
ĠÐ¾Ðº Ð¾Ð»Ð¾
ĠÐ¿ÑĢÐ¸Ð½Ñı ÑĤÐ¸Ñı
ĠÑįÑĤ Ð½Ð¸
ĠÑĤÐµ Ð¼Ð°
ĠÐ±Ð¾Ð»ÑĮÑĪÐ¸Ð½ ÑģÑĤÐ²Ð¾
ÑĢÐ¾Ð²Ð°Ð½ Ð½Ð¾Ð¹
ĠÐºÐ¾Ð¼Ð¿Ð»ÐµÐº Ñģ
ĠÐ½Ðµ ÑģÐºÐ¾Ð»ÑĮ
ĠÐ²Ð°Ð¶ Ð½Ð¾
ĠÐ¿Ð¾Ð» Ð½Ð¾ÑģÑĤÑĮÑİ
ĠÐ³Ð¾ÑģÑĥÐ´Ð°ÑĢ ÑģÑĤÐ²Ð¾
ĠÑģÐ¾Ð´ÐµÑĢÐ¶Ð° Ð½Ð¸Ñı
ĠÐ¿ÑĢÐ¾Ð² ÐµÐ´
ĠÐ¿ÑĢÐµÐ´Ð¿ÑĢÐ¸ Ñı
ĠÑĤ ÑĢÐ°Ðº
ĠÐ¼Ð°ÑĤÐµÑĢÐ¸ Ð°
ĠÐ¾Ñģ Ð¾Ð·Ð½Ð°
ĠÐ¾Ð´ Ð½
ĠÐ¼Ð¾Ð» Ð¾Ð´Ðµ
. :
ĠÐºÐ¾Ð¼Ð¿Ð° Ð½Ð¸Ð¹
ĠÐ¿ÐµÐ½ÑģÐ¸ Ð¾Ð½
Ñİ Ð·Ð°
ĠÐ¿ÑĢÐ¾ÑĦÐµÑģÑģÐ¸Ð¾Ð½Ð°Ð»ÑĮ Ð½Ð¾Ð³Ð¾
ÑĩÐµ Ð³Ð¾
ĠÑĢÑı Ð´Ð°
ÑĢÐ¸ ÑģÑĤÐ¸
ÑĢÑĭ Ð²
Ðµ Ð»
ĠÐ³ÑĢÑĥÐ¿ Ð¿Ðµ
ĠÐ´Ð¸ÑģÐº Ñĥ
ĠÑģÐ¾ÑĨÐ¸Ð°Ð»ÑĮ Ð½ÑĭÐµ
ĠÐŀ Ð½Ð¸
ĠÐ¸ÑģÑģÐ»ÐµÐ´Ð¾Ð²Ð° Ð½Ð¸Ð¸
Ñģ Ð¼Ð¾ÑĤÑĢÑı
ĠÑĢÑĥÐºÐ¾Ð² Ð¾Ð´Ð¸
ĠÐ¿Ð¾ÐºÐ°Ð·ÑĭÐ²Ð° ÐµÑĤ
ĠÐ¼ÐµÑĤÐ¾Ð´ Ð¾Ð²
ĠÐ¼Ð½Ð¾Ð³ Ð¾Ð¼
Ñı Ð²Ð»ÐµÐ½Ð¸Ðµ
Ð¼ÐµÐ½ Ð°
Ð¸ ÑĤÐµÐ»ÐµÐ¹
ĠÐ¾Ð±ÑĢÐ°Ð·Ð¾Ð²Ð° ÑĤÐµÐ»ÑĮÐ½Ð¾Ð¹
ĠÐ´Ñĥ ÑħÐ¾Ð²
ĠÐŁ ÑĢÐµ
ĠÐ¿ÑĢÐ¸Ð²Ð¾Ð´ Ð¸ÑĤ
ÐµÐ¶ Ð´Ñĥ
ĠÐ¾ÐºÑĢÑĥ Ð¶Ð°
ĠÐ¿ÑĢÐ¸Ð²Ð»Ðµ ÐºÐ°
Ð½Ð¸Ñı Ñħ
Ð¾ÑĢ ÑĥÐ¶
ĠÐľ Ð°
ĠÐ¿ÑĢÐµÐ´ÑģÑĤÐ°Ð²Ð»ÐµÐ½ Ñĭ
Ð»ÑĮ Ð½ÑĭÐ¼Ð¸
ĠÐ¿ÑĢÐ¸ Ð¾ÑĢÐ¸
ĠÑĪÐºÐ¾Ð» Ðµ
ĠÑģÐ¸ Ð»
ĠÑģÐ²ÑıÐ· ÐµÐ¹
ĠÐ¼Ñĭ ÑģÐ»Ð¸
ĠÐ·Ð½Ð°ÑĩÐ¸ ÑĤÐµÐ»ÑĮÐ½Ð¾
ĠÐ¼ÐµÐ¶Ð´ÑĥÐ½Ð°ÑĢÐ¾Ð´ Ð½ÑĭÑħ
ĠÐ¿ÑĢÐ¸ Ñģ
ĠÐ³ÑĢÐ° Ð¼Ð¼Ð°
ĠÐ½ÐµÐ¼ ÐµÑĨ
ĠÐ½Ð¸Ðº Ð°Ðº
ĠÐ¼ÐµÐ½ Ñı
Ñį ÑĦ
ĠÑįÐºÐ¾Ð½Ð¾Ð¼Ð¸ÑĩÐµÑģÐº Ð¸Ñħ
ĠÑĢÐµÑģÐ¿ ÑĥÐ±Ð»Ð¸
ĠÐ´ Ð»Ð¸
ĠÐ¼Ñĥ Ð½Ð¸
ĠÐ¿Ð¾Ð´ Ð²ÐµÑĢ
Ð½ ÐµÐ½Ð¸Ð¹
ĠÐ²Ð· ÑĢÐ¾Ñģ
Ð¾Ñģ Ð»Ðµ
ĠÐĴ ÐµÑĢ
ÑĤÐµÑĢ Ð±ÑĥÑĢ
ĠÐ°ÐºÑĤÐ¸Ð² Ð½Ð¾
Ð²Ð° ÑĢ
Ð² ÑĮÑİ
Ðł Ð°
Ð²Ð° ÑĤ
ÑĪÐ° ÐµÑĤ
ĠÑĦ ÑĥÐ½
ĠÐ¾Ð±ÑĬ ÐµÐºÑĤÐ¾Ð²
ÐĴ Ñĭ
ĠÑĦÐ¾ÑĢÐ¼Ð¸ ÑĢÐ¾Ð²Ð°Ð½Ð¸Ðµ
ĠÑĦÐ¾ÑĢ Ð¼Ñĥ
ĠÑģÐ²ÑıÐ·Ð° Ð½Ñĭ
ĠÐºÐ°ÑĤÐµÐ³Ð¾ ÑĢÐ¸Ð¸
ĠÐ¼ÐµÑĢ Ñĭ
ĠÐ´Ðµ Ð»Ðµ
ĠÐ¿ÑĢ Ð¾Ð¶Ð¸
ĠÐ³ ÑĥÐ±ÐµÑĢ
ÑĩÐ¸ Ðµ
ĠÐ½ÐµÑģ Ð¼Ð¾ÑĤÑĢÑı
ĠÐºÐ¾Ð¼Ð¼ÑĥÐ½Ð¸ÐºÐ° ÑĨÐ¸Ð¸
ĠÑĥÑĩÑĢÐµ Ð¶Ð´ÐµÐ½Ð¸Ñı
ĠÐ´Ð¸ ÑĢÐµÐº
ĠÑĢÐµÐ·ÑĥÐ»ÑĮÑĤÐ° ÑĤ
ÑĦ Ð°
ĠÑģÐ»ÑĥÑĩÐ° Ð¹
Ð²Ð° Ð»Ð¾ÑģÑĮ
ĠÐ¸Ð½ÑģÑĤÐ¸ÑĤÑĥ ÑĤÐ¾Ð²
ĠÑģ ÐºÐ°
ĠÑĤÐµÐº ÑģÑĤÐ¾Ð²
ĠÐ¿Ð¾Ð² ÑģÐµÐ´Ð½ÐµÐ²
ÑĩÐµÑĢ ÐºÐ¸
ĠÐļÐ¾Ð½ÑģÑĤÐ¸ÑĤÑĥ ÑĨÐ¸Ð¸
ĠÐ¿ÑĢÐ¸Ð¼ÐµÐ½ Ñı
Ð»Ð¸ Ð¸
ĠÐ¾Ð±ÑīÐµ ÑģÑĤÐ²ÐµÐ½Ð½ÑĭÑħ
ĠÑģÐ²ÑıÐ·Ð°Ð½ Ð½ÑĭÐµ
Ð»ÐµÐ½ Ð½Ð¾Ð³Ð¾
ĠÐ² ÑħÐ¾Ð´
ĠÐºÐ°Ðº Ð¸Ðµ
ĠÐ·Ð°ÐºÐ¾Ð½Ð¾Ð´Ð° ÑĤÐµÐ»ÑĮ
ĠÑĥÐºÐ° Ð·ÑĭÐ²Ð°
ĠÐ´Ð¾Ð¼ Ð°
ĠÑĥÑģÑĤÐ° Ð½Ð°Ð²Ð»Ð¸
Ñĩ Ð½Ð¾Ð¼
ÑĤÐ¸ ÐµÐ¼
ĠÑģÐ»ÑĥÑĩÐ° ÐµÐ²
Ð² ÑĭÐ¼
ĠÐ¿Ð¾ ÑģÑĤÑĥÐ¿
ĠÐ¿ÑĢÐ¸Ð½ÑĨÐ¸ Ð¿Ð°
ÑĪ Ð¸Ð¹
ĠÑĤÑĢÐ°Ð½ ÑģÐ¿Ð¾ÑĢ
ĠÐ¿Ð¾Ð· Ð²Ð¾Ð»Ð¸
ĠÐ°Ð± ÑģÐ¾Ð»
ĠÐ¾Ð¿ Ð»Ð°
ÑĪ Ð¸Ð½
ĠÐºÐ¾ÑĢ ÑĢÑĥÐ¿
ÑĤ Ð¾Ðº
ÑĩÐµÐ½ Ð½ÑĭÑħ
ÑĩÐµ ÑģÑĤÐ²Ð°
ĠÑģÐ¾ ÑĩÐµÑĤÐ°
Ð³Ð¾Ð² Ð¾ÑĢ
ÑĤÐ¸Ð² Ð½ÑĭÐ¼
ĠÐ¾Ð± Ð¾Ð·Ð½Ð°
ÑĤÐµ Ð¼Ð°
ĠÐ¿Ð¾Ð½ ÑıÑĤÐ¸Ñı
ĠÐ¿Ð¾Ðº Ð¾Ð»
ĠÐ¸Ð½ÑĤÐµÑĢÐµ ÑģÐ°
ĠÐ¿ÑĢÐ¸ Ð±Ñĭ
Ðł Ðµ
ĠÐ·Ð°ÐºÐ»ÑİÑĩÐ° ÐµÑĤÑģÑı
ĠÑĤÑĢÐ°Ð½Ñģ ÑĦÐ¾ÑĢÐ¼Ð°
ĠÐĶ Ð°Ð½
Ð¾Ð¼ Ð°
ĠÑį Ð¿Ð¾
ĠÐ½Ðµ Ð¾Ð´
Ð°Ð»ÑĮ Ð½ÑĭÐ¹
ĠÑĢÐ°Ð±Ð¾ ÑĩÐ¸Ñħ
ĠÐ¸Ð½ÑģÑĤÐ¸ÑĤÑĥ ÑĨÐ¸Ð¾Ð½Ð°Ð»ÑĮ
ĠÐ¾ÑĤ ÑĩÐµÑĤ
ĠÐ¸Ð· Ð¼ÐµÑĢ
ÑįÑĦ ÑĦÐ¸ÑĨÐ¸
Ð¸ Ð´
ĠÐ¿ÑĢÐ¾Ð² ÐµÐ´ÐµÐ½Ð¸Ñı
ĠÐ²Ð¾ÑģÐ¿ÑĢÐ¸ Ð½Ð¸Ð¼Ð°
ĠÐ¿ÑĢÐµÐ´Ð¿ÑĢÐ¸ ÑıÑĤÐ¸Ñı
ĠÐ±Ðµ ÑģÐ¿
ĠÐ»Ñİ Ð´
ÑĪÐµ Ð´
ĠÐ¼ Ð¾Ð½Ð°
Ð³ÑĢÐ° Ð½Ð¸
Ð¼ Ñı
ĠÐ¿ÑĢÐ¾Ð³ Ð½
ĠÐ¼Ð° Ð»Ð¾
ĠÑĢÑĭ Ð½Ð¾
ĠÐºÐ¾ÑĤÐ¾ÑĢ ÑĥÑİ
ĠÐ¿Ð¾Ð·Ð²Ð¾Ð»Ñı ÑİÑĤ
Ð¸ÑĤÐµÐ»ÑĮ Ð½Ð¾ÑģÑĤÐ¸
ĠÑĥÑĢÐ¾Ð² Ð½ÐµÐ¼
ĠÐ¾Ñģ Ð½Ð¾Ð²Ð°Ð½Ð¸Ñı
ĠÐ´ÐµÐ¼ Ð¾Ð½ÑģÑĤÑĢÐ¸
ĠÐŁ ÑĢÐµÐ´
ĠÐ»Ð¸ÑĤÐµÑĢÐ° ÑĤÑĥÑĢÐµ
ĠÐ¿ÑĢÐ¾Ð´ÑĥÐº ÑĨÐ¸Ð¸
ĠÐ´Ð¸ ÑĦÑĦ
Ð¸ ÐºÐ°
ĠÑĤÐ°Ðº Ð¾Ðµ
Ð¿Ð° ÑĢÐ°
ĠÐ·Ð° ÑĤÐµÐ¼
ĠÐ¿ÑĢÐµÑģÑĤÑĥÐ¿ Ð»ÐµÐ½Ð¸Ñı
ĠÐ°ÑĢ Ñħ
ĠÐ¿Ð¾Ð´ ÑĢÐ¾Ð±
ĠÑĩÐ»ÐµÐ½ Ð¾Ð²
ĠÐ¿Ð¾ÑĢÑıÐ´ ÐºÐ°
ĠÑĩÐµÑĤÑĭ ÑĢÐµ
ĠÐ¾Ð³ÑĢÐ°Ð½Ð¸ ÑĩÐµÐ½Ð¸Ñı
ĠÑĢÐ°Ñģ ÑĪÐ¸ÑĢ
ĠÐ¿ÑĢ Ð¾ÑĤÑı
ĠÑģÐ°Ð¼ Ð¾Ð³Ð¾
ĠÐ¾Ð±Ð½Ð°ÑĢÑĥ Ð¶Ð¸
ĠÐĽ Ð°
Ð½ Ð¾Ð³
ĠÐ¾Ð·Ð½Ð°ÑĩÐ° ÐµÑĤ
Ð»ÐµÐ½ Ð½Ð¾Ð¹
ĠÐ½Ðµ ÑĢÐ°Ð²
Ð½ Ð½ÑĭÑħ
Ð¿ Ð¾Ð·Ð¸
ĠÐ°ÐºÑĤÐ¸Ð² Ð½Ð¾ÑģÑĤÐ¸
ĠÐ¼ Ð¾ÑĢÐ°
ĠÐ¿Ð¾Ð´ Ð°
Ð·Ð° Ñħ
ÑĥÑİÑī Ð¸Ð¼
ÑĤÐµÐ»ÑĮ Ð½ÑĭÐ¼Ð¸
Ð¾Ð½Ðµ ÑĨ
ĠÑįÐ¼Ð¾ ÑĨÐ¸Ð¾Ð½Ð°Ð»ÑĮ
ĠÑĥÐ³ ÑĢÐ¾Ð·
ĠÐ¸Ð´Ðµ Ð¸
ÐµÑĢ ÑĤ
Ð²Ð° Ð»Ð°ÑģÑĮ
ÑĤÐµ Ð»Ñİ
ĠÑĤ ÑĢ
ĠÐŁ Ðµ
ĠÑģÐ¾Ð± ÑĢÐ°
ĠÐĲ Ð½
ÑĨÐµÐ½ ÑĤ
ĠÐ»Ð¸Ð½Ð³ Ð²Ð¸ÑģÑĤÐ¸
Ð³ Ð¾ÑĢ
ĠÑĨÐ¸ ÑĦ
ĠÐ¸ÑģÑĤÐ¾Ñĩ Ð½Ð¸ÐºÐ¾Ð²
Ð¾ÑĤ Ð²ÐµÑĤ
ĠÐ³ Ð¾Ñģ
ĠÐ¾ÐºÐ°Ð·ÑĭÐ²Ð° ÐµÑĤÑģÑı
ĠÐ´ÐµÑģÑı ÑĤÐ¸
ĠÑģÑĤÐ°ÑĤÑĥ ÑģÐ°
ĠÐ¿Ð¾ ÑģÑĤÐ°Ð½Ð¾Ð²
ĠÐ´ Ð¾ÑĢ
Ð½Ð¸ÐºÐ° Ð¼
Ðº Ð»Ñİ
ÑĩÐµÑģÐº ÑĥÑİ
ĠÐ¿Ð¾Ð´ÑĤÐ²ÐµÑĢ Ð¶Ð´Ð°
ĠÐ¸ÑģÐ¿Ð¾Ð» Ð½Ð¸
ĠÐ¿ÑĢ Ð¾Ð´Ð°
ĠÑģÐ²ÑıÐ·Ð°Ð½ Ð½ÑĭÑħ
ÑĢÐ¾Ð²Ð° Ð»Ð¸
ĠÐ¿ÑĢÐµ Ð¾Ð´
Ð½ Ð³Ð°
ÐºÐ¾Ð¼ ÐµÐ½
Ð» Ð¾Ð²Ð°
ĠÐ² Ð°Ð»
ĠÐºÐ¾ÑĢ ÑĢÐµÐº
ĠÑĥÑĩÐµÐ± Ð½ÑĭÑħ
ÑĩÐ° Ð¹
Ð° ÑĤÐ°
ĠÐ±Ð¸Ð· Ð½Ðµ
Ð» Ð¾ÑĤ
Ðĺ Ð½
ĠÐ½Ð°ÑĥÑĩ Ð½Ð¾
ĠÐ¾Ñģ Ð²Ð¾
ÑĤÐ¸ÑĩÐµÑģÐº Ð°Ñı
ĠÐ¾Ð³ÑĢÐ°Ð½Ð¸ ÑĩÐ¸
ĠÑĢÐ¾ÑģÑģÐ¸Ð¹ ÑģÐºÐ¾Ð³Ð¾
ĠÑģÐ²Ð¾Ð±Ð¾Ð´ Ñĭ
ĠÑĢÐ°Ð·Ð²Ð¸ ÑĤÐ¸Ñİ
ÐµÐ¼ ÑĭÐ¹
ÑĢÐ° ÑģÑĤÑĢÑĥÐº
Ðµ ÑģÑı
ĠÐ´ ÑĢÐµÐ²
Ð¼ÐµÐ½ ÑĮ
ĠÐºÐ°Ð¶Ð´ ÑĭÐ¹
ĠÐ¿Ð¾Ð´Ð´ÐµÑĢ Ð¶Ð¸
ĠÐ¿Ð¾Ð· Ð´
ĠÐ¾Ð´ Ð½Ð¾Ð²ÑĢÐµÐ¼ÐµÐ½Ð½Ð¾
Ð´ ÐµÐ¼
ĠÐ¿Ð¾ Ð¸ÑģÐº
Ð¿Ð° Ð´Ð°
ĠÑĤÐµ ÐºÑĥ
ĠÑĢÐ°Ñģ ÑĪÐ¸
ĠÑħÐ°ÑĢÐ°ÐºÑĤÐµÑĢÐ¸ Ð·
ĠÐ²Ð¾Ð·Ð½Ð¸Ðº Ð½Ð¾Ð²
ÑĤÐµÐ»ÑĮ Ð½Ð¾Ð¼
ÑĤÐ¸Ð² Ð½Ð°Ñı
ĠÐ° ÑĥÐ´Ð¸
ĠÐ² Ð¼Ðµ
ĠÐ¾ÐºÐ¾Ð½ ÑĩÐ°
ĠÐ¼ÐµÐ½ÑĮ ÑĪÐµ
ÑĩÐµÑģÐº Ð¾Ð¼
ÑĦÐµ ÑģÑģÐ¸
ĠÐ¿Ð¾ÑģÑĢÐµÐ´ ÑģÑĤÐ²Ð¾Ð¼
ÑĢÑĥ Ð·
Ð° ÑĢÐ°
ĠÐ¿Ð¾ÑģÐ»ÐµÐ´ ÑģÑĤÐ²Ð¸Ñı
ÑıÐ± ÑĢÑı
ĠÐ¿ÑĢÐ°Ð² Ð¾Ð¼
ĠÑģÐ¾Ð¿ Ð¾ÑģÑĤÐ°
ĠÑģ Ð¾Ð¼
ÐµÐ½ Ðµ
ĠÑģÐ¸ Ð»Ñĭ
Ð´ÐµÑĤ ÑĮ
ĠÑĥ Ð·
ĠÐ¾Ð± Ð²Ð¸
ÑĨ ÑĥÐ·
ĠÐ¿Ð°ÑĢ ÑĤÐ¸Ð¹
ĠÐ¿ ÑĥÐ½Ðº
ĠÑĦÐ°Ðº ÑĤÐ¾ÑĢÑĭ
Ñħ ÑĢÐ°Ð½Ð¸
Ð³ Ð¼Ð°
ĠÑİÑĢÐ¸Ð´Ð¸ ÑĩÐµÑģÐºÐ¾Ð¹
Ð¶ ÐµÐ½Ð¸Ð¹
ĠÑģÐ¾Ð±Ñĭ ÑĤÐ¸Ð¹
Ñĩ Ð½Ð¾Ðµ
ĠÐ¿Ð¾Ð²ÐµÐ´ ÐµÐ½Ð¸Ðµ
ĠÐµ Ð²
ÑĥÑİÑī Ð¸Ð¹
ĠÐ³Ð¾Ð´ Ð¾Ð²
ĠÐ¿Ð¾Ð» ÑĥÑĩÐµÐ½Ð¸Ñı
ĠÑģÐ²Ð¸Ð´ÐµÑĤÐµÐ»ÑĮÑģÑĤÐ² ÑĥÐµÑĤ
ĠÐ¿Ñĥ ÑĤÐ¸
ÑĨ Ñĥ
ĠÑįÐ»ÐµÐ¼ ÐµÐ½ÑĤÐ¾Ð²
ĠÐ¿Ð¾ ÑĤÐµÑĢ
Ð»Ð¸Ð· Ð¼Ð°
ĠÐ´Ð²Ð¸ Ð¶ÐµÐ½Ð¸Ñı
Ðł Ð°Ð·
ÑģÐº Ð¸
ĠÐ¼Ð°ÐºÑģÐ¸ Ð¼Ð°
ÑĨÐ¸Ñı Ð¼
ĠÑĢÐ°ÑģÑģÐ¼Ð°ÑĤÑĢÐ¸ Ð²Ð°ÑĤÑĮ
ĠÐ¿ÑĢÐµÐ¸Ð¼ ÑĥÑīÐµ
ĠÐ½Ð° ÑĪÐµÐ¹
ÑģÑĤÐ° Ð²
ĠÐĵÐµÑĢÐ¼Ð° Ð½Ð¸Ð¸
ĠÐ¸Ð· Ð¾Ð±
ĠÑĢÐµÐ³Ð¸ Ð¾Ð½Ð¾Ð²
ĠÑģÐ¾ÑĨÐ¸ Ð¾Ð»Ð¾Ð³Ð¸Ð¸
ĠÐ¿ÑĢÐ¾ÑĦÐµ ÑģÑģ
ÑģÑĤÐ²ÐµÐ½ Ð½Ð°Ñı
ĠÐ²Ð¾Ð·Ð½Ð¸ÐºÐ° ÐµÑĤ
ĠÑģÑĤÑĢÑĥÐº ÑĤÑĥÑĢÐ°
ÐºÐ¾ Ðµ
ĠÑĢÐ°Ð· Ð¼ÐµÑĢ
ĠÑĩÐµ Ð³Ð¾
Ð·Ð¸ ÑĢÐ¾Ð²Ð°ÑĤÑĮ
ĠÐ¸Ð· Ð±Ð¸ÑĢÐ°
ĠÐ¾Ð´ Ð½Ð°
ĠÐ¢ ÐµÐ¼
ĠÐ¿Ð¾Ð¼ Ðµ
ĠÐ¿Ð¾Ð»ÑĮÐ· Ð¾Ð²Ð°
ĠÑģÑĤÑĢÐµ Ð¼Ð¸
ĠÑģÐ¾ÑģÑĤÐ°Ð²Ð»Ñı ÐµÑĤ
ĠÐºÐ°ÑĢ ÑĤÐ¸
ĠÑĦ ÑĢÐ°Ð½
ĠÐ¾Ð¿ Ð¸ÑĢÐ°
ÑģÑĤÐ¾ÑĢ Ð¾Ð½
ĠÐ¼Ð¾Ð´Ðµ Ð»ÐµÐ¹
Ð´Ð¸ Ñı
ĠÐ°ÑģÑģ Ð¾
ĠÐ¿Ð¾Ð´Ð´ÐµÑĢÐ¶ ÐºÐ¸
ĠÐ¿ÑĢÐ¾ ÑĤÐµ
Ð½Ð¸ Ð¼Ð¸
ĠÐ´ÑĢÑĥ Ð³Ð°
ĠÐ½ÐµÐ± Ð¾Ð»ÑĮÑĪ
ĠÐ¸Ð½Ð¸ÑĨÐ¸Ð° ÑĤÐ¸Ð²
Ð¸ ÑģÐºÐ°
ĠÑĢÐ°Ð·Ð²Ð¸ ÑĤÐ¸Ð¸
ÑĨÐµ ÑģÑģ
ĠÐ¿ÑĢÐ¾Ð¸Ñģ ÑħÐ¾Ð´
ĠÐ¸Ð¼Ð¿Ðµ ÑĢÐ°
ĠÑģÑĩÐ¸ÑĤÐ° ÑĤÑĮ
Ð¸ ÑĢÐ¸
ĠÐ¼ÑĥÐ¶ ÑĩÐ¸
ĠÑĨÐµÐ½ ÑĤ
Ð¾Ð± Ð¾ÑĢ
ĠÐ¸Ð½ Ð²Ð°Ð»Ð¸
ĠÐºÐ¾Ð½ ÑĤ
Ð¸Ð½ ÑĤÐµÑĢÐµÑģ
ĠÐ¾Ð±Ñĭ ÑĩÐ½Ð¾
ÑĦÐ¾ÑĢ Ð¼Ñĭ
Ð± ÐµÑĢ
Ð´ÐµÑĢ Ð¶Ð¸
ĠÐ´ Ð¾ÐºÐ°Ð·Ð°
Ð¾Ð²Ð°Ð½ Ð½ÑĭÑħ
ĠÐ³Ð¾Ð´ Ñĥ
ĠÐ³ÑĢÐ°Ð¶Ð´Ð°Ð½ ÑģÐºÐ¾Ð³Ð¾
ĠÐ¿Ð¾ÑģÐ»ÐµÐ´ Ð¾Ð²Ð°
Ð° Ð´
ĠÐºÐ¾Ð½ÑĨÐµÐ¿ ÑĨÐ¸Ð¸
ĠÐ± ÑĢÐ°
ĠÐ²Ð°Ð» ÑİÑĤ
Ð¾Ð±ÑĢÐ°Ð· Ð¾Ð²Ð°
ĠÐ½Ð°Ð¿ ÑĢÑı
Ð°Ð»ÑĮ Ð½Ð¾Ðµ
ĠÐ·Ð° ÑĤ
ĠÐ¸Ð½ÑĤÐµÑĢ Ð²ÑĮÑİ
ĠÐ¾Ð¿ÑĢÐµÐ´Ðµ Ð»Ð¸ÑĤÑĮ
ĠÑģÐ»Ð¾Ð²Ð° Ð¼Ð¸
ÑģÐ¸ Ð²
ĠÑĨÐµÐ½ Ð½Ð¾ÑģÑĤÐ¸
ĠÐ²ÑĭÐ´Ðµ Ð»Ð¸ÑĤÑĮ
Ð¾Ñģ Ð¾
ĠÑĨÐµ Ð»ÑıÑħ
Ðŀ Ð´
ĠÐ¿Ð°ÑĢÑĤ Ð½ÐµÑĢ
ĠÐ²Ð¾Ð· Ð²ÑĢÐ°
ĠÑĤ Ñı
ÐºÐ° Ñı
ĠÐł Ð°Ð·
ĠÑĢÐµ ÐºÐ¾Ð¼ÐµÐ½
ĠÐ²Ð¾Ñģ Ð¿ÑĢÐ¾
Ñĩ ÐµÐ½Ð¸Ð¹
ĠÐ¿ÐµÑĢÑģ Ð¾Ð½Ð°
ĠÐº Ð¾Ð´
ĠÑĥÐ´Ð¾Ð²Ð»ÐµÑĤ Ð²Ð¾ÑĢ
ĠÐ² Ð¼ÐµÑģÑĤÐµ
ĠÐ¶Ð¸Ð· Ð½ÐµÐ½
ĠÐ¿ÐµÑĢÐ² ÑĭÐ¹
ĠÐ¿Ð¾Ð»ÑĥÑĩÐ¸ ÑĤÑĮ
ĠÐĿÐ° Ð¿ÑĢÐ¸Ð¼ÐµÑĢ
ĠÐĽ Ð¸
ĠÐ¸Ð· Ð¼ÐµÐ½Ð¸
ĠÐ²Ñĭ ÑıÐ²Ð¸
ĠÐ¶Ðµ ÑģÑĤ
ĠÐ¼Ð» Ð½
ĠÐºÐ°ÑĤÐµÐ³Ð¾ ÑĢÐ¸
ÑĢÑĥ ÑİÑīÐ¸Ñħ
ĠÐĲ Ð»ÐµÐº
ĠÐ²ÑĭÑģÐ¾Ðº Ð¾Ð¹
ĠÐ²Ð»Ð° ÑģÑĤÑĮ
% ,
ĠÐ¿ÑĢÐ¾ ÐµÐºÑĤÐ¾Ð²
ÑĤÐ¸ ÐºÑĥ
ĠÐ¿Ð¾Ð´ ÑĩÐµÑĢÐºÐ¸
ĠÐ¼Ñĭ ÑĪ
ĠÐ¿Ð»Ð¾ ÑīÐ°
ĠÐ¾ÑĤ Ð´Ð°
ÑĤÑĥ ÑĢÐ¸
ÑĪ Ð¸Ð±
ĠÑĢÐ°Ð±Ð¾ÑĤ Ð°Ñħ
ĠÐ¿ÑĢÐ¾ÑĨÐµÑģÑģ Ñĭ
ÐµÐ½ Ð½Ð¾ÑģÑĤÑĮ
ĠÑĥ Ð»ÑĥÑĩ
Ð»Ñı ÐµÑĤ
Ð¶Ð° ÑĤÑĮ
ÑģÑĤÑĢÐ° Ð¸
ĠÐºÑĢÐ¸Ð· Ð¸Ñģ
ĠÑĢÐµ Ð¿ÑĢÐµ
ÑĤÐ¸ÑĩÐµÑģÐº Ð¾Ðµ
Ð·Ñĥ ÐµÑĤÑģÑı
ĠÐ¿ÑĢÐµÐ´Ð¾ÑģÑĤÐ° Ð²Ð»Ñı
ĠÐ´Ð¾ ÑĪÐºÐ¾Ð»ÑĮ
Ð¼Ñĭ Ð¼
ĠÐ¿ÑĢ Ñı
ĠÐ¿Ð¾Ð²Ñĭ ÑĪÐµÐ½Ð¸Ñı
ĠÐ´Ð¾Ð² Ð¾Ð»ÑĮÐ½Ð¾
ĠÐ¿ÑĢÐ¸ Ð²ÐµÐ´ÐµÐ½
ĠÐ¸Ð½ÑĤ ÐµÐ½ÑģÐ¸
ÑīÐ¸ Ð½Ñĭ
ĠÐ°Ð² ÑĤÐ¾ÑĢÑĭ
ĠÐ´ÐµÐ¹ÑģÑĤÐ² Ð¸Ðµ
ĠÐºÐ¾Ð¼ Ð¸
ÑĢÐ¾Ð²Ð°Ð½ Ð½Ð¾Ð³Ð¾
ĠÑĥÑĩÐµÐ½ ÑĭÑħ
ÑĤÑĭ Ð¹
ĠÐ¸Ð½ÑĦ ÑĢÐ°ÑģÑĤÑĢÑĥÐº
ĠÑĥÑĩÑĢÐµ Ð¶Ð´ÐµÐ½Ð¸Ð¹
ĠÐ»Ð¸ Ð´ÐµÑĢ
ĠÐ»Ð¸Ñĩ Ð½Ð¾ÑģÑĤ
ĠÑĥÐ½Ð¸ Ð²ÐµÑĢ
ÑģÑĤÐ² Ð¸Ð¹
ĠÐ¿ÑĢÐ°ÐºÑĤÐ¸ Ðº
ĠÐ¾ÑģÐ½Ð¾Ð² Ð½Ð¾Ð¹
ĠÐ´Ð¾ÐºÑĥ Ð¼ÐµÐ½ÑĤÐ°
ĠÐ· Ð²Ñĥ
ĠÐ¼ÐµÑĤ Ð¾Ð´Ð°
Ð¾ ÑĢÐ°Ð·
Ð»Ðµ Ð³
ĠÐ´Ð¸ÑĦÑĦ ÐµÑĢÐµÐ½
ĠÐ¾ÑĤ ÑĢÐ°Ð¶
ĠÐ¾ÑĤÐ½Ð¾ÑģÑı ÑĤÑģÑı
ĠÐŁ ÑĢÐ¾
ĠÑģ Ð±Ð¾ÑĢ
ĠÐķ Ð¡
ĠÐ´Ðµ Ð»Ð¾
Ð¼Ð¸ Ð¸
ĠÐ¸Ð½ÑĤÐµÐ»Ð»ÐµÐº ÑĤÑĥÐ°Ð»ÑĮ
ĠÐ²ÑĭÑı Ð²Ð»ÐµÐ½
ĠÑģÐºÐ°Ð·Ð° ÑĤÑĮ
ÑģÐ¿ Ð¾ÑģÐ¾Ð±
ĠÑĢÐ°Ð· Ð»Ð¸ÑĩÐ°
ĠÐ¾ÑĤÐ²ÐµÑĤ ÑģÑĤÐ²ÐµÐ½Ð½Ð¾ÑģÑĤÑĮ
ĠÐ¿ÑĢÐ¸Ð¾Ð± ÑĢÐµÑĤÐ°
ĠÐº Ð¸ÑĤÐ°
Ñī Ð¸Ð¼Ð¸
Ñģ Ð½Ð¾Ð¹
ĠÐ½Ð° ÐºÐ°Ð·Ð°
Ð»Ñı ÑĤÑĮ
ĠÐ²Ðµ ÐºÐ°
Ð¶ Ñĥ
ÐµÐ½ Ð½ÑĭÐ¹
ĠÐ¿ÑĢÐµ ÐºÑĢÐ°
ĠÐ¸Ð½ÑĤÐµÑĢÐµ ÑģÑĭ
ĠÑħ ÑĥÐ´
ĠÑĥÑĩÐ° ÑģÑĤÐ²
ÑĢÐ¾Ð²Ð° ÑĤÑĮÑģÑı
ĠÐ¿ÑĢÐµ Ð²Ñĭ
ĠÐ¸ Ñİ
ĠÐ¿ÑĢÐµÐ´Ð¿ÑĢÐ¸Ñı ÑĤÐ¸Ð¹
ĠÐ´Ð¾ÑħÐ¾Ð´ Ð¾Ð²
Ð¸ ÑĤÑĮÑģÑı
ĠÐ¸ÑģÑģÐ»ÐµÐ´Ð¾Ð²Ð° ÑĤÐµÐ»ÐµÐ¹
ĠÑģÐ¾Ð± Ð»Ñİ
ÑĤÐ¸ ÑĢÐ¾Ð²Ð°ÑĤÑĮ
ĠÐ¾ÑģÐ¾Ð±ÐµÐ½ Ð½Ð¾ÑģÑĤÐµÐ¹
ĠÑĪ Ð°
ĠÑģÑĥ Ð¼
ĠÑģÑĢÐµÐ´ Ð½ÐµÐ³Ð¾
ĠÐºÐ¾Ð¼ Ð¸Ñģ
ĠÑĥÑĩÐ¸ ÑĤÐµÐ»Ñı
Ð»ÑĮ Ð½ÑĥÑİ
ĠÐ¿ÑĢÐ¸ Ð¼ÐµÐ½Ð¸
ĠÑģÐ¾Ð¾ÑĤÐ²ÐµÑĤ ÑģÑĤÐ²ÐµÐ½Ð½Ð¾
ĠÐºÐ¾ÑĢ Ð¿Ñĥ
ĠÐºÑĢÐµÐ´ Ð¸ÑĤ
ÑĩÐ° ÑģÑĤÐ¸
ĠÐ¾ ÑĪÐ¸Ð±
Ð²ÑĪ ÐµÐ¹
ĠÐ½ÑĥÐ¶ Ð½Ð¾
ĠÑģ ÑĢÐµÐ´Ðµ
ĠÑģÐ¾ ÑİÐ·
ÑĪ Ð»Ð¸
ĠÑĦÐ¸Ð»Ð¾Ñģ Ð¾ÑĦ
ĠÐ¿Ð°Ð¼ ÑıÑĤ
ĠÐŁ Ð¾Ð»
ĠÐºÐ¾ ÑįÑĦÑĦÐ¸ÑĨÐ¸
Ð¾ ÑĤÐµ
Ð½ Ð¾Ð¿
ĠÐ¿Ð¾ÑĤÐµÐ½ ÑĨÐ¸Ð°Ð»ÑĮ
ĠÐ¿ÑĢÐµ Ð²ÑĢÐ°
ĠÐ°ÑĢ ÑħÐ¸
ĠÐ² ÑģÑı
ĠÐ²Ð¾Ð·Ð´ÐµÐ¹ÑģÑĤÐ² Ð¸Ñı
ĠÐºÐ°Ð¶Ð´ Ð¾Ð¹
ÑĨÐµ Ð¿
ÑĤÑĢ Ð¾Ð½
ĠÐ°Ðº ÑĤÐ¾Ð²
ĠÐ¿ÑĢÐ¸ ÑĩÐµÐ¼
Ð²Ñı Ð½
ĠÐ¼ÑĥÐ½Ð¸ ÑĨÐ¸Ð¿
Ð¼ Ð¾Ð¹
ĠÑĢÐ¸ Ñģ
ĠÑı Ð²Ð»ÐµÐ½Ð¸Ñı
ĠÐ´ ÐµÐº
ĠÑģÐ¿ÐµÑĨÐ¸Ð°Ð»Ð¸ ÑģÑĤÐ¾Ð²
Ñĥ ÐµÑĤÑģÑı
ĠÐ¿Ð¾ ÑģÑĤÐµÐ¿ÐµÐ½
ĠÐ¿Ð¾Ð»Ð¸ÑĤÐ¸ ÐºÐ°
Ð¶ ÐµÐ½Ð¸Ñİ
ÑīÐ° ÐµÑĤÑģÑı
ĠÑģÐº Ð»Ð¾Ð½
ĠÐ´Ð°Ð»ÑĮ Ð½ÐµÐ¹
ÑĩÐ° Ñģ
ĠÐ°Ð»ÑĮ ÑĤÐµÑĢÐ½Ð°
ĠÑĪÐºÐ¾Ð»ÑĮ Ð½Ð¸ÐºÐ¾Ð²
ĠÐ¿Ð¾Ð´ ÑĩÐ¸
Ñħ Ð¾Ð¶Ð´ÐµÐ½Ð¸Ñı
ĠÐ²Ð¾Ð¾Ð± ÑīÐµ
ÑĦÐ¾ÑĢ Ð¼ÑĥÐ»Ð¸
Ð»Ð¾Ð¶ ÐµÐ½Ð¸Ñı
ĠÐ²Ñĭ Ð½Ñĥ
ĠÐĴ Ð¾Ð·
ĠÑģÑĤÐ¾ Ð¸Ð¼Ð¾ÑģÑĤÐ¸
ÑīÐµ ÑģÑĤÐ²Ð¾
ĠÐ½ÐµÐ²Ð¾Ð·Ð¼Ð¾Ð¶ Ð½Ð¾
Ð» Ð¾Ð³
Ð²Ð° Ð»ÑģÑı
ĠÐ¾Ð±ÑīÐµ ÑģÑĤÐ²Ð¾
ĠÐ±Ð¾Ð»ÑĮÑĪÐ¸Ð½ ÑģÑĤÐ²Ðµ
ĠÑĤÐ¸ Ð¿Ð¾Ð²
ĠÐ·Ð° Ð²ÐµÑĢ
ĠÐŃ ÑĤÐ¸
Ñĩ ÐµÐ½Ð¸Ñİ
ÑĢÐ¸ Ð¼
ĠÐ²Ð·Ð° Ð¸Ð¼Ð¾
ĠÐºÐ»Ð°ÑģÑģ Ð°
Ð´ ÐµÐ½Ð¸Ðµ
ĠÐ¿ÑĢÐ¾ ÐµÐºÑĤ
ĠÐ´Ð¸Ñģ ÑĨÐ¸Ð¿Ð»Ð¸
Ð¾Ð¶Ð´ ÐµÐ½Ð¸Ðµ
ĠÐ¿ÑĢÐ¾ÑĤÑı Ð¶ÐµÐ½Ð¸Ð¸
Ð¸ Ð»Ð°
Ñĩ Ð½Ð°Ñı
Ð¾Ð¿ÑĢÐ¸ ÑıÑĤ
Ð² Ð¾Ð±
Ð°Ð»ÑĮ Ð½ÑĭÐ¼
Ð¾Ð²Ð° Ð»
ÑĢÐ¸ ÑĤÐ°
ĠÐĺ Ð¼ÐµÐ½Ð½Ð¾
ĠÐ½ÐµÐ¿Ð¾ÑģÑĢÐµÐ´ ÑģÑĤÐ²ÐµÐ½Ð½Ð¾
Ð½Ð° ÑĢ
ĠÐ¿ÑĢÐ¾Ð² Ð¾Ð´Ð¸
ÐŁ ÐµÑĢ
ĠÐ¡ ÑĤÐ°
ĠÐ½Ð°ÑĨÐ¸Ð¾Ð½Ð°Ð»ÑĮ Ð½ÑĭÑħ
ĠÐºÐ¾Ð½ ÑĤÐ°Ðº
ÐµÐ· ÑĥÐ»ÑĮÑĤÐ°
ĠÑģÐ°Ð¼ Ð¾Ð¹
ĠÐ²Ð¾Ð·Ð¼Ð¾Ð¶ Ð½Ð¾ÑģÑĤÐµÐ¹
ĠÐ¿ÑĢÐµÐ´ÑĥÑģ Ð¼Ð¾ÑĤÑĢÐµÐ½
ĠÐ¾ÑĤÐ²Ðµ ÑĩÐ°
ĠÑĥÐ³Ð¾Ð»Ð¾Ð² Ð½Ð¾Ð³Ð¾
ĠÑĦ Ð°
Ð°Ð»Ð° Ð½
ĠÐ°Ð²ÑĤ Ð¾Ð½Ð¾Ð¼
ĠÐ¿ÑĢÐ¸Ð½ÑĨÐ¸ Ð¿Ð¸
ĠÐ²Ð¾Ð¿ÑĢÐ¾Ñģ Ð°
ÑĨ Ð¾Ð²
ĠÐŀ Ð´
Ñħ Ñĥ
ĠÐ¿Ð°ÑĢ ÑĤÐ¸Ð¸
ĠÐ¿Ð°ÑĢ Ð»Ð°
ĠÐ½Ð°ÑĨÐ¸Ð¾Ð½Ð°Ð»ÑĮ Ð½Ð¾Ð¹
ĠÐ¿ÐµÑĢÐµ Ð²Ð¾Ð´Ð°
Ð¸ Ñİ
ĠÐ¿Ð¾ÑĢÑıÐ´ Ð¾Ðº
ÑĢÐ° Ð¼
ĠÑģÑĤÐ¸ Ð¼ÑĥÐ»Ð¸
ÑĢÐ° Ð±Ð°ÑĤÑĭ
Ð¸ Ð»Ð¸ÑģÑĮ
ĠÐ¡ Ð¸Ð±
ĠÑĢÐµÑģÐ¿Ð¾Ð½Ð´ÐµÐ½ ÑĤÐ¾Ð²
Ð¸ Ð»Ð¾
ĠÐ¸ÑģÑģÐ»ÐµÐ´Ð¾Ð²Ð°Ð½Ð¸Ñı Ñħ
ĠÑĨÐµÐ½ Ð½Ð¾ÑģÑĤ
ĠÐ¾Ð¿ÑĢÐµÐ´ÐµÐ»Ñı ÐµÑĤÑģÑı
ĠÑĥ ÑģÑĤ
ÑĢ Ð·
ĠÐ¼Ð° ÑĢÐº
ĠÑģÐ²Ð¾ ÐµÐ¼
ĠÐ´ÐµÑĤ Ð¸
ĠÐ¾Ð±ÑĥÑĩ ÐµÐ½Ð¸Ðµ
ĠÐ§ Ðµ
Ð½Ð°Ð»Ð¸ Ð·
ĠÐ¿Ð¾ÐºÐ°Ð·Ð° ÑĤÐµÐ»ÑĮ
ĠÑģÐ²ÑıÐ·Ð° Ð½Ð°
ĠÑĥÐ½Ð¸Ð²ÐµÑĢÑģÐ¸ÑĤÐµ ÑĤ
ÑĢ Ð¾ÑĤ
Ñĥ Ð¿ÑĢÐ°Ð²
ĠÐ¼ÐµÑģÑĤ Ð½Ð¾Ð³Ð¾
ÑģÑĤÐ² Ð¾Ð²Ð°Ð½Ð¸Ñı
ÑĪ Ð°Ñı
ĠÐ²Ð½ÐµÑĪ Ð½ÐµÐ¹
ÑĤÐ°Ðº ÑģÐ¸
ĠÑĦÐ¸ ÐºÑģÐ¸
ĠÐºÑĢÐ° ÑĤ
ĠÐ¼Ð¸ Ð³ÑĢÐ°Ð½
ĠÐ½Ðµ Ð¿ÑĢÐ¸
ĠÐ½Ð°ÑħÐ¾Ð´ Ð¸ÑĤÑģÑı
ĠÐ²Ðµ Ð»Ð¸ÑĩÐ¸
ĠÐ½ÐµÑģÐºÐ¾Ð»ÑĮ ÐºÐ¸Ñħ
ĠÐ·Ð° Ð¸Ð½ÑĤÐµÑĢÐµÑģ
ĠÐ±Ð»Ð°Ð³ Ð¾Ð´Ð°ÑĢÑı
ÑĥÑİ ÑīÐµÐµ
Ð¾ÑģÐ¿ Ð¾ÑģÐ¾Ð±
ĠÐĴ ÐĴ
ĠÐºÑĢÐ¸Ð· Ð¸ÑģÐ°
ĠÐ½ Ñĥ
ĠÐº Ð¾Ð¿
ĠÐ±Ð¸Ð· Ð½ÐµÑģ
Ð¾Ð¿ ÑĢÐ¾Ñģ
ÐµÑĤ Ð°
ĠÑįÐºÑģÐ¿ Ð¾ÑĢ
ĠÐ½Ðµ ÑĦ
ÐĴ ÑģÐµ
ĠÐ¸ ÐµÑĢÐ°
ĠÐ± Ð»Ð¸
ĠÑĢÐ¸ ÑģÐºÐ°
ĠÐľ Ñĭ
ĠÑģÐ²Ð¾ Ð¸Ð¼
ĠÑģÐ¸Ð¼ Ð²Ð¾Ð»
ĠÑģÑĤÑĥÐ´ÐµÐ½ ÑĤÑĭ
Ð° Ð´Ð°
ÑĤÐµÐ»ÑĮ ÑģÐºÐ¾Ð¹
ĠÑĢÑĥÑģ ÑģÐºÐ¾Ð¹
Ð¸ Ñĩ
ĠÐ¿ ÑĭÑĤÐ°
ĠÐ¾Ð±Ñī ÐµÐ½Ð¸Ñı
Ð²Ð° Ð»Ð°
Ð¸Ð± Ð¾Ð»ÑĮÑĪ
ĠÐ¾ÑĨÐµÐ½ ÐºÐ°
ÐµÐ½ Ð½Ð¾
ĠÐºÐ°ÑĩÐµ ÑģÑĤÐ²Ð¾
ĠÐ°Ð´ ÑĢÐµ
Ð± ÑĢÐ°Ð½
ĠÑĢÐ°Ð·Ð²Ð¸ Ð²Ð°
ĠÑĤÐµÑħÐ½ Ð¾Ð»Ð¾Ð³Ð¸Ð¸
ĠÐ¿ÑĢÐ¾Ð´Ð¾Ð» Ð¶Ð¸
Ð¡ Ð¾
ĠÐ¿Ð¾ÑĤÐµÐ½ÑĨÐ¸ Ð°Ð»
ĠÐ¸Ð½Ð²ÐµÑģÑĤÐ¸ ÑĨÐ¸Ð¹
ĠÐºÐ¾Ð½ÐºÑĢÐµÑĤ Ð½ÑĭÑħ
ĠÐ¿Ð¾Ð½Ð¸Ð¼Ð° Ð½Ð¸Ðµ
ĠÐ·Ð° Ð±
ĠÑģÑĤÐ¾ Ð¸ÑĤ
ÐµÐ¼ ÑĭÐ¼
ĠÑģ Ð¼Ñĭ
Ðŀ ÑģÐ½Ð¾Ð²
ĠÑģÑħ ÐµÐ¼
ĠÐ¸ÑģÐ¿ Ñĭ
ĠÑĢÐµ Ð¶Ð¸
ÑĤÑĢ Ð¾Ð¿
ĠÐ¸Ð½ Ð´ÐµÐº
ĠÐ³Ð»Ð°Ð³ Ð¾Ð»
ĠÑģ ÐµÑĤ
ĠÑĩÐ°ÑģÑĤÑĮ Ñİ
ĠÑĥ Ð¼ÐµÐ½ÑĮ
ĠÐ¾Ð± Ð¾Ð±
ĠÐ°Ð½Ð°Ð» Ð¾Ð³Ð¸
ĠÐ¾ÑĢÐ¸ ÐµÐ½ÑĤÐ°
; .
ÑĩÐ° ÑĤ
ĠÐºÐ¾Ð³ Ð½Ð¸
ĠÐ¿ÑĢÐ¾ ÑĦÐ¸
ÐŁÐ¾ ÑįÑĤÐ¾Ð¼Ñĥ
ĠÑģÐ»Ð¾Ð¶ Ð¸Ð²
ĠÑģÐ¿ÐµÑĨÐ¸ ÑĦÐ¸ÑĩÐµÑģÐº
ĠÐ¿ÐµÑĢÐ² Ð¾Ð³Ð¾
ĠÐ°Ð² ÑĤÐ¾Ð¼
ĠÐ±Ð¸Ð·Ð½Ðµ ÑģÐ°
ÑĦ Ð»ÐµÐº
ĠÐĲ Ð²
Ð¾Ð± Ð»Ð°Ð´Ð°
ĠÑģÐ¾ÑģÑĤÐ¾Ñı Ð½Ð¸Ñı
ĠÐºÑĢÐ°Ð¹ Ð½Ðµ
ĠÑģÐ»Ð¾Ð² Ð¾
ĠÐºÑĢÐµÑģÑĤÑĮ ÑıÐ½
Ð¿ Ð»Ð¸
ĠÐ²ÐºÐ»ÑİÑĩÐ° Ñı
ĠÐ¼ÐµÑĤÐ¾Ð´ Ñĭ
ĠÐ¾ÑģÐ½Ð¾Ð²Ð° Ð½
ĠÑģ ÑĢ
ĠÐ°Ð±ÑģÐ¾Ð» ÑİÑĤ
Ð°Ð½Ð´Ð¸ Ð´Ð°
ĠÐ¿ÑĢÐ¾ÑĦÐµÑģÑģÐ¸Ð¾Ð½Ð°Ð»ÑĮ Ð½ÑĭÑħ
ĠÐ²ÐºÐ»ÑİÑĩÐ° ÐµÑĤ
ĠÐºÐ¾Ð½ÑģÑĤÑĢÑĥÐº ÑĨÐ¸Ð¸
Ð¾Ð¶ Ð°
ĠÑĢÐ°ÑģÐº ÑĢÑĭ
ĠÐ¿ÑĢÐ°Ð²Ð¸ ÑĤÐµÐ»ÑĮÑģÑĤÐ²Ð°
ĠÑĨÐµÑĢ ÐºÐ¾Ð²
Ñī ÐµÐ½Ð¸Ð¸
ĠÐ¿Ð»Ð° ÑĤÑĭ
ĠÐ¶ ÑĥÑĢ
ĠÐ¾Ð±ÑīÐµ ÑģÑĤÐ²ÐµÐ½Ð½Ð¾Ð³Ð¾
ĠÐ² ÐµÐº
ĠÑĦ ÑĢÐ°
ĠÑģÑĤÑĢÐ°ÑĤÐµ Ð³Ð¸
Ñı Ð²Ð»
Ð»Ð° Ð¼
ĠÑĤÐµÐº ÑģÑĤ
Ð¹ Ð½
ĠÐ¿ÑĢÐ¸Ð½ÑĨÐ¸ Ð¿Ð¾Ð²
ÑģÑĤÐ²ÐµÐ½ Ð½Ð¾Ð¼
ĠÑģ ÑħÐ¾Ð´
Ð²ÑĪÐ¸Ñħ ÑģÑı
ÑīÐµ Ð³Ð¾ÑģÑı
Ñī Ñĥ
ĠÑĦÐ¸Ð½Ð°Ð½ÑģÐ¾Ð² ÑĭÑħ
Ð¾Ð³ÑĢÐ° ÑĦ
ÑĩÐµÐ½ Ð¾
ĠÐºÑĥÑĢ ÑģÐ°
Ð¾Ðº ÑĥÐ»ÑĮÑĤÑĥÑĢ
Ð½ ÐµÐ¼Ñĥ
ĠÐ¸Ð·ÑĥÑĩ ÐµÐ½Ð¸Ðµ
Ð²ÐµÐ´ ÐµÐ½Ð¸Ðµ
ĠÐ¼Ð° ÑĤÐµÐ¼Ð°
ĠÐ¾Ð±Ñģ ÑĥÐ¶Ð´Ð°
ĠÐºÐ¾Ð¼ Ð¼ÐµÑĢ
ĠÑħÐ°ÑĢÐ°ÐºÑĤÐµÑĢÐ¸ÑģÑĤÐ¸ Ðº
ĠÐ¿ÑĢÐµ Ð·Ð¸Ð´ÐµÐ½
ĠÐ¿Ð¾Ð¿Ñĥ Ð»ÑıÑĢ
ÑģÑĤÑĢÐ¾Ð¹ ÑģÑĤÐ²Ð°
ĠÐº ÑĢÐµÐ´Ð¸
ĠÑĦÐ°Ðº ÑĤÐ¾ÑĢ
ĠÑĦÑĥÐ½Ðº ÑĨÐ¸Ð¹
ĠÐ·Ð´Ð¾ÑĢÐ¾Ð² ÑĮÑı
ĠÐ¿Ð¾Ð½Ð¸Ð¼Ð° Ð½Ð¸Ñı
ĠÑģÐ¾ÑĨÐ¸ Ð°Ð»Ð¸
ĠÐ·Ð°Ð½Ñı ÑĤÐ¾ÑģÑĤÐ¸
ĠÑĤÐ¾Ð²Ð° ÑĢÐ¾Ð²
ĠÐ¿Ð¾Ð·Ð¸ ÑĨÐ¸Ð¹
Ð¢ ÐµÐ¼
ĠÐ´ÐµÑģÑıÑĤÐ¸ Ð»ÐµÑĤ
ÑģÑĤÐ² Ð¸Ð¸
ĠÑħÐ¾Ð·ÑıÐ¹ ÑģÑĤÐ²Ð°
ĠÑįÐºÐ¾Ð½Ð¾Ð¼Ð¸ ÐºÐµ
ÑĤÐ¸ ÑĢÑĥ
Ð²Ð° ÑĢÐ¸
ĠÐºÐ°Ð´ ÑĢÐ¾Ð²
ÑģÐ¾ Ð¾Ð±ÑĢÐ°Ð·
Ð¿ Ð¾Ð½
ĠÐ¾Ð´ Ð½Ð¾Ð¼
Ñĥ Ð»
ĠÐ³ÑĢÐ° Ð½Ð¸ÑĨ
Ð· ÑĮ
ÑīÐ° ÐµÑĤ
ÑĩÐµ Ð¼Ñĥ
Ñģ Ð½ÑĭÑħ
ĠÐ½Ðµ Ð·Ð½Ð°
ĠÐ¸ Ð´ÐµÐ¹
ĠÑĦÐµÐ½Ð¾Ð¼ ÐµÐ½
ĠÑģ ÑĦÐ¾ÑĢÐ¼ÑĥÐ»Ð¸
Ð¶ Ð½ÑĭÑħ
Ð² ÑĪÐµÐ³Ð¾
Ð¿ Ð¾Ð»ÑĮÐ·
ĠÐ¾ÑĤ ÐºÐ°Ð·Ð°
Ð½Ðµ ÑģÑĤÐ¸
Ð¾Ð¿ Ð¾ÑģÑĤÐ°
ÑĩÐµÑģÐº Ð¸Ð¼Ð¸
ĠÐ¸ÑģÐºÐ»ÑİÑĩÐ¸ ÑĤÐµÐ»ÑĮÐ½Ð¾
ĠÐ¿ÑĢÐµÐ´ÑģÑĤÐ°Ð²Ð»Ñı ÑİÑĤ
ĠÐ¾Ð±ÐµÑģÐ¿Ðµ ÑĩÐµÐ½Ð¸Ðµ
ÑģÑĤÐ²ÐµÐ½ Ð½ÑĥÑİ
ĠÐ¸Ð½ÑĦÐ¾ÑĢÐ¼Ð° ÑĨÐ¸Ñİ
ÑĩÐ°ÑģÑĤ ÑĥÑİ
ĠÐ½Ð°Ð²Ñĭ ÐºÐ¾Ð²
ĠÐ¸Ð¼Ð¿Ðµ ÑĢÐ¸Ð¸
ĠÑĥÐ½Ð¸Ð²ÐµÑĢÑģÐ¸ÑĤÐµ ÑĤÐ¾Ð²
ĠÑĩ ÑĢÐµÐ·
ĠÑįÑĦÑĦÐµÐºÑĤÐ¸Ð² Ð½Ð¾ÑģÑĤÑĮ
ĠÑĥ ÑĢ
ĠÐĺÐ½ ÑĤÐµÑĢ
Ġ/ /
ÑĨÐ¸Ð¾Ð½ Ð½Ð°Ñı
ĠÐĲ ÑĢ
ĠÐ¾ÑĢÐ³Ð° Ð½Ñĭ
ĠÑĥÑĩÐ¸ÑĤÑĭ Ð²Ð°ÑĤÑĮ
ĠÑģÐ¿ÑĢÐ°Ð²ÐµÐ´ Ð»Ð¸Ð²Ð¾
Ð· Ð¾ÑĢ
ĠÐ°Ð² ÑĤÐ¾ÑĢÐ°
ĠÐº Ð°Ð½Ð´Ð¸Ð´Ð°
ĠÑĤÐ° Ð±Ð»
ĠÐ°Ð² ÑĤÐ¾ÑĢÐ¾Ð²
ĠÐ²Ð¾Ð·ÑĢÐ° ÑģÑĤÐµ
ĠÐ´Ð¾ÑģÑĤÐ¸ Ð³
ĠÐķÐ²ÑĢÐ¾Ð¿ Ñĭ
ĠÑģÐ»Ñĥ Ð¶Ð¸
ĠÐ»Ð¸ Ð±ÐµÑĢÐ°
ĠÐ¼Ðµ ÑģÑĤÐµ
ĠÑģÑĤÑĢÑĥÐº ÑĤÑĥÑĢÐµ
Ð¿Ñĥ ÑĤÐ°
ÑĤ Ð¾Ð³Ð¾
ĠÐº Ð½Ñı
.. .
ĠÐķ Ð²ÑĢÐ¾Ð¿ÐµÐ¹
Ð¸Ð½ Ð³
ĠÑģÑĤÐ°Ð½Ð¾Ð² ÑıÑĤÑģÑı
ĠÑģÐ¼ÑĭÑģ Ð»
ĠÐ¿Ð¾Ð» Ðµ
ĠÐ²Ñĭ Ð´Ð°
ĠÑĢÐµÐ³Ð¸ Ð¾Ð½Ðµ
ĠÐ¸Ð·Ð¼ÐµÐ½ ÐµÐ½Ð¸Ðµ
ĠÐ´Ð¾Ð¼ Ð¸Ð½Ð¸
ĠÑģÐ¾Ð¾Ð± ÑīÐµÑģÑĤÐ²
ĠÐ¿ÐµÑĢÐ² ÑĭÑħ
ĠÐ¾Ð¿ÑĢÐµÐ´ÐµÐ»ÐµÐ½ Ð½Ð¾Ð¹
ÑģÑĤÐ²ÐµÐ½ Ð½ÑĭÐ¼Ð¸
ÑĢÐ¾Ñģ Ð¾Ð²
ĠÐ¿Ð¾Ð½Ñı ÑĤÐ¸Ðµ
ĠÐ¿ÑĢÐ°Ð²Ð¸ Ð»
ĠÐ³Ð¾Ð» Ð¾Ñģ
ĠÐ¸Ð½ÑģÑĤÑĢÑĥ Ð¼ÐµÐ½ÑĤÐ°
ĠÐ¡ Ð»ÐµÐ´
ĠÐĶ Ðµ
ĠÐ¿Ð¾ ÑıÐ²Ð¸
ĠÐ¾Ð¿ÑĢÐµÐ´Ðµ Ð»ÐµÐ½Ð¸Ðµ
Ð¾Ð²Ð° Ð½Ñĭ
ĠÐ½Ðµ Ðµ
ÐŁ Ðµ
Ð´Ð¸ Ð½
ĠÐ³ÑĢÐ° Ð½Ð¸ÑĨÑĭ
ĠÐ¾ÑģÑĥÑīÐµÑģÑĤÐ² Ð»ÐµÐ½Ð¸Ñı
ĠÐ½Ð°Ð±Ð»ÑİÐ´Ð° ÐµÑĤÑģÑı
ĠÑģÐ¾Ð²ÑĢÐµÐ¼ÐµÐ½ Ð½Ð¾Ð³Ð¾
ÐµÑĢ ÑĪÐµÐ½
ĠÑħÐ¾ÑĢÐ¾ÑĪ Ð¾
Ð¾ÑģÑĥ Ð´Ð°
ĠÐ¾Ð±ÐµÑģÐ¿ÐµÑĩÐ¸ ÑĤÑĮ
Ð½Ð¸ ÑĤÐ°ÑĢ
ĠÐ¾Ð±ÑĢÐ°Ð· Ð¾Ð²
Ð¿ Ð»Ð¾Ð¼
ĠÐ¡Ðµ Ð²ÐµÑĢ
ĠÑĥÐ¿ Ð¾Ð¼Ð¸Ð½Ð°
ÑĤÐµÑħ Ð½Ð¸
Ð¾Ð»Ð¾Ð³Ð¸ÑĩÐµÑģÐº Ð¸Ð¹
ĠÑĤÑĢÐ°Ð´Ð¸ ÑĨÐ¸Ð¸
ĠÑĥ Ð²ÐµÑĢ
ĠÐ¾ÑĨÐµÐ½ ÐºÐµ
ĠÐ¿Ð¾Ð» ÐµÐ·
ÑĩÐµ Ð²Ð¸Ð´
ĠÑı ÑĢ
ĠÐ½Ð°Ðº Ð¾Ð¿
ĠÐ¾Ð¿Ð¸ÑģÐ° Ð½Ð¸Ñı
ĠÐ¿ÑĢÐ¾Ð³ÑĢÐ°Ð¼ Ð¼Ð°
ĠÐ¸ÑģÑģÐ»ÐµÐ´Ð¾Ð²Ð° ÑĤÐµÐ»Ð¸
ĠÑįÑĦÑĦ ÐµÐºÑĤ
ĠÐĴÐĴ ÐŁ
ĠÐ¦ ÐµÐ½
ĠÐĿ Ð¾Ð²
ĠÑģÐ¾Ð¾ÑĤÐ²ÐµÑĤÑģÑĤÐ² ÑĥÑİÑīÐ¸Ñħ
ĠÑģÐ¾ÑģÑĤÐ¾Ñı Ð½Ð¸Ðµ
ĠÐ¿Ð»Ð° Ð½
ĠÐ¿ÑĢÐ¾Ð³ ÑĢÐµ
ĠÑĦÑĢÐ°Ð½ ÑĨÑĥÐ·
ĠÐĴÐµ Ð»Ð¸Ðº
ĠÐ·Ð°ÑĢÐ°Ð±Ð¾ÑĤ Ð½Ð¾Ð¹
ĠÐ¾ ÑĦÐ¾ÑĢÐ¼
ÑĢÐ¾Ð² ÐºÐ¸
ÑīÐ¸Ðµ ÑģÑı
ĠÐ¼ÐµÑħÐ°Ð½Ð¸Ð· Ð¼
ĠÐ¼ÐµÑħÐ°Ð½Ð¸Ð· Ð¼Ð°
ÐµÐ½ Ð½ÑĭÐ¼
Ð° Ð²
ĠÑģÐ¾ÑħÑĢÐ°Ð½ Ñı
Ð¸Ð½ Ñĥ
ĠÑĤ Ñĭ
ÑģÑĤÑĢÑĥ Ð¸
ĠÑĢÐ°Ñģ ÑĩÐµÑĤ
ĠÐ²Ð°Ð¶ Ð½ÑĭÐ¼
ĠÐ¿ÑĢÐ°ÐºÑĤÐ¸ ÐºÐ°
ĠÐ¿ÑĢÐ¾ÑģÑĤÑĢÐ°Ð½ ÑģÑĤÐ²Ð¾
ĠÐ¾Ñħ ÑĢÐ°
ĠÐ½Ð°Ð»Ð¸ÑĩÐ¸ Ð¸
ÑĪ ÐºÐ¸
ĠÑģÑĥ ÑĤÐ¸
ĠÐ¿ÑĢÐµÐ´ÑĥÑģ Ð¼Ð°ÑĤÑĢÐ¸
ĠÐ¿ÑĢÐ¾ÑĨÐµÑģÑģ Ñĥ
ĠÐ¸Ð¼Ðµ Ð»Ð¸
ÑĢÐ°Ð±Ð¾ÑĤ ÐºÐ¸
ĠÐ± Ð¾Ð³Ð°
Ð´ Ð¾Ð¼
ĠÐ¿ÑĢÐ¸Ð½ÑĨÐ¸ Ð¿Ñĭ
ĠÐ½Ð° Ð¼ÐµÑĢ
ĠÑĤÑĢÐµÐ± Ð¾Ð²Ð°Ð½Ð¸Ð¹
Ð¾Ð²Ð° Ð»Ð¾
ĠÑģÐ¸ÑĤÑĥÐ° ÑĨÐ¸Ñİ
ĠÐ¿ÑĢÐµ Ð¾Ð±ÑĢÐ°Ð·
ĠÐ¿ÑĢÐµÐ´ ÑĪÐµ
Ð½Ð¾ Ñģ
ĠÐ²Ð¾Ð¿ ÑĢ
ÐµÐ¼ Ð°Ñı
ÑĤÐ¸Ð² Ð½Ð¾ÑģÑĤÑĮ
ÑĥÑģÐ»Ð¾Ð² Ð½Ð¾
ĠÑĤÐ¾ÑĢÐ³Ð¾Ð² Ð»Ð¸
Ð¸ Ð»Ð¾ÑģÑĮ
ĠÐ¿ÐµÑĢÐ² Ð¾Ð¼
ĠÐ¼ÐµÐ¶Ð´ÑĥÐ½Ð°ÑĢÐ¾Ð´ Ð½Ð¾Ð³Ð¾
Ðº Ð¾ÑĢ
ÐŁ ÑĢÐ¾
Ð¾Ð²Ð° Ð½Ð¸Ð¸
ĠÐºÐ¾Ð¼Ð¿ ÑĮÑİ
ÑĤ Ñı
ĠÐ°Ð½Ð³ Ð»Ð¸Ð¹
ÑĢÐ¾Ð²Ð° Ð»
ĠÑģÐ»Ñĥ Ð¶Ð°
ĠÑģÑĤÐ° Ð²Ð¸
ĠÐ³ÐµÐ½ ÐµÑĢÐ°
ĠÐ¸Ð½ÑĤÐµ Ð³ÑĢÐ°
ÐŁ Ðļ
ĠÑį Ð¼Ð¸
ÑĦÐµÑģÑģÐ¸ Ð¾Ð½Ð°Ð»ÑĮ
Ð´Ð¸ ÑĤ
ĠÐ±Ñĥ Ð¼Ð°
ÑĬ ÐµÐ¼
ĠÑģ ÑĨÐµÐ½
Ð½Ð° ÑĩÐµ
ĠÐ·Ð° Ð¼Ðµ
ĠÐ¼Ðµ ÑģÑı
ÑĨÐ¸Ð¾Ð½ Ð½ÑĭÐ¼
ĠÐ¿Ð¾Ð² ÑĤÐ¾ÑĢ
ĠÑģÐ»Ð° Ð±
ĠÑįÐºÑģÐ¿ÐµÑĢÐ¸ Ð¼ÐµÐ½ÑĤÐ°
ĠÑĦÑĥÐ½ÐºÑĨÐ¸Ð¾Ð½Ð¸ ÑĢÐ¾Ð²Ð°Ð½Ð¸Ñı
ĠÑģÑĤ Ð¾Ð»ÑĮ
ĠÑįÐ»ÐµÐ¼ ÐµÐ½ÑĤÑĭ
ĠÑĦÐ°Ðº ÑĤÐ¸ÑĩÐµÑģÐºÐ¸
Ð¼ ÑĭÑħ
ĠÐ¶ Ð°Ð½
Ð¾ ÑĨÐµÐ½
Ð´Ð° ÑĨÐ¸Ð¸
ÑģÑĤÐ² Ð¸ÐµÐ¼
ĠÑĢÐ°ÑģÑģÐ¼Ð°ÑĤÑĢÐ¸ Ð²Ð°ÐµÑĤÑģÑı
ĠÐ¾Ð¿ÑĢÐµÐ´ÐµÐ»ÐµÐ½ Ð½ÑĭÑħ
ĠÐ¿Ð¾Ð» Ñı
ÑĪ ÐµÐ¼
ĠÑĦÑĥÐ½ Ð´Ð°
ĠÐ¾ÑĨÐµÐ½Ð¸ ÑĤÑĮ
ĠÐ¸Ð½Ð¾ÑģÑĤÑĢÐ°Ð½ Ð½ÑĭÑħ
ĠÐ¿ÑĢÐ¸Ð½Ð°Ð´Ð»Ðµ Ð¶
Ð¾Ðµ Ð´Ð¸
ĠÐ¸Ð¼ Ð¿Ð¾ÑĢ
ĠÐ¿ÑĢÐ¾Ð±Ð»ÐµÐ¼ Ñĥ
ĠÐ¿Ð¾Ð» Ð½Ð¾Ð¹
ĠÑĦÐ¾ÑĢ Ð¼ÑĥÐ»Ð¸
ĠÐ·Ð° Ð²Ð¸
ĠÐ° Ð´ÐµÐº
Ð¾Ñģ Ñĭ
Ð¾ Ñı
ÑģÐ° Ð¼Ð¸
Ð³Ð¸ Ð½Ð°
ĠÑĦ Ð¸ÑĢ
ÐµÑĢ Ð²Ð°
ĠÐ¸ ÑģÐºÐ°
ĠÐ½ ÑĥÐ¶Ð´Ð°
Ð²Ð° ÑİÑīÐ¸Ðµ
ĠÐ¸Ð´ÐµÐ½ÑĤÐ¸Ñĩ Ð½Ð¾ÑģÑĤÐ¸
ĠÐ·Ð½Ð°Ñĩ ÐµÐ½Ð¸Ð¹
Ð³ Ð¾ÑģÑĥÐ´Ð°ÑĢ
ĠÐ¿ÑĢÐµÐ´ÑģÑĤÐ° Ð²Ð»ÐµÐ½Ð¸Ðµ
ÑĪ ÐµÐ½Ð¸ÐµÐ¼
ĠÐ½Ð°ÑĥÑĩ Ð½Ð¾Ð³Ð¾
ĠÐŀ ÑģÐ½Ð¾Ð²
ÑĢÐµÐ´ ÐºÐ¾
ÐºÐ¸ Ð¼Ð¸
ĠÐ²Ð¾Ð¿ÑĢÐ¾Ñģ Ð°Ð¼
Ð· ÐµÐ½ÑĤÐ°
ÑĢ Ð´
Ðº ÑĥÐ»ÑĮÑĤÑĥÑĢ
Ð½Ñİ Ñİ
ĠÐ¿Ð¾Ð» Ð½Ð¾
Ð´Ðµ Ð»ÑĮ
ĠÐºÐ¾Ð¼Ð¿ÐµÑĤ ÐµÐ½ÑĤ
ĠÐ²Ð¾Ñģ ÑģÑĤÐ°Ð½Ð¾Ð²
ÑĤÐ¸ Ð·Ð°ÑĨÐ¸Ð¸
ĠÐ¿ÑĢÐµÐ´ Ñĭ
ĠÐ½Ð° Ð¹ÑĤÐ¸
ĠÑĪ ÑĤÐ°
ĠÐºÐ¾Ð»Ð¸ÑĩÐµ ÑģÑĤÐ²Ð°
ÑģÑĤÑĥÐ¿ Ð»ÐµÐ½Ð¸Ñı
ĠÑģ ÐµÐ¹
ÐµÐ½ ÑĤÐ¾Ð¼
ĠÐ´ÑĢÑĥÐ³ Ð¸Ð¼
ĠÐ·Ð°ÑĤ ÑĢÑĥÐ´
ĠÐ¸ Ð½ÑĭÐµ
Ð² ÑĭÐ¹
ĠÐ¸Ð½Ð´Ð¸Ð²Ð¸ Ð´Ð°
ĠÑĢÐ°ÑģÐ¿Ð¾Ð» Ð¾Ð¶
ĠÐ³ Ð°Ð·
Ð¿Ð° ÑĢ
ĠÑĢÐ°ÑģÑģÐ¼Ð¾ÑĤ ÑĢÐµÐ½
ĠÐ¸ÑĤÐ¾Ð³ Ðµ
ĠÐ¾Ð±Ñī Ð¸Ñħ
ĠÐ¾ÑģÐ½Ð¾Ð² Ñĥ
Ð¸ Ð»ÑĮ
Ð» Ð»Ð¸
ĠÑĥÐ¿ÑĢÐ°Ð² Ð»ÐµÐ½
ĠÐºÐ¾Ð´ ÐµÐº
ĠÑĤÐ°Ðº Ð°Ñı
ÑĦÑĦ ÐµÐºÑĤÐ¸Ð²
ĠÑĥÐ½Ð¸Ð²ÐµÑĢ Ñģ
ĠÑĥ ÑĤÑĢÐ°
ĠÐ¿ÑĢÐµÐ´ Ð¸ÐºÐ°
ĠÑĢÐ°Ð±Ð¾ÑĤ Ð¾Ð´Ð°
ĠÑįÑĤÐ° Ð¿Ð°
ÑĢÐµ Ð´Ð°
ÑĤ ÐºÐ¸
Ð°Ð»ÑĮ Ð½Ð°Ñı
ĠÐ¾ÑĤÑĢÐ° ÑģÐ»Ð¸
Ð½Ð¾ÑģÑĤ ÑıÑħ
Ð² Ð¾ÑĢÐ¸
ĠÐ³Ð»ÑĥÐ± Ð¾Ðº
ĠÑģÐ² ÐµÐ´ÐµÐ½Ð¸Ñı
ĠÐºÐ¾ÑĤÐ¾ÑĢ ÑĭÐ¼Ð¸
Ð¾Ð½Ð¸ ÑĤÐ¾ÑĢÐ¸
Ð² Ð¾ÐºÐ°
ĠÑĢÐµÑģÑĥÑĢ ÑģÑĭ
ĠÐ¼Ð¾Ð¶ ÐµÐ¼
ÑĢÐ°Ð² Ð¾
ÑĦÐ¸ÐºÐ° ÑĨÐ¸Ñı
Ð³ Ð½Ð¾ÑģÑĤÐ¸
ĠÐ·Ð° Ð²ÐµÐ´
ĠÑģÐº Ð¾Ð»ÑĮÐºÐ¾
ĠÐ½ÐµÑĢÐ°Ð² ÐµÐ½
ĠÑĢÐµÐ²Ð¾Ð»Ñİ ÑĨÐ¸Ð¸
ĠÐ¿Ð¾ ÑıÐ²Ð»Ñı
ĠÐ²Ð¸ Ð´Ñĭ
ĠÑģÐ¾Ð¿ÑĢÐ¾Ð² Ð¾Ð¶Ð´Ð°
ĠÐĽ Ðµ
ĠÑģÑĢÐµÐ´ Ð½ÐµÐ¼
Ðĵ ÐŃ
ĠÐ¸ÑģÐ¿Ð¾Ð»ÑĮÐ·Ñĥ ÐµÑĤÑģÑı
ĠÑĦÐ¸Ð½Ð°Ð½ÑģÐ¸ ÑĢÐ¾Ð²Ð°Ð½Ð¸Ñı
ĠÐº ÑĢÐ¾Ð¼Ðµ
ĠÐ¿Ð¾Ð´Ð´ÐµÑĢ Ð¶Ð°
ÑĤ Ð½Ð¾ÑģÑĤÐ¸
ÑĢÐ¾Ð²Ð° Ð½Ð°
Ð»Ñı ÑİÑĤÑģÑı
ĠÑģÐ°Ð¼ ÑĭÑħ
Ñī ÐµÐ½Ð¸Ð¹
ĠÐ¿Ð¾ÑģÑĤÐ¾ÑıÐ½ Ð½Ð¾
Ñĳ Ð½
ĠÑģÐµ ÑĢÐµÐ´Ð¸
ĠÐ¾ÑģÑĥÑīÐµÑģÑĤÐ²Ð»Ñı ÐµÑĤÑģÑı
Ð¶ ÐµÐ¹
ĠÐºÐ¾ÑĤ ÑĢ
ĠÑģÐ°Ð¼ Ð¾Ð¼
ĠÐ¿Ð¾Ð²Ñĭ ÑĪÐµÐ½Ð¸Ðµ
ĠÐ¿ÑĢÐ¾ÑģÑĤÑĢÐ°Ð½ ÑģÑĤÐ²Ðµ
ĠÐº ÑĤÐ¾ÑĢ
Ð³ ÐµÑĢ
ĠÑĨÐµ Ð»
ĠÐ¿ÐµÑĢ ÑĦ
Ð¸Ð± Ð»Ð¸
ĠÐŃ ÑĤÐ¾ÑĤ
ĠÐ¸Ð½ÑģÑĤÐ¸ÑĤÑĥ ÑĤÐ°
ĠÐ¿Ð¾Ð»Ð¸ÑĤÐ¸ÑĩÐµÑģÐº Ð¸Ðµ
ĠÐ²Ñĭ Ð³Ð¾Ð´
ÑĪÐµ Ð»
ĠÐºÐ¸ÑĤÐ° Ð¹
ĠÐ·Ð°ÐºÐ¾Ð½Ð¾Ð¼ ÐµÑĢ
ĠÐ½ÐµÐ¾Ð´ Ð½
ĠÑĦÑĥÐ½Ðº ÑĨÐ¸Ð¾Ð½Ð°Ð»ÑĮ
Ð» Ð»Ðµ
ĠÑĨÐµ Ð»Ð¾
ĠÐ·Ð½Ð° ÐºÐ¾Ð¼
ÑĢÐ¾Ð² Ð¾Ð¹
ĠÐļ ÑĢÐ°
ĠÑĤÐ°Ðº Ð¾Ð¼
ĠÐ¿ÑĢÐµÐ¿ ÑıÑĤ
ĠÐ¾Ð±ÑģÑĤÐ¾ÑıÑĤÐµÐ»ÑĮ ÑģÑĤÐ²Ð°
ĠÑģÐµÐº ÑĤÐ¾ÑĢÐ°
ĠÑģÐ° Ð¼Ð°
ĠÑģÐ½Ð¸ Ð¶Ð°
ĠÑĤ Ð¾Ð¿
ĠÑĢÐµ ÑĦÐ¾ÑĢÐ¼Ñĭ
ĠÐ¿ÐµÐ´Ð°Ð³ Ð¾Ð³Ð¾Ð²
ĠÐ¿Ð¾ÐºÐ°Ð·ÑĭÐ²Ð° ÑİÑĤ
Ð¼ÐµÐ½ ÑĤÐ¾Ð¼
ĠÐ¸Ð³ ÑĢÑĭ
ĠÐ¡ Ð°
ĠÐ²ÑĭÐ½Ñĥ Ð¶Ð´ÐµÐ½
Ñı ÑĤÐ¸Ðµ
ĠÐĵ Ð¾ÑģÑĥÐ´Ð°ÑĢ
ĠÐ¿Ð¾Ð´ÑĢÐ¾ÑģÑĤ ÐºÐ¾Ð²
Ð¾Ð² Ðµ
ĠÐ» Ð¾Ðº
ÐµÐ· Ð´
Ð½Ð¸ Ð½Ð°
ĠÑģÐ¾Ð²ÐµÑĤ ÑģÐºÐ¾Ð¹
ĠÐ¾Ñģ Ð¼ÑĭÑģ
ĠÑģÐ¼Ñĭ ÑģÐ»Ð¾Ð²
Ð² Ð¾ÑĢÑı
Ð¾Ð¿Ð¾Ð» Ð¾Ð¶
ĠÐ¸ Ð»
ĠÐ¿Ð¾ÐºÐ°Ð·Ð° ÑĤÐµÐ»Ñı
ÑĪÐµÐ½ Ð½ÑĭÑħ
ĠÐºÐ°Ðº Ð¸Ñħ
Ð½ Ð²Ð°
Ð»Ð¸ ÑĪ
ĠÐºÑĢÑĥÐ¿ Ð½ÑĭÑħ
ĠÑĥ Ð´
ĠÑĢÐµÐ¶Ð¸ Ð¼Ð°
Ðľ Ñĭ
ĠÐ¸Ð½ Ð´Ñĥ
ĠÑģ Ð»Ð¾
ĠÐ¾Ð¿ÑĢÐµÐ´ÐµÐ»Ñı ÐµÑĤ
ĠÐ¾ÑĤÐ½Ð¾ÑģÐ¸ ÑĤÑģÑı
Ð¿ ÑĢ
ĠÐľ Ð°ÑĢ
ĠÑĢÑı Ð´Ðµ
ĠÐ³ ÑĥÐ¼Ð°
Ð°Ð»ÑĮ Ð½Ð¾Ð¼
ĠÐ¿Ð¸ÑģÑĮ Ð¼ÐµÐ½
ÑĢÐµ Ð³Ð¸
ÑģÑģÐ»ÐµÐ´ Ð¾Ð²Ð°
ÑĤÐ¸ Ð·Ð¸
ĠÐ°ÑģÑģÐ¾ ÑĨÐ¸Ð°
Ð¾Ð¿ÑĢÐ¾ Ð¸Ð·Ð²Ð¾Ð´
ĠÑĦÐ¸Ð½Ð°Ð½ÑģÐ¾Ð² Ð¾Ð¹
ĠÐ¿Ð¾ÑĢÑıÐ´ ÐºÐµ
ĠÐ¿Ð»Ð° ÑĤÐµ
ĠÐ½Ðµ ÑģÐ¾Ð²
ĠÐ½Ð°ÑĢ Ð¾Ð´Ð°
Ðµ Ð²Ð°
ÑĢÑı Ð´Ñĥ
ĠÐ´Ð° Ð»Ðµ
Ð¶ ÐµÑĤÑģÑı
ÑĢÐ¾Ð²Ð° Ð½Ð¾
ĠÐ´Ð¾ÐºÑĥ Ð¼ÐµÐ½ÑĤÐ¾Ð²
ĠÑģÐ¾Ð³Ð»Ð° ÑģÐ¸
ĠÐĴ Ð°
Ð½Ð¸Ñı Ð¼Ð¸
ĠÐ½Ðµ Ð¾Ð¿ÑĢÐµÐ´Ðµ
ĠÐ²ÑĭÐ¿ÑĥÑģÐº Ð½Ð¸ÐºÐ¾Ð²
ĠÑĢ Ð¾
ĠÐ²Ñĭ Ð¿Ð»Ð°
ĠÐ¼Ð½Ð¾Ð³Ð¾ ÑĩÐ¸Ñģ
ÐĴ Ð°Ð¶
ĠÐ¸Ð½ÑĤÐµÐ½ÑģÐ¸ Ð²
ĠÐ¿ÑĢÐµÐ´Ñĭ Ð´Ñĥ
Ð²Ð° Ð»Ð¾
ĠÑģÐ¾ÑģÑĤÐ°Ð²Ð»Ñı ÑİÑĤ
Ñĩ Ð½Ð¾ÑģÑĤÐ¸
ĠÐ¸Ð½ÑĤÐµ Ð³ÑĢÐ°ÑĨÐ¸Ð¸
ÑĨÐ° Ð¼Ð¸
ĠÐ¿Ð¾Ð² Ðµ
ĠÐ¾ ÑĢÐ°Ð·
ĠÐ´Ð¸ Ð¿Ð»Ð¾Ð¼
ĠÐ¾Ñħ Ð²Ð°
ĠÑĦÑĢÐ° Ð³
ĠÑĢÐµÐ³Ð¸Ð¾Ð½Ð° Ñħ
ĠÐºÐ¾Ð½ÑĤ ÑĢÐ°Ðº
ĠÐ¿ÑĢÐµÐ¸Ð¼ÑĥÑīÐµ ÑģÑĤÐ²ÐµÐ½Ð½Ð¾
ĠÐ»Ð¸ÑĤÐµÑĢÐ° ÑĤÑĥÑĢ
ĠÐ½Ðµ Ð¾Ð±
ĠÐ±Ð¾ÑĢÑĮ Ð±Ñĭ
ÑĤÐ¸Ð² Ð½ÑĭÐ¼Ð¸
Ð»ÐµÐ½ Ð½ÑĭÐ¹
ĠÑĢÐ° ÑĨÐ¸Ð¾Ð½Ð°Ð»ÑĮ
ĠÐ½Ð°ÑĢÑĥ ÑĪÐµÐ½Ð¸Ñı
ĠÑģÐ¸Ð½ ÑĤÐ°ÐºÑģÐ¸
ĠÐ³Ð»Ð°Ð² Ð½ÑĭÐ¼
ÑĢÐ¸ ÑĤ
ĠÑģÐ¿Ð¾ÑģÐ¾Ð± Ð¾Ð²
ĠÐ¸Ð´ÐµÐ½ ÑĤÐ¸
ĠÐºÐ¾Ð½ÑĤÐµÐº ÑģÑĤÐ°
ĠÐ¿ÑĢÐ¾ ÑģÑĤ
Ðº Ð¾Ð²Ð°
ĠÐ·Ð° ÑģÐµÐ´Ð°
ĠÐ³ÑĢÐ° Ð¼Ð¾ÑĤ
ĠÐ»ÑİÐ± Ð¾Ð¹
ĠÐ¼Ð¾Ð»Ð¾Ð´ ÑĭÑħ
ĠÐķ ÐĵÐŃ
ĠÐ¾Ð±Ð»Ð° ÑģÑĤ
ĠÐ´ÐµÐ»Ð° ÐµÑĤ
ĠÐ²Ð·Ð°Ð¸Ð¼Ð¾Ð´ÐµÐ¹ÑģÑĤÐ² Ð¸Ðµ
ĠÐ± ÐµÐ´
ÐµÐº ÑĤÐµ
ĠÐ¾Ð±ÑĢÐ°Ð·Ð¾Ð²Ð° Ð½Ð¸Ð¸
Ð½Ð¾Ð² ÑĮ
ĠÐ¸Ð·Ð²ÐµÑģÑĤ Ð½Ð¾
Ñģ Ð½Ð¾Ð³Ð¾
ĠÐ¿Ð¾Ð·Ð¸ ÑĨÐ¸Ñİ
ĠÐ·Ð° ÑĩÐ°ÑģÑĤÑĥÑİ
ĠÐ² Ð¾Ð´
ĠÐº ÑĢÑĥÐ³
ĠÐ´ ÐµÑĢ
ÐµÐ½ÑĤÐ° Ð¼Ð¸
Ð³ Ð¾ÑĤ
Ð³ ÑĢÑĥÐ·
ĠÑĢÐµ Ð³Ð»Ð°
ĠÐ²ÑĭÐ²Ð¾Ð´ Ñĭ
ÐµÐ·ÑĥÐ»ÑĮÑĤÐ° ÑĤÑĭ
ĠÐ¿ÑĢÐµÐ´ÑģÑĤÐ° Ð²Ð»ÐµÐ½Ð¸Ð¹
ÐĶ Ð°
ĠÐ³Ð¾Ð² Ð¾ÑĢ
ÑĦÐ¸ ÐºÑģÐ¸
ĠÐ°Ð² ÑĤÐ¾ÑĢÐ¸
ĠÐŁ ÐµÑĤ
ĠÑģÐ°Ð¼Ð¾ ÑĥÐ¿ÑĢÐ°Ð²
ĠÐ·Ð°Ð½Ñı ÑĤÐ¸Ñı
ÑģÑĤÐ¾ ÑĢÐ¸
ĠÐ²Ð·Ð°Ð¸Ð¼Ð¾ Ð¾ÑĤÐ½Ð¾
ĠÐ¸Ð· Ð±Ðµ
ĠÐ²Ð¾ÑģÐ¿ÑĢÐ¾ Ð¸Ð·Ð²Ð¾Ð´
ĠÐ¼ Ð¾Ð´
ĠÐ½Ð° Ð±Ð¾ÑĢ
ĠÐºÐ¾Ð½ÑĤÑĢ Ð¾Ð»Ð¸
ÑĤÐ¸ÑĩÐµÑģÐº Ð¸Ð¼
ĠÐ³Ð¾Ð²Ð¾ÑĢÐ¸ ÑĤ
ĠÑģÐµÐ»ÑĮ ÑģÐºÐ¾
Ð· Ð¸Ñģ
ĠÐ¼Ð¾Ð»Ð¾Ð´Ðµ Ð¶Ð¸
ĠÑį Ð²Ð¾Ð»Ñİ
ÑĤÑĭ Ð¼
Ð½Ð° Ð½
ĠÑģÑĥÑīÐµÑģÑĤÐ² Ð¾Ð²Ð°Ð½Ð¸Ñı
ĠÐ¿Ð¾Ð¼Ð¾Ñī ÑĮ
ĠÐ¿Ð¾Ð½Ñı ÑĤÐ¸Ð¹
ĠÐ¸ÑģÑģÐ»ÐµÐ´ Ñĥ
ĠÐ¿Ð¾Ð´ÑħÐ¾Ð´ Ð¾Ð²
ĠÑĢÑĥÑģ ÑģÐºÐ¸Ñħ
ÑĪÐ° ÑĤÑĮ
Ñĩ Ð½Ð¾ÑģÑĤÑĮ
Ð¾Ð¿ Ð¾Ð»Ð¸
ĠÐ¿ÑĢÐµÐ´ÑģÑĤÐ°Ð²Ð¸ ÑĤÐµÐ»Ð¸
Ðŀ ÑģÐ¾Ð±
ÑģÑĤÐ¸ ÑĩÐµÑģÐºÐ¾Ð¹
ĠÐĹ Ð°Ðº
ĠÐ¡ ÑĢÐµÐ´
Ð³Ñĥ Ð»Ð¸
ĠÐ¿ÑĢÐ¾ÑĦÐµÑģÑģÐ¸ Ð¸
Ð· Ð¾Ð½
ĠÐ² ÑģÐ¿
ĠÐ¿ÑĢÐµÐ¿Ð¾Ð´Ð°Ð²Ð° ÑĤÐµÐ»ÐµÐ¹
ĠÐ¸Ð· Ð´ÐµÑĢÐ¶
Ñģ Ð¾Ð½
ĠÑĨÐ¸ Ð²Ð¸
ĠÐ¿ÑĢÐ¸ Ð²Ñĭ
ĠÑģÑĥÐ±ÑĬ ÐµÐºÑĤ
Ð»Ðµ Ð²
Ð¸Ð½Ð° ÐºÐ¾Ð²
Ð½Ñı ÐµÑĤ
ĠÐ¼Ð¾ÑĢ ÑĦ
ĠÐĳ Ðµ
Ð²ÑĪ Ð¸Ð¼
ĠÐºÐ²Ð°Ð»Ð¸ ÑĦÐ¸ÐºÐ°ÑĨÐ¸Ð¸
ĠÐ¼Ð°ÑģÑĪÑĤÐ° Ð±
ĠÐ¾Ð¿ÑĢÐµÐ´ÐµÐ»ÐµÐ½ Ð½ÑĭÐµ
ĠÐ¸ÑģÐ¿Ð¾Ð»ÑĮÐ·Ñĥ ÑİÑĤÑģÑı
ĠÐ¾Ð¿ Ñĭ
Ð¸ ÑģÐ¿
ĠÐ¼ Ð¾ÑĤÐ¸Ð²
Ð¼Ð¸ ÑĢ
ĠÐ²Ð¾ÑģÐ¿ÑĢÐ¸ ÑıÑĤÐ¸Ñı
ĠÐ¿Ð¾ÑģÑĤÐ° Ð²Ð»ÐµÐ½
ĠÑģÐ¿Ð¾ÑģÐ¾Ð± Ð½Ð¾ÑģÑĤÐ¸
Ð½ÐµÐ¹ ÑĪÐ¸Ñħ
ĠÑĢÐµ ÑĦÐ»ÐµÐº
ĠÐ°Ð´ Ð²Ð¾ÐºÐ°
ĠÑģÑĥÑīÐµÑģÑĤÐ² ÑĥÑİÑĤ
ĠÐ¿ÐµÑĢÐµ Ð¶Ð¸
ĠÐ²ÑĭÑģÐ¾Ðº Ð¸Ð¹
ĠÑģÐ¾ÑĤÑĢÑĥÐ´Ð½Ð¸ÑĩÐµ ÑģÑĤÐ²Ð°
ĠÐ´ÑĢÑĥÐ³ Ð¾Ð¼
ĠÐ¿Ð»Ð° Ð½Ðµ
ÐŁ Ð¾Ð»
ĠÐ£ Ðļ
ĠÑģÐ¿Ð¾ÑģÐ¾Ð± Ñĭ
ÑĢÐ¾Ð± Ð»ÐµÐ¼
Ðļ Ð¾Ð½
ĠÐ¿ÑĢÐ°Ð² Ð¾Ñģ
Ð¾ÑĢÐ°Ð· Ð´Ð¾
ĠÐ½Ð¾Ð² ÑĭÐ¹
ĠÐ²Ð»Ð° ÑģÑĤ
ĠÐ½Ð° ÑģÐ¸
ĠÐ¿ÑĢÐ¸Ð¼ÐµÐ½ ÐµÐ½Ð¸Ðµ
ÑĢÐ°Ð· Ð´Ðµ
ÑĤÑĥ Ð°Ð»Ð¸
ĠÑıÐ·Ñĭ ÐºÐ°Ñħ
ĠÑĢÐµÐ³Ð¸Ð¾Ð½Ð°Ð»ÑĮ Ð½ÑĭÑħ
Ð½Ð¸ Ð½
ĠÑĩÐµÑĤ Ð²ÐµÑĢ
ĠÐľ Ð¸Ð½Ð¸
ĠÐ±Ð¾Ð»ÑĮÑĪÐ¸Ð½ ÑģÑĤÐ²Ð°
ÑĤÐ¸Ð² Ð½ÑĥÑİ
Ð¸ Ðº
ĠÐ¿ÑĢÐ¸ Ð´Ð°
ĠÑĥÐ´Ð° Ð»Ð¾ÑģÑĮ
ĠÐ¿ÑĢÐ¸ Ð²ÐµÑģÑĤÐ¸
ĠÐºÐ¾Ð½ ÑĨÐ°
Ðº Ð¾Ñģ
ĠÐ¿Ð¾Ð´ Ð¿
ĠÑĨÐµÐ»Ðµ ÑģÐ¾Ð¾Ð±ÑĢÐ°Ð·
ĠÐ¿Ð¾Ð»Ð½Ð¾Ð¼Ð¾ÑĩÐ¸ Ð¹
ĠÐ¢ Ð°
ĠÐµÐ´Ð¸ Ð½Ð¸ÑĨ
ĠÐ°Ð½Ð°Ð»Ð¸Ð· Ðµ
ĠÐºÐ¾Ð¼Ð¿ÐµÑĤÐµÐ½ ÑĨÐ¸Ð¸
ĠÐ±Ð»Ð°Ð³ Ð¾Ð¿Ð¾Ð»
ÑĢÐ¸ ÑĤÐ°Ð½
ĠÐ²Ðº Ð»Ð°Ð´
ĠÑģÐ²Ð¾Ð¹ ÑģÑĤÐ²Ð°
Ð¾Ð½Ð° ÑĩÐ°
Ð³Ð¾Ñģ ÑĢÐ¾
ĠÐ²Ð¾ ÑģÑĤ
Ð¾ÑĤ Ð¾
ĠÑĢÐµÐ·ÑĥÐ»ÑĮÑĤÐ° ÑĤÐ°Ð¼
ĠÐ¿ÑĢÐ¾ ÑĨÐµÐ½
Ñĩ Ð½ÑĥÑİ
ĠÐķ Ð²
ĠÐ¼Ð°ÑĤÐµÑĢÐ¸Ð° Ð»Ð¾Ð²
ĠÐ¿ÑĢÐ¾Ð¸Ð· Ð¾ÑĪ
ĠÐ¿ÑĢÐµÐ´Ð¿Ð¾Ð»Ð¾Ð¶ Ð¸ÑĤÑĮ
ĠÑģÑĤÐ¸ Ð¼Ñĥ
ÐµÐ½ Ð½Ð°Ñı
ÐĴ Ð¼ÐµÑģÑĤÐµ
ĠÑģÐ¾Ð± ÑģÑĤÐ²ÐµÐ½Ð½Ð¾
Ð¡ Ð¾Ð³Ð»Ð°ÑģÐ½Ð¾
ĠÑģÐ¿Ð¾ÑģÐ¾Ð± Ð½Ð¾ÑģÑĤÑĮ
ĠÐ¾ÑĤ Ð¼Ðµ
ĠÐ¼Ð½ ÐµÐ½Ð¸Ðµ
ĠÐ²Ñģ Ð»ÐµÐ´
ĠÐ½Ð°Ð¿ÑĢÐ°Ð² Ð»ÐµÐ½Ð¸Ð¹
Ð» Ð´
ĠÐ³Ð¾ÑģÑĥÐ´Ð°ÑĢ ÑģÑĤÐ²Ð¾Ð¼
ĠÐ·Ð° ÑĢ
ÑĢÑĥ Ñı
ĠÐ¸ÐµÑĢÐ° ÑĢÑħ
ĠÑĦ Ð¾ÐºÑĥ
ĠÑĤÐµÐ¾ÑĢÐ¸ Ñı
ĠÑįÑĤ Ð½
ĠÐ¸ÑģÐ¿Ð¾Ð» Ð½ÐµÐ½Ð¸Ñı
ĠÐ¾Ð± ÑĢÐ·
Ð»Ðµ Ð·
ĠÐ´Ð¾Ð± Ð°
ÑģÑĤÐ² ÑĥÐµÑĤ
ÑģÐº Ðµ
ĠÐ¾Ð±ÑĢÐ° Ð·Ð°
ÐŃ ÑĤÐ¸
ÑĤÐ¸ÑĩÐµÑģÐº ÑĥÑİ
ĠÑĥÐº ÑĢÐµÐ¿
ĠÐĲÐ»ÐµÐº Ñģ
ĠÑĥ ÑĩÐµÑĤÐ°
ĠÐ·Ð½Ð°ÑĩÐ¸ ÑĤÐµÐ»ÑĮÐ½Ð¾Ð¹
Ð³ ÑĢÐ¸
ÐĲ ÐĿ
ĠÑĢÐ°Ð· ÑĢÑĥ
ĠÐłÐ¾ÑģÑģÐ¸ Ñı
ĠÐ½Ð° ÑģÐºÐ¾Ð»ÑĮÐºÐ¾
ĠÑģÐ¾ÑĤÑĢÑĥÐ´ Ð½Ð¸ÐºÐ¾Ð²
ÐµÐ¼ Ð¾Ðµ
Ð»ÐµÐ½ Ð½ÑĭÐ¼
ĠÐ¾Ð±ÑĢÐ°Ð·Ð¾Ð²Ð° ÑĤÐµÐ»ÑĮÐ½Ð¾Ð³Ð¾
ĠÐ¾Ð³ ÑĢÐ¾Ð¼
ĠÐ¾Ð±ÑīÐµ ÑģÑĤÐ²ÐµÐ½Ð½Ð¾Ð¹
Ð·Ð° ÑĨÐ¸ÐµÐ¹
ĠÐ´Ð¾Ð» Ð³Ð¾ÑģÑĢÐ¾
ÑĩÐµ ÑĢÐº
Ð³ ÐµÐ½
ĠÑĤÐµÑĢÐ¼Ð¸ Ð½
Ð¸ Ð»Ð°ÑģÑĮ
ĠÑģÐ½Ð¸ Ð¶ÐµÐ½Ð¸Ðµ
ĠÐ¼Ð¾ÑĤÐ¸Ð²Ð° ÑĨÐ¸Ð¸
ĠÐ¾Ñģ Ð²Ð¾Ð±
Ð²Ð°ÐµÐ¼ ÑĭÑħ
ĠÑģÐµ ÑĤÐµ
ĠÐ·Ð°ÑĢÑĥÐ±ÐµÐ¶ Ð½ÑĭÑħ
ĠÑģÐµ Ð²ÐµÑĢ
ĠÑĤÐµÐ½Ð´ÐµÐ½ ÑĨÐ¸Ð¸
ĠÐ¿Ð»Ð¾ÑīÐ° Ð´
ĠÐ°Ð½ ÑĤÑĢÐ¾Ð¿
ĠÑģÐ¾Ð²ÑĢÐµÐ¼ÐµÐ½ Ð½Ð¾Ð¼
ĠÐ²ÑĭÐ¿Ð¾Ð» Ð½ÐµÐ½Ð¸Ñı
ĠÐ¿ÑĢÐ¸Ð¼ÐµÑĢ Ñĭ
ĠÑı Ð²Ð»
ĠÐºÐ°Ðº Ð¸Ð¼
ĠÐł Ñĥ
ĠÐ²Ñĭ Ð´Ð²Ð¸
ĠÐ¾ ÑīÑĥ
Ð»Ñı ÑİÑĤ
ĠÐ¿ÑĢÐ°Ð² Ðµ
ĠÐ¥ Ð¥
ĠÑģÑĥÐ´ ÑĮ
ĠÑĥÑģÐ¸ Ð»Ð¸
ĠÐ±Ð¾Ð»ÑĮÑĪ Ð¾Ð¹
ĠÐ¿ÑĢÐ¾Ð´ Ð²Ð¸
ĠÐ³ ÑĢÐµ
Ð¾Ð² ÑĭÐ¼
ĠÑĤ Ð¾Ð»
ĠÑģÑĤÑĢÑĥÐº ÑĤÑĥÑĢÑĥ
ĠÐ¼Ð¾ Ñī
Ð²Ð¸ Ð´Ñĥ
ĠÐºÐ° Ð·Ð°
Ð¶ Ð½Ð¾Ð¹
ĠÐµ Ð¶Ðµ
ĠÑģÐ¾ÑģÑĤÐ¾Ñı Ð½Ð¸Ð¸
ĠÐ± Ð°Ð»Ð°Ð½
Ð¶ ÐµÐ½Ð¸ÐµÐ¼
ĠÑĨ Ð°ÑĢ
Ðŀ ÐĿ
Ð¾ÑĤÐ¾ÑĢ ÑĭÐµ
Ð¶Ð´ Ñĭ
ÑĩÐµÐ²Ð¸Ð´ Ð½Ð¾
Ð²ÑĪÐ¸Ðµ ÑģÑı
ĠÑĢÐ°Ð´Ð¸ ÐºÐ°
ĠÐ½Ð° Ð¸Ð±Ð¾Ð»ÑĮÑĪ
ĠÑģÐ»ÐµÐ´ÑĥÑİÑī Ð¸Ð¼
ÐµÐ½ Ð½Ð¾Ðµ
ĠÑĢÑĥ Ðº
ÐµÐ¼ ÑģÑı
ĠÐ½Ðµ Ð´Ð¾
ĠÐ¿Ð¾Ð½ ÑıÑĤÑĮ
ĠÐĹÐ° Ð¿Ð°Ð´
ĠÑĦÐ°Ðº ÑĥÐ»ÑĮ
ÑĩÐµÐ½ Ð½Ð¾ÑģÑĤÐ¸
Ð¿ÑĢÐ°Ð² Ð¾Ð²Ð¾Ð¹
ĠÐ¾Ð±ÑĢÐ° ÑĤÐ¸
ĠÑģÐ¾Ð¾ÑĤÐ²ÐµÑĤÑģÑĤÐ² ÑĥÐµÑĤ
ĠÐ¿ÐµÑĢÐµ ÑģÐµ
ĠÑĢÐ°ÑģÑħÐ¾Ð´ Ð¾Ð²
ĠÐ³ Ð¾ÑģÑĥÐ´Ð°
_ _
ĠÑģÐº Ð¾ÑĢ
ĠÐ¿ÑĢÐµ Ð¾Ð±Ð»Ð°Ð´Ð°
Ð¾Ð»Ð¾Ð³ Ð¾Ð²
ĠÐ¸ÑģÐ¿Ð¾Ð»ÑĮÐ·Ð¾Ð²Ð° Ð½Ð¸ÐµÐ¼
ĠÑĢÐ°Ñģ ÑģÐºÐ°
ĠÐ·Ð° ÑĦÐ¸ÐºÑģÐ¸
ÑĨÐ¸Ð¾Ð½ Ð½Ð¾Ðµ
Ð¸ÑĩÐµÑģÐº Ð¸Ð¹
ÑĦ ÑĢÐ¸
Ð¸ÑĩÐµÑģÐº Ð¾Ðµ
ĠÐºÐ¾Ð» Ð»Ðµ
ĠÐ¦ÐµÐ½ ÑĤÑĢÐ°
ĠÑĥÑĩÐµÐ± Ð½Ð¾Ð¹
ĠÐ´Ð°Ð»ÑĮÐ½ÐµÐ¹ÑĪ ÐµÐ¼
ĠÑģÐ¾Ð²ÐµÑĢÑĪÐµÐ½ Ð½Ð¾
Ñĥ Ð¼Ðµ
ĠÑĢÐµÐ³Ñĥ Ð»ÑıÑĢ
Ð¾Ð±Ð¾ÑĢ Ð¾ÑĤ
ĠÑĤÑĢÐ° ÐµÐº
ĠÑģÐµÐ»ÑĮÑģÐºÐ¾ ÑħÐ¾Ð·ÑıÐ¹
ĠÑĢÐµÐ´ Ð°Ðº
ĠÐ¿ÐµÑĢÐµ ÑĩÐ¸Ñģ
ĠÐºÐ¾Ð½ÐºÑĥÑĢÐµÐ½ ÑĤ
ĠÐ·Ð½Ð°ÑĩÐ¸ Ð¼Ð¾ÑģÑĤÑĮ
ĠÐ²ÑĭÑıÐ²Ð¸ ÑĤÑĮ
ĠÑĪ ÐºÐ°
Ð¾ÑĢ Ð³Ð°
ĠÐ¼Ð¸ Ðº
ĠÐ¿Ð¾Ð»Ð¸ÑĤÐ¸ ÐºÐµ
ĠÐ¶Ð¸Ð² Ð¾ÑĤ
Ð¾Ð² ÑĢÐµÐ¼ÐµÐ½
ĠÐ² Ð½Ð¾Ð²ÑĮ
ĠÑĢÐµ Ð°
ĠÐ¼Ð½ ÐµÐ½Ð¸Ñı
ĠÑĥÑģÑĤÐ¾Ð¹ÑĩÐ¸ Ð²Ð¾
ĠÐľ ÐµÐ¶Ð´Ñĥ
ÑĤÐµÐ»ÑĮ ÑģÑĤÐ²Ð¾Ð¼
ĠÐ¾ÑĤÐ´Ðµ Ð»ÑĮÐ½ÑĭÐµ
Ð¾Ð¿ Ð°
ĠÐ½Ð°ÑĢÐ¾Ð´ Ð¾Ð²
ĠÑģÐ¾Ð³Ð»Ð° ÑĪÐµÐ½Ð¸Ñı
Ð¾Ð± ÑĢÐ¸ÑĤÐ°
ĠÐ´Ð¾Ð»Ð¶ Ð½Ð¾ÑģÑĤ
ĠÑĢÐ°ÑģÑģÐ¼Ð¾ÑĤ ÑĢ
ĠÐ¼ÐµÑħÐ°Ð½Ð¸Ð· Ð¼Ð¾Ð²
ĠÐ´Ð²Ñĥ Ð¼Ñı
ĠÐ¾ÐºÐ°Ð·Ð° Ð»Ð¸ÑģÑĮ
ĠÑĢÐ° Ð·Ð°
ĠÐ¡ Ðľ
ĠÐ¤ÑĢÐ°Ð½ ÑĨÐ¸Ð¸
ÐºÑĥ ÑĢ
ĠÑĥÐºÐ°Ð·Ð°Ð½ Ð½ÑĭÑħ
ĠÐ½Ð° ÑģÑĤÑĢÐ¾
ĠÐ° ÑĤ
ĠÐ¶Ð¸ ÑĤÐµÐ»ÐµÐ¹
ĠÐ¢ Ðµ
ĠÐ¿Ð¾Ð´Ð¾Ð± Ð½ÑĭÑħ
Ñī ÐµÐ½Ð¸Ñİ
ĠÐ¿Ð¾Ð´ Ð»ÐµÐ¶Ð°
ĠÐ¿ÐµÑĢÐµ Ð¼Ðµ
Ð»Ð¸ ÐºÐ°
ĠÐ¿ÑĢÐµÐ´Ð¼ÐµÑĤ Ð¾Ð¼
ÑģÑĤÐ° Ð¼Ð¸
Ð¾Ðº Ð¸
ÑĪ Ð¸ÑĤÑĮ
Ñĩ ÐºÐ¸
ĠÐ¿ÑĢÐ¾Ñģ Ð»Ðµ
ĠÐ¸Ð½Ð´Ð¸ ÐºÐ°
ĠÑģÐ¾Ð·Ð´Ð° Ð½
ĠÐ´Ðµ ÐºÐ°
Ñĩ Ð½ÑĭÐ¼Ð¸
ĠÐ¸ Ð½Ð¾Ð³Ð¾
ĠÑĪÐ¸ÑĢÐ¾Ðº Ð¾
ĠÑģ Ñİ
ĠÑģ Ð¸Ñħ
ÑĢÐ°Ð· Ð´
ĠÐ²ÐµÐ´ Ð¾Ð¼
ĠÐ¿ÑĢÐ¸Ð¾Ð± ÑĢÐµÑĤ
** *
ĠÐ³ Ð¾ÑĢÐ°Ð·Ð´Ð¾
ĠÐ¾ÑĤ ÐºÐ°Ð·
ĠÐµ Ð´
ĠÐĺ ÑģÐ¿
ĠÐ¾Ð± Ð¾
ĠÑģÐ¾ÑģÑĤÐ° Ð²Ðµ
Ð³Ð¾ Ðµ
ĠÐ¾ÑĤÐ½Ð¾ÑĪÐµÐ½Ð¸Ñı Ñħ
ĠÐ¿ÑĢÐ¾ Ð°Ð½Ð°Ð»Ð¸
ĠÑıÐ·ÑĭÐºÐ¾Ð² Ð¾Ð¹
ĠÑĢÐµÐ°Ð»ÑĮ Ð½Ð¾ÑģÑĤÐ¸
ÐĿÐµ ÑģÐ¼Ð¾ÑĤÑĢÑı
ĠÐ± Ð°ÑĢ
ĠÐ·Ð°ÐºÐ¾Ð½ Ð¾Ð²
ĠÐºÐ¾Ñģ Ð²ÐµÐ½
ĠÑĦÐ°Ðº ÑĤÐ¾ÑĢÐ¾Ð¼
ĠÐ±Ð¾Ð»ÑĮÑĪ Ð¾Ðµ
Ð±Ð¾ ÑĢÐµ
ĠÐ¿ Ð»
ĠÐ· Ð´Ð°
ĠÐ¾ÑģÐ½Ð¾Ð² Ð½ÑĭÐ¼
Ð ĸ
Ð¿ÐµÑĢ Ð²ÑĭÐµ
ĠÐ½ÐµÐ·Ð½Ð° ÑĩÐ¸
ĠÐ³ Ð¸Ð±
Ð²Ñĭ Ð¼Ð¸
ĠÐ¿ÑĢÐµÐ´Ð¿ Ð¾ÑģÑĭ
Ð½Ð¸ÐºÐ° Ñħ
ĠÑģÐ¾ÑĨÐ¸ Ð°Ð»
ĠÑĩÐ¸Ñģ Ð»ÐµÐ½Ð½Ð¾ÑģÑĤÐ¸
Ðĺ Ð¼ÐµÐ½Ð½Ð¾
ĠÐ¿Ð¾ÑģÐ»ÐµÐ´ Ð½Ð¸Ñħ
ĠÑĥÐ¿ÑĢÐ°Ð² Ð»Ñı
ĠÐ¿Ð° ÑĨÐ¸
ĠÐ± Ð¸Ð±Ð»Ð¸
ĠÐ¿Ð°ÑĢÐ° Ð´Ð¸
Ð²ÑĪ Ð°Ñı
ĠÑĩÐ°ÑģÑĤ Ð½ÑĭÑħ
ĠÐłÐµÑģÐ¿ÑĥÐ±Ð»Ð¸ ÐºÐ¸
ĠÐŀ ÑģÐ¾Ð±
ĠÐ° ÑĢÐµÐ½
ĠÐ½Ðµ Ð·
ĠÐ´ÐµÐ¹ÑģÑĤÐ² Ð¸ÑĤÐµÐ»ÑĮÐ½Ð¾ÑģÑĤÐ¸
ĠÐ¿ Ð¸Ñģ
ĠÑģÑĤÐ¾ÑĢÐ¾Ð½ Ñĥ
ĠÐ¿ÑĢÐµÐ¾Ð´ Ð¾Ð»
ĠÑĢÐ° ÑģÑĤ
ĠÑģÑĩÐ¸ÑĤÐ° ÑİÑĤ
ĠÐ²Ð¾Ð¿ÑĢ Ð¾ÑģÑĥ
ĠÐ²Ð¾ ÐµÐ½Ð½ÑĭÑħ
ĠÐ¿Ð¾Ð»ÑĥÑĩ ÐµÐ½Ð½ÑĭÑħ
ĠÐ¸ ÑģÑĤÐ¸
ĠÐ½Ð° Ð¸Ð¼
ĠÑĥ ÑĤ
ĠÐ²Ð¾ Ð¾ÑĢÑĥÐ¶
ĠÐ¸Ð½ÑĤÐµÑĢÐ¿ÑĢÐµ ÑĤÐ°
ĠÐ´ÐµÐ¹ÑģÑĤÐ² Ð¸ÑĤÐµÐ»ÑĮÐ½Ð¾
ĠÐºÐ°ÑĢ ÑĮÐµÑĢ
ĠÐ¼Ð¸ Ð½Ð¸Ð¼Ð°
ĠÐ¾ÑĤ Ð»Ð¸ÑĩÐ¸
ĠÐĿÐ¸ Ðº
ĠÐ¶ Ð°Ð»
ĠÐ·Ð° Ð¸Ð¼
Ð¾ ÑħÑĢÐ°Ð½
ĠÐ¿ÑĢÐ¸Ð¼Ðµ ÑĢÐµ
ĠÐ¿Ð°Ð¼ ÑıÑĤÐ¸
ĠÐ·Ð° Ñģ
ĠÐŀ Ð½Ð°
ĠÑĩÐ¸ Ð½Ð¾Ð²
ĠÑģÐ¾ÑģÑĤÐ° Ð²Ð°
ĠÐ·Ð½Ð°ÑĩÐ¸ ÑĤ
ÑģÑĤÐ° Ð²Ð¸
ĠÐ²ÑĭÑģÑĤÑĥÐ¿Ð° ÑİÑĤ
ĠÑįÑĤÐ° Ð¿
Ð¾Ð¼ Ð¸Ð¼Ð¾
ĠÐºÐ»Ð°ÑģÑģ Ð¾Ð²
ĠÐ²Ñĭ Ð·ÑĭÐ²Ð°
ĠÐ½Ð° ÑĪÐµÐ³Ð¾
ÐµÑĢ Ñĭ
ĠÑĤ Ð¾Ð»Ðº
ĠÐ½Ð°ÑĢ ÑĢÐ°
ĠÐ·Ð°Ðº ÑĢÑĭ
ĠÑĦÐ°Ðº ÑĤÐ¾ÑĢÐ°
ÑģÑĤÐ¾ ÑĩÐ½Ð¾Ð¹
ĠÐ¾Ð±ÑıÐ·Ð° ÑĤÐµÐ»ÑĮÑģÑĤÐ²Ð°
ĠÐ±Ð° Ð·Ñĭ
ĠÐ¾ÑĩÐµÐ²Ð¸Ð´ Ð½Ð¾
Ð¾ÑĢ Ð´Ð¸Ð½Ð°
ĠÑĢÐ°Ð·ÑĢÐ°Ð±Ð¾ÑĤ ÐºÐ¸
ĠÐł Ð¾Ñģ
ĠÐ¼ Ð»Ð°Ð´
ĠÐ¿ÑĢÐ¸ ÑģÑĥ
Ð¾Ð¶ Ð°Ð»
Ð½Ð¾ÑģÑĤ ÑıÐ¼
ĠÑĢÐ°Ð·Ð»Ð¸ÑĩÐ¸ Ð¹
ĠÑĤ Ð¾Ð¶Ðµ
ĠÐ¼Ð¸ Ð³ÑĢÐ°
ĠÐĳ Ð¾Ð»ÐµÐµ
ĠÐ²Ð½ÑĥÑĤÑĢÐµÐ½ Ð½ÐµÐ¹
ĠÑĪ Ðµ
ĠÐ¾Ð±Ð»Ð°Ð´Ð° ÐµÑĤ
ĠÑģ Ð¼ÐµÐ½
ĠÑģÐ¿Ð¾ÑģÐ¾Ð±ÑģÑĤÐ² ÑĥÐµÑĤ
ĠÐ¾Ð¿ÑĤÐ¸ Ð¼Ð°
ĠÐŃ ÑĤÐ°
ĠÐ¾ÑĨÐµÐ½ ÐºÑĥ
ĠÑģ Ð°Ð½Ðº
Ð§ ÑĤÐ¾
ĠÐ¿ÑĢÐ¾ÑıÐ²Ð»Ñı ÐµÑĤÑģÑı
Ð»Ð° Ð¹Ð½
ĠÐ²Ð¸Ð´ Ð¸Ð¼
ĠÑĢÐ°ÑģÐ¿ÑĢÐµÐ´Ðµ Ð»ÐµÐ½Ð¸Ñı
ĠÑģÐ¿Ð¾ÑģÐ¾Ð± ÑģÑĤÐ²Ð¾Ð²Ð°
ĠÐ¿ÑĢÐ¸ÑĩÐ¸ Ð½Ñĭ
ĠÐ±Ð°Ð½ Ðº
ĠÐ²Ð½Ðµ Ñģ
ĠÐ¿Ð¾ Ð¸ÑģÐºÐ°
ĠÑĢÐ°ÑģÐ¿ Ð¾ÑĢÑı
ĠÑĦÑĥÐ½Ð´Ð° Ð¼ÐµÐ½ÑĤÐ°
ĠÐ¾ÑĤÐ¼ÐµÑĩÐ° ÐµÑĤ
Ð»Ð¸Ð· Ð¼
ĠÐ¼ÐµÑģÑĤ Ð½ÑĭÑħ
ĠÐ¿ÑĢÐ¾ ÑħÐ¾Ð´
ĠÑĢÑĭÐ½ Ð¾Ðº
ĠÐ½ÐµÐ¸Ð· Ð±ÐµÐ¶
ĠÐ°Ð¿ Ð¿Ð°ÑĢÐ°
ĠÑĥÐºÐ° Ð·ÑĭÐ²Ð°ÐµÑĤ
ĠÐ½Ðµ ÑĢÐµÐ´ÐºÐ¾
ĠÐºÐ¾ÑĤÐ¾ÑĢ Ð¾Ð¼Ñĥ
ÑĢÐ¸ÑģÑĤÐ¸ Ð°Ð½
ĠÐ¾Ð±ÑĥÑĩÐ° ÑİÑīÐ¸ÑħÑģÑı
ĠÐ´ÑĢÑĥÐ³ Ð¾Ð³Ð¾
ĠÐ² Ð²Ð¾Ð´
ĠÐ¸Ð½ÑĤÐµÑĢÐ¿ÑĢÐµ ÑĤÐ°ÑĨÐ¸Ð¸
ĠÑģÐ¾ ÑĨ
ĠÑĦÐ¸Ð»Ð¾Ñģ Ð¾
ĠÐ¼ Ð¾Ð½Ð¸ÑĤÐ¾ÑĢÐ¸
ĠÑģÐ¼ Ð¾Ð³
Ðŀ Ð½
ÐµÑĤ Ñĭ
ÑĩÐµ ÑģÑĤÐ²Ð¾
ĠÑģÐ² Ð¾Ð´
ĠÐ¾Ð´ Ð¸Ð½Ð°ÐºÐ¾Ð²
ĠÐ¿ÑĢÐµÐ´ ÑĬ
ĠÐ· Ð½
ĠÐ° ÑĢÐµ
ĠÐ¿Ð¾Ð´ ÑĢÐ°Ð·Ð´Ðµ
ĠÐºÐ¾Ð½ÑĤÐµÐº ÑģÑĤ
Ð¸ Ð»ÑģÑı
ĠÐ¿ Ð¾Ð»ÑĮ
ĠÐ¾ÑĤ ÑģÑĤÐ°
ÑģÑĤ ÑģÐºÐ¾Ð¹
ÑĢÐ¾Ð²Ð°Ð½ Ð½ÑĭÐ¹
ĠÐ³Ð¾ÑĢÐ¾Ð´ Ð¾Ð²
ĠÑħÑĥÐ´ Ð¾Ð¶Ðµ
ĠÐ¾Ð±ÑĬ ÐµÐºÑĤ
ĠÐ´Ð¸ÑģÐºÑĥ ÑģÑģÐ¸
ĠÐ¿Ð¾Ð» Ð¸ÑĤ
ÑīÐ° ÑĤÑĮ
ĠÑĥÐ¿ Ð¾Ð¼
ĠÐ´Ð¸ÑģÐºÑĥÑĢ ÑģÐ°
ĠÑģÐ¾Ð± Ð¸ÑĢÐ°
ĠÐ¡Ð¸Ð± Ð¸ÑĢÐ¸
ĠÐĺÐ½ÑĤÐµÑĢ Ð½ÐµÑĤ
ÑĢÐ¸ ÑĤÑĮ
ĠÐ¾Ð¿ ÑĢÐ°Ð²
ĠÑģ ÑĢÐ°Ð·Ñĥ
ĠÐ¼ÑĭÑĪ Ð»ÐµÐ½Ð¸Ñı
Ð¾Ð» ÐµÐ²
Ðµ Ð³Ð¾
ĠÐ»ÑİÐ´ ÑĮÐ¼Ð¸
ĠÑģÐ²Ð¸Ð´ÐµÑĤÐµÐ»ÑĮÑģÑĤÐ² ÑĥÑİÑĤ
ĠÐ´ÐµÑĤ ÑĮÐ¼Ð¸
ĠÐ½Ð°Ñĥ ÐºÐµ
ĠÐ´Ð¾Ð² Ðµ
ÑĤÐ¸ Ð»Ð¸
ĠÐ½Ð° Ð¹
ÑģÑĤÐ¸ ÑĩÐµÑģÐºÐ¸Ñħ
ĠÐ´Ð¸ Ð°Ð»
ĠÑĩÐµÐ»Ð¾Ð²Ðµ ÑĩÐµÑģÐºÐ¾Ð³Ð¾
ĠÐ¿ÐµÑĢÐ² ÑĭÐµ
Ð½Ð¾Ð³ Ð¸Ðµ
Ð¾ Ñī
Ð´ Ð¾Ð»
ĠÐ´Ð°Ð»Ðµ ÐºÐ¾
ĠÐºÐ°ÑĤÐµÐ³Ð¾ ÑĢÐ¸Ð¹
ĠÐ² Ð¸Ð·
ÐĿÐ° Ð¿ÑĢÐ¸Ð¼ÐµÑĢ
ĠÐ¾Ð±ÑıÐ·Ð°Ð½ Ð½Ð¾ÑģÑĤÐ¸
ĠÐ¾Ð¿ ÑĢÐ¾Ñģ
ĠÑģÐ¾Ð² Ðµ
Ð¿ ÑĢÐµÐ´
ĠÐ¾Ð¿Ð¸ÑģÐ° Ð½Ð¸Ðµ
ĠÐ¼Ð¾Ð¼ ÐµÐ½ÑĤÐ°
ĠÐ²ÑĭÑĢÐ°Ð¶ ÐµÐ½Ð¸Ñı
ĠÐ´Ð¾Ð¿Ñĥ ÑģÐºÐ°
ÑģÐº Ð¾ÑĢ
Ð¾Ð± ÑĢÐ°
ĠÑĢÐµ ÐºÐ»Ð°
ĠÐ¼Ð° Ð»
ĠÐ¶ÐµÐ½ ÑīÐ¸Ð½Ñĭ
ÑĨÐµÐ½ ÑĤÑĢÐ¸
Ð°Ð»Ð¸ ÑģÑĮ
ĠÐ´Ð¾ÑģÑĤÐ¸ Ð³Ð°
Ð²Ð» ÐµÐ½Ð¸Ð¸
ĠÑģÑĥ Ð´Ð¾Ð²
ĠÑģÑĤÐ¾ÑĢ Ð¾Ð½Ð°
ĠÑģÑĤÐ°ÑĤÐ¸ ÑģÑĤÐ¸ÑĩÐµÑģÐº
ĠÑģÐ¾Ð·Ð½Ð° Ð½Ð¸Ñı
ĠÐ° Ð¼
ÑĩÐµ Ðº
Ð½Ð¸Ñı Ð¼
ĠÑģÐº ÑĢÑĭ
ĠÐºÐ¾Ð½ÐºÑĥÑĢÐµÐ½ ÑĨÐ¸Ð¸
ĠÑģÐ¾Ð·Ð´Ð° ÑĤÑĮ
Ð°Ðº Ð°
ÑĩÐµÐ½ Ð½ÑĭÐµ
ĠÐĴÐµÐ»Ð¸Ðº Ð¾Ð±ÑĢÐ¸ÑĤÐ°
ĠÑĥ Ð½Ð¸ÐºÐ°
ÑĨÐ¸Ð¾Ð½Ð° Ð»Ð¸
ĠÐ´Ð¾Ð» Ð¸
ĠÐ´Ð¾ÑħÐ¾Ð´ Ð°
ĠÑģÐº Ð»Ð°Ð´Ñĭ
Ð¾ÐºÐ° Ñı
ĠÐ¿ÑĢÐ¾Ð¸Ð·Ð²Ð¾Ð´ ÑģÑĤÐ²Ð¾
ĠÐ²Ð¸Ð´ Ð½Ð¾
ĠÑĨÐµÐ»Ð¾ ÑģÑĤ
Ñı Ð²Ð»ÐµÐ½
ĠÐ¿ÑĢÐµÑģÑĤÑĥÐ¿ Ð»ÐµÐ½Ð¸Ð¹
ĠÐ¿Ð¾Ð·Ð¸ ÑĨÐ¸Ñı
ĠÐ¸Ð´Ðµ Ñı
ĠÐ¿Ð¾Ð´Ð´ÐµÑĢÐ¶ ÐºÑĥ
Ð½Ñı ÑĤÑĮ
ĠÐ°Ðº ÑĤÐ¸Ð²Ð¸
ĠÑĪÐºÐ¾Ð» Ð°Ñħ
ĠÐ¿ÐµÑĢÐµÐ¼ÐµÐ½ Ð½ÑĭÑħ
Ð¡Ð»ÐµÐ´ ÑĥÐµÑĤ
ĠÐ¸Ð¼Ðµ ÑİÑīÐ¸Ñħ
ĠÐ½Ð°ÑħÐ¾Ð´ ÑıÑĤÑģÑı
ĠÑģÐ²Ñı Ð·ÑĭÐ²Ð°
ÐµÐ½ ÑģÐ°
ĠÐ¿ÑĢ Ð¾ÑĤ
ĠÑĤÐµ Ð¼Ñĭ
ĠÐ²Ñĭ ÑĢÐ°Ð±Ð¾ÑĤ
Ð³Ð° Ð¼Ð¸
ĠÐ¡ Ð¸
ĠÐ¶ ÐµÑĢÑĤ
ĠÐ³Ð¾Ñģ Ð´Ð°ÑĢ
Ð»Ñı Ð¼Ð¸
ĠÐ¿ÐµÑĢÐµ Ñģ
ĠÐ²ÑĭÑģÐ¾Ðº Ð¸Ð¼
ĠÐĲÐ»ÐµÐºÑģ Ð°Ð½Ð´
ĠÐ¿Ð¾Ð² Ð¾Ð´Ñĥ
ĠÑģÑĥÐ´ÐµÐ± Ð½Ð¾Ð¹
ĠÐ½Ð°Ð±Ð»Ñİ Ð´ÐµÐ½Ð¸Ñı
ĠÑģÑĤ Ð¾Ð»ÑĮÐºÐ¾
ĠÐľÐ¾ÑģÐº Ð¾Ð²
ÑĤ ÑĢÐµÑĤÑĮ
ĠÐºÑĥÐ»ÑĮ ÑĤÑĥÑĢÐ°
ĠÐ³ÑĢÑĥÐ¿ Ð¿Ñĥ
ĠÑĥ ÑĤÐ¾Ñĩ
ĠÐºÐ¾Ð½ÑģÑĤÐ¸ÑĤÑĥ ÑĨÐ¸Ð¾Ð½Ð½Ð¾Ð³Ð¾
ÑĢÐ¾Ð²Ð° Ð»Ð¸ÑģÑĮ
ĠÐ¢ Ð¾
ĠÑĥÐ¿ÑĢÐ°Ð² Ð»ÐµÐ½Ð¸Ðµ
Ð¿ Ð¾Ð´
Ñī ÐµÑĢ
ĠÐŀ Ð¿
ĠÐ´ÐµÑıÑĤÐµÐ»ÑĮ Ð½Ð¾ÑģÑĤÑĮÑİ
ĠÐ¿ÑĢÐ¸ÑħÐ¾Ð´ Ð¸ÑĤÑģÑı
Ð² Ð¾Ð²
ÐµÐ´ Ð¶
ĠÐ´Ð¸Ð° Ð³Ð½Ð¾ÑģÑĤÐ¸
ĠÑģÐµÐ¹ ÑĩÐ°Ñģ
ĠÑģÐ¾Ð± ÑģÑĤÐ²ÐµÐ½Ð½ÑĭÑħ
ÐµÐ¼ Ð¾ÑģÑĤÐ¸
ĠÐ¸Ð¼Ñĥ ÑīÐµÑģÑĤÐ²Ð°
ĠÐ½Ðµ Ð¶Ðµ
ĠÐ¿ÑĢÐ¸ Ð½Ñĥ
ĠÐ¿ÑĢÐ¸Ð¼ÐµÑĢ Ð½Ð¾
ĠÐ½Ð° ÑĢÑıÐ´Ñĥ
ĠÐ¸Ñģ ÑħÐ¾Ð´Ñı
ÑĤÐ¾ ÑĢÐµ
ĠÐ¿Ð¾ÑĤÐµÐ½ÑĨÐ¸ Ð°Ð»Ð°
Ð¼ ÑĥÑİ
ĠÐ²Ñĥ Ð·Ñĭ
ĠÐ¿Ð¾ ÑģÑĤÑĥÐ¿Ð°
ĠÐ¼Ð½Ð¾Ð¶Ðµ ÑģÑĤÐ²Ð¾
ĠÐ»Ðµ Ð³Ð¸
ĠÑįÐ»ÐµÐº ÑĤÑĢÐ¾Ð½
ÑĩÐµ Ð±
ĠÐ²Ñĭ Ð±Ð¸ÑĢÐ°
ĠÐ´Ðµ Ð¿ÑĥÑĤÐ°
ÑĤÐ¾ÑĢ Ð¾Ð¹
ÐĴ Ð¾Ð·
ĠÐºÐ° Ð¼
ĠÐ¿Ð¾Ð» Ñĥ
ÑĤÐ¾ÑĢÐ° Ñı
ĠÐ¾Ð±Ñī ÐµÐ¼
ĠÐ±Ð¾Ð» ÐµÐ·
ĠÐ¸Ð· Ð½Ð°ÑĩÐ°
Ðŀ Ð½Ð¸
ĠÐ»ÑĥÑĩ ÑĪÐµ
ĠÐ¼Ð°ÑĤÐµÑĢÐ¸Ð°Ð» Ñĭ
ĠÐ¿Ð¾ÑģÑĤÑĢÐ¾ ÐµÐ½Ð¸Ñı
ĠÐ¾ÑĢÐ³Ð° Ð½Ð°Ð¼Ð¸
ĠÐ½ÐµÐ´Ð¾ÑģÑĤÐ° ÑĤÐ¾ÑĩÐ½Ð¾
ĠÑģ Ð¾ÑģÑĢÐµÐ´
ÐŃ ÑĤÐ¾ÑĤ
ÑĢÐ°Ð·Ñĥ Ð¼Ðµ
ÑĤÐ¸Ð² Ñĭ
ĠÐ½Ð° Ð³ÑĢÑĥÐ·
ÑģÑı ÑĤ
ÑĤÐ° Ñı
ĠÑģÑĤ Ð¾Ð»Ðº
ĠÐ¡ ÑĥÐ´
ĠÑģÐ¿ ÑĢÐ¾ÑģÐ°
ĠÐ¾ÑĤÐµÑĩÐµ ÑģÑĤÐ²ÐµÐ½Ð½Ð¾Ð¹
ĠÐ³ Ð¾ÑģÐ¿
ĠÐ²Ð½ÑĥÑĤÑĢÐµÐ½ Ð½Ð¸Ñħ
ĠÐ¿Ð¾Ð»ÑĥÑĩÐ¸ Ð»Ð¸
ĠÐ¸ ÑģÑĤ
ĠÐ´ÐµÐºÐ° Ð±
ĠÐ½Ðµ Ð¿ÑĢÐµ
ĠÐ¿ÑĢÐ¸Ð¾ÑĢÐ¸ ÑĤÐµ
ĠÐ°ÑģÐ¿ ÐµÐºÑĤÑĭ
Ð± Ð¾Ð¹
ĠÐ¿ÑĢÐ¸Ð·Ð½Ð° ÐºÐ¾Ð²
ĠÐ±Ð»Ð°Ð³ Ð¾Ð¿ÑĢÐ¸ÑıÑĤ
ĠÐºÐ¾Ð¼Ð¿ÐµÑĤÐµÐ½ ÑĨÐ¸Ð¹
ĠÐ¾Ð± Ð¼ÐµÐ½
ĠÐ·Ð° Ð¼ÐµÑĩÐ°
Ð½Ð° ÑĨÐ¸Ð¾Ð½Ð°Ð»ÑĮ
ÑĤÐ¸Ð² Ð½Ð¾Ð¼
ĠÐ²Ð½ÐµÑĪ Ð½Ð¸Ñħ
ĠÐ¿Ð¾Ð»Ð¸ÑĤÐ¸ ÐºÑĥ
ÑĢÑĥ ÑİÑīÐ¸Ðµ
ĠÐ´ Ð½Ñı
ĠÐ°Ðº ÑĨÐµÐ½
ĠÐ¿Ð¾ÑģÑĤÐ° Ð²
ĠÐ¿Ð¾ÑģÑĤÐµÐ¿ÐµÐ½ Ð½Ð¾
Ð²Ð° Ð½Ð¸Ð¸
ÑĨÐ¸Ð¾Ð½ Ð½ÑĥÑİ
ÑģÑĤÑĢÐ° ÑĨÐ¸Ð¸
ÑİÑīÐµÐ¹ ÑģÑı
ĠÑĤÐ° Ð±Ð»Ð¸
ÐłÐ° ÑģÑģ
Ð³ ÑĢÑĥÐ¿
ĠÑĤÑĢÑĥÐ´Ð¾Ð² Ð¾Ð¹
ĠÐ¼ ÑĥÐ·
ĠÐ¿ÑĢÐ¾ÑĤÐ¸Ð² Ð¾Ð¿Ð¾ÑģÑĤÐ°
ĠÐ± Ð»Ð¾Ðº
ĠÐ¾ÑĤÑĢÐ°Ð¶Ð° ÐµÑĤ
ĠÑģÐ² ÐµÑĤ
ĠÐ°ÐºÑĤÐ¸Ð² Ð¾Ð²
ÑĦÐ¸ Ðº
ÑģÑĤ ÑĢÐ¾Ð²
ĠÑĢÐµ Ðº
Ð²Ñĭ ÑĩÐ°Ð¹
ĠÑģÐµÐ¼ ÑĮ
Ð² ÑĢÐµÐ¼ÐµÐ½
ĠÐ¿Ð¾ÑĢ ÑĤ
Ð´Ð°Ð³ Ð¾Ð³Ð¸ÑĩÐµÑģÐº
ĠÐ´Ð° ÑĤÑĮ
ĠÑĢÐ°Ð¹ Ð¾Ð½Ð°
ĠÐ¿ÑĢÐµÐ´ Ð²Ð°ÑĢÐ¸
ĠÐ¼ÐµÐ´Ð¸ Ð°
ĠÑį Ð¿Ð¸
ĠÐ½ ÑĢÐ°Ð²
ĠÐ¸ Ð½Ð°ÑĩÐµ
ĠÐ°Ð³ ÑĢÐµ
ĠÑĥÑģÐ»Ñĥ Ð³Ð¸
ĠÑĤ Ñİ
Ð± Ð¸ÑĤ
ĠÐ¼Ð¸Ð³ÑĢÐ°Ð½ ÑĤÐ¾Ð²
ĠÐļÐ¸ÑĤÐ° Ñı
ĠÐ°ÑĢÑħÐ¸ ÑĤÐµÐº
ÐµÐº ÑĤÐ¸
ĠÐ¿ÑĢÐ¸ÑĢÐ¾Ð´ Ñĭ
ĠÐ¼ÐµÑħÐ°Ð½Ð¸Ð· Ð¼Ñĭ
ĠÐ¾Ð±ÑīÐµ Ðµ
Ð³ Ð¾Ð¼
ĠÑģÐ¾Ð·Ð´Ð° ÐµÑĤ
ĠÐ¾Ð±ÑĢÐ°Ð·Ð¾Ð²Ð° Ð½Ð¸ÐµÐ¼
ÑģÑĤÐ¾Ð² ÐµÑĢ
ÑģÑĤ Ñı
ĠÐ²Ð¾Ð·Ð´ÐµÐ¹ÑģÑĤÐ² Ð¸Ðµ
Ñī ÑĥÑİ
ĠÑģÐ¾ ÑħÑĢÐ°Ð½Ð¸
ĠÑģ ÐµÐ½ÑĤ
ĠÐ¿ÑĢÐ¾ ÑıÐ²Ð»ÐµÐ½Ð¸Ñı
ĠÐ²Ð»Ð¸Ñı ÐµÑĤ
ĠÐ½Ðµ Ð´Ð°
Ð¸Ð² ÑĪÐ¸Ñħ
ĠÐ·ÐµÐ¼ ÐµÐ»ÑĮ
Ð´ÐµÑĢ Ð¶Ð°
ĠÑģÑĤÑĢÐ° Ð½Ð°Ð¼Ð¸
ĠÑģÐ¾ÑĨÐ¸Ð°Ð»ÑĮ Ð½ÑĭÐ¹
Ð¿ÑĢÐ°Ð² Ð¾Ð²ÑĭÑħ
ĠÐ¾Ð±Ð»Ð°Ð´Ð° ÑİÑĤ
ĠÐ²Ðµ Ñī
Ð¾Ð¿ ÑĢÐ¸Ñı
ĠÐ¾Ð±Ñī Ð¸Ðµ
ĠÐ¾ÑĤÐº Ð»Ð¾Ð½
Ñĩ ÑĤÐ¾
ĠÐ¿ÑĢÐµÐ´Ð¿Ð¾ ÑĩÑĤ
ĠÐºÑĥÐ»ÑĮ ÑĤÑĥÑĢÐµ
Ñī Ð¸ÑĤ
Ð´ Ð¾Ðº
ĠÐ¿Ðµ ÑĩÐ°
ÑģÐ¾Ð² ÐµÑĤ
ĠÐ½Ð° Ð´Ð¾
ÑģÑģÐ»ÐµÐ´ Ð¾Ð²Ð°Ð½Ð¸Ñı
ÑĢ Ð´Ðµ
ĠÐ¾Ð¿ ÑĢÐ¾
ĠÐĳ Ð°
ĠÐľÐ¸Ð½Ð¸ ÑģÑĤÐµÑĢ
ĠÑģÐ¾Ð± ÑģÑĤÐ²ÐµÐ½Ð½Ð¾Ð¹
ĠÐķÐ²ÑĢÐ¾Ð¿ Ðµ
ĠÐ£ ÐºÑĢÐ°
Ð¼Ñĭ Ð¼Ð¸
ĠÐ¿ÑĢÐ¾Ð¼ÑĭÑĪ Ð»ÐµÐ½Ð½Ð¾ÑģÑĤÐ¸
ĠÐ¾ÑĤ Ð½ÐµÑģÑĤÐ¸
ĠÐ¿Ð¾Ð·Ð²Ð¾Ð» Ð¸ÑĤ
ĠÑĦÐ¾Ð½ Ð´Ð¾Ð²
ĠÑĦÐ¸Ð½Ð°Ð½ÑģÐ¾Ð² Ð¾Ð³Ð¾
Ð²Ð°Ñı ÑģÑĮ
Ð¾Ð²Ð°Ð½ Ð½ÑĭÐµ
Ð½Ð¸ ÐºÑĥ
ĠÐ¼ÑĥÐ¶ÑĩÐ¸ Ð½
ÑĢÐ° ÑģÑĤÐ°
ĠÑĥÐ²ÐµÐ»Ð¸Ñĩ ÐµÐ½Ð¸Ðµ
ÑĨÐ¸ Ð°Ð»Ð¸
ĠÐłÐ¾ÑģÑģÐ¸ Ð¹
Ð¼Ð¾Ð¶ Ð½Ð¾
ÑĢÐ¾Ð²Ð° Ð½Ð¸ÐµÐ¼
ĠÐ²ÑĥÐ· Ðµ
ĠÐ¡ Ð°Ð¼
ĠÐ¿Ð¾ ÑĩÐµÐ¼Ñĥ
ĠÐ¿ÑĢÐ¸Ð½Ð°Ð´Ð»Ðµ Ð¶Ð°
ĠÐ² Ð¾Ðº
ÑĤ Ð½Ð¾Ðµ
Ñı Ð³
ĠÐ²Ð°ÑĢÐ¸ Ð°
ĠÑĥÑģÐ¸ Ð»Ð¸Ñı
ĠÑĩÐ°ÑģÑĤ Ð¾ÑĤ
Ð² Ð¾Ð¼
ĠÐ¡ ÑĤ
ÐŁ Ðŀ
ĠÐ¾Ð´Ð½ Ð¾Ð·Ð½Ð°
Ð½Ð° ÑĩÐ¸
ĠÐ¾Ð¿ Ð¿Ð¾Ð·Ð¸
ĠÑĢÐ° Ð²ÐµÐ½
Ð¼ÐµÐ½ ÑĤÐ¸
Ð¾Ðº Ð¾Ð²
Ð¾Ð±ÑħÐ¾Ð´ Ð¸Ð¼Ð¾
Ð¾ÑĤ Ð²Ð¾ÑĢ
ÑĤÑĢÐµÑĤÑĮ Ð¸Ñħ
Ð» Ð½Ð¸Ñı
ĠÐ¿Ð¸ÑģÑĮ Ð¼Ð°
ĠÐĳ Ð¾Ð»ÑĮÑĪ
ĠÑĢÐµÑĪ ÐµÐ½Ð¸Ð¸
ĠÐ´Ðµ ÑĤÐµÑĢ
ĠÑįÐ½ÐµÑĢ Ð³
ĠÐ»Ð¸ÑĨ Ð¾
ĠÐºÐ¾Ð½Ñģ ÐµÑĢÐ²Ð°
ĠÐ¿ÑĢÐ¾ÑĦÐµÑģÑģÐ¸ Ð¾Ð½Ð°
ĠÐºÐ»ÑİÑĩÐµ Ð²ÑĭÑħ
Ð¶ ÐµÐ¼
ĠÐ¿ÑĢÐ°Ð²Ð¾Ð² ÑĭÐµ
ĠÑģÐ¾Ñģ ÐµÐ´
ĠÐ±ÑİÐ´Ð¶ÐµÑĤ Ð°
ĠÐ±Ñĭ ÑģÑĤÑĢÐ¾
ĠÐ¾ÑĤÐ»Ð¸ÑĩÐ° ÐµÑĤÑģÑı
ĠÐ²Ð¸ Ð´Ñĥ
ĠÑĦÐ¾Ð½ Ð´Ð°
Ð°Ðº Ð¾Ð½ÐµÑĨ
ĠÑĥÑĩÐµÐ± Ð½Ð¾Ð³Ð¾
ĠÐ°Ð´Ð°Ð¿ ÑĤÐ°ÑĨÐ¸Ð¸
ĠÐ¾Ð±ÑĬ ÐµÐºÑĤÐ¾Ð¼
Ð¾Ð¿ ÐµÑĢÐ°
ĠÑĢÐ°Ð±Ð¾ÑĤÐ° ÑĤÑĮ
ĠÐ¡Ðľ Ðĺ
ĠÐ¿ÐµÑĢÐµÑħÐ¾Ð´ Ð°
ĠÐ¾Ð³ÑĢÐ°Ð½Ð¸ ÑĩÐµÐ½Ð¸Ð¹
ÑĨÐµÐ½ ÑĤÑĢÐ°
ĠÐ°ÑĢ Ð¼Ð¸Ð¸
Ð¾Ð½ Ð½ÑĭÑħ
ĠÐ·Ð° Ð¿Ð°
ĠÑĢÐ°Ð· Ð²
Ð½ÐµÐ½ Ð½ÑĭÑħ
Ð¼Ð° Ñı
ĠÐ°ÐºÑĤÐ¸Ð² Ð½Ð¾ÑģÑĤÑĮ
ĠÐ·Ð° Ð±Ð¾ÑĤ
ĠÐ¸Ð½ÑĦÐ¾ÑĢÐ¼Ð° ÑĨÐ¸Ñı
ĠÑĤÐµÑĢ ÑĢÐ¾
Ð¼ Ð¾Ð½
ĠÐ¼Ð¾Ð´ÐµÑĢ Ð½Ð¸Ð·Ð°ÑĨÐ¸Ð¸
ĠÑı Ð½Ð²Ð°
ĠÐ¾Ð±Ð»Ð° ÑģÑĤÑĮ
ĠÑĢÐ°Ð·ÑĢÐ°Ð±Ð¾ÑĤ Ð°Ð½
ĠÐ¸Ð½ÑĤÐµÑĢ Ð½ÐµÑĤ
ĠÐ² Ð²
ÑĪÐ° ÐµÑĤÑģÑı
ĠÐ¿ÑĢÐ°Ð²Ð¾ Ð¾ÑĤÐ½Ð¾
ĠÑĦÐ¾ÑĢÐ¼Ð¸ ÑĢÐ¾Ð²Ð°Ð½Ð¸Ð¸
ĠÐ½Ð°Ð¿ Ð¸ÑģÐ°
ĠÐ¾Ð´ Ð½Ñĥ
ÐĲ Ð½Ð°Ð»Ð¸Ð·
ĠÐ¿Ð¾Ð¼ Ð¸Ð¼Ð¾
Ðŀ Ð¿
ĠÑģ Ð¾Ð¶Ð°Ð»
ĠÐ½Ð°ÑħÐ¾Ð´ Ñı
ĠÑĩÐµÑĢ ÑĤÑĭ
ĠÑģÐ°Ð¼Ð¾ÑĥÐ¿ÑĢÐ°Ð² Ð»ÐµÐ½Ð¸Ñı
ĠÐ¿ÑĢÐ¸Ð½Ð¸Ð¼Ð° ÑĤÑĮ
ĠÑģÐ»ÑĥÐ¶ Ð±Ñĭ
ĠÑĥÑģÐ¿Ðµ Ð²Ð°ÐµÐ¼
ĠÐ¿ÑĢÐ¸ Ð±Ð»Ð¸
ĠÑĥÐ³Ð¾Ð»Ð¾Ð² Ð½Ð¾
Ð¾Ð»Ð¾Ð³Ð¸ Ñİ
ĠÑģÐ¼ÑĭÑģ Ð»Ð°
ĠÐ²Ñĭ Ð³Ð»Ñı
ĠÐ¸Ð½ Ð¾Ð³Ð´Ð°
ĠÑĥÐ¿Ð¾ÑĤÑĢÐµÐ± Ð»ÐµÐ½Ð¸Ñı
ĠÐ°Ð½Ð°Ð»Ð¸ Ð·Ñĥ
ĠÐ²Ð¾Ð·Ð¼Ð¾Ð¶ Ð½ÑĭÑħ
Ġ :
Ðļ Ð°
Ð²Ð° Ð½Ð¸Ð¹
Ð³Ð¾ÑĢ Ð¾Ð´
Ðĳ Ð¾Ð»ÐµÐµ
ĠÐ¿ Ð¾ÐºÑĥ
ĠÐºÐ° Ð·
Ð¿Ð¸ ÑģÐ¸
ĠÐ¸ÑģÑĤÐ¾ÑĢÐ¸ Ñı
ĠÐ¾Ðº ÑĤ
ĠÐ¿Ð¾Ð´ ÑĢÐ°Ð·ÑĥÐ¼Ðµ
ĠÐ½Ð°ÑĨÐ¸Ð¾Ð½Ð°Ð»ÑĮ Ð½Ð¾Ð³Ð¾
ĠÐ¿Ð¾Ð¼ Ð¾Ð³Ð°
Ð² ÑĥÑİ
ĠÑĢÐ°ÑģÑģÐ¼Ð¾ÑĤ ÑĢÐµÐ½Ð¸Ñı
ĠÐ¾Ð±Ð¾ÑģÐ½Ð¾Ð²Ð° Ð½
Ð² Ð¾Ð»ÑĮ
ĠÑĢÑĥÑģ ÑģÐºÐ¾Ð¼
Ð¿ÐµÑĢ ÑĮ
ĠÐ¾Ð±ÑĢÐ° ÑīÐµÐ½Ð¸Ñı
ĠÑģÐ°Ð¼Ð¸ Ñħ
ĠÑģÑĥÐ´ Ð¾Ð¿ÑĢÐ¾Ð¸Ð·Ð²Ð¾Ð´
ĠÐ¿Ð¾Ð»Ð¾Ð²Ð¸ Ð½Ñĭ
ĠÐ½ Ð¾Ð¼
Ð¢ Ðŀ
Ñİ ÑīÐµÐ³Ð¾ÑģÑı
ĠÑģÐ¾Ð·Ð´Ð° Ð½Ð¸Ð¸
ĠÑįÐºÐ¾Ð½Ð¾Ð¼Ð¸ÑĩÐµÑģÐº Ð¸Ðµ
ĠÑħ Ð¾
Ð¾Ð²Ð° Ð»Ð°
Ð¾Ð¶ Ð´Ðµ
ĠÐĽ Ñİ
ĠÑĩÐµÑĤ ÐºÐ¾
ĠÐ¸ÑģÐ¿Ñĭ ÑĤÑĭ
ĠÑģÐ²Ñı ÑīÐµÐ½
ĠÑĤÐµÐº ÑģÑĤÐµ
ĠÑģ ÑģÑĭ
ĠÐºÐ¾ÑĢÑĢÑĥÐ¿ ÑĨÐ¸Ð¸
ÑĢÐ¾Ð²Ð°Ð½ Ð½Ð¾ÑģÑĤÐ¸
Ð¡ ÑĢÐµÐ´Ð¸
ĠÐ¸Ð» Ð»Ñİ
Ð¾ Ð½Ð¾
ĠÑĨÐµÐ½ ÑĤÑĢ
ĠÑĢÐµÐ³Ñĥ Ð»Ñı
ĠÑı Ð²Ð»ÐµÐ½Ð¸Ð¹
ĠÑĥÑģÑĤÐ°Ð½Ð¾Ð² Ð»ÐµÐ½Ð¸Ñı
ĠÑĢÐ°ÑģÐ¿ÑĢÐ¾ÑģÑĤÑĢÐ°Ð½ ÐµÐ½Ð¸Ðµ
ĠÑĢÐµ Ð³ÑĢÐµ
ĠÐ·Ð°Ð½Ñı ÑĤÐ¸Ð¹
ĠÐ¼Ñĭ Ñģ
ĠÐ´Ð¾Ð² ÐµÑĢÐ¸
ĠÐ² Ð¿Ðµ
ĠÐ¿ ÑıÑĤÐ¸
ĠÑĤÑĢÐ°Ð½ÑģÑĦÐ¾ÑĢÐ¼Ð° ÑĨÐ¸Ð¸
ĠÐ½Ð°Ñģ Ð»ÐµÐ´
ĠÐ¿Ð¾Ð´ ÑĩÐµÑĢÐº
Ð ®
ĠÐ¿ÑĢÐ¸Ð½Ñı ÑĤÑĮ
Ñĥ Ñı
ĠÐ´Ð°Ð½ Ð½Ð°Ñı
Ð¸ ÑĢÐ°Ð½
ÑģÑĤÐ¾Ñı Ð½Ð¸Ñı
Ð²ÐµÐ´ Ð¾Ð¼
ĠÐ·Ð½Ð° Ð½Ð¸Ðµ
ĠÐºÐ°Ð¿Ð¸ÑĤÐ° Ð»
Ð¾Ðº ÑĥÑĢ
ĠÐ¼Ð» ÑĢÐ´
ĠÑĤÐ¸ Ð¿Ð¸
Ð¿ ÑģÐ¸Ñħ
ĠÐ²Ñĭ Ð±ÑĢÐ°
ÐµÐ· Ð´Ð°
ĠÐ¼ÐµÑĢ Ð¾Ð¿ÑĢÐ¸Ñı
Ð°Ð»ÑĮ Ð½ÑĥÑİ
ĠÐ»Ð¸ÑĤÐµÑĢÐ° ÑĤÑĥÑĢÑĭ
ĠÐ¿ÑĢÐ¸Ð·Ð½Ð° ÐºÐ¸
ĠÐ¿Ð¾Ð»ÑĥÑĩ ÐµÐ½Ð¸Ðµ
ĠÑģÐ¸ Ð»ÑĮÐ½Ð¾
ÑĩÐµ ÑĤÐµ
ĠÑģÐ²Ð¾ Ð¸Ð¼Ð¸
ĠÐ¿ÑĢÐ¸Ð½Ñı ÑĤÐ¾
ÑĥÐ¶ Ð´ÐµÐ½
ĠÐ´Ð¾Ð¿Ñĥ ÑģÑĤÐ¸
ĠÑģÐ»ÑĥÑĩÐ° Ð¸
ĠÑĤÑı Ð¶Ðµ
ĠÐ¡ Ð¾Ð³Ð»Ð°ÑģÐ½Ð¾
ĠÑĤÐ°Ð¼ Ð¾Ð¶
ĠÐ·Ð´ ÑĢÐ°Ð²Ð¾
ĠÐ½Ð¾Ñģ Ð¸
ĠÐ²Ð½ÐµÑĪ Ð½Ðµ
ĠÐ¾Ð±Ð½Ð°ÑĢÑĥ Ð¶ÐµÐ½
ÑĦ Ð°Ðº
ĠÑĥ ÑħÐ¾Ð´
ĠÐ¿Ñĥ ÑĤÑĮ
ĠÐŁ Ð°
ĠÐ¶Ð¸Ð· Ð½Ðµ
ÐµÐº Ð¾ÑĤÐ¾ÑĢÑĭÐµ
ĠÐ¿Ð¾ÑĤÑĢÐµÐ± Ð½Ð¾ÑģÑĤÐ¸
Ð°Ð»ÑĮ Ð½ÑĭÐ¼Ð¸
ĠÐ²Ð¾ÑģÑĤ ÑĢÐµÐ±
Ð¶Ð° Ð¹
ĠÑģÑĤÐ° Ð»ÐºÐ¸
ĠÐ·ÐµÐ¼ Ð»Ð¸
ĠÐ¡ Ð°Ð½Ðº
ÐŃ Ð¡
ĠÐ¸Ð½ Ð²ÐµÑģÑĤ
ĠÐ¾Ð±ÑĢÐ°Ð·Ð¾Ð²Ð° ÑĤÐµÐ»ÑĮÐ½ÑĭÐµ
Ð³Ð¾Ð² Ð¾ÑĢÐ°
ĠÐ²Ð°Ð¶ Ð½ÑĭÑħ
Ð¾Ð»Ð¾Ð³Ð¸ÑĩÐµÑģÐº Ð°Ñı
ĠÐ¾Ð½ Ð»Ð°Ð¹Ð½
ĠÐ¿Ð¾Ð»ÑĥÑĩ ÐµÐ½Ð½ÑĭÐµ
ÐŁÐµ ÑĤÐµÑĢÐ±ÑĥÑĢ
Ð» ÐµÑĢ
ĠÑģÑĢÐµÐ´ Ð½ÐµÐ¹
Ġ Ð¾Ð²
ĠÐ¾ÑĢÐ³Ð° Ð½Ð°
ĠÐ´Ð¾Ð¼Ð° ÑĪ
ĠÐ¿Ð¾Ð² ÐµÑĢ
Ð½ ÐµÐ½Ð¸ÐµÐ¼
Ð¸Ð½ ÑģÑĤÐ²Ð¾
ĠÐ¿ÑĢÐ¾Ð¿ Ð°
Ġ *
ĠÐ½Ð° Ð¾Ð±Ð¾ÑĢÐ¾ÑĤ
ĠÐµ Ð¹
Ð² Ð¾Ñģ
ĠÐ±ÑĥÐ´Ñĥ ÑīÐµÐ¼
ĠÑģÐ°Ð¼Ð¾ÑģÑĤÐ¾ÑıÑĤÐµÐ»ÑĮ Ð½Ð¾
ĠÐ¿Ð¾Ð»Ð¾Ð¶ ÐµÐ½Ð¸Ð¹
ĠÐ½Ð°Ð» Ð¾Ð³
ĠÐĲ Ð½Ð³
ĠÑģÐ¿ ÐµÐº
ĠÑİÑĢÐ¸Ð´Ð¸ ÑĩÐµÑģÐºÐ¸Ñħ
ĠÐ²Ð¾Ð·Ð¼Ð¾Ð¶ Ð½ÑĭÐ¼
ĠÐ¾ÑĢÐ³Ð°Ð½Ð¸Ð·Ð° ÑĨÐ¸Ñı
ĠÐ¿Ð¾Ð´ÑĢÐ¾Ð± Ð½Ð¾
ĠÐ³Ð¾ÑĢÐ¾Ð´Ð° Ñħ
ĠÐ¿ÑĢÐµÐ´Ð¼ÐµÑĤ Ð¾Ð²
ĠÐ¿Ð¾Ð½ ÑıÑĤ
ĠÐ¿ÑĢÐµÐ´ÑģÑĤÐ°Ð²Ð»ÐµÐ½ Ð°
ĠÐ¿ÑĢÐ¾ÑĨÐµÐ´Ñĥ ÑĢÑĭ
ĠÐºÐ¾Ð¼Ð¿ÑĮÑİ ÑĤÐµÑĢ
ĠÑģÑĦÐµÑĢ Ñĥ
Ð²Ð¸Ð´ Ð¸Ð¼
ĠÐ·Ð°Ð± Ð¾Ð»Ðµ
ÑģÑĤÐ² Ð¾Ð²Ð°ÑĤÑĮ
ĠÐ¸Ð½ÑģÑĤÐ¸ÑĤÑĥ ÑĤÑĭ
Ð»Ñı Ð½
ĠÑĩÑĢÐµÐ· Ð²ÑĭÑĩÐ°Ð¹
ĠÑģÑİ Ð¶ÐµÑĤ
Ð¿ÑĢÐ¾ ÑĩÐµÐ¼
ĠÑĢÐ°Ð±Ð¾ ÑĩÐµÐ¹
Ð¾ÑģÑģÐ¸ Ð¹
ĠÑĦ Ð¾Ð½Ðµ
ĠÐ¡ ÑĢÐµÐ´Ð¸
ĠÐ¢ Ð¾Ð¼
ĠÐ¿ÑĢÐ¾ Ð¸
ĠÐ¾Ð½ ÑĤ
Ð² ÐµÐ¹
ĠÐŁ Ð¾ÑģÐ»Ðµ
ĠÑģÐ¾Ð² Ð¿Ð°Ð´Ð°
Ð¾Ð» Ñİ
ÑĩÐ¸ ÐºÐ¾Ð²
ĠÑĢÐ°ÑģÑģÐ¼Ð°ÑĤÑĢÐ¸ Ð²Ð°ÑİÑĤÑģÑı
ĠÑģÑĤÐ¾ Ð¸Ð¼Ð¾ÑģÑĤÑĮ
ĠÐºÑĢÐµ Ð°
ĠÐ¸Ð¼ ÐµÐ½Ð¸
ĠÐ¾ÐºÐ°Ð·ÑĭÐ²Ð° ÑİÑĤÑģÑı
ĠÐ¡Ñĥ Ð´Ð°
Ð»ÐµÐ½ Ð½Ð°Ñı
ĠÐ¿Ð¾ÐºÐ¾Ð» ÐµÐ½Ð¸Ñı
ÐŃ ÑĤÐ°
Ñģ Ð°Ð¼
ĠÐ¸ÑģÑĤÐ¾Ñĩ Ð½Ð¸ÐºÐ¾Ð¼
ĠÐ²Ñĭ ÑĤÐµ
ĠÐ²Ð»Ð¸Ñı Ð½Ð¸ÐµÐ¼
Ð¼Ñĭ ÑĪ
Ð¾Ð»Ð¾Ð³Ð¸ÑĩÐµÑģÐº Ð¸
Ð²Ð° Ð½Ð¸Ñİ
Ð»Ð° ÑģÑģ
ĠÐ¾Ð¿ ÑĥÐ±Ð»Ð¸
Ð¾ÑĤÐ²ÐµÑĤ ÑģÑĤÐ²ÐµÐ½Ð½Ð¾
Ð»Ð¸ÑĪ ÐºÐ¾Ð¼
ĠÐºÑĥÐ»ÑĮÑĤÑĥÑĢ Ð½ÑĭÑħ
ĠÐ¾Ð±ÑıÐ·Ð° ÑĤÐµÐ»ÑĮÑģÑĤÐ²
ĠÐ½Ð°Ð»Ð¸ÑĩÐ¸ Ñı
ĠÐ¾Ð± Ð¾Ð·Ð½Ð°ÑĩÐ°
ĠÐ²ÑĤÐ¾ÑĢ Ð¾Ð¼
ĠÐºÐ¾Ð½ÑĨÐµÐ¿ ÑĤÑĥÐ°Ð»ÑĮ
ÑĤÐ¸ÑĩÐµÑģÐº Ð¾Ð¼
ĠÑģÐ¾Ð²ÐµÑĤ ÑģÐºÐ¾Ð³Ð¾
ĠÐ¾ÑģÐ½Ð¾Ð² Ð¾Ð¹
ĠÑģÐ»ÐµÐ´ ÑģÑĤÐ²Ð¸Ðµ
ĠÐ¼Ð°ÑĢ ÐºÐ¸
ĠÑģÐ¸ÑĤÑĥÐ° ÑĨÐ¸Ð¹
ĠÐ´ÐµÑĢ Ð¶Ð°
ÑĪ ÑĥÑİ
ĠÑģÑĤÑĢÐ° Ñħ
ĠÑĢÐ°ÑģÐ¿Ð¾Ð» Ð°Ð³Ð°
ĠÐ²Ñĭ Ð·ÑĭÐ²Ð°ÐµÑĤ
ĠÐ¿Ð¾Ð´ÑħÐ¾Ð´ Ñĭ
ĠÐ¸ÑģÐº Ð»ÑİÑĩÐ°
ĠÐ² Ð¾Ð¼
ĠÐ¸ÑģÑĤÐ¾ÑĢÐ¸ ÑĩÐµÑģÐºÐ¸Ñħ
ĠÐĳ Ñĥ
ĠÐ¿ÑĢÐ°Ð²Ð¸ ÑĤÐµÐ»ÑĮÑģÑĤÐ²Ð¾
Ð¼Ð¸ Ð½
ĠÐ¾Ð¿Ð»Ð° ÑĤÑĭ
ÑģÐ° Ñħ
ĠÐº Ð²Ð°ÑĢ
ĠÑģÐ²Ð¾ ÐµÐ¼Ñĥ
ĠÐ´ Ð¾Ð±Ð¸
ĠÐ¿Ð¾Ð´Ð²ÐµÑĢ Ð³Ð°
ĠÐ´Ð¸ÑĦÑĦÐµÑĢÐµÐ½ ÑĨÐ¸Ð°
ĠÑĤÐµ Ð¿ÐµÑĢÑĮ
ĠÐ±ÐµÐ· ÑĢÐ°Ð±Ð¾ÑĤ
ĠÐºÐ°Ð¶Ð´ Ð¾Ð¼
ĠÐ²Ð¾Ð¿ Ð»Ð¾
ÑĨ ÐµÐ¹
ĠÐ± ÑĥÑĢ
ĠÐ¿Ð¾Ð»Ð¾Ð²Ð¸ Ð½Ðµ
ĠÐ¿ÐµÑĢ Ð²Ð¸
ĠÐ¿Ð°ÑĢÐ° Ð»Ð»Ðµ
ĠÐ½Ð°ÑĩÐ° Ð»Ð¾
Ðµ Ð³
ÑĤ Ð½ÑĭÐ¼
Ð»ÐµÐ½ Ð½Ð¾Ðµ
ĠÐºÐ¾Ð½ÐºÑĢÐµÑĤ Ð½Ð¾Ð³Ð¾
ĠÐ±Ð»Ð°Ð³Ð¾Ð¿Ð¾Ð» ÑĥÑĩÐ¸
Ð¸ÑĤÐµÐ»ÑĮ Ð½ÑĭÑħ
Ð¸ÑĩÐµÑģÐº Ð¸Ð¼
ÑĥÑİÑī Ð¸Ð¼Ð¸
ĠÐ»Ð¸ ÐºÐ²Ð¸
ĠÐ½ ÐµÐ½Ð°
ĠÑıÐ·Ñĭ ÐºÐ¾Ð¼
ĠÐĹ Ð´ÐµÑģÑĮ
ĠÐ¾ÑĢÐ¸ Ð³Ð¸Ð½Ð°
ĠÑģÑĩÐ¸ÑĤÐ° ÐµÑĤ
ĠÐ±ÑĥÐ´Ñĥ ÑīÐµÐ³Ð¾
ĠÐ¿ÑĢÐ¸Ð½Ñı ÑĤÐ¸Ðµ
ĠÐ¼Ð¾Ð³ Ð»Ð¾
ĠÐ²Ð»Ð° ÑģÑĤÐµÐ¹
ĠÐ¿Ð¾ÑĤÑĢÐµÐ± Ð»ÐµÐ½Ð¸Ñı
ĠÑģ Ð¾Ð´ÐµÐ¹ÑģÑĤÐ²
ÐŁ Ð¾ÑģÐ»Ðµ
ĠÑģÐ¼ÐµÑĢ ÑĤÐ¸
ĠÐºÐ¾Ð½ ÑĦÐµÑĢÐµÐ½
ĠÐ´Ð¾Ð¿Ð¾Ð»Ð½Ð¸ ÑĤÐµÐ»ÑĮÐ½ÑĭÑħ
ĠÐ¿Ð° ÑĤ
ĠÐ¾Ð¿ Ð¸ÑģÐ°Ð½
ĠÑĦÐ¸Ð»Ð¾ÑģÐ¾ ÑĦÐ¸Ð¸
ĠÑĢÐ°Ð·Ð²Ð¸ ÑĤÑĭÑħ
ĠÐ´Ðµ ÑĦÐ¸ÑĨÐ¸
ĠÑĢÐµÐ¿ÑĢÐµ Ð·ÐµÐ½ÑĤÐ°
ĠÐ¾ÑĤ Ð½ÐµÑģ
Ð·Ð¸ Ð²
ĠÑģ Ð´Ð²Ð¸
ĠÐ¿ÑĢÐ¾ ÑĦ
ĠÐ¸Ð½ÑĦÑĢÐ°ÑģÑĤÑĢÑĥÐº ÑĤÑĥÑĢÑĭ
ĠÑģÐµ ÑĤÐµÐ¹
ĠÑĤÐµÐ½Ð´ÐµÐ½ ÑĨÐ¸Ñı
ÐºÐ° Ð·Ð°Ð½
ĠÐ½Ðµ Ð¾
ĠÑĢÐµ ÑĦÐ¾ÑĢÐ¼
ĠÐ³ÐµÐ½ Ð´ÐµÑĢ
ĠÐ¸Ð½Ð²Ð°Ð»Ð¸ Ð´
ĠÐľ Ð¾Ð¶Ð½Ð¾
ĠÑĤÑĢÐ°Ðº ÑĤÐ¾Ð²
ĠÐ²ÑģÐµ Ð¼Ð¸
ĠÐļ Ð¾ÑĢ
ĠÐ¾Ð±Ñī Ð¸Ð¹
ÑīÐ° ÑİÑĤ
Ð»Ð° Ð±
Ð¾Ð² Ð¾Ð»ÑĮ
ĠÐ³Ð¾ÑģÐ¿ Ð¾Ð´
ĠÐ¿Ð¾ÑĢ Ð¾Ð¶Ð´Ð°
ĠÐ²ÑģÐ»ÐµÐ´ ÑģÑĤÐ²Ð¸Ðµ
Ð´ ÑĮ
ĠÑĥÑĢÐ¾Ð²Ð½Ñı Ñħ
ĠÑĥÑĢÐ¾Ð² Ð½Ñİ
ĠÐ¾Ð±ÑıÐ·Ð°Ð½ Ð½Ð¾ÑģÑĤÐµÐ¹
ĠÐ¿Ð°ÑĢÐ°Ð¼ÐµÑĤ ÑĢÐ¾Ð²
ĠÑģÐµ Ð³
ĠÐ² Ð¿ÐµÑĢÐ²ÑĭÐµ
ĠÐ½ÐµÑģÐ¾Ð² ÐµÑĢÑĪÐµÐ½
ĠÑı Ð²Ð»ÐµÐ½Ð¸Ðµ
ÑģÑģÐ»ÐµÐ´ Ð¾Ð²Ð°Ð½Ð¸Ðµ
ĠÐ½Ð°Ð¿ÑĢÐ°Ð² Ð»ÐµÐ½Ð¸Ðµ
ĠÐĺ Ð²Ð°
ĠÐ¾Ð±ÑĬÑıÑģÐ½Ñı ÐµÑĤÑģÑı
ĠÑģÑĤÐ° Ð´Ð¸Ð¸
ĠÐ°Ðº ÑĤÐ°
ĠÐ²Ð· Ñı
Ð´ Ð¶
Ð½Ð¾ ÑĢÐ¸
ĠÐ¿Ð¾ÑģÐ»ÐµÐ´ ÑģÑĤÐ²Ð¸Ð¹
ĠÐ²Ð°Ð¶ Ð½ÐµÐ¹ÑĪ
ĠÐ¸ÑģÑĤÐ¾ÑĢÐ¸ ÑĩÐµÑģÐºÐ¾Ð¹
ĠÐ°ÑģÐ¿ ÐµÐºÑĤÐ°
ÐŁ ÑĢÐµ
ÐµÐ² ÑĢÐ°
ĠÑģÐ¾Ð´ÐµÑĢ Ð¶Ð¸ÑĤ
Ð» Ð°Ðº
ĠÐ¿ÑĢÐ¾ÑĪ Ð»Ð¾Ð³Ð¾
ĠÐºÐ¾Ð½ÑĦÐ»Ð¸Ðº ÑĤÐ°
ĠÐ§ Ð°
ĠÑĩÐ¸Ñģ Ð»Ñĥ
ĠÐ²ÐµÑĢÐ¾ÑıÑĤ Ð½Ð¾ÑģÑĤÑĮ
ĠÑı Ð²Ð½Ð¾
ĠÑĥ ÑĢÐ°Ð²
Ð½Ðµ ÑĪ
ĠÐ¾Ð±ÑĬ ÐµÐºÑĤÑĭ
ĠÑĥ ÑīÐµÑĢ
Ðļ Ð»ÑİÑĩÐµ
ĠÐ´Ð° ÑİÑĤ
ĠÐ¿Ð¾Ð·Ð½Ð° Ð²Ð°
ĠÐ¿Ð¸ ÑĪ
Ð¾Ð· Ð´Ð°
ĠÑĢÐµÐ·ÑĥÐ»ÑĮÑĤÐ° ÑĤÐ¾Ð¼
ĠÑģÑĤÑĢÐµÐ¼ Ð»ÐµÐ½Ð¸Ðµ
Ð³ Ð½Ð°
Ð¾Ð½Ð° ÑĢÑĥ
ĠÐ¿ÑĢÐ°Ð² Ð¾Ð¿ÑĢÐ¸
Ð¾Ð»Ð¾Ð³Ð¸ÑĩÐµÑģÐº Ð¾Ðµ
ĠÐ¿ÑĢÐ¾ÑĤÐ¸Ð² Ð¾Ð¿Ð¾Ð»Ð¾Ð¶
ĠÑĢÐ° Ð±
ĠÐ± ÑĢÐ¸ÑĤÐ°Ð½
ĠÐ¼ÐµÐ¶Ð´ÑĥÐ½Ð°ÑĢÐ¾Ð´ Ð½Ð¾Ð¹
ĠÐ¿Ð¾ Ñħ
ĠÐĴ Ð¼ÐµÑģÑĤÐµ
ĠÐ½Ð°Ð¿ÑĢÐ°Ð² Ð»ÐµÐ½Ð¸Ð¸
Ðŀ Ð¡
Ð¡ ÑĤÐ°
ĠÐ¿ÑĢÐ¾ÑĤÐ¸Ð² Ð¾
ĠÑģÐ¾Ð¶Ð°Ð» ÐµÐ½Ð¸Ñİ
ĠÐ¾ÑĤÑģÑĥÑĤÑģÑĤÐ² ÑĥÐµÑĤ
ÑĨÐ¸Ð¾Ð½ Ð½ÑĭÐ¼Ð¸
Ð½Ñı ÐµÑĤÑģÑı
ĠÐ¿ÑĢÐ° Ð³Ð¼Ð°
ĠÑģÐ»ÐµÐ´ Ð¾Ð²Ð°ÑĤÐµÐ»ÑĮÐ½Ð¾
ÑĦ ÐµÐ´
ĠÐ¿Ð¾ÐºÐ°Ð·Ð° Ð»
Ð° Ð½Ð°
ĠÐ´Ð¸ ÑģÐ¿
Ñį ÑĦÑĦÐµÐºÑĤÐ¸Ð²
ÑĤ Ð¾Ð±Ñĭ
ĠÑģÐ¾ ÐµÐ´Ð¸
ĠÑģÑĤÑĢÐ°ÑĤÐµÐ³ Ð¸Ð¹
ĠÐ¿ÑĢÑı Ð¼Ð¾
Ð¶Ð´ ÐµÐ½Ð¸Ð¸
ĠÐ¿ÑĢÐµ ÑĤÐµÐ½
ĠÐºÐ¾ÑĢÑĢÐµ Ð»Ñı
ĠÐ¿Ð¾Ð´Ð¾Ð± Ð½ÑĭÐµ
ÐµÐ² Ð¾Ð¹
ĠÑģ Ð»Ð¸ÑĪÐºÐ¾Ð¼
Ðº Ð»
ĠÐĵ Ðļ
ĠÐ¿ÑĢÐ¾Ð¸Ñģ ÑħÐ¾Ð´Ñı
ĠÐµ Ñĳ
ĠÑģÐ¿ÐµÑĨÐ¸Ð°Ð»ÑĮ Ð½ÑĭÑħ
ĠÐ´Ðµ ÑĢÐµÐ²
ĠÑģÐ¾ÑĨÐ¸Ð°Ð»ÑĮ Ð½Ð¾Ðµ
ĠÐ¿ÑĢÐ¾ÑĦÐµÑģÑģ Ð¾ÑĢ
ĠÐ¼ÐµÑĤÐ° ÑĦ
ĠÐ·Ð½Ð°ÑĩÐ¸ Ð¼Ð¾ÑģÑĤÐ¸
ĠÐ²ÑĭÑģÐºÐ°Ð·ÑĭÐ²Ð° Ð½Ð¸Ñı
ĠÐºÑĥÑĢ Ñģ
ĠÐ²Ð¾Ð·Ð½Ð¸ÐºÐ½Ð¾Ð² ÐµÐ½Ð¸Ñı
Ð²Ð° ÑİÑīÐµÐ¹
ĠÐ¿Ð¾Ð¿ÑĭÑĤ ÐºÐ¸
ÑģÑģ ÐµÑĢ
Ð»ÐµÐ½ Ð½Ð¾
ÑĤÐ¸ÑĩÐµÑģÐº Ð¸Ð¼Ð¸
ĠÐ±Ð°Ð· Ðµ
ĠÐ²Ð¾ ÑģÑĤÐ¾
ĠÑģ Ð¾Ð»
ĠÐ² Ð½
ĠÐ¿Ð° Ð»Ð°
ĠÐ¾Ð±ÑĬÑıÑģ Ð½Ð¸ÑĤÑĮ
ĠÐ°ÑģÐ¿ Ð¸ÑĢÐ°Ð½
Ñĥ ÑĢÐ¾Ð²
ĠÐ¼Ð°Ðº ÑĢÐ¾
ĠÐ·Ð° ÑıÐ²Ð¸
ĠÑĤÑĭ ÑģÑı
ĠÑģÐ¾ÑĨÐ¸ Ð¾ÐºÑĥÐ»ÑĮÑĤÑĥÑĢ
ĠÐ¿Ð¾Ð²Ñĭ ÑĪÐµÐ½
ĠÐ½Ð°ÑģÑĤÐ¾Ñı ÑīÐµÐ¹
ĠÐ¼Ð¸Ð½Ð¸ Ð¼Ñĥ
ÑĤÐ° ÑĢÐ¸
ĠÐ·Ð°Ð´Ð° Ð½Ð¸Ñı
Ð¾ÐºÑĢÐ° ÑĤÐ½Ð¾
Ð»Ð° ÑĢÐ°
ĠÐºÐ²Ð°Ð»Ð¸ ÑĦÐ¸ÑĨÐ¸
ĠÑĦÐµÐ´ÐµÑĢÐ° Ð»ÑĮÐ½Ð¾Ð³Ð¾
ĠÑĤÐµÑħ Ð½Ð¸ÐºÐ¸
ĠÐºÐ¾Ð½ ÑģÑĤÑĢÑĥÐ¸
Ġ Ð¾Ð¼
ĠÑĨÐ¸ÑĦ ÑĢÐ¾Ð²
ĠÑĥÐ¿ ÑĢÐ¾
ÑģÐ¸ ÑĤÑĮ
Ð²ÐµÐ½ ÑĨÐ¸Ð¸
ÑīÐ¸ ÐºÐ¾Ð²
ĠÐ¡Ð¾Ð²ÐµÑĤ Ð°
ĠÑı Ð²
Ñģ Ð»Ðµ
ĠÐ¸Ð·ÑĥÑĩ ÐµÐ½Ð¸Ñİ
ĠÐ·Ð°ÑĤÑĢÐ° Ð³Ð¸
ÑģÑĤÐ¸ ÑĩÐµÑģÐºÐ¾Ð³Ð¾
ĠÐ·Ð°ÐºÐ¾Ð½Ð¾Ð´Ð° ÑĤÐµÐ»ÑĮÑģÑĤÐ²Ð¾
ĠÐ»Ð¸Ð½Ð³ Ð²Ð¸
ÑĢÐ¾Ð´ ÑĥÐº
Ð²Ð¸ Ð¶
ĠÐºÐ¾Ð½ÐºÑĢÐµÑĤ Ð½Ð¾Ð¹
ÑıÐ± ÑĢÐµ
ĠÑĢÐµÐ±ÐµÐ½ Ð¾Ðº
ĠÐ²Ð°ÑĢÐ¸Ð°Ð½ ÑĤ
Ð²Ð¸ Ð»
ÑĨÐ¸Ð¾Ð½ Ð½Ð¾Ð¼
ĠÐ¾Ð±ÐµÑģÐ¿ÐµÑĩÐ¸ Ð²Ð°ÐµÑĤ
Ð¾Ð¹ ÑĤÐ¸
ĠÐĴ Ð»Ð°
Ð¸ÑĩÐµÑģÐº Ð°Ñı
ĠÐ²Ð¾Ðº ÑĢÑĥÐ³
ĠÐ¿Ð¾ÐºÐ°Ð·Ð° Ð»Ð¸
ĠÑĢÐ°Ð¼ ÐºÐ¸
ĠÐºÑĥÐ»ÑĮÑĤÑĥÑĢ Ð½Ð¾Ð¹
ĠÑĥÑĩÐµÐ½Ð¸ ÐºÐ¾Ð²
ĠÐ¼ ÐµÐ½ÑĤÐ°
ĠÐ¢ ÑĥÑĢ
ÐµÐ½ Ð½ÑĭÐ¼Ð¸
ĠÑĥÑĩÐµÐ½ ÑĭÐµ
ĠÐ·Ð´ÑĢÐ°Ð²Ð¾ Ð¾ÑħÑĢÐ°Ð½
Ð²Ð¸ Ñĩ
ĠÑħ ÑĢÐ¸ÑģÑĤÐ¸Ð°Ð½
ĠÑĨÐµÐ½ Ñĭ
Ð¼ Ð¾Ð¼
ĠÐ¾ÑĤÑģÑĥÑĤÑģÑĤÐ² Ð¸Ñı
ĠÐ½Ðµ Ð¾ÑĤ
ÑĩÐµÐ½ Ð°
ĠÐ¸Ð½Ð´Ñĥ ÑģÑĤÑĢÐ¸
ĠÑĢ Ð¾Ñģ
ĠÐ¼Ð¾Ð³ Ð»Ð°
ĠÐ³Ð»Ð°Ð³ Ð¾Ð»Ð¾Ð²
ĠÑĢÐ°Ð·Ð²Ð¸ ÑĤÐ¸ÐµÐ¼
ĠÐ¸ÑģÐ¿Ð¾Ð»ÑĮÐ·Ð¾Ð²Ð° Ð½Ð¸Ð¸
ĠÐºÐ»Ð° ÑģÑĤÐµÑĢ
ÐµÐ½Ð¸ Ð½
ĠÑģÑĤÐ¾ Ñı
Ð½Ð¸ Ð·Ð°ÑĨÐ¸Ñı
Ð»ÐµÐ½ Ð½ÑĭÐ¼Ð¸
ĠÑĥÐ¿Ð¾Ð¼ Ñı
ÑĥÑİÑī Ð°Ñı
Ðĺ ÑĤÐ°Ðº
ĠÑĢÐ¾Ð´Ð¸ ÑĤÐµÐ»Ð¸
ĠÑĢÐ°Ð·ÑĢÐ°Ð±Ð¾ÑĤ ÐºÐµ
ĠÑģÐ¿Ð¾ÑģÐ¾Ð±ÑģÑĤÐ² Ð¾Ð²Ð°ÑĤÑĮ
Ð³ÑĢÐ° Ð´
ĠÐ¸Ð·ÑĥÑĩ ÐµÐ½Ð¸Ð¸
ĠÐ¿ÑĢÐ¸Ð·Ð½Ð° ÑĤÑĮ
ĠÐ¿Ð¾ÑģÐ»ÐµÐ´ Ð½ÐµÐµ
ĠÑģÐµÐ³Ð¾Ð´Ð½Ñı ÑĪ
ĠÐĴ Ð°Ð¶
ĠÐ²ÑĭÑģÐ¾Ðº Ð¸Ðµ
ĠÐ²Ñĭ ÑıÑģ
ĠÑĤÑĢÐµÐ± ÑĥÐµÑĤÑģÑı
ĠÐ¡ ÐµÑĢ
ĠÐ¸Ð½ÑģÑĤÑĢÑĥ Ð¼ÐµÐ½ÑĤÐ¾Ð²
ĠÐ´Ð¾ÑģÑĤÐ° ÑĤÐ¾Ñĩ
ĠÐ» Ð¾ÐºÐ°
ĠÑĥÐº ÑĢÐ°
ĠÐ¾Ð±ÑĬÐµÐ¼ Ð°
ĠÐ¿ÑĢÐ¾Ð¿Ð° Ð³Ð°Ð½
Ð»ÑĮ Ñı
ĠÐ³Ð°ÑĢÐ°Ð½ ÑĤÐ¸
Ġ Ð¾ÐºÐ°
ĠÐ¾ÑĤ Ð¿ÑĢÐ°Ð²
ĠÐ¿ÑĢÐ¾Ð³Ð½ Ð¾Ð·Ð¸
ĠÐ°Ð½ Ðº
ĠÐ¿ÑĢÐµÐ´Ðµ Ð»Ð°Ñħ
Ð¼ÐµÐ½ ÑĤÐµ
ĠÐ½Ð¾Ð² ÑĭÐ¼
Ð³ Ð¾Ð»ÑĮ
ÑĪ Ð°Ð½
ĠÐ¡Ð°Ð½Ðº ÑĤ
ĠÐ·Ð°Ð´Ð° ÑĩÐµÐ¹
ÐµÐ¼ ÑĭÐ¼Ð¸
ĠÐ¢Ð°Ðº Ð¶Ðµ
ĠÐ² ÐµÐ½
ĠÐ¾ÑģÐ¾Ð± Ð¾Ðµ
ĠÐ³ÑĢÑĥÐ¿Ð¿Ð° Ñħ
ÑĢ Ð¼ÐµÐ½
ÑģÑĤ ÑĢÐ°Ðº
ĠÐ¿ÑĢÐ°Ð² Ð¾ÑģÑĥ
ĠÑģÐ¾Ð·Ð½Ð° Ð½Ð¸Ð¸
ĠÐ¾Ð±Ñģ Ð»ÑĥÐ¶Ð¸
ĠÐºÐ½Ð¸ Ð³Ð¸
ĠÐ·Ð½Ð°ÑĩÐ¸Ð¼ ÑĭÑħ
ĠÐļ ÐĿ
Ġ Ð¾Ð´Ð°
Ñı ÐµÑĤ
ĠÐ´Ð¾Ð³Ð¾Ð² Ð¾ÑĢÐ¾Ð²
ĠÑĢÑıÐ´ Ð¾Ð¼
ĠÐº Ð¾Ð´Ð¸
ĠÑģÐ´Ðµ Ð»ÐºÐ¸
ĠÑĤÑĢÑĥÐ´Ð¾Ð² ÑĭÑħ
ĠÐ½ Ñĭ
ĠÐ¾ÐºÑĢÑĥÐ¶Ð° ÑİÑīÐµÐ¹
ĠÐ¸Ð½ÑĦÐ¾ÑĢÐ¼Ð° Ð½
ĠÑģÐ¿Ð¾ÑģÐ¾Ð± Ð¾Ð¼
ĠÐ²ÑĭÐ±Ð¾ÑĢ ÐºÐ¸
ĠÐ¿Ð° Ð´Ðµ
ĠÐ¿ÑĢÐµÐ´ÑģÑĤÐ°Ð²Ð¸ ÑĤÑĮ
Ð½Ð¾Ð² Ð¸Ð´
ÑįÐºÐ¾Ð½Ð¾Ð¼ Ð¸ÑĩÐµÑģÐºÐ¸Ñħ
ĠÐļ Ð°ÑĢ
ĠÐ¿ÑĢÐ°Ð² Ð¾Ð½Ð°ÑĢÑĥ
Ðĳ Ð¾Ð»ÑĮÑĪ
ĠÑģÐ² Ðµ
ĠÐ¿Ð¾ÐºÑĥ Ð¿Ð°
Ñī ÐµÐ¼Ñĥ
ĠÐ´Ð°Ð»ÑĮÐ½ÐµÐ¹ ÑĪÐµÐ³Ð¾
ĠÐ±ÐµÐ· ÑĥÑģÐ»Ð¾Ð²Ð½Ð¾
Ð³Ð° Ñħ
ĠÐ»ÐµÐ³ ÐºÐ¾
ĠÐ§ ÑĤÐ¾
ĠÐ²ÑĭÐ²Ð¾Ð´ Ñĥ
ĠÑĥÑĢÐ¾Ð² Ð½ÐµÐ¹
ĠÐ²ÑĤÐ¾ÑĢ Ð¾Ð³Ð¾
ĠÐ¿Ð¾ÑĤÑĢÐµÐ± Ð¸ÑĤÐµÐ»ÑĮ
ÑĢÑĭ Ð¼
ĠÐ´Ð¾ ÑģÑĤÑĥÐ¿Ð°
ĠÑģÐ¿ ÑĢÐ¾Ñģ
ĠÑģÐ¾Ð± ÑģÑĤÐ²ÐµÐ½Ð½Ð¾Ð³Ð¾
ĠÐ»Ð¸ Ðº
ĠÐºÐ»Ð¸ Ð¼Ð°
Ð¾Ð» Ñĭ
ĠÐ¼ÐµÐ½ ÐµÐ´Ð¶
ĠÐ·Ð° Ð²ÐµÐ´ÐµÐ½Ð¸Ñı
ĠÑģÐ»Ñĥ ÑĪÐ°
ĠÐ³Ð»Ð°Ð³ Ð¾Ð»ÑĮ
ĠÑĢÐµ ÐºÐ¾Ð½
ĠÐ¶ Ð¸Ð»Ð¸
Ð¾Ð¼ Ð¸
ĠÑĩÐµ Ð»
ĠÐ¾ÑĤÑģÑĥÑĤÑģÑĤÐ² Ð¸Ð¸
ĠÑĤÐµ Ð»Ð°
ĠÐºÑĥÑĢ ÑģÐ¾Ð²
ĠÑĨÐµÑĢ ÐºÐ²Ð¸
ĠÑįÐ¿Ð¾ ÑħÐ¸
Ð¾Ð¿ Ð¸
ĠÑĢÐ°Ð·Ð»Ð¸Ñĩ Ð½ÑĭÐ¼Ð¸
ĠÑĤÑĢÑĥ Ð´Ð¾
ÑĤ ÑĢÐ¾
ÑĬ ÑıÑģ
ĠÐ¿ÑĢÐ¸ÑĩÐ¸ Ð½Ðµ
Ð¾Ð½ Ñĥ
ĠÐ¸Ð½ Ð¶ÐµÐ½
ĠÐ²Ð¾Ð·Ð½Ð¸ÐºÐ° ÑİÑĤ
ĠÐ·Ð° Ñħ
Ð¸ÑĩÐµÑģÐº Ð¸
ĠÐ½ÐµÐ´Ð¾ÑģÑĤÐ° ÑĤÐ¾Ñĩ
ĠÑģÑĤ Ð¾Ð»Ð¸
ĠÐ°Ð½Ð°Ð»Ð¸ Ð·Ð¸
ÑĤÐµÑħ Ð½
ĠÐ¾ÑĤÑĢÐ°Ñģ Ð»ÐµÐ¹
ĠÑģÑĥÐ´ÐµÐ± Ð½Ð¾Ð³Ð¾
Ñī Ð°Ð»
ĠÐºÐ¾Ð½ÑģÑĤÑĢÑĥÐº ÑĨÐ¸Ð¹
ĠÐ¼Ñĥ Ð·Ñĭ
ĠÐ´ Ð¾Ð±Ñĭ
ĠÐŁ ÑĢÐ°Ð²Ð¸
ĠÐ¼ÐµÑĢÐ¾Ð¿ÑĢÐ¸Ñı ÑĤÐ¸Ð¹
ĠÐ´Ð¸Ð¿Ð»Ð¾Ð¼ Ð°
ÑĤ Ð½ÑĭÐ¹
ĠÐºÐ¾ Ð¾ÑĢÐ´Ð¸Ð½Ð°
ÑİÑīÐ¸Ð¼ ÑģÑı
ĠÐ´Ð¾Ð²Ðµ ÑĢÐ¸Ñı
Ñģ Ð¾Ð½Ð°
ĠÑģÐ¾Ð¾ÑĤÐ²ÐµÑĤÑģÑĤÐ² ÑĥÑİÑīÐ¸Ðµ
ĠÐ¾Ð±ÑĥÑģÐ»Ð¾Ð² Ð»ÐµÐ½Ð¾
ĠÐ»Ðµ Ð¶Ð°
Ð¸Ð· Ð¸
ĠÐºÐ¾Ð¼ Ð°Ð½Ð´
Ð¼ ÑĭÐµ
ĠÑģÐ¾Ð² ÑģÐµÐ¼
ĠÑģÑĦÐµ ÑĢÐ°Ñħ
ĠÐ±Ð»Ð¸ Ð¶Ð°Ð¹
ĠÐ¾ÑĨÐµÐ½ Ð¾Ðº
ÑĤÐ¾ ÑĩÐ½Ð¾Ð¹
ĠÐł ÑĥÑģ
Ñģ Ð½ÑĭÐµ
ĠÐ¼Ð° Ð½Ð¸
ĠÐ½Ðµ ÑĦÐ¾ÑĢÐ¼Ð°
ĠÐºÐ¾Ð¼Ð¿ ÐµÐ½ÑģÐ°
ĠÐ°ÐºÐ°Ð´ÐµÐ¼Ð¸ ÑĩÐµÑģÐºÐ¾Ð¹
ĠÐ¾Ð±ÑĬÐµÐ´Ð¸ Ð½ÐµÐ½Ð¸Ñı
ĠÑĤÐµÑĢÑĢÐ¸ÑĤÐ¾ÑĢÐ¸ Ð¹
ĠÐ²Ð¼Ðµ ÑĪÐ°
ĠÐ¸Ð½ÑģÑĤÐ¸ÑĤÑĥ ÑĤ
ĠÐµÐ²ÑĢÐ¾Ð¿ÐµÐ¹ ÑģÐºÐ¸Ñħ
ĠÐ½Ð°ÑģÐµ Ð»ÐµÐ½Ð¸Ðµ
ĠÐ²ÐµÐ´ ÐµÑĤ
ĠÑģÐ¾ÑĨÐ¸Ð°Ð»ÑĮ Ð½Ð°Ñı
ĠÑĥÑģÑĤÐ°Ð½Ð¾Ð² Ð¸ÑĤÑĮ
ĠÐ¾Ð¿ÑĤÐ¸ Ð¼Ð¸
ÑģÑĤÐ¸ ÐºÐ¸
ĠÑĥÑĩÐ°ÑģÑĤ Ð½Ð¸ÐºÐ¸
ĠÐ¿ÑĢÐ¸Ð½ÑĨÐ¸Ð¿Ð¸ Ð°Ð»ÑĮÐ½Ð¾
ĠÐ¾ÑĤ Ð½
ĠÐ´Ð¾Ð± ÑĢÐ¾Ð²
ĠÐ²Ð¾Ð· Ð¼Ðµ
ĠÐ½Ð°Ð²Ñĭ ÐºÐ¸
ĠÐ¾ÑĤÐ»Ð¸ÑĩÐ° ÑİÑĤÑģÑı
ĠÐ½Ðµ Ð²Ñĭ
ĠÐĲ Ð·Ð¸Ð¸
ĠÐ±Ð°Ð½ ÐºÐ°
ĠÐ¸ Ð¿Ð¾Ð»ÑĮÐ·
ÐºÐ° Ð·ÑĭÐ²Ð°
ĠÐ¸ÑģÑĤÐ¾ÑĢÐ¸ ÑĩÐµÑģÐºÐ¾Ð³Ð¾
Ð»Ð¸ Ð·Ð°
ĠÑģÑĤ Ð¾Ð»ÐµÑĤ
ĠÐ½ÐµÐ·Ð°Ð²Ð¸ÑģÐ¸ Ð¼Ð¾
ĠÐŁÑĢÐµ Ð·Ð¸Ð´ÐµÐ½
ĠÑĦÑĥÐ½Ðº ÑĨÐ¸Ñİ
ĠÑĦÐ¾ÑĢÐ¼ Ð¾Ð¹
ĠÐ²Ñģ Ñİ
ĠÐ´ÐµÐ»Ð° ÑĤÑĮ
ĠÑģ Ð»Ðµ
ĠÐ·Ð° Ð¼ÐµÐ½
ĠÑĢÐ°Ð· ÑĢÐ°Ð±Ð°ÑĤÑĭ
ÑĤ ÐºÐ¾Ð²
Ð»Ð¸Ð· Ð¾Ð²Ð°Ð½
ĠÑģÐ»ÑĥÐ¶Ð¸ ÑĤÑĮ
ĠÑĦ ÑĢÐ°Ð·
Ð´Ð¸ Ðº
ĠÐ¾ÑħÑĢÐ° Ð½Ñĭ
ĠÐ¿ÑĢÐ¸Ð¼ÐµÑĢ Ð¾Ð²
Ð¾Ð²Ð° Ð½Ð¸ÐµÐ¼
ĠÐ¸Ð· Ð»Ð¾Ð¶
Ð±Ð¸ ÑĢ
Ð¾ÑĢ Ð¾Ð½
Ð°Ð» Ñĭ
ĠÐ·Ð° Ð»Ð¾Ð¶
ÑĩÐµÐ½ Ð½Ð¾ÑģÑĤÑĮ
ĠÐ¿Ð¾Ð»ÑĥÑĩÐ° ÑİÑĤ
Ð¾Ð² Ð¾Ðµ
Ð¾Ð± Ðµ
Ð»Ñı Ð¼
ÑĤÑĮ Ñı
ĠÑĢÐµÐ°Ð»Ð¸ Ð·Ñĥ
ĠÐ²Ð¾ÐµÐ½ Ð½Ð¾Ð¹
ĠÐŁ ÑĢÐ°Ð²
ĠÑģÐ»Ð° Ð±Ð¾
ĠÐ¼Ð¾Ð±Ð¸ Ð»ÑĮÐ½Ð¾ÑģÑĤÐ¸
ÑĢ Ð³Ð°
ÑĢÐ° ÑģÐ¿
ĠÐĴ Ð¾ÑģÑĤ
Ð´Ð° ÑĤÑĮ
ĠÐ·Ð°ÐºÐ»Ñİ ÑĩÐµÐ½Ð¸Ñı
ÑĤÐ¸ Ð½Ð³
ÑĥÑĩ ÐµÐ½Ð¸Ðµ
ĠÑħÐ°ÑĢÐ°ÐºÑĤÐµÑĢÐ¸ Ð·ÑĥÐµÑĤÑģÑı
Ð½Ð¸ Ð²ÐµÑĢÑģÐ¸ÑĤÐµ
ĠÐ¸Ð´Ðµ Ð¾Ð»Ð¾Ð³Ð¸Ð¸
ĠÐ¿ÐµÑĢÐµÐ´Ð° ÑĩÐ¸
ĠÑģÐ¾Ð²Ð¾ÐºÑĥÐ¿ Ð½Ð¾ÑģÑĤÐ¸
ĠÐ¿ ÑĢÐ°Ð·Ð´
ĠÑıÐ·ÑĭÐºÐ¾Ð² ÑĭÑħ
ĠÐ¾ÑĤÐ¼ÐµÑĩÐ° ÑİÑĤ
ĠÐ¡Ð¾ ÑİÐ·Ð°
ĠÑģÐ»Ð¾Ð¶ Ð½Ð¾
ĠÑģÑĥ Ð²ÐµÑĢ
ĠÐºÑĢÐ¸ÑĤÐµÑĢÐ¸ ÐµÐ²
ĠÐ¼ÐµÑĢ Ð¾Ð¿ÑĢÐ¸
ÑĤ Ð½Ð¾ÑģÑĤÑĮ
ĠÐºÐ° Ð½Ð°
ÑĪ Ð¸Ð¼Ð¸
Ð¾Ð½ Ð¼Ð¸
Ð´Ðµ Ð»Ð¸
ĠÐ½Ð°ÑĩÐ° Ð»ÑĮ
ĠÐ¿ÑĢÐµÐ´Ð»Ð°Ð³Ð° ÐµÑĤ
ĠÐ¿Ð¾ÑģÐµ ÑģÑģÐ¸Ð²
ĠÑĢÐ° Ð²Ð½Ð¾
Ð³Ð° ÑĢ
ĠÑĤÑĢÑĥÐ´ Ð½Ð¾
ĠÑĢÐ°ÑģÑģ ÑĩÐ¸ÑĤÑĭ
ĠÑĩÑĥÐ² ÑģÑĤÐ²
ĠÐ¿ÑĢÐ¾ ÐµÐºÑĤÑĭ
ĠÐ²ÑĥÐ·Ð° Ñħ
Ð± ÑĢÐ¸
ĠÐ¾ÑģÐ½Ð¾Ð²Ð° Ð½Ð¸Ð¹
ĠÐ¿ÑĢÐµÐ¸Ð¼ Ñĥ
ĠÐºÐ¾Ð½ÐºÑĥ ÑĢ
ĠÐ¿ÑĢÐ¸Ð²Ðµ Ð»Ð¾
ĠÐ½Ð¸Ðº Ð¾Ð³Ð´Ð°
ĠÐĺÐ½ ÑģÑĤÐ¸ÑĤÑĥ
ĠÐ²Ð¾ÑģÐ¿Ð¸ÑĤÐ° Ð½Ð¸Ñı
ĠÐ¾Ð±Ð¾ Ð¸Ñħ
Ð» Ð¾Ð¹
ÑģÐ¸ Ð¹
ĠÐ´Ð¾Ð»Ð¶ Ð½Ð¾ÑģÑĤÐ¸
ĠÑĢÐ°ÑģÐ¿ÑĢÐ¾ÑģÑĤÑĢÐ°Ð½ ÐµÐ½Ð¸Ñı
ĠÐ¼ÐµÑĤÐ¾Ð´Ð¸ ÐºÐ¸
ĠÐ¼ Ð°Ð½
Ð¶ÐµÐ½ Ð½Ð¾ÑģÑĤÐ¸
ĠÐµÐ¶Ðµ Ð³Ð¾Ð´
Ð· ÐµÐ¹
ĠÑģÑĥÑīÐµÑģÑĤÐ² Ð¾Ð²Ð°Ð½Ð¸Ðµ
ĠÐ·Ð°Ð½Ð¸Ð¼Ð° ÐµÑĤ
Ð´Ñĥ ÑĤ
ĠÑģÑĤÐ° ÑĤÐµÐ¹
ĠÑģÑĤÐ°Ð½Ð´Ð°ÑĢ ÑĤÐ¾Ð²
ĠÐ²ÑģÐµ Ð¾Ð±
Ð¾Ñģ Ð°
ÑĤÐ¸ Ðº
ĠÐ¾ÑĦÐ¸ ÑĨ
Ð½ ÑģÐºÐ¾Ð³Ð¾
ĠÑĢÐµÐ°Ð»ÑĮ Ð½Ð¾Ð¹
Ð¾Ð»Ð¾Ð³Ð¸ÑĩÐµÑģÐº Ð¸Ð¼
ĠÑĢÐ¸ÑģÐº Ð¾Ð²
ÑĢÐ¾Ð²Ð°Ð½ Ð½ÑĭÐ¼
ĠÐ½ÐµÐ¾Ð±ÑħÐ¾Ð´Ð¸Ð¼ ÑĭÑħ
ĠÐ³ÑĥÐ¼Ð° Ð½Ð¸ÑĤÐ°ÑĢ
ĠÐ½Ð°Ð¿ ÑĢÐ¾ÑĤÐ¸Ð²
Ðľ Ð¾Ð¶Ð½Ð¾
ĠÑįÑĦÑĦ ÐµÐºÑĤÐ°
ĠÐ¿Ð¾ ÑıÐ²Ð»ÐµÐ½Ð¸Ðµ
ĠÑģÐµÐ»ÑĮ ÑģÐºÐ¾Ð³Ð¾
Ð½ Ð¼Ð¸
ĠÐ½Ð°Ð¿ÑĢÑı Ð¼ÑĥÑİ
ĠÑģÐ²Ð¾Ðµ Ð¾Ð±ÑĢÐ°Ð·
Ñī ÐµÐ½Ð¸ÐµÐ¼
ÑĤÐ¾ ÑģÑĤÑĮ
ĠÐ² ÑĢÐµÐ´
ĠÑĢÐ°Ð· Ð½ÑĭÐ¼
ĠÐ½Ð¾ÑĢÐ¼Ð° ÑĤÐ¸Ð²Ð½ÑĭÑħ
ĠÐºÑĥÐ»ÑĮÑĤÑĥÑĢ Ð½Ð¾Ð³Ð¾
ĠÑĢÐ°Ð· Ð½ÑĭÐ¼Ð¸
ĠÐ¿ÑĢÐµÐ´ ÑģÐµÐ´Ð°
ĠÑĢÐµÐ°Ð»Ð¸ Ð·Ð°ÑĨÐ¸Ñı
ĠÐ½Ð¾Ð² Ð¾Ðµ
ĠÑĥ ÑģÑĤÑĢÐ°Ð½
ĠÑĢÐµ Ð¹ÑĤÐ¸
ĠÐ² Ð¾ÑĤ
ĠÑģÐ¾Ð²Ð¾ÐºÑĥÐ¿ Ð½Ð¾ÑģÑĤÑĮ
ĠÐ² ÐµÐ´ÐµÐ½Ð¸Ñı
ĠÐ»Ð¸Ðº Ð²Ð¸Ð´
ĠÑĢÑĥ Ð±ÐµÐ¶
ĠÐ·Ð°Ð²Ð¸ÑģÐ¸ Ð¼Ð¾ÑģÑĤÑĮ
ÑĢ Ð¾ÐºÑĢÐ°
ÑĢÐ° Ð±
Ðº ÑĥÑİ
Ð¸Ñģ Ð¾Ðº
ĠÐ¾ÑĤÑĢÐ°Ð¶ ÐµÐ½Ð¸Ðµ
ÑĤ Ð¾Ð½
ĠÐ¿ÑĢÐ¾Ð´ ÐµÐ¼
ĠÐ½Ð°ÐºÐ°Ð·Ð° Ð½Ð¸Ñı
Ð¿Ðµ Ð´Ð°Ð³Ð¾Ð³Ð¸ÑĩÐµÑģÐº
ĠÐ´Ð¾ÐºÑĥ Ð¼ÐµÐ½ÑĤÑĭ
ĠÑģÐ»Ñĥ Ð¶Ð¸ÑĤ
Ð²Ð°Ð½ Ð½ÑĭÑħ
ĠÐ± Ð»
ĠÐ¿ Ð¸ÑģÐ°
ĠÐŁ ÑĢ
ĠÐ¼Ð¾Ð½Ð° ÑģÑĤÑĭ
ĠÐ²Ð·Ð°Ð¸Ð¼Ð¾ÑģÐ²Ñı Ð·Ð¸
ĠÐ¸Ð½ ÐºÐ»Ñİ
ĠÐºÐ¾Ð½ ÑģÑĤÐ°
ĠÐºÐ° ÑĦÐµÐ´
ĠÐ½ÐµÑģ Ð¾
ĠÑģÐ¸ÑĤÑĥÐ° ÑĨÐ¸ÑıÑħ
ĠÐºÐ¾Ð¼Ð¿Ð¾Ð½ ÐµÐ½ÑĤÐ¾Ð²
Ð¾Ð±ÑĢÐ°Ð· Ð¾Ð²Ð°Ð½Ð¸Ñı
ĠÐĺ Ñħ
ĠÐ¿Ð¾Ð½Ð¸Ð¼Ð° ÑĤÑĮ
ĠÐ¿ÑģÐ¸Ñħ Ð¾Ð»Ð¾Ð³Ð¸Ð¸
ĠÐºÐ¾Ð½ÑĦÐ»Ð¸Ðº ÑĤ
ĠÐľÐ¾ÑģÐº Ð²Ðµ
ĠÐ¿ÐµÑĢÑģÐ¿ÐµÐºÑĤÐ¸Ð² Ðµ
ĠÐļÐ¾Ð¼ Ð¸
ĠÐ¾Ð±Ð¾ÑĢ Ð¾ÑĤ
ĠÐ²Ñĭ ÑĢÐ°Ð·
ĠÐ²Ñĭ ÑģÑĤÑĢÐ°Ð¸
ĠÐ² Ð°ÑĢ
ĠÐ¾Ð´ Ð¾Ð±
ÑĢ Ð½ÑĭÑħ
Ð¢Ð°Ðº Ð¶Ðµ
ĠÑĤÑĢÑĥÐ´ Ð½Ð¾ÑģÑĤÐ¸
Ð¶Ð´Ð° Ñı
Ð¼Ð¾ÑĤ ÑĢÐ¸Ð¼
ĠÐ¾Ð¿ÑĢÐµÐ´ÐµÐ»ÐµÐ½ Ð½Ð¾Ð³Ð¾
ĠÐ° ÑĤÑĢÐ¸
ÑĨÐ¸ Ð½Ð°
ĠÐ·Ð°Ð´Ð°Ñĩ Ñĥ
Ð¼Ð° ÑĢ
ĠÐ±Ñĥ Ðº
ĠÐ±Ð¾ÑĢÑĮ Ð±Ðµ
ĠÑģÐ¾ ÑİÐ·Ð°
ĠÐ¼ÐµÑĤ Ð°Ð»
ĠÑĦÐ¸ Ð³Ñĥ
ĠÐ¿ÑĢÐµÐ´Ð¼ÐµÑĤ Ð°
ĠÐ½Ð° ÑĪÐ¸Ñħ
ĠÑįÐº Ð·Ð°
ĠÑĢÐ°Ð· ÑĥÐ¼
ĠÐ¿ÐµÑĢÐ² Ð¾Ð½Ð°ÑĩÐ°
Ð½Ðµ ÑĢÐ°
ĠÐ·Ð°Ð´Ð° Ð½Ð¸Ð¹
ĠÐ¿ÐµÑĢÑģÐ¿ÐµÐºÑĤÐ¸Ð² Ñĭ
ĠÐ¶ÑĥÑĢ Ð½Ð°
ĠÐ½Ð°ÑĢÑĥ ÑĪÐµÐ½Ð¸Ðµ
ĠÐ² Ð²ÐµÐ´ÐµÐ½Ð¸Ñı
Ð¾ÑĢ Ñĭ
ĠÐ½Ð°Ð· Ð²Ð°ÑĤÑĮ
ĠÐ¿ÑĢÐ¾Ð´ÑĥÐº ÑĤÐ¾Ð²
ĠÐ½Ð¾Ñģ Ð¸ÑĤ
ĠÐ¿ÑĢÐµ Ð¶
ĠÑĩÐ°ÑģÑĤÐ¸ ÑĩÐ½Ð¾
ĠÐ¿ÑĢÐµÐ´ Ð½Ð°
ĠÐ²ÐµÐ´Ñĥ ÑīÐ¸Ñħ
ĠÐ´Ð° Ð»ÐµÐµ
ĠÑģÐ»Ð° Ð²ÑıÐ½
ĠÑįÐºÑģÐ¿ÐµÑĢ ÑĤÐ¸
ÑĤÐµÐ»ÑĮ ÑģÐºÐ¸Ñħ
ĠÐ¿ÑĢÐµÐ´Ðµ Ð»Ñĭ
ĠÑĪÐºÐ¾Ð»ÑĮ Ð½Ð¾Ð³Ð¾
ĠÐºÐ»Ð°ÑģÑģÐ¸ ÑĦÐ¸ÐºÐ°ÑĨÐ¸Ð¸
Ð¾Ð´ Ñĭ
ÑĪ ÐµÐº
Ð¼Ð° Ð½Ð°
ĠÑĢÑĥÐºÐ¾Ð²Ð¾Ð´ ÑģÑĤÐ²Ð°
ĠÐºÐ¾Ð½Ðµ ÑĩÐ½Ð¾
ĠÑĢÐµ ÑĦÐ¾ÑĢÐ¼Ð¸
ĠÑĢÐ¾ÑģÑģÐ¸Ð¹ ÑģÐºÐ¾Ð¼
ĠÐ¾ÐºÐ°Ð·ÑĭÐ²Ð° ÐµÑĤ
ĠÐ²Ð¾ÐµÐ½ Ð½Ð¾Ð³Ð¾
ĠÐ² ÑģÑĤÑĥÐ¿Ð°
Ð´Ðµ ÑıÑĤÐµÐ»ÑĮ
ĠÐ¿ÑĢÐ¾Ð±Ð»ÐµÐ¼ Ð¾Ð¹
ĠÐ¿Ð°ÑĢÐ°Ð´Ð¸ Ð³
ĠÐ¸Ð¼ Ð¿ÐµÑĢ
ÑģÑĤÐ° Ð½Ð°
ĠÑĩÐµÑĤÑĭÑĢÐµ Ñħ
Ð° ÑĤÑĮ
Ð°Ðº Ð¾Ð²
ĠÑĤÐ° Ð¹
ĠÑįÑĤÐ¸ Ð¼Ð¸
ĠÐ¿ÑĢÐ¾Ð³Ð½ Ð¾Ð·
Ñģ Ñİ
ĠÐ¾Ð±ÑģÑĤÐ¾ÑıÑĤÐµÐ»ÑĮ ÑģÑĤÐ²
ĠÐ¼ÐµÑģÑĤÐ° Ñħ
ĠÐ¾Ð±ÑģÑĥ Ð¶Ð´ÐµÐ½Ð¸Ñı
ĠÑģÐ»Ð¾Ð¶ Ð½Ð¾ÑģÑĤÐ¸
ĠÐ¿ Ð¸ÑĤÐ°
ĠÐ¸ÑģÑĤÐ¾ÑĢÐ¸ Ñİ
ĠÐ·ÐµÐ¼ Ðµ
ĠÐ°ÑĢÐ³Ñĥ Ð¼ÐµÐ½ÑĤÐ°
ĠÐ³Ð¾ÑģÑĥÐ´Ð°ÑĢÑģÑĤÐ²ÐµÐ½ Ð½ÑĭÐµ
ĠÐ³ÑĥÐ±ÐµÑĢ Ð½Ð¸Ð¸
Ð½ÐµÐ½ Ð½Ð¾
ĠÐ¾Ð¿ÑĢÐµÐ´Ðµ Ð»ÐµÐ½Ð¸Ð¸
ĠÐ´Ð²Ð¸ Ð¶ÐµÐ½Ð¸Ðµ
ĠÐºÐ¾Ð½ÐºÑĥÑĢÐµÐ½ÑĤ Ð¾ÑģÐ¿Ð¾ÑģÐ¾Ð±
ĠÐº Ð¸
ĠÑģÐ² ÐµÐ´
ĠÐ´Ð¾Ðº ÑĤÑĢÐ¸
ĠÐ³ Ð°ÑĢ
ĠÐ¸Ñģ Ð»ÐµÐ´
ĠÐ²Ð¾Ð¹ ÑģÐº
ĠÐ¾Ð±ÑīÐµ ÑģÑĤÐ²ÐµÐ½Ð½Ð¾
ÑģÑĤÐ² ÑĥÑİÑīÐ¸Ñħ
ÑİÑī ÐµÐ¼
ĠÐ½Ðµ Ð´Ð¾Ð²
ĠÐĳ ÐµÑĢ
ĠÐ¿Ð¾ÑĤÑĢÐµÐ± Ð½Ð¾ÑģÑĤÐµÐ¹
ĠÐºÐ¾Ð¼Ð¸Ñģ ÑģÐ¸Ð¸
ĠÐ¿ÑĢÐ¸ÑĩÐ¸ Ð½Ð¾Ð¹
ĠÑģÑĤÑĢÐ¾Ð¸ÑĤÐµÐ»ÑĮ ÑģÑĤÐ²Ð°
Ð± Ð°Ð½
ÑİÑīÐ¸Ð¹ ÑģÑı
ĠÐ¾Ð¿ ÑĢÐµÐ´
ĠÐ¾Ð±Ð¾ÑĢ ÑĥÐ´
Ñħ Ð¾Ð¶Ð´
Ñħ Ð¾Ð¶Ð´ÐµÐ½Ð¸Ðµ
ĠÐ¿ÑĢÐ¾Ð²ÐµÐ´ ÐµÐ½Ð¸Ðµ
ÑĢÐµ Ð³ÑĥÐ»Ð¸
ĠÐ° Ð¿ÑĢÐµ
Ġ Ð¾Ð·
ĠÐ¾Ð¿ ÑĢÐ¾ÑģÐ°
ĠÐ¾Ð¿ÑĢÐµÐ´Ðµ Ð»Ð¸
ÑĢÐ¸ ÑĦ
ÑįÐºÐ¾Ð½Ð¾Ð¼ Ð¸ÑĩÐµÑģÐºÐ¾Ð³Ð¾
ĠÐľ Ðŀ
ĠÑĢÐ°Ð·Ð´Ðµ Ð»Ðµ
ĠÐ°Ð´ÐµÐº Ð²Ð°
ĠÑĢÐ°ÑģÐ¿ÑĢÐµÐ´Ðµ Ð»ÐµÐ½Ð¸Ðµ
ĠÐ±Ð¾Ð»ÑĮÑĪ ÑĥÑİ
ĠÑĤÐµÐº ÑģÑĤÑĭ
Ðķ ÑīÐµ
ĠÑĢÐµ Ð¿
ÑģÑĤ Ð¾Ð¼
ĠÐ¿Ð¾Ð² Ð»Ð¸Ñı
ÑĤÐµÐ»ÑĮÑģÑĤÐ² Ñĥ
Ð½Ð¸ Ð·Ð°
ĠÐ¿ÑĢÐ¸Ð¾ÑĢÐ¸ ÑĤÐµÑĤ
ĠÐ¾Ð±ÑĥÑģÐ»Ð¾Ð² Ð»Ð¸
ĠÐĴÐµÐ»Ð¸ÐºÐ¾Ð±ÑĢÐ¸ÑĤÐ° Ð½Ð¸Ð¸
ĠÐ¿ÑĢÐ¾Ð¼ ÐµÐ¶
ĠÐ²Ñĭ Ð±Ð¾ÑĢÐµ
Ñģ ÐµÐ½
ĠÐ¿ÐµÐ´Ð°Ð³ Ð¾Ð³Ð¸
ĠÐ¿Ð»Ð¾ Ñħ
ÑĩÐµÑģÐº Ð¾Ð¼Ñĥ
ÑĤÐ¸Ð² Ð¾Ð²
ĠÑģÐ¾ÑĨÐ¸Ð°Ð»ÑĮ Ð½ÑĥÑİ
ĠÐ¿Ð¾ÐºÐ°Ð·Ð° Ð½Ð¾
ĠÐµÐ´Ð¸ Ð½Ð¸ÑĨÑĭ
ĠÐ¿ ÑıÑĤÑĮ
ĠÑĢÐ° Ð²Ð¸
Ð¾Ð³ÑĢÐ°ÑĦÐ¸ÑĩÐµÑģÐº Ð¸Ñħ
ĠÐĵ Ð¾ÑĢ
ĠÐ²ÐµÑĢ Ð±
Ð¾Ð³Ð¾Ð² Ð¾ÑĢ
ĠÐ¾Ð´Ð° ÑĢÐµÐ½
ĠÐ¼Ð° Ð³Ð¸
ĠÐ´Ð¸Ð½Ð°Ð¼Ð¸ ÐºÐ¸
ĠÐ´ÐµÐ¼Ð¾ÐºÑĢÐ° ÑĤÐ¸Ð¸
ĠÐ¼ÐµÑĢÐ¾Ð¿ÑĢÐ¸ ÑıÑĤÐ¸Ñı
ÑĨ Ð°Ð¼
ĠÐ¿Ð»Ð° ÑĤ
ĠÐĲ Ð»
ĠÐ½ÐµÐ· Ð°ÐºÐ¾Ð½
ĠÐµÐ´Ð¸ Ð½Ð¾Ð³Ð¾
ĠÐ¸ÑģÐºÐ»Ñİ ÑĩÐµÐ½Ð¸ÐµÐ¼
ĠÐľ Ð°Ðº
ĠÑģÑĥÐ´ÐµÐ± Ð½ÑĭÑħ
ĠÐ°Ð´ÑĢÐµ ÑģÐ°
ĠÐ¿ÑĢÐ¸Ð¼ÐµÐ½Ð¸ ÑĤÐµÐ»ÑĮÐ½Ð¾
ĠÐ²Ð¸Ð· Ñĥ
Ð»ÑĮ Ð½Ð¾Ð¼Ñĥ
Ð¾Ð³ÑĢÐ°ÑĦ Ð¸Ñı
ĠÐ¸ Ð´Ð¸
ĠÑĪÐºÐ¾Ð» Ð°
ĠÐ¿ÑĢÐµ ÑģÐ»ÐµÐ´
ĠÐ¸Ð·Ð½Ð°ÑĩÐ° Ð»ÑĮÐ½Ð¾
ĠÐĴÐµÑĢ ÑħÐ¾Ð²
ĠÑģÑĢÐµÐ´ÑģÑĤÐ²Ð° Ð¼Ð¸
ĠÐ²Ð¾Ð² ÑģÐµ
Ð»Ð¸ Ð·Ð°ÑĨÐ¸Ñı
ĠÑģÐ½Ð¸ Ð¶ÐµÐ½Ð¸Ñı
ĠÑģÑĥÑī Ð½Ð¾ÑģÑĤÐ¸
ĠÑĢÐ°Ð· Ð²ÐµÑĢ
Ð°Ð»ÑĮ Ð½Ð¾ÑģÑĤÐ¸
ĠÐ¾Ð¿ÑĢÐ¾ ÑĪÐµÐ½Ð½ÑĭÑħ
ĠÑĨÐµÐ½ Ð½Ð¾ÑģÑĤÑĮ
Ð½Ð°ÑĩÐ° Ð»Ð°
ĠÑĥÑĤÐ²ÐµÑĢÐ¶Ð´Ð° ÑĤÑĮ
ĠÐ´ Ð¾Ð¿
Ð¾Ð´ÐµÑĢ Ð¶Ð°
ĠÐ¸Ð³ ÑĢ
ĠÐ¿ÑĢÐ¸Ð½Ð°Ð´Ð»ÐµÐ¶ Ð½Ð¾ÑģÑĤÐ¸
ĠÑģ ÑĨÐ¸Ð°Ð»ÑĮ
ĠÐ½Ð°Ð¸Ð¼ ÐµÐ½
ĠÐ¾Ñģ ÑĥÐ¶Ð´ÐµÐ½
ĠÐ¿ÑĢÐ¾Ð² Ð¸Ð½
ĠÐ¾ÑĢ ÑĥÐ¶
ĠÑĦÐ¾ÑĢÐ¼Ð¸ ÑĢÐ¾Ð²Ð°Ð½Ð¸Ñİ
ĠÑĥ Ñħ
ĠÐ´Ð°Ð½ Ð½Ð¾Ðµ
ÑĨÐ¸Ð¾Ð½Ð° Ð»
ĠÑįÑĦÑĦÐµÐºÑĤÐ¸Ð² Ð½Ð¾Ð³Ð¾
ÑĩÐ¸ ÐºÐ°
Ð½Ð¾Ð² ÐµÐ½Ð¸Ñı
ĠÑģÐ¸ÑģÑĤÐµÐ¼ Ð¾Ð¹
ĠÐ² Ð¿ÑĢÐ°Ð²
ÑģÑĤÐ° Ð±Ð¸
ĠÐ¾ ÑģÑĤÐ°Ð½Ð¾Ð²
ĠÐ³Ð»Ð°Ð³ Ð¾Ð»Ð°
ĠÑĢÐµÐ´ ÐºÐ¾
ĠÐ´Ð¸ Ðº
ĠÑĢÐµÐ· ÐµÑĢ
ÐĿÐ° Ð¸Ð±Ð¾Ð»ÐµÐµ
ĠÐ£ÐºÑĢÐ° Ð¸
ĠÐ½ÐµÐ¾Ð±ÑħÐ¾Ð´Ð¸Ð¼ ÑĭÐ¼
ĠÐ¿ÑĢÐ¸ÑĢÐ¾Ð´ Ðµ
ÑĢÐ°Ð¶ ÐµÐ½Ð¸Ðµ
ĠÐ¸ ÑģÑģ
ĠÐ´ÐµÑģÑıÑĤÐ¸Ð»ÐµÑĤ Ð¸Ñı
ĠÑĤÐµ ÑģÐ½Ð¾
ĠÐ¼Ð°ÐºÑģÐ¸Ð¼Ð° Ð»ÑĮÐ½Ð¾
ĠÐ½Ð°ÑĩÐ¸ Ð½Ð°Ñı
ĠÐ¸Ð½Ð´Ð¸Ð²Ð¸Ð´Ñĥ Ð°Ð»ÑĮÐ½ÑĭÑħ
ĠÐ°Ð²ÑĤÐ¾Ð¼ Ð°
ĠÐ¼ Ð¾ÑģÐº
ĠÑĤÐµ ÑģÑĤÐ¸
ÑīÐ° ÑİÑĤÑģÑı
ĠÐĲ Ð¼ÐµÑĢÐ¸
ĠÐ°Ð½Ð°Ð»Ð¸ Ð·Ð¸ÑĢÑĥ
Ð¶ Ð½ÐµÐ¼Ñĥ
ĠÑģÑĥ Ð´ÐµÐ¹
Ð¢ Ðµ
ĠÐ»ÑİÐ± Ð¾Ð³Ð¾
ĠÐ´Ð¾Ð¿Ð¾Ð»Ð½Ð¸ ÑĤÐµÐ»ÑĮÐ½Ð¾Ð³Ð¾
ĠÐ²ÑĭÐ±Ð¾ÑĢ ÐºÐµ
ĠÐºÐ° Ð¶ÐµÑĤÑģÑı
ĠÐ·Ð°ÑīÐ¸ ÑĤÐµ
ĠÑģÐ¾ÑħÑĢÐ°Ð½ ÐµÐ½Ð¸Ñı
ÑĪÐµ Ð³Ð¾ÑģÑı
ĠÐ½ÐµÑĢÐ°Ð²ÐµÐ½ ÑģÑĤÐ²Ð°
ĠÑĢÐ°Ð· Ð½Ð¾Ð²Ð¸Ð´
ÑģÐ¸ Ð¼
Ð³Ð»Ñı Ð´
ĠÐ´Ð¾Ð¿Ð¾Ð»Ð½Ð¸ ÑĤÐµÐ»ÑĮÐ½ÑĭÐµ
Ðł ÐµÐ·ÑĥÐ»ÑĮÑĤÐ°ÑĤÑĭ
ÑĢÐµ Ð»Ð¸
ĠÑĦ ÑĢÐ¾Ð½
ĠÐ¼ Ð¸Ñģ
ĠÐ²Ñĭ ÑĢÐ¾Ñģ
ĠÑĤÐµ Ð¼Ð¸
Ðº Ð»Ð¸
ĠÐ»Ðµ Ð¶Ð¸ÑĤ
ĠÐ½Ð°ÑĪ ÐµÐ¼
ĠÑģÐ¾Ð²ÐµÑĤ Ð°
ĠÐ²Ð»Ð¸Ñı ÑİÑĤ
Ð°ÑĢÐ°Ðº ÑĤÐµÑĢÐ¸
ĠÐ´Ð°Ð½ Ð½ÑĭÐ¼Ð¸
ĠÑģÑĤÑĥÐ´ÐµÐ½ ÑĤÐ°
Ð»Ð¾ÑĤ ÑĮ
ĠÐ¿Ð¾Ð»ÑĥÑĩÐ° ÐµÑĤ
ĠÑİÑĢÐ¸Ð´Ð¸ ÑĩÐµÑģÐºÐ¾Ð³Ð¾
ÑĢÐ¾Ð±Ð»ÐµÐ¼ Ð°
ĠÐļ Ñĥ
ĠÐ¿ÑĢÐ¸ Ðº
Ð±Ðµ ÑĢÐµ
ĠÐ¿ÑĢÐ¸Ð±Ñĭ Ð»Ð¸
ĠÐ³ Ð¾Ð¼
ĠÐ²Ð¾Ð¼ Ð¾Ð¶
Ð¿Ð¾Ð» Ð°Ð³Ð°
ĠÐ¿ÐµÑĢÐµ ÑĩÐµÐ½ÑĮ
ĠÑģÐ¾Ð·Ð´Ð° Ð½Ð¸Ñİ
ĠÐ¿ÐµÑĢ ÐµÐ½
ĠÐĵ ÐµÐ½
ĠÐ¾ÑģÑĤÐ° Ð»ÑĮÐ½ÑĭÑħ
ĠÑģÐµÐ»ÑĮ ÑģÐºÐ¸Ñħ
ĠÐ±Ð¸Ð±Ð»Ð¸ Ð¾ÑĤÐµ
ĠÑĩÐ¸Ñģ Ð»ÐµÐ½Ð½Ð¾ÑģÑĤÑĮ
ĠÐ¿ÑĢÐµÐ´Ð»Ð¾Ð¶ ÐµÐ½Ð¸Ð¹
Ð¾Ðº Ðµ
Ð²Ð¸ Ð¸
ÐºÐ° ÑĢ
ĠÐ± Ð¾Ðµ
ĠÐ¾Ð¿ÑĢÐµÐ´ÐµÐ»Ñı ÑİÑĤ
ÑĢÐµ Ð²Ð¾Ð»Ñİ
ÑģÑĤÐ²ÐµÐ½ Ð½Ð¾Ð¼Ñĥ
ĠÐŀ ÐŀÐĿ
ĠÐ¾ÑģÑĤÐ° ÑİÑĤÑģÑı
ĠÑĥ Ð±
ĠÑĤÐ¸ Ð¿Ñĭ
ĠÑģÐ¾Ð¾ÑĤÐ½Ð¾ ÑĪÐµÐ½Ð¸Ðµ
ĠÑģÑĥÑīÐµÑģÑĤÐ² ÑĥÑİÑīÐ¸Ñħ
ĠÑģÐ¾ÑĨÐ¸Ð°Ð»ÑĮ Ð½ÑĭÐ¼
ĠÑģÐ¿ÑĢÐ°Ð²ÐµÐ´Ð»Ð¸Ð²Ð¾ ÑģÑĤÐ¸
ĠÐ¿ÑĢÐ°ÐºÑĤÐ¸ ÐºÑĥ
ĠÐ²Ð¸ ÑĢ
ĠÑĦÐ°Ðº ÑĤÐ¾ÑĢÐ°Ð¼Ð¸
ĠÐ¿ÑĢÐ¸Ð·Ð½Ð° Ð½Ð¸Ðµ
ÑģÑĤÐ² Ð¾Ð²Ð°Ð½Ð¸Ðµ
ĠÑĪ Ð°Ð½
ĠÐ·Ð°ÑīÐ¸ ÑĤÑĥ
ĠÐ¿Ð¾Ð»ÑĥÑĩÐ¸ Ð»
ĠÐ¿Ð¾Ð»Ð¸ÑĤÐ¸ÑĩÐµÑģÐº Ð°Ñı
ĠÐ²Ð°ÑĢÐ¸Ð°Ð½ ÑĤÐ¾Ð²
ĠÐºÑĢÐ° Ñı
ĠÑģÐ¿Ð¾ÑģÐ¾Ð± Ð°
Ð¾Ð» Ð³
ĠÐ´ÐµÐ¼ Ð¾Ð½
Ð¿ ÑĢÐ°Ð²Ð¸
ĠÐ¿ÑĢÐ¾Ð´ÐµÐ¼ Ð¾Ð½ÑģÑĤÑĢÐ¸
ĠÑĢÐµÑĪ Ð¸ÑĤÑĮ
ĠÐ¡ Ð¼
ĠÐ¼Ðµ Ð´
ĠÐ°Ðº ÑĤÑĭ
ÐµÐº ÑĤÑĥ
ĠÑĢÐ°Ð·ÑĢÐµ ÑĪÐµÐ½Ð¸Ñı
ĠÐ¸Ð¼ Ð¿
ĠÐ´Ð¸Ð½Ð°Ð¼Ð¸ ÐºÑĥ
ĠÐ¸ÑģÐ¿Ð¾Ð»ÑĮÐ· ÑĥÑİÑĤ
ĠÐ» Ð¾Ð³Ð¸ÑĩÐµÑģÐº
Ð²Ð¸ Ð´ÐµÑĤÑĮ
ĠÐ´ÐµÐ»Ð° Ð¼
ÑĢÐ¾Ð²Ð°Ð½ Ð½Ð°Ñı
ĠÑĥ Ð¼ÐµÑĢ
Ð³Ð¾ ÑĢÐ¸ÑĤ
ÐĹ Ð´ÐµÑģÑĮ
ĠÐ¿Ð¾Ð½Ð¸Ð¼Ð° Ð½Ð¸Ð¸
Ð¿Ðµ ÑĢÐµ
ĠÐ½Ð¸ ÑĩÐµÐ³Ð¾
ĠÑĢÐ°Ð±Ð¾ ÑĩÐµÐ³Ð¾
ĠÑĤÑĢÐ°Ð´Ð¸ ÑĨÐ¸Ð¾Ð½Ð½ÑĭÑħ
ĠÐ¯ Ð¿Ð¾
ĠÐ°Ð´Ð¼Ð¸Ð½Ð¸ÑģÑĤÑĢÐ° ÑĨÐ¸Ð¸
Ñĩ ÑģÐºÐ¸Ñħ
Ð½Ð¸ ÐºÐµ
Ð¼Ðµ ÑģÑĤ
Ð±Ð° Ð¹
Ð¾Ð± Ð¸Ð»Ð¸
ĠÑģÐ½Ð¸ Ð·Ð¸
ĠÐ²ÐµÑĢÐ¾ÑıÑĤ Ð½Ð¾
Ð¾ÑģÐ»ÐµÐ´ ÑģÑĤÐ²Ð¸Ð¸
ĠÐ²ÑĢÐµÐ¼ÐµÐ½ ÐµÐ¼
ĠÐĿÐµ ÑģÐ¼Ð¾ÑĤÑĢÑı
Ð¾Ð·Ð½Ð° Ð½Ð¸Ñı
ĠÑĥÑĩÐ°ÑģÑĤ Ð½Ð¸ÐºÐ°Ð¼Ð¸
ĠÐ´Ð¾ÑģÑĤÐ¸ Ð¶ÐµÐ½Ð¸Ð¹
ĠÐ¼Ð¾ÑĤÐ¸ Ð²Ð¸
ĠÐ°Ð± ÑģÑĤÑĢÐ°Ðº
ĠÑĢÐ¸ÑģÐº Ð¸
ĠÑĥÑģÐ¿ÐµÑĪ Ð½Ð¾
ĠÐ¿ÑĢÐ¾Ð¸Ð·Ð¾ÑĪ Ð»Ð¾
ĠÑģÐ¾ Ñħ
ĠÑģÑĤÐ° Ð´Ð¸
Ð¾Ð½Ðµ ÑĩÐ½Ð¾
ÑĤÑĭ Ð¼Ð¸
ĠÐ· Ð»Ð¾
ĠÑģÑĥ Ð¼Ð¼Ð°
Ð´ ÑĢÐ°
ĠÐ¿Ð¾ÑĤÑĢÐµÐ± Ð½Ð¾ÑģÑĤÑĮ
ÐŁÐ¾ ÑģÐºÐ¾Ð»ÑĮÐºÑĥ
ĠÐ·Ð°Ð¿ ÑĢÐ¾Ñģ
ĠÑģÐµÑĢÐµÐ´Ð¸ Ð½Ðµ
ĠÑıÐ·Ñĭ ÐºÑĥ
ĠÑĥ Ð´Ð°ÑĢ
ĠÐļ Ð¾ÑĢÐµ
ĠÐ¤ ÐµÐ´
ĠÑģÑĤÐ° ÑĢÐ¾
ĠÐºÐ¾Ð¼Ð¿Ð»ÐµÐº ÑģÐ°
ĠÐ³Ð¾ÑĢ Ð¾Ð´Ðµ
ĠÐ²Ð¾ÑģÐ¿ÑĢÐ¸ ÑıÑĤÐ¸Ðµ
ĠÐ¸ÑģÐºÑĥÑģ ÑģÑĤÐ²Ð°
Ð²Ð° Ð»ÐµÐ½
Ð³ ÑĢÑĭ
ĠÐ¾Ð±Ð²Ð¸ Ð½Ñı
ĠÐ¸Ð¼Ðµ ÑİÑīÐ¸Ðµ
ĠÐ¿Ð¾Ð» Ð¾Ð²
ĠÐ½Ð°ÑĥÑĩ Ð½ÑĭÐµ
ĠÑĢÐµÐ³Ð¸Ð¾Ð½Ð°Ð»ÑĮ Ð½Ð¾Ð¹
ĠÐ°Ð² Ð³Ñĥ
Ð· Ð¸Ð½
ĠÐ¾ÑģÑĥÑīÐµÑģÑĤÐ²Ð»Ñı ÑĤÑĮ
Ð¸ ÑģÑĤÐ¾ÑĢÐ¸
ĠÑĦ ÐµÐ²ÑĢÐ°
ĠÐ¿ÑĢÐ¾ÑĨÐµÐ´Ñĥ ÑĢ
ÑĢÐµ ÑĨ
ĠÐ´Ðµ Ð»Ñĥ
ĠÐºÑĢÐ°Ð¹ Ð½ÐµÐ¹
Ðŀ Ðļ
ĠÑģÑĤÑĢÐ° ÑħÐ¾Ð²
ÑĢÐ¾ÑģÐ¾Ð² ÐµÑģÑĤ
ĠÐ¸Ð³ÑĢÐ° ÐµÑĤ
Ð´Ð¸ Ñģ
ĠÐ¿Ð¾Ñģ Ð¾Ð±
ĠÐ¸Ð¼Ðµ Ð»
ĠÐ²ÐµÑĢ Ñħ
ĠÐ¸Ñģ ÑĩÐµ
ĠÐ¾ÑĤ Ð¼ÐµÐ½
ĠÐŁÐ¾Ð´ Ð¾Ð±
Ð½Ð¸ÑĨÐ° Ñħ
ĠÑįÐ»Ð¸ ÑĤÑĭ
ĠÐ¿ÑĢÐ¾ ÑĪÐµÐ´
ĠÑĦÐ¸ Ðº
ĠÐ¼ ÑĥÑģ
ĠÑĢÐ°Ð· Ð³ÑĢÐ°Ð½Ð¸
ĠÐ¾ÑĤÑĢÐ°Ñģ Ð»Ðµ
ĠÑĤÐµ Ð·Ð¸Ñģ
ĠÑįÐ»ÐµÐ¼ ÐµÐ½ÑĤÐ°
ĠÑĢÐµÐ·ÑĥÐ»ÑĮÑĤÐ° ÑĤÐ°
ĠÑģÐ¾Ð²ÑĢÐµÐ¼ÐµÐ½ Ð½ÑĭÐµ
ĠÐ¾Ð¿ ÑĢÐ´Ðµ
Ð²Ð° Ð¸
ĠÐ´Ð¾ÑģÑĤÐ¸ Ð¶ÐµÐ½Ð¸Ðµ
ĠÐķ Ð³Ð¾
ĠÑģÑĥÐ´ Ð¾Ð¼
ĠÐ´Ð¸ÑģÐºÑĥ ÑģÑģÐ¸Ð¸
ĠÐ´Ð¾ÑĢ Ð¾Ð³
ĠÐ¿ÑĢÐ¾Ð´ Ð¾Ð²Ð¾Ð»ÑĮ
ĠÐ½Ð°ÑģÑĤÐ¾Ñı ÑīÐµÐ³Ð¾
ĠÐ²ÑĭÑģÑĤÑĥÐ¿Ð° ÑĤÑĮ
ĠÐ²ÑģÑĤÑĢÐµÑĩÐ° ÑİÑĤÑģÑı
Ñħ Ð¾Ð·
ĠÐ´ÐµÑı ÑĤÐµÐ»
ĠÐ¾Ð¿ÑĥÐ±Ð»Ð¸ Ðº
ĠÐ¿ÐµÐ´Ð°Ð³ Ð¾Ð³Ð°
ĠÐ¿ÑĢÐµÐ´Ð»Ð¾Ð¶ ÐµÐ½Ð¸Ðµ
Ð¶Ð´ ÐµÐ½Ð¸Ñİ
ĠÐ³Ð»Ð°Ð² Ð½ÑĭÑħ
ĠÐºÐ¾Ð» Ðµ
ĠÐ»ÐµÐº ÑģÐµÐ¼
ĠÐ²Ð¾Ñģ Ð¿
ĠÐ·Ð°ÐºÐ¾Ð½Ð¾Ð´Ð°ÑĤÐµÐ»ÑĮ ÑģÑĤÐ²Ðµ
ĠÐ³ Ð¸Ð¼
ĠÐ¾ÑģÐ²Ð¾ ÐµÐ½Ð¸Ñı
Ð¡ Ð¡
ĠÐ½Ð°Ð´Ðµ Ð¶
ÑĤ Ð½Ð°Ñı
ĠÐ²ÑĭÑģÐ¾Ðº Ð¾Ð³Ð¾
ĠÐ´Ð¾Ð» Ð³
ĠÐ¾Ð± ÑģÑĤÐ°Ð½Ð¾Ð²
ĠÐ¸Ð¼Ðµ ÐµÑĤÑģÑı
Ð½Ð¸ÑĩÐµ ÑģÑĤÐ²Ð°
ĠÐ» ÑĮ
ĠÐ²Ñĭ Ð±ÑĢÐ°Ð½
ĠÑĢÐµÐ³ÑĥÐ»Ð¸ ÑĢÐ¾Ð²Ð°Ð½Ð¸Ðµ
ĠÐ¿ÑĢÐ¸Ñģ Ð¾ÐµÐ´Ð¸
ĠÐ· Ð¾Ð½Ñĭ
ĠÑĢ Ð·
ĠÑĩÑĤ ÐµÐ½Ð¸Ñı
ĠÐŃ Ðº
ĠÐľÐ¾ÑģÐº Ð²Ñĭ
ĠÐ¶Ðµ Ð»ÐµÐ·
ĠÐ¸Ð½Ð½Ð¾Ð²Ð° ÑĨÐ¸Ð¹
ĠÐ³Ð¾Ð²Ð¾ÑĢ ÑıÑĤ
ĠÐ²ÑħÐ¾Ð´ ÑıÑĤ
ĠÐ¾ÑħÐ²Ð° ÑĤÑĭ
ĠÑĢ Ð±Ð¾ÑĤ
ĠÐļ Ð¾Ð»
Ð½ÐµÐ½ Ñĭ
ĠÐ²Ð¿ÑĢÐ°Ð² Ðµ
ĠÐ§ ÐµÑĢ
ĠÐ² Ð»Ð¸
Ð¿ÑĢÐ°Ð² Ð¾Ð²Ð¾Ð³Ð¾
Ð²ÑĪ ÐµÐµ
ÑģÑĤÑĢÑĥÐº ÑĨÐ¸Ð¸
ĠÐ¿Ð¾Ð²ÐµÑĢ Ñħ
ĠÐ½Ðµ ÑĢÐµ
ÑĦÐ¸ÐºÐ° ÑĨÐ¸Ñİ
ĠÐ²Ð½ÑĥÑĤÑĢÐµÐ½ Ð½ÐµÐ³Ð¾
ĠÑĩÐ°ÑģÑĤ ÐµÐ¹
ÑĢÐ¸ Ð½
ĠÐ¿ÑĢ Ð¾ÑĤÐ¸
ĠÑĥÐ½Ð¸Ð²ÐµÑĢÑģÐ¸ÑĤÐµ ÑĤÐµ
ĠÑģÑĢÐµÐ´ Ñĥ
ĠÐ¿ÑĢÐ¾ ÑıÐ²Ð¸
ĠÐ¾Ð´ Ðµ
ĠÐ¾ÑĤÐ²ÐµÑĤ Ð°
ÐºÐ¸ Ð½
ĠÑĥ ÑģÑĤÑĢÐ¾Ð¹
ĠÑĢÐµÐ³Ð¸Ð¾Ð½Ð°Ð»ÑĮ Ð½Ð¾Ð³Ð¾
ĠÑĩÐ°ÑģÑĤ Ð½Ð¾Ð¹
ĠÐºÐ¾ Ð¾Ð¿ÐµÑĢÐ°
ĠÐ¿Ð¾Ð´Ð³Ð¾ÑĤÐ¾Ð² ÐºÐµ
ĠÑģÑĤ ÐµÑĢÐµ
ÐµÐº ÑĤÐ¸Ð²Ð°
ĠÐ¸Ð·Ð¼ÐµÑĢ ÐµÐ½Ð¸Ñı
Ġ Ð¾Ð»
Ð»Ð¾Ð² Ðµ
ĠÐ´Ð¸ ÑģÑĤÐ°Ð½
ĠÐ²ÑĭÑģÐ¾Ðº Ð¾
Ð½Ð¸Ð· Ð¼Ð°
Ð¼Ð¸ Ð½Ð°Ð»Ð¸
Ð¾ÑĢÑı Ð´Ð¾
ĠÑĦÐ¾ÑĢÐ¼Ð¸ ÑĢÑĥÐµÑĤÑģÑı
ĠÐ¿ÑĥÐ±Ð»Ð¸ÐºÐ° ÑĨÐ¸Ð¹
ĠÑĤÑĥ ÑĢÐ¸
ĠÐ·Ð°ÑĢ Ð¿Ð»Ð°
ĠÐ½ÐµÐ¹ ÑĤÑĢÐ°
ĠÐ¿ÑĢÐµÐ´ Ñĥ
ĠÐ¿ÑĢÐ¾Ð²Ð¾Ð´ Ð¸ÑĤÑĮ
ĠÑĢÐ°ÑģÑĪÐ¸ ÑĢÑı
ĠÐ½ Ð¾Ð¼Ð¸Ð½Ð°
ÑĪÐ° ÑİÑĤ
Ð¾Ð² ÐµÐ´
ĠÑĤÑĢÑĥÐ´Ð¾ Ñĥ
Ð± Ð¸Ð½
ĠÐ¾ÑģÐ¾Ð±ÐµÐ½ Ð½Ð¾ÑģÑĤÑıÐ¼Ð¸
ĠÑģÐ»ÐµÐ´ ÑĥÑİÑīÐ¸Ñħ
ÑĢÐ¾Ð²Ð°Ð½ Ð½Ð¾Ðµ
ĠÑįÐºÐ¾Ð½Ð¾Ð¼Ð¸ÑĩÐµÑģÐº Ð¸Ð¹
ĠÐ²ÑĭÑı Ð²Ð»ÐµÐ½Ð¸Ñı
ĠÐ¿ÑĢÐµÐ´Ðµ Ð»Ð°Ð¼Ð¸
Ð½Ð°Ð» Ð¾Ð³Ð¸
ĠÐ¾Ð± Ð½Ð¾Ð²
ĠÐ¾Ð¿ Ð¾ÑģÑĢÐµÐ´
ĠÐ¼Ð¸ÑĢÐ¾Ð² Ð¾Ð³Ð¾
ĠÐļ Ð¡
ĠÑĤÑĢÐµÐ± ÑĥÑİÑĤ
Ñĩ ÑģÐºÐ¾Ð¹
Ð½Ð¸ ÐµÐ¹
ĠÑĢÐ°Ð±Ð¾ÑĤ Ð½Ð¸ÐºÐ°
Ðľ ÐµÐ¶Ð´Ñĥ
ĠÐ´ÐµÐ½ ÐµÐ³
ĠÑĥÐ±Ðµ Ð´Ð¸
Ð°Ð»Ð¸ Ð·Ð°ÑĨÐ¸Ñı
ĠÐ°Ðº ÑĨÐµÐ½ÑĤ
ĠÑĦÐ¸Ð½Ð°Ð½ÑģÐ¾Ð² ÑĭÐµ
ĠÑįÐºÑģÐ¿ÐµÑĢ ÑĤÐ¾Ð²
Ð¿Ð¸ ÑģÐº
ĠÑĦÐ¸Ð· Ð¸
ĠÐ¿Ð¾ ÑıÐ²Ð»
ĠÐºÐ° ÑĤÐ°
ĠÑĥ Ð²Ð°
ĠÐ¿Ð»Ð° Ð½Ð¾Ð²
ĠÐ¾ÑĤÐ²ÐµÑĤ Ð¾Ð²
ĠÐ·Ð°ÑĤÑĢÐ° ÑĤ
ĠÐ´ÐµÐ½ÐµÐ¶ Ð½ÑĭÑħ
ĠÐ¿ÑĢÐ¸ ÑĪ
ĠÑĤÐµÑħÐ½ Ð¾Ð»Ð¾Ð³Ð¸Ñı
Ð²Ð° Ð½Ð¸ÐµÐ¼
ĠÐºÐ¾Ð½Ðµ ÑĩÐ½Ð¾Ð¼
Ð¾Ð²Ð° Ð½Ð¸Ñİ
ĠÐ¿ÑĢÐµÐ´ ÑģÐºÐ°
Ð±Ð° Ð»Ð°Ð½
ĠÑħÐ°ÑĢÐ°ÐºÑĤÐµÑĢ Ð½Ð¾
Ð³Ð¸ Ñı
ĠÐ¿ÑĢÐ¸Ð¾Ð±ÑĢÐµÑĤÐ° ÐµÑĤ
ĠÐĳ Ñĭ
Ð±ÑĥÑĢ Ð³
Ð¿ ÐµÑĤ
ÑĪ Ñĥ
ĠÐ³Ð¾ÑĢÐ¾Ð´ ÑģÐºÐ¾Ð¹
Ð° ÑĨÐ¸Ð¸
ÐļÐ»ÑİÑĩÐµ Ð²ÑĭÐµ
ĠÐļÐ° Ð·Ð°Ñħ
ĠÐ´Ð¾Ð» Ñİ
ĠÑĢÑĥÑģ ÑģÐºÐ¸Ð¹
ĠÑĢÐµÐ°Ð»Ð¸ Ð·Ð°ÑĨÐ¸Ñİ
ĠÐ¾ÑĤÐ¼ÐµÑĩÐ° ÐµÑĤÑģÑı
ĠÐ³Ð¾ÑĢÐ¾Ð´ ÑģÐºÐ¸Ñħ
ĠÐ´Ð¾ ÑģÑĤÐ¾Ð²ÐµÑĢ
ĠÑĩÐ°ÑģÑĤ Ð½Ð¾Ð³Ð¾
ĠÑĥÑģÑĤÐ°Ð½Ð¾Ð² ÐºÐ¸
ĠÑģÑĤÐ° ÑĢÐ°
ĠÐºÑĢÐ¸ÑĤÐµÑĢÐ¸ Ð¸
ÑĤÐ¸ ÐºÐ¾Ð¹
ĠÐ¸ÑģÑģÐ»ÐµÐ´ Ð¾Ð²
ĠÐ¿ÑĢÐ°Ð² Ð¾Ð¿
ĠÐ·ÐµÐ¼ Ð»Ðµ
ĠÐĶ Ð¾
ĠÐļÐ¸ÑĤÐ° Ð¹
ĠÑįÑĤ Ð½Ð¾
ĠÐ²ÑĭÑģ ÑĪÐµÐµ
ĠÐ¾Ð±Ðµ Ð¸Ñħ
ĠÐ¿ÑĢÐ¾Ð²ÐµÑĢ ÐºÐ¸
ĠÐ½Ð°Ð±Ð»Ñİ Ð´
ĠÐ¿Ð¾Ð»Ð½Ð¾Ð¼Ð¾ÑĩÐ¸ Ñı
Ġ% .
ĠÐ°Ð³ ÐµÐ½ÑĤ
ĠÐ¸ Ð½ÑĭÐ¼
ĠÐº ÑĢ
ÐĶ ÑĢÑĥÐ³
ĠÑĤÑĢÐ°Ð´Ð¸ ÑĨÐ¸Ð¾Ð½Ð½Ð¾
ĠÑĢÐµÐ° Ð³Ð¸
ĠÐ¸ÑģÑģ Ð»Ð´
ĠÐ°ÑĢ Ð±Ð¸ÑĤ
ĠÑĥÑħ ÑĥÐ´
Ð¾Ð¼ Ð°Ð½
ĠÐ¿ÑĢÐ¸ Ð»Ð°Ð³Ð°
ĠÐ¿ÑĢÐ¾Ð²Ð¾Ð´ Ð¸Ð¼
ÑĥÐ¿ Ð¾ÑĤÑĢÐµÐ±
ĠÐ² ÑħÐ¾Ð´Ñı
Ñħ Ð´
Ð¿ÑĢÐµ Ð¶Ð½ÐµÐ¼Ñĥ
ĠÐ½ÐµÐ¼ Ð°
ĠÑģÑĢÐ°Ð² Ð½ÐµÐ½Ð¸Ñı
ĠÐĿ Ð°ÑĢ
ĠÑģ Ð¾Ð»Ð¸
ĠÑģ ÑĬ
ĠÐ¿ÑĢÐµÐ¸Ð¼Ñĥ ÑīÐµÑģÑĤÐ²Ð°
ÐµÐ¼ Ð¾ÑģÑĤÑĮ
ĠÐ± Ð»Ð°
Ð³Ð¾Ð² Ð¾ÑĢÐ¾Ð²
ĠÐ°Ð½Ð°Ð» Ð¾Ð³
ĠÑģÐ¾Ñģ Ð»Ð¾Ð²
Ð½Ð¾Ð² Ðµ
Ð¸Ð½Ð° Ð¼Ð¸
ĠÐºÐ¾Ð½ ÑĦÐ¸
ĠÐ¾Ð¿ÑĢÐµÐ´ÐµÐ»ÐµÐ½ Ð½ÑĭÐ¹
ĠÐ¿ÑĢÐµÐ´Ð½Ð° Ð·Ð½Ð°
ĠÑĤÐ°Ðº Ð¸Ð¼Ð¸
ĠÐ¿ÑĢÐ¾Ð±Ð»ÐµÐ¼ Ðµ
ĠÐ±Ñİ ÑĢÐ¾ÐºÑĢÐ°
ĠÐ²Ðµ ÑīÐ¸
ĠÑħ ÑĢÐ°Ð½
Ð¼Ñĥ Ð½Ð¸ÐºÐ°
ĠÑĨ Ð²ÐµÑĤ
ĠÐ²Ð°ÑĢÐ¸Ð°Ð½ ÑĤÑĭ
ĠÑĦÐ¾ÑĢÐ¼Ð° Ñħ
ĠÐ³ÑĢÐ°Ð¶Ð´Ð° Ð½Ð¸Ð½Ð°
ĠÐ¿Ð¾ÐºÐ°Ð·Ð° ÑĤÑĮ
ÑĤÐ° Ð¹
ĠÐ·Ð°Ð¸Ð½ÑĤÐµÑĢÐµÑģ Ð¾Ð²Ð°Ð½
ĠÐ²Ðµ Ð»Ð¸
ĠÐ¼Ð¾ÑģÐº Ð¾Ð²
ÑģÑĤÐ° Ð²Ð»ÐµÐ½
Ð¸ Ð¼Ð°
ĠÐ²ÑĭÑģÐ¾Ðº ÑĥÑİ
ĠÑģÐ¾Ð± ÑģÑĤÐ²ÐµÐ½Ð½ÑĭÐµ
ĠÐ±ÐµÐ·ÑĢÐ°Ð±Ð¾ÑĤ Ð¸
ĠÑĢÐ°ÑģÑĪÐ¸ÑĢ ÐµÐ½Ð¸Ðµ
Ð¶Ð´ ÐµÐ½Ð¸ÐµÐ¼
Ð²Ð° Ð½Ñĭ
ĠÐ¸Ð¼ Ñı
ĠÑĢÑĥÑģ ÑģÐºÐ¾
ĠÐ½ÐµÐ± Ð»Ð°Ð³
ÑģÑĤÐ°Ð²Ð»Ñı ÐµÑĤÑģÑı
ĠÑģÑĤÐ°ÑĤÐ¸ÑģÑĤÐ¸ÑĩÐµÑģÐº Ð¸
ÐµÑĤ Ð¸Ð²
ĠÑıÐ½Ð²Ð° ÑĢÑı
ĠÐ³ Ð¾ÑĢÐ¸
ĠÐ¿Ð¾ÑĤ Ð¾Ð¼
ĠÑĢÐµÐ°Ð»ÑĮ Ð½Ð¾Ð³Ð¾
Ð¾ ÑĨÐ¸
ĠÐ²ÑĭÑģ Ð¾ÐºÐ°Ñı
ĠÐ¿ÑĢÐ°Ð²Ð¾Ñģ Ð»Ð°Ð²
ĠÐ½ ÐµÐ¼Ñĥ
ĠÑģÑĤÐ°Ð½Ð¾Ð² Ð»ÐµÐ½Ð¸Ñı
ĠÐĹÐ°Ð¿Ð°Ð´ Ð½Ð¾Ð¹
ĠÐ¾ÐºÐ°Ð·Ð° Ð»Ð°ÑģÑĮ
ĠÐ¸Ð½ÐºÐ»Ñİ Ð·Ð¸Ð²
ÑģÑģ Ðµ
ĠÐµÑģÑĤÐµ ÑģÑĤÐ²ÐµÐ½Ð½Ð¾
ĠÑĤÑĢÐµÐ±Ð¾Ð²Ð°Ð½Ð¸Ñı Ð¼
ÑĢÐ°Ð¶ Ð´Ð°Ð½
ĠÐ½Ð¾Ð² ÑĥÑİ
ĠÑĦÐ¸ Ð»ÑĮ
ĠÐ¾Ñģ Ð»Ð°Ð±
ĠÑģÐ°Ð¼ ÑĭÐµ
ĠÐ½ÐµÑĥ Ð´Ð°
ÐºÐ¾ ÑģÑĤÐ¸
ĠÐ·Ð°Ð¼ÐµÑĤ Ð½Ð¾
ĠÑĢÐ¾ÑģÑģÐ¸Ð¹ ÑģÐºÐ¸Ðµ
Ð²Ð°ÐµÐ¼ Ð¾Ð³Ð¾
Ð½ Ð½ÑĭÐµ
ĠÐ¸ Ð½Ð¾
ĠÐŁ ÐµÑĢÐµ
ĠÑĥÑģÐ¸ Ð»Ð¸Ð¹
ÐºÐ¾Ð² Ð¾Ð¹
ĠÐĿ Ðĺ
ÐŁÐ¾Ð´ Ð¾Ð±
ĠÐ¿ÐµÑĢÑģÐ¾Ð½Ð° Ð»Ð°
ĠÐ²ÑģÐ¿ Ð¾Ð¼
ĠÑģ Ð´Ð°
ĠÐ·Ð° Ð»
Ð¿ÑĢÐ¾ ÑĨÐµÑģÑģ
Ð¾ÑĤ Ð²ÑĢÐ°
ĠÐ¸Ð½ÑĤÐµ Ð³ÑĢÐ¸
ÑĦÐ¸ Ð½Ð¸
ĠÐ¿Ð¾Ð·Ð½Ð° Ð½Ð¸Ñı
ĠÑģÐ»ÐµÐ´ Ð¾Ð²Ð°
ĠÐ²Ðµ ÑģÑĤÐ¸
Ð¾Ð»Ð¾Ð³ Ð°
ÑĨ Ð¾Ð½
ĠÐ½Ð° Ð¿Ð¾Ð»
ĠÑģÐ¾Ð²ÐµÑĤ ÑģÐºÐ¸Ñħ
ĠÐ¿ÑĢÐ¸Ð·Ð½Ð° Ð½Ð¸Ñı
ĠÑĢÐµÑģÐ¿ÑĥÐ±Ð»Ð¸ ÐºÐ¸
ĠÑĢÐµ ÑĪÐ¸
Ð¼ Ð¾ÑĢ
ĠÑį Ð½
ĠÑĥÑģ Ð²Ð¾
ĠÐ°ÑģÐ¿ ÐµÐºÑĤ
ĠÑĢÐµ ÑĦÐ¾ÑĢÐ¼Ð°
Ð¾Ð²Ð° ÑĤÑĮÑģÑı
ĠÑģÐµ Ð¼Ð¸
ĠÑĢÐ°Ð· Ð»Ð¸ÑĩÐ¸Ðµ
ĠÑį Ð¿
ĠÐ¢ Ð°Ð¼
ĠÑĤÐµÐ¾ÑĢÐµ ÑĤÐ¸ÑĩÐµÑģÐºÐ¸Ñħ
ĠÐ¸Ð³ Ð½Ð¾ÑĢÐ¸
ĠÐ¾Ð±ÑģÑĤÐ¾ÑıÑĤÐµÐ»ÑĮ ÑģÑĤÐ²Ð¾
ÑīÐµÐ½ Ñĭ
Ð¼Ð¸Ð½Ð° ÑĨÐ¸Ð¸
ÑĤÐµÐ»ÑĮ ÑģÐºÐ¾Ð³Ð¾
ĠÐ´Ðµ Ð»Ð¾Ð²
ĠÐ´ Ð½ÐµÐ¹
ĠÑįÐº Ð¾Ð½Ð¼Ð¸
ĠÑĥÑĩÐ° ÑģÑĤÐ²Ð¾Ð²Ð°
ĠÐ¼Ð½Ð¾Ð³Ð¾ Ð¾Ð±ÑĢÐ°Ð·
Ð¼Ð° Ñħ
ĠÐ¿ÑĢÐ¸Ð²Ð»Ðµ ÑĩÐµÐ½Ð¸Ñı
ĠÐ¾Ð±Ñģ Ð»ÐµÐ´
ÑĢÑĥ ÑİÑīÐµÐ¹
ĠÐ°Ð» Ð³Ð¾ÑĢÐ¸ÑĤ
ĠÑĢÐ°Ð·Ð¼Ðµ ÑĢÐ°
ĠÐ½Ð°ÑĪ ÐµÐ¼Ñĥ
ĠÐ¸ÑģÐ¿Ð¾Ð»Ð½Ð¸ ÑĤÐµÐ»ÑĮÐ½Ð¾Ð¹
ĠÐ¾ÑģÐ½Ð¾Ð² Ð½Ð¾Ð³Ð¾
ĠÐ²Ð¾Ð· Ð¼Ð¾
ĠÐ¼Ð° ÑĤÑĢÐ¸
ĠÐ½Ð°ÑĩÐ¸Ð½Ð° ÐµÑĤ
ĠÑĢÐ· ÑĥÐ»ÑĮÑĤÐ°
ĠÑĥÐ¿ Ð»Ð°
ĠÐºÐ¾Ð½ÑģÑĤÐ¸ÑĤÑĥ ÑĨÐ¸Ð¾Ð½Ð½ÑĭÑħ
ĠÐ²Ð¿ Ð»Ð¾ÑĤÑĮ
Ð¸Ð² ÑĪÐ¸Ðµ
Ð¾Ð»Ð¾Ð³Ð¸ÑĩÐµÑģÐº Ð¾Ð¼
ĠÐ¾ ÑħÑĢÐ°Ð½
ĠÐ¾Ð±Ñī Ð¸Ð¼
ĠÑįÑĦÑĦÐµÐºÑĤÐ¸Ð² Ð½Ð¾Ð¹
ĠÐ¿Ð¾Ð½Ð¸Ð¼Ð° ÐµÑĤÑģÑı
ĠÑĥÑĤ Ð¾Ð¿
Ð¼ Ð¾Ð³Ð¾
ĠÐºÐ¾Ð½ ÑĤÑĢÐ°
ĠÐ°Ðº ÑĨÐ¸Ð¾Ð½
ĠÑĥÑĩÐ¸ Ð»Ð¸
ĠÐŁÐµ ÑĤÐµÑĢÐ±ÑĥÑĢ
Ðŀ Ð½Ð°
ĠÐ¿Ð° ÑĤÑĢÐ¸
ĠÐ±Ð»Ð°Ð³ Ð¾ÑģÐ¾
ÐĶ Ðµ
ĠÐ¿Ð¾ÐºÐ°Ð·Ð° ÑĤÐµÐ»ÑıÐ¼Ð¸
Ð¼Ð¾ÑĤ ÑĢÐµÑĤÑĮ
ĠÑģÑĢ Ð¾ÐºÐ°
ÑģÑĤÐ¸ÑĩÐµÑģÐº Ð¸Ð¹
ĠÐ¼Ð°ÑĤÐµÑĢÐ¸Ð° Ð»Ðµ
Ð»Ðµ Ð²Ð°Ð½
ĠÐ¿ÑĢÐ¾Ð²Ðµ ÑģÑĤÐ¸
ĠÑĩ Ð»ÐµÐ½Ñĭ
ĠÐľ Ð¸
ĠÑįÐº Ð½Ð¾Ð¼
ÑĢÐµÐ¼ Ñı
ĠÐ¿Ð¾Ð¿ÑĭÑĤ ÐºÐ°
ĠÐ¿Ð¾Ð»Ð½Ð¾ ÑĨÐµÐ½
ĠÐ²Ð¸ÑĢ ÑĤÑĥÐ°Ð»ÑĮ
ĠÐ¿ÑĢ Ð¾Ð·
ĠÐ¾ÑĤÐµÑĩÐµ ÑģÑĤÐ²ÐµÐ½Ð½ÑĭÑħ
ĠÑģ Ð½Ð°
ĠÐ¼ÐµÐ´Ð¸ÑĨÐ¸Ð½ ÑģÐºÐ¾Ð¹
ĠÐ¼Ð¸Ð½Ð¸ ÑģÑĤÐµÑĢ
ÐµÐ½ Ð½ÑĥÑİ
ĠÐ¾ÑĢ Ð³
ĠÐ¼Ð¸ Ð³ÑĢÐ°ÑĨÐ¸Ð¸
ĠÑĢÐµÑĪ ÐµÐ½Ð¸Ñİ
ÑĪÐµÐ¹ ÑģÑı
ĠÐ³Ðµ Ð¾Ð¿Ð¾Ð»Ð¸
ĠÐĴ ÑĤÐ¾ÑĢÐ¾Ð¹
ĠÐºÐ°Ðº Ð¾Ð³Ð¾
Ð³ Ð¾Ð»Ð¾Ð²
ĠÐ¿ÑĢÐ¸ Ð´ÐµÑĢÐ¶Ð¸
ĠÐ¾Ð¿ÐµÑĢÐ° ÑĨÐ¸Ð¹
ĠÑĢÐ°ÑģÑģ Ñĥ
Ð¾ÑĤ Ñĭ
ĠÐ°ÑĤÑĢÐ¸ Ð±Ñĥ
ĠÑģÐ²ÐµÐ´ ÐµÐ½Ð¸Ð¹
ĠÐ¾Ñģ Ð²Ðµ
ĠÐ¿Ð¾Ð´ Ð¾Ð·
ĠÐĴÐ¾ ÑģÑĤÐ¾ÑĩÐ½Ð¾Ð¹
ĠÑĥ ÑģÑĤÑĢÐ¾Ð¹ÑģÑĤÐ²Ð°
ĠÐ¸Ð¼Ðµ ÑİÑĤÑģÑı
ĠÐ³Ð¸Ð¼ Ð½Ð°
ĠÑĩÐµÐ»Ð¾Ð²ÐµÐº Ð¾Ð¼
ĠÐ¼ ÑĥÐ»ÑĮ
ĠÐ¿Ð¾Ð²Ñĭ ÑĪÐµÐ½Ð¸Ñİ
ĠÐ´Ð¾Ð±ÑĢÐ¾Ð² Ð¾Ð»ÑĮ
ÑģÐ¸ ÑģÑĤÐµÐ¼
ĠÐ¿ÑĢÐµ Ð±Ñĭ
ĠÐ´ÐµÐ½ÑĮ Ð³Ð¸
ĠÑģ Ð³Ð»Ð°
ÐµÑĤ ÑĢÐ¸
ĠÐ¾ÐºÐ°Ð·Ð° Ð»Ð¾ÑģÑĮ
ĠÑĢÑĭÐ½Ð¾ ÑĩÐ½Ð¾Ð¹
Ð· Ðµ
Ð²Ð°ÐµÐ¼ ÑĭÐµ
ĠÐ»Ð¸ Ð½Ð¸Ð¸
Ð²ÑĪ Ð¸ÑģÑĮ
ĠÐĵ Ð»Ð°Ð²
ĠÐļ Ð¾
ĠÐ¸ÑģÑĤÐ¾Ñĩ Ð½Ð¸ÐºÐ¸
ĠÑĥÐ¼ ÐµÐ½Ð¸Ñı
ĠÐ¸Ð¼Ñĥ ÑīÐµ
ĠÑģÑĤÐµÑĢÐµ Ð¾ÑĤÐ¸
ÐµÐ½ ÑĤÑĥ
Ð± Ð¸Ð½Ð°
ĠÐĶ Ñĥ
ĠÑĢÐµÑĪÐ° ÑĤÑĮ
Ñģ Ð¾Ðº
ĠÐºÐ¾Ð½ ÑĨÑĥ
ĠÐ¾Ð±ÑīÐµ ÑģÑĤÐ²ÐµÐ½Ð½ÑĭÐµ
ĠÑģÐ¿Ðµ ÑĨ
ĠÐ³Ð¸Ð¿Ð¾ÑĤÐµ Ð·Ñĭ
ĠÑĢÑĥÐºÐ¾Ð²Ð¾Ð´Ð¸ ÑĤÐµÐ»ÐµÐ¹
ĠÐ¸Ð½Ð¸ÑĨÐ¸Ð°ÑĤÐ¸Ð² Ñĭ
ĠÐ±Ð¾Ð»ÑĮÑĪ Ð°Ñı
ĠÐ¿ÑĢÐ¾Ð¸Ð·Ð²Ð¾Ð´ ÑģÑĤÐ²Ðµ
ĠÐĿ Ðļ
ĠÐ½ÐµÑģ Ð¾Ð¼
ĠÐ²Ñĭ ÑıÐ²Ð»Ñı
Ð¼ÐµÑĤ Ð¸Ð¼
ĠÐ¿ÑĢÐ¸ Ð²Ñı
ĠÐ¾Ð±Ñī ÑĥÑİ
ĠÐ¸ÑĤ Ð¾Ð³Ð¾Ð²
ĠÐ¿Ð¾ Ñį
Ð¾Ð³ÑĢÐ° ÑĦÐ¸
ÐºÐ° ÐµÑĤ
ĠÐ¼Ð°ÑģÑģ Ð¾Ð²Ð¾Ð¹
Ð¾Ð» Ð¾Ð³Ð¾
ÑĢÐ°Ð· Ð½Ð¾Ð¼Ñĥ
ĠÐ¾Ð±ÑĢÐ° ÑīÐµÐ½Ð¸Ðµ
ĠÐºÐ¾Ð½ÑĦÐ»Ð¸Ðº ÑĤÐ¾Ð²
ĠÐ°ÑĢÑħ Ðµ
ĠÐ¾Ð¿ Ð¾ÑĢ
ĠÐ¿ÑĢÐ¸Ð¼ÐµÑĢ Ñĥ
ĠÐ½Ðµ ÑĢÐ°Ð·
ĠÐ¿Ð¾Ð»Ð¸ÑĤÐ¸ÑĩÐµÑģÐº Ð¸Ð¹
ÑįÑĤ Ð½Ð¸
ĠÐ¿ÑĢÐµÐ´ÑģÑĤÐ°Ð²Ð¸ ÑĤÐµÐ»ÑıÐ¼Ð¸
ĠÑĤÐµÐºÑģÑĤÐ° Ñħ
ĠÐ²Ð¼Ðµ ÑģÑĤÐ¾
ĠÐ´ Ð²Ð¾Ð¹
ĠÐ¿ÑĢÐ¾Ð¸Ð· Ð²ÐµÐ´ÐµÐ½Ð¸Ñı
ĠÐ¾ÑģÐ¾Ð± Ð¾Ð³Ð¾
ĠÐµÐ´Ð¸ Ð½Ð¾Ð¹
ĠÑĥÐ²ÐµÐ»Ð¸Ñĩ ÐµÐ½Ð¸Ñı
Ð²ÑĪ Ð¸Ð¼Ð¸
Ð± Ð°Ð»
ĠÐ¡ ÐĿ
ĠÐ°Ðº ÑĤÑĥÐ°Ð»Ð¸
ĠÑĥÑģÑĤÐ°Ð½Ð¾Ð² Ð»ÐµÐ½Ð¸Ðµ
ĠÑģÐ¾Ð²ÐµÑĢ ÑĪÐµÐ½Ð¸Ñı
ĠÐ¿ÐµÐ´Ð°Ð³ Ð¾Ð³
ĠÐ²Ðµ ÑīÐµÐ¹
ĠÐ²Ð½ÐµÐ´ ÑĢÐµÐ½Ð¸Ñı
ÑĢÐ¾Ð²Ð°Ð½ Ð½ÑĭÐ¼Ð¸
ĠÑģÐ¿ÐµÑĨÐ¸Ð°Ð»Ð¸ Ð·Ð¸
ĠÐ³ÑĢÐ°Ð¶Ð´Ð°Ð½ ÑģÐºÐ¾Ð¹
ÑĢ Ð½Ð¾Ð³Ð¾
ĠÐ·Ð°Ðº Ð¾Ð½Ñĭ
ĠÑģÐ»ÐµÐ´ ÑģÑĤÐ²Ð¸ÐµÐ¼
ĠÐ¾ÐºÐ°Ð·Ð° Ð»ÑģÑı
ĠÐ²Ð»Ð° ÑģÑĤÑĮÑİ
ĠÐ² Ð²ÐµÐ´ÐµÐ½
ĠÐ¾ÑģÐ¾Ð± ÑĭÐ¹
ĠÑģÑĤÑĥÐ´ÐµÐ½ ÑĤÐ°Ð¼Ð¸
ĠÑĢÑĭÐ½ ÐºÐ°Ñħ
ĠÐ² Ð»Ðµ
Ð°Ð¼ ÐµÑĤ
ĠÐ½ÐµÐ¾Ð±ÑħÐ¾Ð´Ð¸Ð¼Ð¾ ÑģÑĤÑĮÑİ
ĠÑģÐµÐº ÑģÑĥ
ĠÐ·Ð½Ð°Ñĩ ÐµÐ½Ð¸ÐµÐ¼
Ð¾Ð¿ ÑĭÑĤ
ĠÐľ Ðµ
ĠÐľ Ð¸Ð½
ĠÐ´Ð°Ð½ Ð½Ð¾Ð¼Ñĥ
ĠÑĢÐµÐ»Ð¸ Ð³Ð¸Ð¸
ĠÐ¿ÑĢÐµÐ´ Ð¾Ð¿ÑĢÐµÐ´Ðµ
ĠÐ¾ÐºÐ°Ð·ÑĭÐ²Ð° ÑİÑĤ
ÑĢÐ° Ð½Ð¸ÑĤÑĮ
ĠÐ¼Ð¸ ÑĦ
ĠÑģÑĢÐµÐ´ Ð½Ð¸Ð¹
ĠÐ¼ÐµÐ½ÑĮ ÑĪÐµÐ¹
ĠÐ°ÑĢÑħ Ð¸Ð²
Ð½ Ð¾Ðº
ĠÐ² ÑĢÑıÐ´
ĠÑĤÐ¾ ÑĩÐ½Ð¾
Ð²Ðµ Ð»Ð¸
ĠÑĥÐ½Ð¸Ð²ÐµÑĢÑģÐ¸ÑĤÐµ ÑĤÑĭ
ĠÑģÐ¿ÐµÑĨÐ¸Ð°Ð»ÑĮ Ð½Ð¾
ĠÐ¾Ð±Ð»Ð°ÑģÑĤ ÑıÑħ
ĠÐ¿ÑĢÐ¸ Ð¿
Ð¾Ð»Ð¾Ð³Ð¸ÑĩÐµÑģÐº ÑĥÑİ
ĠÑģÐ¾Ð¾Ð± ÑīÐµÐ½Ð¸Ñı
ĠÑĤÑĢÐ°ÐµÐº ÑĤÐ¾ÑĢÐ¸
ĠÐ¿ÑĢÐ¾ÑĤÐ¸ Ð²Ð¾Ð´
ĠÐ°Ðº ÑĤ
ÑĢÐ¾Ð²Ð° Ð»Ð°
ĠÐ±ÑĥÐ´Ñĥ ÑīÐ¸Ñħ
ĠÐ±Ðµ Ð»
ĠÐ´Ð¸ ÑģÑģÐµÑĢ
ĠÑĢÐ¾ ÑģÑĤÑĥ
Ð¾Ð² ÑĭÐ¼Ð¸
ĠÐ¿ÑĢÐ¸ Ð½
ĠÑĢÐ°ÑģÑģÐ¼Ð°ÑĤÑĢÐ¸ Ð²Ð°ÑĤÑĮÑģÑı
ĠÐ±Ð¾Ð»ÑĮÑĪÐµ Ð²Ð¸
ĠÑģÐ¿ÐµÑĨÐ¸ÑĦÐ¸ ÐºÑĥ
Ð¸ÑģÐ¿ Ð¾Ð»
ĠÐĴÐ»Ð° Ð´Ð¸
Ð¡ Ðļ
ĠÐ²Ð· ÑıÑĤ
Ð¡ ÑĤ
ÑĢÐµÐ½ Ð´
ÐĶÐ°Ð½ Ð½ÑĭÐµ
Ð¸ÑĤÐµÐ»ÑĮ Ð½Ð¾ÑģÑĤÑĮ
ĠÑĥ Ð±Ñĭ
ĠÐ¿ÑĢÐ¾Ð²ÐµÐ´ ÐµÐ½Ð¸Ð¸
ĠÐ¼ÑĥÐ½Ð¸ÑĨÐ¸Ð¿ Ð°Ð»ÑĮÐ½ÑĭÑħ
ĠÐ´Ðµ ÑĦ
ĠÐ²Ð°Ð¶ Ð½ÑĥÑİ
ÑĥÐ¼Ðµ ÐµÑĤÑģÑı
ĠÐ³Ð¾ÑĢÐ¾Ð´ ÑģÐºÐ¾Ð³Ð¾
ĠÐ² ÑħÐ¾Ð´Ð¸ÑĤ
ĠÑģÑĤÐ°Ð±Ð¸ Ð»ÑĮÐ½Ð¾ÑģÑĤÐ¸
ĠÑģÐ¾ÐºÑĢÐ° ÑīÐµÐ½Ð¸Ðµ
ĠÐ¸Ð³ ÑĢÐ¾Ðº
ĠÑħ Ð¾ÑĤ
ĠÑģÐ¾ÑģÑĤÐ°Ð²Ð»Ñı ÑİÑīÐµÐ¹
ĠÐ½Ð° ÑĨÐµ
ĠÑģÐµÐ¼ ÑĮÐµ
ĠÐ½Ð¸Ð· ÐºÐ¾Ð¹
ĠÐ»Ð¸ ÑĨÐµ
ĠÐ¾ÑģÐ¾Ð± Ð¾
Ñĩ ÑĤÐ¸
ĠÐ»Ð¸ÑĨ Ð¾Ð¼
ĠÐ¿Ð¾Ð·Ð²Ð¾Ð»Ð¸ Ð»Ð¾
Ð²Ð¸Ð´Ð¸Ð¼ Ð¾Ð¼Ñĥ
Ð¾Ð²Ð°Ð½ Ð½Ð¾Ð¹
ĠÐ£ ÐŁÐļ
ĠÑĢÐ°Ð±Ð¾ÑĤ Ð¾Ð¹
Ð± Ð¾Ð²
ĠÐ¾Ð± ÑĪÐ¸ÑĢ
ĠÑĢÐ° Ð½ÑĮ
ĠÐ·Ð°Ð¼ÐµÑĤ Ð¸ÑĤÑĮ
ĠÑĢÐ°Ð½ÑĮ ÑĪÐµ
ĠÑĢÑĭÐ½ ÐºÐ¾Ð²
ĠÐ³ ÑĢÐ°Ð½
ĠÑģÑĢÐµÐ´ Ð½Ð¸Ñħ
ĠÐ²ÑĭÑģ ÑĪÐµÐ¹
ĠÑįÐ¿Ð¾ ÑħÑĥ
ĠÑģÑĤÑĢ Ð¾Ð³Ð¾
ĠÐ·Ð´ÑĢÐ°Ð²Ð¾Ð¾ÑħÑĢÐ°Ð½ ÐµÐ½Ð¸Ñı
ĠÐ¾ÑĤÐ´Ðµ Ð»ÑĮÐ½Ð¾Ð³Ð¾
ĠÐ½Ð°Ð·Ð½Ð° ÑĩÐµÐ½Ð¸Ñı
Ð½ Ð¾Ð»ÐµÑĤ
ĠÐ¿ÐµÑĢÐµ ÑģÑĤÐ°
ĠÑģÐ¿Ð¾ÑģÐ¾Ð± Ð½Ð¾ÑģÑĤÐµÐ¹
Ñħ Ðµ
ĠÑģÐ²ÐµÑĢ ÑģÑĤ
Ð²Ð»Ñı ÐµÑĤ
Ñģ Ð»Ð°
ĠÐ¿ÑĢÐµÐ´ Ð¾ÑĤÐ²ÑĢÐ°
ĠÑĥÑģÐ»Ð¾Ð² Ð¸ÐµÐ¼
ĠÐ¾Ð±ÑīÐµ Ð¾Ð±ÑĢÐ°Ð·Ð¾Ð²Ð°
ĠÑĥÐ´ Ð¾Ð±
ĠÑĢÐ°ÑģÑħÐ¾Ð´ Ñĭ
ĠÐŁ Ñĥ
ĠÐ¿ÐµÐ´Ð°Ð³Ð¾Ð³Ð¸ÑĩÐµÑģÐº Ð¸Ñħ
Ñħ Ð¾Ð¼
ĠÐŀ Ñģ
ĠÑģÐ°Ð¼ Ð¾ÑĢÐµ
ĠÐ½Ð°ÑĩÐ° Ð»
ĠÑģÑĤÑĢÑĥÐº ÑĤÑĥÑĢÐ¸
ÑĢÐ¾Ð² ÐµÑĢ
ĠÐ·Ð°Ðº Ð°Ð·
ĠÐºÑĥÐ»ÑĮÑĤÑĥÑĢ Ð½Ð¾
ĠÐ¿Ð¾Ð¿ Ð°Ð´Ð°
ÑĢÐ° Ð´Ð¸
ĠÐ¾ÑĤÐ´Ðµ Ð»ÑĮÐ½Ð¾
ĠÑģÑĩÐ¸ÑĤÐ° ÐµÑĤÑģÑı
ĠÑĤÐ°Ðº ÑĥÑİ
ĠÐ¿ÑĢÐ¸Ð½ÑĨÐ¸ Ð¿Ðµ
ĠÑĢÐµÐ°Ðº ÑĨÐ¸Ð¸
ĠÐ¿ÑĢÐ¸ Ð²
ĠÑĢÐ°Ð· Ð³Ð¾Ð²Ð¾ÑĢ
ĠÑĦÐµÐ´ÐµÑĢÐ° Ð»ÑĮÐ½ÑĭÑħ
ĠÑĢÑĥÐºÐ¾Ð²Ð¾Ð´ ÑģÑĤÐ²Ð¾
ĠÑĨÐµÐ½ÑĤ ÑĢÐ¾Ð²
Ðº Ð¾Ð³
ÑģÑĤ ÑģÐºÐ¸Ñħ
ĠÑģ Ð±Ð¾ÑĢÐ°
ĠÑĪÐºÐ¾Ð» Ñĥ
ĠÑģÐ¿ÑĢÐ°Ð²ÐµÐ´ Ð»Ð¸
ÐŁ ÐµÑĢÐµ
ĠÐºÐ¾Ð¼ Ð°Ð½
ĠÐ¿ÑĢÐµÐ´ÑĬ ÑıÐ²Ð»Ñı
ĠÐµÐ´Ð¸ Ð½Ð¸
ĠÐ¿ÑĢÐ¸Ð½Ñı ÑĤÐ¸Ð¸
Ð´Ð° Ð½Ð¸Ñı
Ð¶Ðµ Ð±
ĠÑĦÑĥÐ½Ðº ÑĨÐ¸Ñı
ĠÐĴ ÑĭÑģ
ĠÐ´ÐµÐ¼Ð¾Ð½ÑģÑĤÑĢÐ¸ ÑĢÑĥÑİÑĤ
ÑĤÐµÐ»ÑĮ Ð½Ð¾Ð¼Ñĥ
ĠÐ²Ð¾Ð¹ Ð½Ðµ
ĠÑĤÑĢÑĥÐ´Ð¾Ð² Ð¾Ð³Ð¾
ÑĤÐ° ÑĨÐ¸Ñı
ĠÑįÐ»ÐµÐ¼ ÐµÐ½ÑĤ
ĠÐ¾Ð± Ð°
ÑģÐº Ð¾Ð²
ĠÐ´Ð¾ÑĪÐºÐ¾Ð»ÑĮ Ð½Ð¾Ð³Ð¾
Ð»ÐµÐ½ Ð½Ð¾Ð¼
Ð½Ð°Ð½ ÑģÐ¾Ð²
ĠÐ½ÐµÐ¾Ð±ÑħÐ¾Ð´Ð¸Ð¼ ÑĭÐµ
ĠÐ¾Ð±ÑĬÐµÐ¼ Ðµ
ĠÐ¿ÑĥÐ±Ð»Ð¸Ñĩ Ð½ÑĭÑħ
ĠÐ³Ð¾ÑĢÐ¸ Ð·Ð¾Ð½
ĠÑįÑĦÑĦÐµÐºÑĤÐ¸Ð² Ð½Ð¾
ĠÑĥ Ð²Ð¸Ð´ÐµÑĤÑĮ
ÑİÑī ÐµÐ¼Ñĥ
ĠÐ¿Ð¾ÑģÐ»ÐµÐ´ Ð½ÐµÐ³Ð¾
ĠÑģÐ°Ð¼Ð¾ Ð¾ÑĨÐµÐ½
ÐŁ Ð¾ÑģÐ»ÐµÐ´
ĠÐ¸Ð½ÑĦÐ¾ÑĢÐ¼Ð° ÑĨÐ¸Ð¾Ð½Ð½ÑĭÑħ
ĠÐ¸Ð· ÑĬ
ÑģÐ° Ð¹
ĠÐºÐ¾Ð½ÑĨÐµÐ¿ ÑĨÐ¸Ñı
ĠÐ¾ÑĤ ÑħÐ¾Ð´
ĠÐºÐ¾Ð» Ð¾Ð½Ð¸
ĠÑı Ð²Ð¸
ĠÐ¾Ð±ÑīÐµÑģÑĤÐ² Ð¾Ð¼
ĠÐ³Ð¾ÑĤÐ¾Ð² Ð½Ð¾ÑģÑĤÐ¸
ÐŀÐ´ Ð½Ð¸Ð¼
ĠÐ² ÑĤÐ¾ÑĢÐ¸
ÑĢÐ¾Ð² ÐºÐ°
Ð¾Ð²Ð° Ð½Ð°
Ð¾Ðº Ð¾Ð½
ĠÐ¾Ð¿ÐµÑĢÐ° ÑĨÐ¸Ð¸
ĠÐ² ÐµÑĤ
ĠÐŁÐ¾ ÑģÐºÐ¾Ð»ÑĮÐºÑĥ
ĠÐ²ÑĭÑħÐ¾Ð´ Ð°
Ð¼Ð¾ÑĤ ÑĢ
ÑĢ Ð¾Ð´Ð°
ĠÐ·Ð½Ð°ÑĩÐ¸ ÑĤÐµÐ»ÑĮÐ½Ð¾Ðµ
ĠÐ¿ÑĢÐ¾Ñģ ÑĮ
ĠÐ¿ÑĢÐ¾Ð¸Ñģ ÑħÐ¾Ð¶Ð´ÐµÐ½Ð¸Ñı
ÑĥÑİÑī ÑĥÑİ
ĠÑĢÐ¾Ð´ ÑģÑĤÐ²ÐµÐ½
ĠÑĦÐµÐ½Ð¾Ð¼ ÐµÐ½Ð°
ĠÑĢÐµÐºÐ¾Ð¼ÐµÐ½ Ð´Ð°
ĠÐºÐ°Ð¼ Ð¿Ð°
ĠÑĢÐ°ÑģÑģÐ¼Ð°ÑĤÑĢÐ¸ Ð²Ð°ÐµÑĤ
ĠÐĵ Ð°
ĠÐ½Ð°Ðº Ð¾Ð½ÐµÑĨ
ĠÐĲ Ðº
ĠÐ²Ð¾ÐµÐ½ Ð½Ð¾
ĠÐ² Ð²Ð¸Ð´Ñĥ
ĠÐŁ Ð¾ÑģÐ»ÐµÐ´
ĠÐºÐ»Ð° ÑģÑĤÐµ
ĠÐ·Ð°Ð²ÐµÐ´ ÐµÐ½Ð¸Ð¹
Ð¾ÑĢ Ð¼Ð°
ĠÑĥ ÑĢÐµÐ³ÑĥÐ»Ð¸
ĠÑģÑĢÐ°Ð²Ð½Ð¸ ÑĤÐµÐ»ÑĮÐ½Ð¾
ÑĢÑĥ ÐµÐ¼ÑĭÑħ
ĠÐ¿ÑĢÐ°Ðº ÑĤÐ¸ÑĩÐµÑģÐºÐ¾Ð¹
Ð¡ Ð¤
ĠÑĢÐ°ÑģÑģÐ¼Ð¾ÑĤÑĢ ÐµÐ½Ð¸Ð¸
ĠÑĦÐ¾ÑĢÐ¼Ð° Ð»ÑĮÐ½Ð¾
ĠÐºÐ¾ÑĢÐ¿Ñĥ ÑģÐ°
ĠÑģÑĤÐ°ÑĤÑĮ Ñı
ĠÐ¸ Ð´
ĠÐ½Ð° Ð³Ð»ÑıÐ´
Ð¶ Ð½Ð¾Ð³Ð¾
ĠÐł ÐĲÐĿ
ĠÐĲ ÑĦÑĢÐ¸
ĠÐºÐ¾Ð½Ðº ÑĢÐµ
ĠÑĩ ÑĥÐ¶
ĠÑįÐº Ð·
ÑĩÐµÐ½ Ð½Ð¾Ð³Ð¾
ĠÑģÑĭ ÑĢ
ĠÑĢÐ¾ÑģÑĤ Ð¾Ð¼
ĠÐĴÐµ Ð»Ð¸
ÑĩÐ¸ Ðº
ĠÑĥÑģÑĤÐ°Ð½Ð¾Ð² Ð¾Ðº
ĠÑĢÐµÐ»Ð¸Ð³Ð¸Ð¾Ð· Ð½ÑĭÑħ
ĠÐ¥ Ð°
Ð·Ñĭ Ð²
ÑĤÐ¾ Ðµ
ĠÐĲÐ½ Ð´
ĠÐ²Ð·Ð°Ð¸Ð¼Ð¾Ð¾ÑĤÐ½Ð¾ ÑĪÐµÐ½Ð¸Ð¹
ĠÐ´ Ð¾ÐºÐ°Ð·ÑĭÐ²Ð°
ĠÐ½Ð¸ Ð¶
ĠÐ¿Ð°ÑĢÐ»Ð° Ð¼ÐµÐ½ÑĤ
ĠÐ¼ÑĥÑģ ÑĥÐ»ÑĮ
ÑģÑĤÐ¸ ÑĤÑĮ
ĠÑĢÐ¸ ÑĤÐ¾ÑĢÐ¸
ĠÐ³ÑĢÐ°Ð¶Ð´Ð°Ð½ ÑģÐºÐ¸Ñħ
ĠÑĢÑĥÐ±ÐµÐ¶ Ð¾Ð¼
ĠÐ¿Ð¾ ÑħÐ¾Ð´
Ð³Ð° Ð»
ĠÐ¸Ð· Ð±Ñĭ
ĠÐĺ ÑĤÐ°
ĠÐ´Ðµ ÑĤÐµÐ»ÑĮÐ½Ð¾ÑģÑĤÐ¸
ĠÑģÐ¾Ð³Ð»Ð° ÑģÐ¸Ñı
ÑĤÐµ ÑĤÐ¾Ð²
ĠÑģÐ°Ð¼ Ð¾Ðµ
Ð¾Ð»Ð¾Ð³Ð¸ ÐµÐ¹
Ð·Ð¸ Ð°ÑĤ
ĠÐ¾ÑĤÑģÑĥÑĤÑģÑĤÐ² ÑĥÑİÑĤ
ĠÑĢÑĥÐºÐ¾Ð²Ð¾Ð´ ÑģÑĤÐ²Ð¾Ð¼
ĠÐ¿ÐµÑĢÐ² ÑĭÐ¼
ÑģÑĥÑĤÑģÑĤÐ² Ð¸Ðµ
ÑĤÐ°Ðº Ð¸
ĠÐ¿Ð¾ÑĢÑĤ ÑĦÐµ
ĠÐ¿Ð¾ÑģÑĤ ÑģÐ¾Ð²ÐµÑĤ
ĠÐ¸Ð· Ð´Ðµ
ĠÐ¾Ð¿ÑĢÐµÐ´ÐµÐ»ÐµÐ½ Ð½ÑĭÐ¼
ĠÑĨÐµÐ½ÑĤ ÑĢÐµ
ÑīÐµÐ½ Ð½ÑĭÑħ
ĠÑĢÐ°ÑģÑģÐ¼Ð¾ÑĤ ÑĢÐµÐ½Ð¸Ðµ
ĠÐ°ÑģÐ¿ ÐµÐºÑĤÐ¾Ð²
ĠÐ´Ð¾ ÑģÑĤÐ¾
ĠÐºÐ¾Ð¼Ð¿Ð¾Ð½ ÐµÐ½ÑĤ
Ð· ÐµÑĢ
Ð¾ÑĢ Ð¾Ð¶
ĠÑĢÐµÐ°Ð»ÑĮ Ð½ÑĭÑħ
ĠÐ·Ð° Ð¿Ð¾Ð»
Ð»Ð¾ Ðµ
ĠÑģÐ¾Ð¿ ÑĢÐ¾ÑĤÐ¸Ð²
ĠÑģÐ¿Ð¾ÑģÐ¾Ð± Ð½Ñĭ
ĠÐ¿Ð¾Ð´Ð²ÐµÑĢ Ð³
ĠÐĿÐ° Ð¸Ð±Ð¾Ð»ÐµÐµ
ÑģÐ¸ Ñİ
ĠÐĴ ÐµÐ½
ĠÐ¸Ð·Ð¼ÐµÐ½ Ñı
ĠÑģÑĥÐ´Ð¾Ð¿ÑĢÐ¾Ð¸Ð·Ð²Ð¾Ð´ ÑģÑĤÐ²Ð°
ĠÐ° Ð³ÑĢÐ°
Ð¾Ðº Ð¾
ĠÑĥÐ³ Ð»ÑĥÐ±
ÑĢÐ¾Ð²Ð° Ð»Ð°ÑģÑĮ
ĠÐº Ð¾Ð³Ð¾
ĠÑĩÐ¸ ÑģÑĤ
ĠÐ¿ÑĢÑıÐ¼ Ð¾Ð¹
ĠÐ¸ Ð½ÑĭÐ¼Ð¸
ĠÑĢÐµÐ· ÐºÐ¾
ĠÐ»Ð¸Ñĩ Ð½Ð¾Ð³Ð¾
ĠÐ´ÐµÐ¼ Ð¾Ð³ÑĢÐ°ÑĦÐ¸ÑĩÐµÑģÐº
ĠÐ¼Ð¾Ð½Ð¸ÑĤÐ¾ÑĢÐ¸ Ð½Ð³Ð°
ĠÐ²Ð°ÑĢ ÑĮÐ¸
Ð¾Ð¼ Ð¾
ĠÐ´Ð¸ÑĦÑĦÐµÑĢÐµÐ½ ÑĨÐ¸
Ñį Ð½
ĠÐ±Ð¾Ð»ÑĮÑĪ Ð¸Ð¼
Ð¡ Ðµ
ĠÐ·Ð½Ð°ÑĩÐ¸Ð¼ ÑĭÐµ
ÑĢ ÐºÑĥ
ÑģÑİ Ð´Ð°
Ð¾ ÑħÑĢÐ°Ð½Ð¸
ĠÐ¾ÑĢ ÑĦ
Ð½ÐµÐ² ÐµÐº
ĠÐ´Ð° Ð²Ð½Ð¾
ÐŃ Ðº
ĠÐ½Ð¾ÑĢÐ¼Ð° ÑĤÐ¸Ð²Ð½Ð¾
ĠÑģÐ° Ð¹
ĠÐ´ ÐµÐ¹
ĠÐ¿Ð»Ð°Ð½Ð¸ ÑĢÐ¾Ð²Ð°Ð½Ð¸Ñı
ĠÐ¼ Ð¸Ð½
ÑĢÑĭ Ð²Ð°
ĠÑģÐ¾Ð¿Ð¾ÑģÑĤÐ° Ð²Ð¸
Ð´Ð° Ð¼Ð¸
ÑĢÐ°Ð² Ð½Ð¸
ĠÐ´Ð¸ÑģÐºÑĥÑĢ Ñģ
ĠÑģÑĤÐ°ÑĤÐ¸ÑģÑĤÐ¸ ÐºÐ¸
ĠÐ´Ð¸ÑģÐºÑĥÑĢ ÑģÐ¸Ð²
Ðŀ ÑĩÐµÐ²Ð¸Ð´Ð½Ð¾
Ðº ÑĢÐ¸
ĠÐ°Ðº ÑĤÐ¾ÑĢÐ¾Ð²
Ð¸ ÑģÑĤÐµÐ¼
ĠÐ¿ÑĢ Ð¾ÐºÑĥ
Ñĳ ÑĤ
ĠÐ°Ð´ÑĢÐµ Ñģ
ĠÐĶ Ð¸
ĠÐ²Ð·ÑĢÐ¾Ñģ Ð»ÑĭÑħ
ÐŁ Ð¾Ð¼Ð¸Ð¼Ð¾
Ð¦ ÐµÐ»ÑĮ
ĠÑģÐµÑĤ ÑĮ
ĠÐ³ Ð¾Ð»Ð¾Ð²
ĠÑĢÐ°Ð· Ð±Ð¸ÑĢÐ°
ĠÑįÐºÑģÐ¿ Ð»Ñĥ
ĠÐ¿ÐµÐ´Ð°Ð³Ð¾Ð³Ð¸ÑĩÐµÑģÐº Ð¾Ð¹
Ñģ ÑħÐ¾Ð´Ñı
Ð¸Ð· Ð¼Ð°
ĠÑģÑĥÐ±ÑĬ ÐµÐºÑĤÐ¾Ð¼
ÑįÐºÐ¾Ð½Ð¾Ð¼ Ð¸ÑĩÐµÑģÐºÐ¾Ð¹
ĠÑģÑĥÐ¼ Ð¼Ñĭ
ĠÑĥÐ½Ð¸ ÑĩÑĤ
ĠÐ¸Ð´Ðµ Ñİ
ĠÐ¿ÑĢÐµÐ´Ð¿ÑĢÐ¸ Ð½Ñı
ĠÐºÐ¾Ð½ÐºÑĢÐµÑĤ Ð½ÑĭÐµ
ĠÐ½Ð¸Ð· ÐºÐ¸Ð¼
ĠÐ¾Ð´ Ð½Ð¾Ð¼Ñĥ
ĠÐ¸Ð½Ð½Ð¾Ð²Ð° ÑĨÐ¸Ð¾Ð½Ð½Ð¾Ð¹
ĠÑĤÐµ ÑĢÑı
ĠÐ¿Ð¾Ð¿ ÑĭÑĤÐ°
ĠÑģÐ´Ðµ Ð»Ð¾Ðº
ĠÐºÐ¾Ð¼Ð¿Ð¾Ð½ ÐµÐ½ÑĤÑĭ
ĠÐ³ ÑĢÑĥ
ÑīÐ° ÑĤÑĮÑģÑı
ĠÑĥÑģÑĤÐ¾Ð¹ÑĩÐ¸ Ð²Ð¾Ð³Ð¾
ĠÐ²Ð·ÑĢÐ¾Ñģ Ð»
ĠÐ¿ÑĢÐµÐ´Ð¿ Ð¸ÑģÐ°
ĠÐĴ Ð¾Ð¿ÑĢÐ¾Ñģ
ĠÐ»Ð¸Ñĩ Ð½ÑĭÑħ
Ġ 2
ĠÑĢÐ°Ð·Ð»Ð¸Ñĩ Ð½ÑĭÐ¼
ĠÑģÐ¾Ð¾ÑĤÐ²ÐµÑĤÑģÑĤÐ² Ð¸Ðµ
ĠÐºÐ¾Ð¼Ð¼ÑĥÐ½Ð¸ÐºÐ° ÑĤÐ¸Ð²Ð½Ð¾Ð¹
ĠÐ¼ÑĭÑģ Ð»ÑĮ
ĠÑģÑĢÐµÐ´ ÑģÑĤÐ²Ð¾Ð¼
ĠÐ¡ ÐŁ
ĠÐºÐ¾Ð½ ÑĨÐµÐ½ÑĤÑĢÐ°
ĠÐºÐ¾Ð» Ð»ÐµÐ´
ĠÐ¿ÑĢÐ¾Ð°Ð½Ð°Ð»Ð¸ Ð·Ð¸
ÑĪÐµÐ½ Ñĭ
ĠÐ½Ð°Ð· Ð²Ð°Ð½Ð¸Ñı
ĠÐ³ÑĢÑĥÐ¿Ð¿Ð° Ð¼Ð¸
ĠÐ¿ÑĢÐ¸ Ð²Ð¸
Ð½Ð¸Ð· Ð¼
ĠÑģÑĤÐµÐ¿ÐµÐ½ÑĮ Ñİ
ÑĢÐ° ÑīÐ¸
ĠÑģÑĤÐ°Ð² ÐºÐ¸
ĠÐ±Ð°Ð½ ÐºÐ¸
ĠÐ¼Ð°ÑĢ ÑĤÐ°
ĠÐ´Ð¾Ð» Ð³Ð¾Ð²
ĠÐ¾Ð±ÑĬÐµÐ´Ð¸ Ð½Ñı
ĠÐ¸Ð·Ð±Ðµ Ð¶Ð°ÑĤÑĮ
ÑģÑĤÐ¾Ñı Ð½Ð¸Ðµ
Ð¿Ð¾Ð»Ð¸ ÑĤÐ¸ÑĩÐµÑģÐºÐ¾Ð¹
Ð± ÑĢÐµ
Ð½ ÐºÐ¾Ð²
ĠÐ±Ð¾Ð»ÑĮÑĪ Ð¸Ñħ
ĠÐ½Ð¾ÑĢÐ¼Ð° Ð¼Ð¸
ĠÐ¿ÑĢÐ°Ð²Ð¸ ÑĤÐµÐ»ÑĮ
Ð¾Ð» Ð¾ÑĤ
ĠÐ»Ð¸ ÑĨÐµÐ½
ĠÑģÑĭ Ð³ÑĢÐ°
ĠÑģÑĨÐµÐ½ Ð°
ĠÐ½ÐµÐ¼ Ð½Ð¾Ð³Ð¾
ĠÐ´Ð¸Ð½Ð°Ð¼Ð¸ ÐºÐ°
ĠÐ½ÐµÐ¸Ð·Ð±ÐµÐ¶ Ð½Ð¾
ĠÐº Ð°Ð½
ĠÐ¾ÑĤ ÑĩÐ°ÑģÑĤÐ¸
ĠÑģ ÑĢÐµÐ´Ð°
ÑģÑģÐ¸ Ð¾Ð½
ĠÐ´ÐµÐ¹ÑģÑĤÐ² Ð¾Ð²Ð°ÑĤÑĮ
ĠÐ²ÑĭÑģ ÑĪÐ¸Ñħ
ĠÐ¿ÑĢÐ¾ÑĤÐ¸Ð²Ð¾Ð´ ÐµÐ¹ÑģÑĤÐ²
ĠÐ¸Ñģ ÑĩÐµÑĢ
ĠÑĢÐµÑģÑĥÑĢ Ñģ
ĠÐŁ Ð°ÑĢ
ÑĤ ÑĢÑĥ
ĠÐ³Ðµ Ð¾Ð³ÑĢÐ°ÑĦÐ¸ÑĩÐµÑģÐº
ĠÐ¿Ð¾ ÑıÐ²Ð»ÐµÐ½Ð¸Ñı
ĠÐ±ÑĥÐ´Ñĥ ÑĩÐ¸
ĠÑĢÐ°Ð·Ð»Ð¸ÑĩÐ° ÑİÑĤÑģÑı
ĠÐºÐ¾Ð¼ Ð¼ÐµÐ½ÑĤÐ°
ĠÐ¿ÑĢÐ¸ÑĩÐ¸ Ð½Ð°Ð¼
ĠÐºÐ¾Ð¼Ð¿ÐµÑĤÐµÐ½ÑĤ Ð½Ð¾ÑģÑĤÐ¸
ĠÑĩÐ° ÑģÐ¾Ð²
ĠÐ¿Ð¾ÑģÐ²ÑıÑīÐµÐ½ Ð½ÑĭÑħ
ÑĢ Ð½Ð¾Ð¹
ĠÐ± Ð°Ðº
ĠÐ¾ÑĨÐµÐ½ Ð¾
ĠÐ¿ÑĢÐ¾ÑģÐ»Ðµ Ð¶Ð¸
ĠÐ²ÑĭÐ±Ð¾ÑĢ Ð¾Ð²
Ñİ Ð½
ĠÐ±Ð°Ð½Ðº ÑĢÐ¾ÑĤ
ĠÐ¾ÑĤ Ð²ÐµÑĢ
ĠÑģÐ¾Ð´ÐµÑĢ Ð¶
ÐĶÐ°Ð½ Ð½ÑĭÐ¹
ĠÐ¿ÑĢÐµÐ·Ð¸Ð´ÐµÐ½ ÑĤ
ĠÐ¸ÑģÑĤÐ¾ÑĢÐ¸ Ð¾Ð³ÑĢÐ°ÑĦÐ¸Ð¸
ĠÐ¥ Ð¾ÑĤÑı
ÑİÑīÐ¸Ð¼Ð¸ ÑģÑı
ÐĴ Ð¾Ð¿ÑĢÐ¾Ñģ
ĠÑģ Ð¾ÑģÑĥ
ĠÐ¼Ð¸Ð½Ð¸Ð¼Ñĥ Ð¼
ÑĢÐµ Ð¿Ð¸
Ð¾Ð» Ð¸Ð½Ð³
ĠÐ· ÐµÑĢ
ĠÐ¿Ð¾Ð´Ð³Ð¾ÑĤÐ¾Ð² ÐºÑĥ
Ð²ÑĪÐµÐ¹ ÑģÑı
ĠÐ²ÑĭÑĢÐ°Ð¶Ð° ÐµÑĤÑģÑı
ĠÐ¿Ð¾ ÑģÑĤÑĥÐ¿Ð¸
ĠÑĨÐ¸ ÐºÐ»Ð°
ĠÑģÐµÐ½ÑĤ ÑıÐ±ÑĢÑı
ĠÐ½Ðµ Ð²ÐµÑĢ
ĠÑĩÑĢÐµÐ·Ð²ÑĭÑĩÐ°Ð¹ Ð½Ð¾
Ð¡ Ð¢
Ñİ ÑģÑı
ĠÑģÐ¾Ð¾Ð± ÑīÐµÑģÑĤÐ²Ð¾
ÐµÑĤ Ð¾Ð´
Ñĳ Ð¼
ĠÑģÐ¾Ð¾ÑĤ Ð²Ðµ
ĠÐ¿ÑĢÐ¾Ð¸Ð· Ð¾
ĠÐ²ÑĭÐ¿Ð¾Ð» Ð½ÐµÐ½Ð¸Ðµ
ĠÑĦ Ð¾ÑĤ
ĠÐĳ ÑĥÑĢ
ĠÑİÑĢÐ¸ Ñģ
ĠÐºÐ¾ÑĢÑĢÐµÐº ÑĤÐ¸
ĠÑĥ Ð½
ÑĢÐµ ÑĩÐ¸
ĠÐ³Ð»Ð° Ð²Ðµ
ĠÐµÐ´Ð¸Ð½ ÑģÑĤÐ²Ð°
ĠÑĥÐºÐ°Ð·ÑĭÐ²Ð° ÑİÑĤ
ĠÐ½ÐµÐ¾Ð´Ð½ Ð¾ÐºÑĢÐ°ÑĤÐ½Ð¾
ĠÑģÑĢÐ°Ð² Ð½ÐµÐ½Ð¸Ð¸
ĠÐºÑĢÐµÑģÑĤÑĮ Ñı
ĠÐ²Ð¿Ðµ ÑĩÐ°ÑĤ
ĠÐ´Ñĥ Ð¼Ð°
ĠÐ¸Ð³ÑĢÐ° ÑİÑĤ
ĠÐ¢Ð°Ðº Ð¸Ðµ
Ð» ÐºÐ°
ĠÑģÑĤ ÐµÐ½
ĠÐºÐ¾ÑĢ Ð¾ÑĤ
ĠÐĳ ÐµÐ·
ĠÐ¸Ð½ÑĦÐ¾ÑĢÐ¼Ð° ÑĨÐ¸Ð¾Ð½Ð½Ð¾Ð¹
ĠÑĦÐ°Ðº ÑĤÑĭ
ĠÐ¾Ð¿Ñĭ ÑĤÐ¾Ð¼
ÑĩÐ¸ÑĤÑĭ Ð²Ð°Ñı
ÑģÑĤ ÐµÑĤ
Ð¾ÑĢÐ¸ ÐµÐ½ÑĤÐ¸
ĠÐ¾Ð±ÑıÐ·Ð° ÑĤÐµÐ»ÑĮÐ½Ð¾
ÑĤ ÐºÐ°
ÑģÐ¿Ðµ ÑĪ
ĠÑĤÐ° ÑĤÐ°ÑĢ
ĠÐ¿ÑģÐ¸Ñħ Ð¾Ð»Ð¾Ð³Ð¸ÑĩÐµÑģÐºÐ¾Ð¹
ĠÐ¸ÑģÑĤÐ¾Ñĩ Ð½Ð¸Ðº
ĠÐ²ÑĭÐ¿Ð¾Ð» Ð½ÐµÐ½
ĠÑĢ Ð¾Ð¶Ð´Ð°
ÑģÑĥ Ð´Ð°ÑĢ
ĠÑĥÐ± Ð¸Ð¹
ĠÐ¿ Ð¾Ð¶Ð¸
Ð¾ÑĢ Ð¾Ð´
ĠÐľ Ð¸Ñħ
ĠÐ´Ð¸ÑģÐº ÑĢÐ¸
ĠÑģÐ¿ÐµÑĨÐ¸ÑĦÐ¸ ÐºÐ¸
Ð¼Ñĭ Ð¹
Ð¾Ð²Ð° Ð½Ð¾
Ð¿Ðµ ÑĢÐ°
ĠÐº Ð²Ð°
Ð°Ð»Ð¸ ÑĩÐ¸Ðµ
ĠÑĢÐ°ÑģÑģÐ¼Ð°ÑĤÑĢÐ¸Ð²Ð°ÐµÐ¼ ÑĭÑħ
ĠÑĥÑģÐ»Ð¾Ð² Ð¸Ð¸
Ñı Ð²
ĠÐ·Ð° ÑīÐ¸ÑĤ
ÐĶÐ° Ð»ÐµÐµ
ĠÐ¿Ð¾Ð´Ð´ÐµÑĢÐ¶ ÐºÐ°
ĠÑĥÐ¼ ÐµÐ½Ð¸Ð¹
Ðº Ð°Ðº
ĠÐ´ÑĢÑĥ Ð³Ð¾Ðµ
Ðĺ ÑģÐ¿
Ð´ÐµÑıÑĤÐµÐ»ÑĮ Ð½Ð¾ÑģÑĤÐ¸
Ñĩ ÑģÐºÐ¾Ð³Ð¾
ĠÐ½ Ð¾Ð²Ð°Ñı
Ð»Ð¾Ð¶ ÐµÐ½Ð¸Ðµ
ĠÐºÐ»Ð°ÑģÑģ Ðµ
ĠÐ¿ÑĢÐ¾ÑĤÐ¸Ð²Ð¾ÑĢÐµÑĩÐ¸ Ñı
ĠÑģÐ¾Ð¾ÑĤÐ²ÐµÑĤÑģÑĤÐ² ÑĥÑİÑīÐµÐ¹
ĠÐ¸ÑģÐ¿Ð¾Ð» Ð½ÐµÐ½Ð¸Ðµ
ĠÐ¿ÑĢÐ¸Ð¾Ð± ÑĢÐµ
ĠÐ·Ð°ÐºÐ»Ñİ ÑĩÐµÐ½Ð¸Ðµ
ÑĪ ÐµÐ¼Ñĥ
ĠÐº Ð¾ÑģÑĤ
ĠÐ´ Ð²Ð¾ÑĢÑı
ĠÐ¿Ð¾ Ð¾Ñī
Ð¸ ÑĤÐµÐ»Ð¸
ĠÐķÐ²ÑĢÐ¾Ð¿ÐµÐ¹ ÑģÐºÐ¾Ð³Ð¾
ĠÑĦ ÑĢÐµÐ¹
ÐºÑĥ Ð¿
Ð¸Ð½ Ð»ÑıÐ½
ĠÐºÐ¾Ð¼Ð¼Ñĥ Ð½Ð¸
Ð°Ð»ÑĮ Ð½Ð¾ÑģÑĤÑĮ
ĠÑģÐ¾ÑģÑĤÐ°Ð²Ð»Ñı ÑİÑīÐ¸Ñħ
ĠÐ²Ð°Ð¶ Ð½Ð¾Ð¹
ĠÑĥÐ¿ Ð¾ÑĢÑıÐ´Ð¾
ĠÑģÐ¾Ð¿ ÑĢÑı
ĠÑĢÐ°Ð±Ð¾ÑĤÐ° ÑİÑĤ
ĠÐ¿ÑĢÐ¾ÑĪ Ð»Ð¾Ð¼
ĠÐ´ Ð²Ð¾ÑĢ
ĠÐ¾Ð±ÑĬÑıÑģ Ð½ÐµÐ½Ð¸Ñı
ĠÑĪÐ¸ÑĢÐ¾Ðº Ð¸Ð¹
Ð¨ ÐŃ
ÐµÐ¼ ÑĥÑİ
ĠÑģÐ¾Ð¾ÑĤÐ²ÐµÑĤÑģÑĤÐ² Ð¸Ñı
Ñģ ÑĢÐµÐ´
ĠÑģ ÑĦ
Ð¼ÐµÐ½ ÐµÐ½Ð¸Ðµ
ĠÐ¿Ð¾Ð»Ð¾Ð¶ Ð¸ÑĤÐµÐ»ÑĮÐ½Ð¾
ĠÐµÐ²ÑĢÐ¾Ð¿ÐµÐ¹ ÑģÐºÐ¾Ð¹
ĠÑģÐ¿ Ð¸ÑģÐ¾Ðº
ĠÐ²Ð°Ð¶ Ð½ÐµÐ¹ÑĪÐ¸Ñħ
ĠÑĢÐ°Ð±Ð¾ÑĤÐ° ÐµÑĤ
ĠÑģÑĤÑĢÐ¾Ð¸ÑĤÐµÐ»ÑĮ ÑģÑĤÐ²Ð¾
ĠÐ¿ÑĢÐ¾ ÑĩÐ¸Ñħ
ĠÐ¿ÑĥÐ±Ð»Ð¸ÐºÐ° ÑĨÐ¸Ð¸
ĠÐ¿Ð»Ð° Ð½Ð°
ĠÑģÐ¾ÑħÑĢÐ°Ð½ ÐµÐ½Ð¸Ðµ
Ð¾Ð· Ð³Ð»Ð°
ÐµÐ¼ Ð¾
ÑĨÐ¸Ð°Ð»ÑĮ Ð½ÑĭÐµ
ÐµÐ´ ÑĮ
ĠÐ·Ð½Ð° ÐºÐ¾Ð²
ĠÐ±Ð¾Ð»ÑĮÑĪ Ð¸Ðµ
ĠÑĢÐ°Ð· Ð½Ð¾Ð³Ð¾
ĠÐ¾ÑģÑĥÑīÐµÑģÑĤÐ² Ð»ÐµÐ½Ð¸Ðµ
Ð°Ð½ Ðµ
ÑĢÐ¾Ð² Ðµ
Ð¢ Ð¾
Ð¾Ð¿ ÑĢÐ°Ð²
ĠÑģÐ¸ Ð»ÑĮ
ĠÐ²ÐµÑĢ Ð½Ñĥ
ĠÐ¿Ð¾Ð´Ð´ÐµÑĢÐ¶ ÐºÐµ
ĠÑĢÐ°Ð·ÑĢÐ°Ð±Ð¾ÑĤ ÐºÐ°
ĠÐ²Ðµ Ñģ
Ð³ÑĢÐ° Ð¼
ĠÐ³Ð°ÑĢ Ð¼Ð¾
Ð¿Ð°ÑĢ ÑĤÐ°
ĠÐ¿Ð¾Ð»Ð¸ÑĤÐ¸ÑĩÐµÑģÐº ÑĥÑİ
ĠÑĥÑĩÐ°ÑģÑĤÐ¸ ÐµÐ¼
ĠÐ¿Ð¾Ð²ÑģÐµÐ´Ð½ÐµÐ² Ð½Ð¾Ð¹
ĠÐ¾Ð±ÑĢÐ° ÑĤÐ¸ÑĤÑĮ
Ð²Ð» ÐµÐ½Ð¸ÐµÐ¼
Ð¡ Ð¾Ð²ÑĢÐµÐ¼ÐµÐ½
Ð¡Ð»ÐµÐ´ Ð¾Ð²Ð°ÑĤÐµÐ»ÑĮÐ½Ð¾
Ñı Ð·
ĠÐ¿ Ð»Ð¸
ĠÑģÐ¾Ð·Ð´Ð° Ð²Ð°ÑĤÑĮ
ÐµÑĢÐ° Ð¼Ð¸
ĠÐ»ÑİÐ´ ÑıÐ¼
Ð¾Ð»ÑĮ ÑĪÐµ
ĠÑģÑħ Ð¾Ð¶
ĠÑģÑĤÐ¾ÑĢ Ð¾Ð½Ðµ
Ð²ÐµÐ´ ÐµÐ½Ð¸Ð¹
ÐµÐ¼ Ñĭ
ĠÐ¿Ð°ÑĢÐ° Ð´Ð¾Ðº
ĠÐ¼ÐµÑģÑĤÐ¾ Ð¸Ð¼
ĠÐ¸Ð½ÑĤÐµÑĢÐµÑģÐ° Ñħ
ÐºÐ° ÑĤÐµÑĢÐ¸
Ð²Ð¸ Ð½
ĠÐ¾ÐºÐ¾Ð½ÑĩÐ° Ð½Ð¸Ñı
Ð¾Ð² Ð¾Ð¼
ĠÐ¿ÐµÑĢÐ¸ ÑĦÐµ
ÑģÑĤÐ¸ ÑĩÐµÑģÐºÐ¸Ðµ
ĠÐ¿Ð°ÑĢÐ°Ð¼ÐµÑĤ ÑĢÑĭ
Ð´ Ð»Ñı
ĠÐ¼ Ð¾Ð±Ð¸Ð»Ð¸
ĠÐ»Ð¸ Ð½ÐµÐ¹
ĠÐ¸Ð³ ÑĢÐ¾Ð²
ĠÐ±Ñĥ Ð´ÐµÐ¼
ĠÐ²Ñĭ ÑģÑĤÑĥÐ¿Ð¸
ĠÐ½Ð°ÑĢÐ¾Ð´ Ð½Ð¾Ð³Ð¾
ĠÐ¿ Ð»ÐµÐ¼
Ð¡ ÑĥÑīÐµÑģÑĤÐ²
ĠÐ¸Ð· Ð±ÑĢÐ°
ĠÑįÐºÑģÐ¿Ð¾ÑĢ ÑĤÐ°
ÑĥÐ» ÑĤÐ°
ĠÐ´ Ð¾ÑģÑĥ
ĠÐŁ Ð¾Ð»ÑĮÑĪ
ĠÑģÐ¸ ÑģÑĤ
ÐĶÐ°Ð½ Ð½Ð°Ñı
ĠÑģÑĥÐ± ÑģÐ¸
ĠÑģÐ¾Ð¾ÑĤÐ²ÐµÑĤÑģÑĤÐ² ÑĥÑİÑīÐµÐ³Ð¾
ĠÐ¾Ð´ Ð½Ð¸Ñħ
ĠÑ ī
ĠÐ¿Ð¾Ð»Ð¸ ÑĨÐ¸Ð¸
ÑĨÐ¸Ð¿Ð»Ð¸ Ð½Ð°ÑĢ
ÑĢÐ° ÑĪÐ¸
ĠÐ¿ÑĢÐµÐ¿Ð¾Ð´Ð° Ð²Ð°Ð½Ð¸Ñı
ĠÐ° Ð±Ð¸
ĠÐĴÐ¾Ð· Ð¼Ð¾Ð¶Ð½Ð¾
ĠÐ½Ð° ÑĪÐ¸
ĠÑģÑĥ Ð´Ñĭ
ĠÐļ ÑĢÐ¸
Ð½Ð¸Ð¼Ð° Ð½Ð¸Ðµ
ĠÐ°Ðº ÑĨÐ¸Ð¹
ĠÐ¸Ð½Ð´Ð¸Ð²Ð¸ Ð´Ð¾Ð²
ĠÐ¿Ð¾Ð´Ð° Ð²Ð»Ñı
ĠÐ½Ðµ Ð¿Ð¾Ð»
ĠÐºÐ½Ð¸ Ð³
ĠÐ½Ð¸ÐºÐ°Ðº Ð¸Ñħ
ĠÑĢÐµÐ·ÑĥÐ»ÑĮÑĤÐ° ÑĤÐ°Ð¼Ð¸
Ð¶ÐµÐ½ Ð½Ð¾ÑģÑĤÑĮ
ĠÐ¸ÐµÑĢÐ°ÑĢÑħ Ð¸Ð¸
ĠÐ¸ Ð½Ð¾Ðµ
Ð¾Ð· Ð·
Ð¸ÑĩÐµÑģÐº Ð¸Ð¼Ð¸
ĠÐ² Ð´
ÐµÐ¼ Ð°
ĠÑĢÐ°ÑģÑģ ÑĩÐ¸ÑĤÐ°
ĠÐ¾ÑģÐ½Ð¾Ð²Ð° Ð½Ð¸ÐµÐ¼
ĠÐ²ÑĭÑı Ð²Ð»ÐµÐ½Ð¸Ðµ
ĠÐ¿Ð°ÑĢÐ»Ð° Ð¼ÐµÐ½ÑĤÐ°
Ðĺ Ð§
ĠÐĳ ÐµÐ»
ĠÐ²Ð»Ð° Ð´Ðµ
ĠÑĢÐ°Ð· ÑĢÑĭÐ²
ĠÑģÑĥÐ±ÑĬÐµÐºÑĤÐ° Ð¼Ð¸
ĠÐ¾ÑģÐ¾Ð± Ð¾Ð¹
ĠÐ¸Ñİ Ð½Ñı
ĠÑİÑĢÐ¸Ñģ Ð´Ð¸Ðº
ĠÑģÐ¿ Ð¸ÑģÐº
ĠÐ²Ð·Ð°Ð¸Ð¼Ð¾Ð´ÐµÐ¹ÑģÑĤÐ² Ð¸Ð¸
ĠÐ¾Ð¶Ð¸Ð´Ð° Ð½Ð¸Ñı
ĠÐ¾ÑĤ ÑĩÐ¸Ñģ
ĠÐ¿ÑĢÐ¾ ÑĨÐµÐ½ÑĤ
ĠÐºÑĥ Ð´Ð°
Ð»Ñı ÑĤÑĮÑģÑı
ĠÐĺ Ð½ÑĭÐ¼Ð¸
ĠÐ¢Ð°Ðº Ð°Ñı
ĠÐºÐ¾Ð¼Ð¿Ð¾Ð½ ÐµÐ½ÑĤÐ°
ÑģÑĤ ÑĢÐ¸Ð¸
ĠÐ½Ð°Ð¿ÑĢÐ°Ð² Ð»ÐµÐ½Ð½ÑĭÑħ
ĠÑģÐ²Ð¾Ð±Ð¾Ð´ Ñĥ
ĠÐ¸Ð½ ÑģÑĤÐ°Ð½
Ð³Ð° Ð¼
ĠÑĦÐ¸ÑĢ Ð¼Ñĭ
ÑĢÑĥ Ñģ
ÑģÑĤÐ²Ð° Ð¼Ð¸
ĠÐ¿ÑĢÐµ ÐµÐ¼
ĠÐ¿Ð¾Ð´ÑĩÐµÑĢÐº Ð½ÑĥÑĤÑĮ
ĠÐ·Ð°Ð¿Ð°Ð´ Ð½ÑĭÑħ
ĠÐļÐ¾Ð½ÑģÑĤÐ¸ÑĤÑĥ ÑĨÐ¸Ð¾Ð½Ð½Ð¾Ð³Ð¾
ĠÐ²ÑĭÐ¿Ñĥ ÑģÐºÐ°
ĠÐ¢Ð°Ðº Ð¾Ð¹
ĠÐłÐ¾ÑģÑģÐ¸ Ñİ
ĠÐ¿Ð¾Ð´Ð¾Ð± Ð½Ð¾Ð³Ð¾
ĠÐĶ ÑĢÑĥÐ³
ĠÑģÑĤÐ°Ð²Ð¸ ÑĤ
Ð¾Ð¿ Ð¸Ñģ
ĠÐ½ÐµÐ¿ÑĢÐµ ÑĢÑĭÐ²
Ðº ÑĢÑĭ
ÑģÑĤÑĥÐ¿ Ð»ÐµÐ½Ð¸Ðµ
ĠÐ± ÑĢÐ°Ðº
Ð´Ð¸ Ð¹
Ð¸ÑĤÐµÐ»ÑĮ Ð½ÑĭÐµ
ĠÐ¾ÑĤÐ²ÐµÑĤ Ð¸ÑĤÑĮ
ĠÑĤÑĢÐµ Ð²
ĠÐ·Ð½Ð°ÑĩÐ¸ Ð¼Ð¾
ĠÐ´ÐµÐ¼Ð¾Ð½ÑģÑĤÑĢÐ¸ ÑĢÑĥÐµÑĤ
ĠÐĿÐ¸Ðº Ð¾Ð»Ð°
ĠÐ´ÐµÐ»Ð° ÑİÑĤ
ĠÑĪÐ¸ÑĢÐ¾Ðº Ð¾Ð¼
ĠÐ²Ð»Ð° Ð´ÐµÐ»ÑĮ
ĠÐ¼ÐµÑĤÐ° ÑĦÐ¾ÑĢ
ĠÑħ ÑĢÐ°Ðº
ĠÐ´Ð¾Ð» Ð»
ÑĥÐ± ÑĬ
ĠÐ³Ð»Ð°Ð² Ð½Ð¾Ð¹
Ð²Ð° ÑİÑīÐ¸Ð¹
ĠÐ¾Ð±ÑĢÐ°Ð·Ð¾Ð²Ð° Ð½Ð¸Ñİ
ĠÐ¿Ð¾Ð³ ÑĢÐµÐ±
ĠÐ§Ðµ Ñħ
ĠÑģÑĤÑĢÐ°ÑĤÐµÐ³Ð¸ Ñı
ĠÐ°Ð´ÐµÐº Ð²Ð°ÑĤ
ĠÐ± Ð¾Ð³
Ð± Ð»ÐµÐ¼
ĠÐ¿ÑĢÐµÐ¸Ð¼ ÑĥÑīÐµÑģÑĤÐ²
ĠÑģÐºÐ»Ð¾Ð½ Ð½Ñĭ
Ð¼ÐµÐ½ ÐµÐ½Ð¸Ñı
Ð¶Ð´ ÑĭÐ¹
ĠÑģÐ»Ð¾Ð²Ð° ÑĢÑı
ĠÐ´ÐµÐºÐ°Ð± ÑĢÑı
ĠÑģÐ¸Ð½ ÑĤÐµ
ĠÐ¸Ð´ÐµÐ½ÑĤÐ¸Ñĩ Ð½Ð¾ÑģÑĤÑĮ
ĠÐ¿ÐµÑĢÐ² Ð¾Ðµ
ĠÐ½Ð°Ð¿ÑĢÐ°Ð² Ð»ÐµÐ½Ñĭ
Ð Ļ
Ð· Ð¾ÑĢÐ°
Ð´Ð° Ñħ
ĠÐ·Ð° Ð»Ð¾Ð³
ĠÐĴ Ð¸
ĠÐ´Ð¸ÑģÑĨÐ¸Ð¿Ð»Ð¸ Ð½Ñĭ
ĠÑıÐ²Ð»Ñı Ð»Ð¸ÑģÑĮ
ĠÐ¸Ð¼Ñĥ ÑīÐµÑģÑĤÐ²Ð¾
ĠÐ½Ð°Ñĥ ÐºÐ°
ĠÐ¾ÑĤ ÑģÑĭ
ĠÐ²Ð¾Ð¹ ÑģÐºÐ°
ĠÐ¸Ð½Ð´ÐµÐº ÑģÐ°
ĠÐ±ÑĥÐ´Ñĥ ÑīÐµÐµ
Ñĥ ÑİÑĤÑģÑı
ÐµÐ½ Ð½Ð¾ÑģÑĤÑĮÑİ
ĠÐ¶ÐµÐ»Ð° Ð½Ð¸Ðµ
ĠÐ² Ð²ÐµÐ´ÐµÐ½Ð¸Ðµ
ĠÐ²ÐµÐ´ ÑĮ
ĠÐ±ÑİÐ´Ð¶ÐµÑĤ Ð½ÑĭÑħ
ĠÑģÐ¾Ð¾ÑĤÐ½Ð¾ ÑĪÐµÐ½Ð¸Ñı
ĠÐ½ÐµÐ¶Ðµ Ð»Ð¸
ĠÑģÐ»Ð¾Ð¶ Ð½ÑĭÑħ
Ñı ÑīÐ¸Ñħ
ĠÐ¿Ð¾Ñģ Ð»ÑĥÐ¶Ð¸
ĠÐ²Ð¿ Ð¾ÑģÐ»ÐµÐ´ÑģÑĤÐ²Ð¸Ð¸
ĠÑģÐ¾ ÑĩÐ¸
ĠÐ¾ÑĤ Ð»Ð¸Ñĩ
ĠÑģÐ¿ÐµÑĨÐ¸Ð°Ð»ÑĮ Ð½ÑĭÐµ
ĠÑģÐ¼Ðµ ÑĪÐ°Ð½
ĠÑĢÐ°Ð·Ð²Ð¸Ð²Ð° ÑİÑīÐ¸ÑħÑģÑı
ĠÑıÑĢ ÐºÐ¾
ĠÐ² ÑģÐº
ĠÐ¾ÑģÐ¾Ð± ÑĥÑİ
Ð¾Ð»Ð¾Ð³Ð¸ÑĩÐµÑģÐº Ð¸Ð¼Ð¸
ĠÐ±Ð¾Ð»ÑĮÑĪ Ð¾Ð³Ð¾
ĠÐ¾Ð±Ðµ ÑģÐ¿
ĠÑĥÑģÐ»Ð¾Ð²Ð¸Ñı Ð¼Ð¸
ĠÐ½ÐµÐ¾Ð´Ð½ Ð¾Ð·Ð½Ð°
ĠÐ¿ÑĢÐ¾Ð²Ð¾Ð´ Ð¸ÑĤÑģÑı
ĠÐ¾Ð±ÑĥÑĩ ÐµÐ½Ð¸Ð¸
ĠÐ·Ð°ÐºÐ¾Ð½Ð¾Ð´Ð°ÑĤÐµÐ»ÑĮ ÑģÑĤÐ²Ð¾Ð¼
Ðº ÑĢÐµÐ´
ĠÐ² ÑĢÐµÐ´Ð°
ĠÑĥÑģÐ»Ð¾Ð²Ð¸Ñı Ð¼
Ð¥ Ð¾ÑĤÑı
ĠÐ³ÐµÑĢ Ð¼Ð°Ð½
ĠÐ¸ÑģÑĤÐ¾Ñĩ Ð½Ð¸ÐºÐ°
ĠÐºÐ°Ðº Ð¾Ð¼
ĠÐ²Ð°Ð¶ Ð½Ð¾ÑģÑĤÑĮ
Ð»ÑĮ Ðµ
ĠÑįÑĤÐ°Ð¿Ð° Ñħ
Ð²ÑĪÐ¸Ð¹ ÑģÑı
ĠÐ¿Ð¾ÑĤÐµÑĢ Ð¿Ðµ
Ð²Ð»Ðµ ÐºÐ°
ĠÐ´Ð¸ÑĢÐµÐº ÑĤÐ¾ÑĢÐ¾Ð²
Ð»Ð¸ Ð½Ð³
ĠÐ¼Ð¸Ðº ÑĢÐ¾
ĠÑĢÐµ Ð»ÐµÐ²Ð°Ð½
ĠÐ¸Ð· Ð³Ð¾ÑĤÐ¾Ð²
ÐĴ ÐĶ
ÑĪ Ð°Ð»
ĠÐłÐ° ÑģÑģ
ĠÐ¾ÑĢÐ¸ÐµÐ½ÑĤÐ° ÑĨÐ¸Ð¸
ĠÐ²Ð¾Ñģ ÑģÑĤÐ°
Ñĩ Ð½Ñĭ
Ð· Ð¾Ð²
Ð»Ð¸ Ð½Ð°
ĠÐ¿ÑĢÐµÐ´Ð¾ÑģÑĤÐ° Ð²Ð»ÐµÐ½Ð¸Ñı
Ð¸ ÑĩÐ°
ĠÐ¾ÑĢÐ³Ð°Ð½Ð¸Ð·Ð° ÑĨÐ¸Ñİ
ĠÐŁÐµÑĢ Ð²Ð¾Ð¹
Ð²Ð° ÑİÑīÐµÐ³Ð¾
ĠÐµÐ² ÑĢÐµ
Ð½Ð¾Ð¼ ÐµÑĢ
ĠÑģÐ¾Ð» Ð´Ð°
ĠÐľ Ð¾Ð½
Ð¸ÑĤÐµÐ»ÑĮ Ð½Ð¾Ð³Ð¾
ÑģÑĥ Ð´
ĠÑĢÐµÐ°Ð»Ð¸ Ð·ÑĥÐµÑĤÑģÑı
ĠÐ²Ð·Ð°Ð¸Ð¼Ð¾Ð¾ÑĤÐ½Ð¾ ÑĪÐµÐ½Ð¸Ñı
ĠÐ¿ÑĢÐ¸ Ð²ÐµÑĢ
Ð¸Ðµ Ð²
Ð¸ÑĩÐµÑģÐº ÑĥÑİ
ĠÑģÑĢÐµÐ´ Ð½Ðµ
ĠÐ°ÑĢ Ð¼Ð¸
ĠÑģÐµÐº ÑĤÐ¾ÑĢ
ĠÑĥÑģÑĤÐ¾Ð¹ÑĩÐ¸Ð²Ð¾ ÑģÑĤÐ¸
ĠÐ¾ÑĤ Ð±Ð¾ÑĢÐ°
ĠÐ°ÑĥÐ´Ð¸ ÑĤÐ¾ÑĢÐ¸Ð¸
ĠÐ¼ Ð°Ð»ÑĮ
ĠÐ´ Ð¾Ð³
Ð¼Ð¸ Ð³ÑĢÐ°Ð½
ĠÑįÐºÐ¾Ð½Ð¾Ð¼Ð¸ ÐºÐ°
ĠÐ²Ð¾Ð·Ð¼Ð¾Ð¶ Ð½ÑĭÐµ
ĠÑįÑĦÑĦ ÐµÐºÑĤÑĭ
ĠÐ½Ð°Ð¿ÑĢÐ°Ð² Ð»ÐµÐ½
ĠÐ¼ÐµÑĤÐ¾Ð´ Ð¾Ð»Ð¾Ð³Ð¸Ð¸
ĠÐ¼Ð° Ð»ÑĭÑħ
ĠÑĤÐµÐ½Ð´ÐµÐ½ ÑĨÐ¸Ð¹
ĠÐ·Ð´Ð¾ÑĢÐ¾Ð² ÑĮÐµ
ÑģÑĤÐ°Ð²Ð»Ñı ÐµÑĤ
ĠÐºÐ°ÑĢÑĤÐ¸ Ð½Ñĥ
ĠÐļÐĿ Ðł
ĠÐ²Ðµ Ð»Ð¸Ðº
ĠÐ·Ð½Ð°ÑĩÐ¸ ÑĤÐµÐ»ÑĮÐ½ÑĭÐµ
ĠÐ¾ÑĤÐ²ÐµÑĤ ÑģÑĤÐ²ÐµÐ½
ĠÑĥÑĩÐµÐ± Ð½ÑĭÐµ
ĠÐ½Ð¸Ð· ÐºÐ¸Ð¹
ÐµÐ¹ÑģÑĤÐ² Ð¸ÑĤÐµÐ»ÑĮÐ½Ð¾
ĠÑģÐµÑĢÐµÐ´Ð¸ Ð½Ñĭ
Ñģ ÐµÑĢ
ĠÐ¾Ð¿ÑĢÐµÐ´Ðµ Ð»
ĠÑĦÐ°Ðº ÑĤÐ¾Ð²
ĠÑģÑĤÐ¸ Ð»Ð¸
ĠÐ»ÑİÐ± Ð¾Ð¼
ĠÑĢÐ°ÑģÑĪÐ¸ÑĢ ÐµÐ½Ð¸Ñı
ĠÑĢÐµ ÑĦÐµÑĢÐµÐ½
Ð²Ð¸ ÑĤÐ¸Ðµ
ĠÐĳ Ð°Ð»
ÐµÐ² ÑĭÑħ
ĠÐ¼Ð° ÑģÑĤÐµÑĢ
Ð¼ÐµÑĤ ÑĢÐ¸
ĠÑģÑĤÑĢÐµÐ¼Ð¸ ÑĤÑģÑı
Ð¿Ð¾Ð» Ð½Ð¾Ð¼
Ð¾Ñģ Ð½Ð¾Ð²Ð°
ĠÐ±Ñĭ ÑĤÐ¾Ð²
Ðĺ Ðļ
Ð¡ Ð°Ð¼
Ðł Ð¸Ñģ
ĠÐ² ÑĢ
Ð¾Ðº Ð¾Ð¹
ĠÐ´Ð¾ÑħÐ¾Ð´ Ñĭ
ĠÐ¿ÑĢÐµÐ´ÑĪÐµ ÑģÑĤÐ²
ĠÐ·Ð° Ð¼
ĠÐ¿Ð¾Ð¿ Ðµ
ĠÑħ Ð°ÑĢÐ°
Ñĩ Ð»ÐµÐ½
Ðł Ðŀ
ĠÐºÑĥÑĢ ÑģÑĭ
ĠÐ²Ð¾Ð¹ Ð½Ð°
ĠÐ°Ð²ÑĤÐ¾Ð¼ Ð¾Ð±Ð¸
Ð³Ð° ÑĤÑĮ
ÑĢÐµÐ´Ðµ Ð»ÐµÐ½Ð¸Ðµ
ĠÐ¸Ð¼Ðµ Ð»Ð°
ĠÐ¸Ñģ Ð»Ð°Ð¼
ĠÑįÐ¼Ð¾ ÑĨÐ¸Ð¹
Ð¿ ÑĢÐ¾ÑĤÐ¸Ð²
ĠÐ½Ð°ÑĩÐ° Ð»Ð¸
Ð³Ð° Ñı
ĠÑģÐ¾Ð´ÐµÑĢÐ¶Ð° Ð½Ð¸Ñİ
ĠÐ¿Ð¾Ð»ÑĥÑĩÐ° ÑĤÑĮ
ĠÑģÑĤÐ°ÑĢ ÑĪÐ¸Ñħ
Ð´Ð° Ð¼
ĠÐ¾Ð±ÑģÑĥ Ð¶Ð´ÐµÐ½Ð¸Ðµ
ĠÑģÑĥ Ð¿
ĠÐ´ÐµÐ¿ÑĥÑĤÐ° ÑĤÐ¾Ð²
ĠÐ½Ð° ÑģÑĤ
ĠÐ¾Ð± Ð¼ÐµÐ½Ð°
ĠÐ¿Ð¾ÑĤÑĢÐµÐ± Ð¸ÑĤÐµÐ»ÐµÐ¹
ĠÐ¿ÑĢÐ°Ð²Ð¾Ð¿ÑĢÐ¸ Ð¼ÐµÐ½Ð¸
ĠÐ²Ð¸ Ð´ÐµÑĤÑĮ
Ð³Ð° ÐµÑĤ
ĠÐ³Ð¾ÑģÑĥÐ´Ð°ÑĢÑģÑĤÐ²ÐµÐ½ Ð½ÑĭÐ¹
ĠÐ²Ð°Ð¶ Ð½Ð¾Ðµ
ĠÑĩÐ»ÐµÐ½ Ð°Ð¼Ð¸
ĠÐ´ Ð°Ð»
Ð¾Ñģ ÑĮ
ĠÐ³Ð¾ÑģÑĥÐ´Ð°ÑĢ ÑģÑĤÐ²Ðµ
Ð¿Ð¾ ÑģÑĤ
ĠÐ¿ÑĢÐµÐ´Ð¿Ð¾Ð»Ð¾Ð¶ ÐµÐ½Ð¸Ðµ
ĠÑģ Ð±Ð»Ð¸
ĠÐ¾ÑģÐ½Ð¾Ð² Ð½ÑĭÐ¼Ð¸
ĠÐ¾ÐºÑĤ ÑıÐ±ÑĢÑı
ĠÐ±Ð»Ð° Ð³Ð¾
Ð²Ð¾ ÑģÑĤÑĮ
ĠÐ´ÑĢ Ð³
Ð½Ð¾Ð¿ ÑĢÐ°Ð²
Ð§ Ð°
ĠÐ¿Ð°Ð¼ÑıÑĤ Ð½Ð¸ÐºÐ¾Ð²
Ð·Ð° ÑĤÑĮ
ĠÑħÐ°ÑĢÐ°ÐºÑĤÐµÑĢÐ¸ÑģÑĤÐ¸ ÐºÐ°Ð¼Ð¸
ĠÐ¿ÑĢÐµÐ·Ð¸Ð´ÐµÐ½ ÑĤÐ°
ĠÐ´ÑĢÑĥÐ³ Ñĥ
ĠÑģÑĤÑĢ Ð¾Ð³
ĠÐ½Ð° ÐºÐ°
ĠÑģÐ»ÐµÐ´ÑĥÑİÑī ÐµÐ¼
ĠÐ¿ÑĢÐ¾Ð´Ð¾Ð»Ð¶Ð° ÐµÑĤ
ĠÐ¸ÑģÐ¿Ñĭ ÑĤÑĥ
Ð¾Ð¿ Ð»Ð°
Ð½Ð¾Ð² Ñĭ
ĠÑĢÐ°ÑģÑģÐ¼Ð¾ÑĤ ÑĢÐµÑĤÑĮ
ĠÐ¿ÑĢÐµÐ´Ð¿Ð¾ ÑĩÐ¸ÑĤÐ°
ĠÐ´Ð¸ÑĢÐµÐº ÑĤÐ¾ÑĢÐ°
ĠÐĺÑģÐ¿ Ð°
ĠÑģÐµÐ³Ð¾Ð´Ð½ÑıÑĪ Ð½Ð¸Ð¹
ĠÑģÐ¾ÑĨÐ¸Ð°Ð»ÑĮ Ð½Ð¾Ð¼
ĠÐ°Ð² ÑĤÐ¾ÑĢÐ°Ð¼Ð¸
: .
ĠÐ¡Ð¾ ÑİÐ·
ĠÑģÐ¾Ð²Ð¼ÐµÑģÑĤ Ð½Ð¾Ð¹
Ð±Ð»Ñİ Ð´Ð°
Ñģ Ð½Ð¾ÑģÑĤÐ¸
ÐºÐ¾ ÑģÑĤÑĮ
ĠÐ²Ð¾Ð· ÑĢÐ¾Ñģ
ĠÐ² Ð²ÐµÐ´
ÐºÐ¾Ñģ ÑĢÐ¾
ĠÐ¼Ð°ÑĢÐº ÑģÐ¸
Ð²Ð° Ð¼Ð¸
ĠÑĨÐµÐ½ Ð½ÑĭÑħ
ĠÐ½Ð¾Ñģ ÑıÑĤ
Ð½Ð¸ ÑĨÐµ
Ð¾Ð»ÑĮÐ· Ð¾Ð²Ð°Ð½Ð¸Ðµ
ĠÑĤÑĢÐ°Ð´Ð¸ ÑĨÐ¸Ð¹
ĠÑģÐµÐ»ÑĮ ÑģÐºÐ¾Ð¹
ĠÐ¿ÑĢÐ°Ð²Ð¾ÑģÑĥ Ð´Ð¸Ñı
ĠÐ»ÑĮ Ð³Ð¾ÑĤ
ĠÐ½Ð°ÑģÐµ Ð»ÐµÐ½Ð¸ÐµÐ¼
ĠÐ¾ÑĢÐ³Ð°Ð½Ð¸Ð·Ð° ÑĨÐ¸ÑıÑħ
ĠÐ²Ð·Ð°Ð¸Ð¼Ð¾ÑģÐ²Ñı Ð·ÑĮ
Ð°Ð½ Ð¾Ð²
ĠÐ´Ð¾Ð¼ Ð¾
ĠÐ¿ÑĢÐ¾Ð¶Ð¸ Ð²Ð°Ð½Ð¸Ñı
ĠÐ° ÑĦ
ÑĤÐ¾ Ð½Ð°
Ð¼Ð¸ ÑĢÐ°
ĠÐ´ÐµÐ¹ÑģÑĤÐ² ÑĥÐµÑĤ
ĠÑĤÑĢÐ°Ð½Ñģ ÑĦÐ¾ÑĢÐ¼Ð¸
ĠÐ¾Ð±ÑĥÑģÐ»Ð¾Ð² Ð»ÐµÐ½Ð°
ĠÐ½Ð°Ð¹ Ð´ÐµÐ½
ĠÐºÐ¾Ð½ÑĦÐµÑĢÐµÐ½ ÑĨÐ¸Ð¸
ĠÑĥÑĤÐ²ÐµÑĢ Ð¶Ð´ÐµÐ½Ð¸Ðµ
ĠÐ¼ Ð½Ðµ
ĠÑģÐ¿ ÑģÐ¾Ð±
ĠÑĢÐµÐ· ÑĥÐ»ÑĤÐ°
ĠÑģÑĤÑĢÐ¾ Ñı
ĠÐ¸Ð½ÑĦ Ð»ÑıÑĨÐ¸Ð¸
ĠÐ²Ð½ÐµÑĪ Ð½ÐµÐ³Ð¾
Ð²ÐµÑģÑĤ Ð½Ð¾
ĠÑģ Ð½Ð°ÑĩÐ°Ð»Ð°
ÑĢÐ¾Ð²Ð°Ð½ Ð½Ð¾ÑģÑĤÑĮ
ĠÐ¿ÐµÑĢÐ¸Ð¾Ð´ Ñĭ
ĠÑģÐ¿ÐµÑĨÐ¸Ð°Ð»ÑĮ Ð½Ð¾ÑģÑĤÐ¸
ĠÑĢÐµÐ°Ð»ÑĮ Ð½Ð¾ÑģÑĤÑĮ
ÑĩÐµÐ½ Ð½ÑĭÐ¼
ĠÐ¾ÑĤÐ¼ÐµÑĩÐ° Ð»Ð¾ÑģÑĮ
ĠÐ° Ð¿Ðµ
ÑĩÐµÐ½ Ð½Ð¾Ð¹
ĠÐ¿ÑĢÐ¾Ð² Ð¾Ð·Ð³Ð»Ð°
ĠÑģÐ¾Ñħ ÑĢÐ°Ð½Ð¸ÑĤÑĮ
ĠÐºÐ¾ÑĤÑĢ ÑĭÐµ
ĠÐľÐµÐ¶Ð´Ñĥ Ð½Ð°ÑĢÐ¾Ð´
ĠÑįÐ»ÐµÐ¼ ÐµÐ½ÑĤÐ¾Ð¼
ÐºÐ»Ð° Ð´Ñĭ
ĠÑı Ð¿Ð¾Ð½
ĠÐ´Ðµ Ð²Ñĥ
ĠÐ¿Ð¾Ð»Ð¾Ð¶ ÐµÐ½Ð¸Ð¸
ĠÐ³ÑĢÑĥÐ¿Ð¿ Ð¾Ð¹
ĠÐ¼ÐµÐ¶Ð´ÑĥÐ½Ð°ÑĢÐ¾Ð´ Ð½ÑĭÐµ
ĠÐ·Ð½Ð°Ð½Ð¸Ñı Ð¼Ð¸
ĠÑĢÐµ Ð¶Ðµ
ĠÐ¿Ð¾ ÑĤÐµÑĢÐ¸
ÑĢÐ¾ Ð½Ð¸
ĠÐ¾ÑĢÐ³Ð°Ð½Ð¸Ð·Ð° ÑĨÐ¸ÑıÐ¼Ð¸
ĠÐ²Ð°Ð¶ Ð½ÑĭÐµ
ĠÑģÐµÐº ÑĢÐµÑĤÐ°
ÑĨ ÐºÐ¾Ð³Ð¾
ĠÑģÐ¾Ð³Ð»Ð°Ñģ Ð¾Ð²Ð°Ð½Ð¸Ñı
ĠÐ¸Ð·Ð´ÐµÑĢÐ¶ ÐµÐº
ĠÐ¿Ð¾Ð»ÑĥÑĩÐ¸ Ð»Ð°
ĠÐ³Ð¸Ð¿Ð¾ÑĤÐµ Ð·Ð°
ĠÑģÑĩÐ¸ÑĤÐ° Ð»
ĠÐ´Ð¾ÑħÐ¾Ð´ Ð½Ð¾ÑģÑĤÐ¸
ĠÑģÑĥÐ´ ÑĮÐ¸
ÐĿÐµ Ð¾Ð±ÑħÐ¾Ð´Ð¸Ð¼Ð¾
ĠÐµÐ´Ð¸Ð½ ÑģÑĤÐ²Ð¾
ĠÐºÐ° ÑĤ
Ġ% ,
ĠÐ³Ð¾ÑĤÐ¾Ð² Ñĭ
ĠÐ¡ Ð¸Ð½
Ð¼Ð¾Ð¶ ÐµÑĤ
ĠÐºÐ°Ð¶Ð´ Ð¾Ð¼Ñĥ
Ð»Ñİ ÑĩÐµÐ½Ð¸Ðµ
ĠÐ±Ñĥ Ð´
ĠÐ¿ÑĢÐµÐ²Ñĭ ÑĪÐ°ÐµÑĤ
Ð¸ ÑģÑģÐ»ÐµÐ´Ð¾Ð²Ð°
ĠÐ·Ð° Ð¿Ñĥ
ĠÑĥÐ¿ÑĢÐ°Ð² Ð»ÐµÐ½Ð¸Ð¸
ĠÐ¾ÑģÑĤÐ° Ð»ÑĮÐ½ÑĭÐµ
ĠÐ¸ÑģÐºÐ° ÑĤÑĮ
ĠÐ¿ÑĢÐ¸ÑĢÐ¾Ð´ Ñĥ
ĠÐ¼Ð°ÑĢÐº ÐµÑĤ
Ð¸ ÑĤÐµÐ»Ñı
Ð¼ Ð¾Ñģ
ĠÐ¿ÑĢÐ¸Ð½Ð¸Ð¼Ð° ÐµÑĤ
ĠÑĥÐºÑĢÐ° Ð¸Ð½
ĠÐ¼Ð°Ð½Ð¸ Ð¿Ñĥ
ĠÐ¸ÑģÐ¿Ð¾Ð»ÑĮÐ·Ð¾Ð²Ð° Ð»Ð¸ÑģÑĮ
Ð²Ð» ÐµÐ½Ð¸Ñİ
ĠÐľÐ¸Ð½Ð¸ÑģÑĤÐµÑĢ ÑģÑĤÐ²Ð°
ĠÐ²Ð·Ð³Ð»Ñı Ð´Ð¾Ð²
ÑĤ Ñİ
Ð°ÑĢÐ°Ðº ÑĤÐµÑĢ
ĠÑĦÐ°Ðº ÑĤÐ°
ĠÐ»Ð¸Ð´ÐµÑĢ Ð¾Ð²
Ðº ÑĤ
ĠÑģÐ¾ÑģÑĢÐµÐ´ Ð¾ÑĤÐ¾
ÑĥÑĩ ÐµÐ½Ð½ÑĭÐµ
ĠÑģÐ¾ÑĨÐ¸Ð°Ð»ÑĮ Ð½ÑĭÐ¼Ð¸
ĠÐ¸ÑģÑĤÐ¾ÑĢÐ¸ ÐºÐ¾Ð²
ĠÐ²Ð»Ð° Ð´ÐµÐ½Ð¸Ñı
ÑģÑĤÐ¾ Ñĩ
ĠÐ¾Ð±ÑīÐµ Ð¿ÑĢÐ¸
ĠÐ¾Ð¿ÑĢÐµÐ´ÐµÐ»ÐµÐ½ Ð½ÑĥÑİ
ĠÐ²ÑĭÐ½ÑĥÐ¶Ð´ÐµÐ½ Ñĭ
Ð¾Ð¶ ÐµÐ½Ð¸Ðµ
ÑģÐ¿ Ð¾Ð½Ð´ÐµÐ½
ĠÐ¸ÑģÐ¿Ð¾Ð»ÑĮÐ·Ð¾Ð²Ð° Ð½Ñĭ
ĠÑĢÐ°ÑģÐ¿ÑĢÐ¾ÑģÑĤÑĢÐ°Ð½ Ñı
Ð¶ Ð½ÑĭÐµ
ĠÐ²ÑĭÐ´ÐµÐ»Ñı ÐµÑĤ
ĠÐ¸Ð½Ð¾ÑģÑĤÑĢÐ°Ð½ Ð½Ð¾Ð³Ð¾
ĠÐºÐ¾Ð½ÑģÑĤÐ¸ÑĤÑĥ ÑĨÐ¸Ð¾Ð½Ð½Ð¾
ĠÑģÐ°Ð¼Ð¸ Ð¼
ĠÑĥÑĩÐ°ÑģÑĤÐ² Ð¾Ð²Ð°ÑĤÑĮ
ĠÐ¿ÑĢÐ¾Ð±Ð»ÐµÐ¼ Ð°Ð¼
ĠÐ³Ð»Ð°Ð² Ð½Ð¾Ðµ
Ġ; .
ĠÐ²Ð¾Ð²Ð»Ðµ ÑĩÐµÐ½Ð½Ð¾ÑģÑĤÐ¸
ĠÐ°Ð±Ð¸ ÑĤÑĥÑĢÐ¸
ĠÐ² Ð½Ð¾ÑģÐ¸
ÑĢÐ° Ñģ
ĠÐ¿ÑĢÐ°Ð²Ð¾Ð² Ð¾Ðµ
Ð° Ð¼ÐµÑĢÐ¸ÐºÐ°Ð½
ĠÐ³ÑĢÐ°Ð¼Ð¾ÑĤ Ð½Ð¾ÑģÑĤÐ¸
ĠÐ¼Ð¸ÑĢÐ¾Ð² Ð¾Ð·Ð·
ĠÐ¸Ð½ÑĦÐ¾ÑĢÐ¼Ð° ÑĨÐ¸ÐµÐ¹
ĠÐ¿Ð¾Ð´Ð³Ð¾ÑĤÐ¾Ð² ÐºÐ°
ĠÐ²ÑĭÐ³Ð»Ñı Ð´Ð¸ÑĤ
ĠÐ¡Ð»ÐµÐ´ Ð¾Ð²Ð°ÑĤÐµÐ»ÑĮÐ½Ð¾
Ð·Ð¼ Ð¾Ð¼
ÑĨÐ¸Ð¾Ð½Ð°Ð»ÑĮ Ð½Ð¾Ð¹
ĠÑĨÐµÐ» ÑĭÐ¹
ĠÑģÐ¾ÐºÑĢÐ° ÑĤÐ¸
ĠÐ¾ÑĪÐ¸Ð± ÐºÐ¸
ĠÐ¸Ð½Ð²Ð°Ð»Ð¸Ð´ Ð½Ð¾ÑģÑĤÑĮÑİ
ĠÑĢÑı Ð´Ñĥ
ĠÐ½Ð°Ð» Ð¾Ð³Ð°
ĠÑģÑĦÐµ ÑĢÐ°
ÑĤÐ° Ð»ÑĮ
ĠÐľ Ð¾Ð»
ĠÐĶ Ð°Ð»ÑĮ
ÑĤÐµ ÑģÑĤÐ°
ĠÐĽ ÐµÐ½Ð¸Ð½
ĠÐ½ÐµÐ¿ ÑĢÐ¾
ĠÐ¼Ð°ÑģÑĪÑĤÐ° Ð±Ð°
Ð· Ð¸Ð¹
ĠÐ³ ÑģÑĥÐ´Ð°ÑĢ
ĠÐ²Ð»Ð¸Ñı ÑĤÑĮ
ĠÐĴ Ð¨ÐŃ
ĠÐ½Ð¾ ÑıÐ±ÑĢÑı
ĠÐ»Ð¸ÑĨÐ° Ð¼Ð¸
ĠÐ½Ð°ÑĥÑĩ Ð½ÑĭÐ¹
ĠÐ¾ÑĤÑĢÐ°Ð¶Ð° ÑİÑĤ
ĠÐ´Ð¾Ðº ÑĤÐ¾ÑĢ
ÑģÑĤ ÑģÐºÐ¾Ð³Ð¾
ĠÐ° ÑģÑģÐ¸
ĠÑģÑĥ ÑĤÑĮ
ĠÐ¿ÑĢÐ¸Ð½Ð°Ð´Ð»Ðµ Ð¶Ð¸ÑĤ
Ð¸ÑĤÐµÐ»ÑĮ Ð½Ð¾Ð¹
ĠÐ· ÑĢÐ¸
ĠÑģÐµÐº ÑĤÐ¾ÑĢÐµ
ĠÐ½Ð¾Ñģ Ð¸ÑĤÐµÐ»ÐµÐ¹
ĠÑĢÐµÐ»Ð¸Ð³Ð¸Ð¾Ð· Ð½Ð¾Ð¹
ĠÐ±Ð»Ð°Ð³Ð¾Ð¿Ð¾Ð»ÑĥÑĩÐ¸ Ñı
ĠÐ²Ð¾Ð· Ð½Ð°
ĠÐºÑĢÐ°ÑĤ ÐºÐ¾ÑģÑĢÐ¾
ĠÑģÐ¾ÑĨÐ¸ Ð°Ð»Ð¸Ð·Ð°ÑĨÐ¸Ð¸
ĠÑĩÐµÐ»Ð¾Ð²Ðµ ÑĩÐµÑģÐºÐ¾Ð¹
ĠÑģÑĥÑīÐµ ÑģÑĤÐ²ÐµÐ½Ð½Ð¾Ðµ
Ñĥ Ð»Ñı
ĠÐ¾ÑĤ ÑĢÐ°Ð·
ĠÑĢÐµÑģÑĥÑĢ ÑģÐ°Ð¼Ð¸
Ð¼ Ð¿
Ð²Ð¸ Ð²Ð°Ð»ÐµÐ½
ĠÐŀ ÑĩÐµÐ²Ð¸Ð´Ð½Ð¾
ĠÐ¿ÑĢÐµÐ´Ð»Ð°Ð³Ð° ÐµÑĤÑģÑı
ĠÑģÐ¾Ð²Ð¼ÐµÑģÑĤ Ð½Ð¾
Ð»Ð¸Ñĩ Ð½Ð¾ÑģÑĤ
ĠÐ½Ðµ Ñħ
ĠÐ¡ ÑĤÑĢÐ°
ÑīÐ¸ ÐºÐ°
ĠÐ°ÑĢ Ð¼
ĠÐ¼ Ð¾Ð´Ð¸
ÐĹ Ð½Ð°ÑĩÐ¸
ĠÐ¿Ð¾Ð» Ð½Ð¾Ð³Ð¾
ĠÑĢ Ð¾Ð·
ĠÐ¦ ÐµÑĢ
ÑĤ Ð²Ð¾ÑĢ
ĠÐ¸ÑģÐ¿Ð¾Ð»ÑĮÐ·Ð¾Ð²Ð° ÑĤÑĮÑģÑı
ÐĽ Ð¸
ĠÐ¸Ð½ÑĤÐµÐ»Ð»ÐµÐºÑĤÑĥÐ°Ð»ÑĮ Ð½Ð¾Ð¹
ĠÑĤÐµÑĢÑĢÐ¾ ÑĢÐ¸
ĠÑįÐ¼Ð¿Ð¸ÑĢÐ¸ ÑĩÐµÑģÐºÐ¸Ñħ
ĠÐ¼ÐµÑģÑı ÑĨÐµÐ²
Ð°Ð½ ÑģÐºÐ¾Ð¹
ĠÐ¿ÑĢÐ¾Ñģ Ð²Ðµ
ĠÐ¿ÑĢÐ°Ð² Ñĥ
ĠÐ¸Ð½ ÑĦÐ¾ÑĢÐ¼Ð¸
ĠÑģÑĤÐ¾Ð»ÐµÑĤ Ð¸Ñı
ĠÐ´ ÑĢÐ°
ĠÐĵ ÑĢÐ°Ð¶Ð´Ð°Ð½
ĠÑģÐ¾ÑĤÑĢÑĥÐ´Ð½Ð¸ÑĩÐµ ÑģÑĤÐ²Ð¾
ĠÑģÐ¾ÑģÑĤÐ°Ð²Ð¸ Ð»
ĠÐºÐ°Ðº Ð¾Ðµ
ĠÑģÐ²Ð¾Ð¹ ÑģÑĤÐ²
ĠÐ¿ÐµÐ½ÑģÐ¸Ð¾Ð½ Ð½Ð¾Ð³Ð¾
ĠÐ¿Ð°ÑĢÑĤÐ½ÐµÑĢ ÑģÑĤÐ²Ð°
ĠÐ½Ñĭ Ð½ÐµÑĪ
Ðĵ Ð£
ĠÑĤÐµÐ¾ÑĢÐ¸ Ñİ
ĠÐĹ Ð°ÐºÐ¾Ð½
Ðµ ÑħÐ°
ĠÑĨÐµÐ»ÐµÑģÐ¾Ð¾Ð±ÑĢÐ°Ð· Ð½Ð¾
Ð½ ÑģÐºÐ¾Ð¹
Ð¾ÑĢ ÑĥÑģ
Ð¾Ðº Ð¾Ð»
Ð¾Ð¶ Ð´ÐµÐ½
ĠÐ²Ð°Ð»ÑİÑĤ Ñĭ
ĠÐ¿Ð¾Ð´ÑĤÐ²ÐµÑĢÐ¶Ð´Ð° ÐµÑĤ
ĠÐ·Ð°Ð½Ñı ÑĤÑĭÑħ
Ð´ ÑĭÑħ
Ð¸ÑĩÐµÑģÐº Ð¾Ð¼
ĠÐ¿Ð°ÑĢ ÑĤÐ¸
ĠÐ¾ÑĨÐµÐ½Ð¸ Ð²Ð°Ð½Ð¸Ñı
Ñĩ ÐºÐ°
ÑĤÑĥ Ñİ
ĠÐºÐ¾Ð»Ð¸ÑĩÐµ ÑģÑĤÐ²Ðµ
ĠÑĥ Ð·Ð½Ð°
Ð¾Ð¿Ð¸ ÑģÐ¸
ĠÑĤÐµÐ¼ Ð¿Ñĭ
ĠÐ¢Ð°Ðº Ð¾Ðµ
ĠÐ¼ÐµÑģÑĤ Ð½Ð¾ÑģÑĤÐ¸
ĠÐ»ÐµÐ³Ð¸ ÑĤÐ¸Ð¼
ĠÐ»ÐµÐºÑģÐ¸ ÐºÐ¸
ÑĢÐ¾Ð²Ð° Ð»Ð¾ÑģÑĮ
ĠÑģÑĥÑīÐµ ÑģÑĤÐ²ÐµÐ½Ð½ÑĭÐµ
ĠÐ¾Ð±ÑıÐ·Ð°Ð½ Ð½Ð¾ÑģÑĤÑĮ
ĠÑĦÐ¾ÑĢÐ¼Ð¸ ÑĢÑĥ
ĠÑıÐ·ÑĭÐºÐ¾Ð² Ð¾Ð³Ð¾
ÐµÐ¼ Ð¾Ð¼
ĠÑįÐºÐ¾Ð½Ð¾Ð¼Ð¸ ÐºÑĥ
ĠÐ¾Ð±Ñī Ð°Ñı
ĠÑįÐ»ÐµÐº ÑĤÑĢÐ¾
ĠÐ¾ÑĪÐ¸Ð± Ð¾Ðº
Ð¾ÑģÑĤÐ° Ð½Ð¾Ð²
ĠÐºÑĢÐ¸ Ð¼Ð¸Ð½Ð°Ð»Ð¸
ĠÐ½Ð°ÑĨÐ¸Ð¾Ð½Ð°Ð»ÑĮ Ð½ÑĭÐµ
ĠÑįÐ¿ Ð¸Ð·
Ð» Ð¾Ð³Ð¸ÑĩÐµÑģÐº
ĠÑĢÐµÐºÐ¾Ð¼ÐµÐ½ Ð´Ð°ÑĨÐ¸Ð¸
ÑģÑĤÐ° Ð½Ðµ
ÑĩÐ° ÐµÑĤ
ĠÐ¿ÑĢÐµÐ´Ð¿ÑĢÐ¸Ð½Ð¸Ð¼Ð° ÑĤÐµÐ»ÑĮÑģÑĤÐ²Ð°
ĠÑģÐ¿ÐµÑĨÐ¸Ð°Ð»Ð¸ ÑģÑĤÐ°
ĠÐ²ÐµÑĢ ÑĤÐ¸ÐºÐ°
Ð»ÐµÐ½Ð° Ð¿ÑĢÐ°Ð²
ĠÑģÐ¾Ð»Ð¸ Ð´Ð°ÑĢ
ÑģÑĤ ÑĤÑĥ
ĠÑĥÑĩÐ¸ÑĤÑĭ Ð²Ð°Ñı
ÑĩÐ° Ñı
Ð°Ðº Ñĥ
ĠÑĥÑīÐµÑĢ Ð±
ÑĢ Ð³
ĠÑĥÑģ Ð»Ð¾Ð¶
ÑģÑĤÐ² ÑĥÑİÑĤ
ÑĤÐ¸ Ð·Ð°ÑĨÐ¸Ñı
ÑĥÑİÑī ÐµÐ¼
ĠÐ¾Ð±ÑĢÐ°ÑĤÐ¸ ÑĤÑĮÑģÑı
ÐĿ Ð°ÐºÐ¾Ð½ÐµÑĨ
ĠÐ¾ÑĤÐ²ÐµÑĤ Ñĭ
Ð²Ð° Ð½Ð°
ÑĩÐµ Ð²
ĠÑģÐ¿ Ð¾Ð½
ÑģÑĤÑĢÐ¾Ð¹ ÐºÐ¸
ĠÐĶÐ°Ð½ Ð½ÑĭÐµ
ĠÐ¿ Ð»Ð¾ÑĤ
ĠÐ²Ð¸ Ð½Ð¾Ð²
ĠÐ°Ð¼ÐµÑĢÐ¸ÐºÐ°Ð½ ÑģÐºÐ¸Ñħ
ĠÐ½Ð°Ð¿ÑĢÐ°Ð² Ð»ÐµÐ½Ð½Ð¾ÑģÑĤÐ¸
ĠÑĩÐµÐ»Ð¾Ð²ÐµÐº Ñĥ
Ð·Ð¸ ÑĢÑĥÐµÑĤÑģÑı
ĠÐ·Ð°Ñģ Ð»ÑĥÐ¶Ð¸
ĠÐŁÑĢÐ¸ ÑĩÐµÐ¼
ĠÐ½ÐµÐ´ Ð²Ð¸Ð¶
ĠÐ¿ÑĢÐ¸ÐµÐ¼ Ð»ÐµÐ¼
ĠÐ²Ñĭ Ð½ÐµÑģ
ĠÑĤÑĢÐ°Ð´Ð¸ ÑĨÐ¸Ð¾Ð½Ð½Ð¾Ð¹
ÐµÑĤ Ð¾Ð²
Ð·Ð° Ð´
ĠÐ¸ÑģÑģÐ»ÐµÐ´Ð¾Ð²Ð°ÑĤÐµÐ»ÑĮ ÑģÐºÐ¾Ð¹
Ð¿ÑĢÐ¾ÑĨÐµÑģÑģ Ñĥ
ĠÐ½Ð°Ð¿ÑĢÐ°Ð² Ð»ÐµÐ½Ð°
ĠÐ»Ð° Ð±Ð¾ÑĢÐ°
Ñģ Ð»Ñĥ
ĠÑĥÑĩÐµ ÑģÑĤÑĮ
ĠÐ´Ð¾Ð»Ð¶Ð½Ð¾ÑģÑĤ Ð½ÑĭÑħ
Ð½Ð° ÑĥÑĩ
ĠÐ¿ÑĢÐ¾ÑĦÐµÑģÑģÐ¸Ð¾Ð½Ð°Ð»ÑĮ Ð½ÑĭÐµ
ĠÐ¿Ð¾Ð²Ñĭ ÑģÐ¸ÑĤÑĮ
ĠÐ¸ÑģÑĤÐ¸ Ð½
Ðº ÑĢÐµÐ¿
ĠÐ·Ð° Ð´Ð¾Ð»
ĠÐ¿Ð¾ ÑģÑĤÑĥ
ÐŁ ÑĢÐ°Ð²
ĠÐ²ÑĭÐ±Ð¾ÑĢÐ° Ñħ
ĠÐ² Ð¾Ð»Ð¸
ĠÑĢÐµÐ³Ð¸ Ð¾Ð½Ñĭ
ĠÐ±Ðµ ÑĢÐµ
ĠÐ¾ÐºÐ°Ð·Ð° Ð½Ð¸Ñı
ĠÐ¾Ð±Ð»Ð° ÑģÑĤÐµÐ¹
ĠÐ° ÑĥÑĤ
ĠÐ³ÑĢÑĥÐ¿ Ð¿Ð¸
ĠÐ²ÐµÑĢ ÑħÐ¾Ð²
ÑĥÐ´ ÑĮ
ÑİÑīÐ°Ñı ÑģÑı
ĠÑĥÐ¼ ÐµÐ½Ð¸Ðµ
ĠÐ¸Ð¼Ðµ ÑİÑīÐ¸ÑħÑģÑı
ĠÐ¿Ð¾Ð»Ð¸ÑĤÐ¸ÑĩÐµÑģÐº Ð¸Ð¼
ĠÑģÐµ Ð»ÐµÐº
ĠÑĢÑı Ð´Ð¾Ð²
ĠÑģÑĤÐ°ÑĤÑĥ ÑģÐ¾Ð¼
ĠÑģÑĤÐ°Ð½ ÐµÑĤ
Ð´ ÑĨÐ°
ĠÐ²Ð°Ð¶ Ð½ÑĭÐ¹
Ð»Ñı Ñı
ĠÐ¸ÑģÐ¿ ÑĭÑĤÐ°
ĠÐ±Ð¾Ð³Ð° ÑĤ
ĠÑĪÐ¸ÑĢÐ¾Ðº Ð¾Ð³Ð¾
Ð´Ð¸Ñģ ÑĨÐ¸Ð¿Ð»Ð¸Ð½Ð°ÑĢ
ĠÐ°ÑĢÐ±Ð¸ÑĤ ÑĢÐ°Ð¶
ĠÐºÑĢÑĥÐ¿ Ð½ÑĭÐµ
ĠÐ¼ÐµÐ½ÑĮ ÑĪÐ¸Ð½
ĠÐ¾Ð±Ð¾ÑĢ Ð¾ÑĤÐ°
ĠÑĤÐµ Ð¼Ñĥ
ÑĪÐµ Ð²
ĠÐ²ÑĭÑĢÐ°Ð¶ ÐµÐ½Ð¸Ðµ
ĠÐ¾ÐºÑĢÑĥ Ð³Ð°
ĠÐ¿ Ð»Ñİ
ĠÑĥ Ð»Ð¸
ĠÐŁ Ð¾Ð»Ð¸
ÐºÐ¾Ð² ÑĭÑħ
ĠÑģÑĤÑĢÐ° Ð½Ð°Ð¼
ĠÑı Ð´ÐµÑĢ
ĠÐ´Ð¾ ÑģÑĤ
ÑĩÐµÐ½ Ð½ÑĭÐ¹
Ð²Ð°ÐµÐ¼ Ð¾Ð¹
ĠÑĦ Ðµ
ÐĶ Ð¾
ĠÐ»Ðµ Ñģ
ĠÐ°ÐºÑĤÑĥÐ°Ð»ÑĮ Ð½Ð¾ÑģÑĤÑĮ
ĠÑįÑĤÐ½Ð¸ ÑĩÐµÑģÐºÐ¾Ð¹
Ð²Ð¸ Ñı
ĠÐ²ÑĭÐ¿Ð¾Ð»Ð½Ñı ÑĤÑĮ
ĠÐľ Ð½Ð¾Ð³Ð¸Ðµ
ĠÐ³Ð¾Ð²Ð¾ÑĢÑı ÑīÐµÐ³Ð¾
ĠÐ¿Ð¾Ð·Ð´ Ð½ÐµÐµ
ĠÐ»Ð¸ Ð´ÐµÑĢÐ°
ĠÐ¸Ð½Ð²Ð°Ð»Ð¸ Ð´Ð¾Ð²
ĠÐ¿ÑĢÐµÐ¾Ð´Ð¾Ð» ÐµÐ½Ð¸Ñı
ĠÐ¿Ð¾Ð²Ðµ Ð´ÐµÐ½
ĠÐĳ Ð¾Ð»
ĠÐ¿Ð¸ÑĪ ÐµÑĤ
ĠÐ¿ÑĢÐ¾Ð¼ÐµÐ¶ Ñĥ
ÑĨÐ¸Ð°Ð»ÑĮ Ð½ÑĭÑħ
ĠÑĦÐ¾ÑĢÐ¼Ð° Ð¼Ð¸
Ð±Ð°Ð»Ð°Ð½ ÑģÐ¸
Ð°Ð½ ÑĤÐ°
ĠÐ¿ÑĢÐ¸Ð½Ñı Ð»Ð¸
Ð²Ð°Ð½ Ð½ÑĭÐµ
ĠÐ±Ð°Ð· Ð¾Ð²ÑĭÑħ
ĠÐºÐ¾ÑįÑĦÑĦÐ¸ÑĨÐ¸ ÐµÐ½ÑĤ
ĠÐĲÐ½Ð³ Ð»Ð¸Ð¸
ĠÐºÐ¾Ð¼ Ð±Ð¸Ð½Ð°
ĠÐ¿ÑĢÐ°Ð²Ð¾ Ð¾ÑħÑĢÐ°Ð½Ð¸
ĠÑĦÐ¸Ð½Ð°Ð½ÑģÐ¸ ÑĢÐ¾Ð²Ð°Ð½Ð¸Ðµ
ĠÐºÑĢÐµÐ´Ð¸ ÑĤÐ¾Ð²
Ð²Ð¾Ð´ ÑģÑĤÐ²Ð°
ĠÐºÐ¾ÑĢÑĢÐµ Ð»ÑıÑĨÐ¸Ð¸
ÐºÐ»Ð° ÑģÑģ
ĠÐ¡ÐĿ Ðĵ
ÑĤÐµ Ð¿
ĠÑĪÐ¸ÑĢÐ¾Ðº Ð¾Ðµ
ĠÐ¿ÑĢÑıÐ¼ Ð¾Ð³Ð¾
Ð½ ÑĮÑİ
ÐĲ Ð²ÑĤÐ¾ÑĢ
ĠÑĢÐ°Ð· Ð½
ÑĤ Ð½ÑĥÑİ
ĠÑĪ Ð¸
ĠÐ³ÑĢÐ°Ð¶Ð´Ð°Ð½ ÑģÐºÐ¾
ĠÑģÐ»ÐµÐ´ ÑĥÑİÑīÐµÐµ
Ð¿Ð¾Ð»Ð½Ð¾Ð¼ Ð¾
ĠÐ·Ð° Ð²
ĠÑĥÑĩÐ¸ ÑĤÐµÐ»ÑĮ
ĠÐ¿ÑĢÐµÐ´Ð¼ÐµÑĤ Ñĭ
ĠÐ¿ÑĥÐ±Ð»Ð¸Ñĩ Ð½Ð¾Ð¹
ÑĢÐµ Ð²Ð°
ÐĲ Ð²
ÑģÑĤÐ¸ ÑĤ
ĠÐ¾ ÑģÑĤÑĢ
ĠÑįÐº ÑģÑĤÑĢÐµ
ĠÐ¿ÑĢÐµ ÑģÑĤÐ¸
ĠÐ½Ð°Ð»Ð¸ÑĩÐ¸ ÐµÐ¼
ÑĤ ÑģÐºÐ¾Ð¹
ĠÐ´Ð° ÑĤÐ¸
ĠÑģÐ¾Ð¾ÑĤÐ²ÐµÑĤÑģÑĤÐ² ÑĥÑİÑĤ
ĠÐµÐ² ÑĢÐ¾
ĠÐ¼Ð° Ñı
ĠÐ¾Ð¿ÑĢÐµÐ´Ðµ Ð»ÐµÐ½Ð¸Ñİ
ĠÐ³ÑĢÑĥÐ¿Ð¿ Ð°Ð¼
ĠÑģÐ¾Ð·Ð´Ð° ÑİÑĤ
ĠÐļÐ¸ÑĤÐ° Ðµ
ĠÐ¿ÑĢÐ¸Ð¼Ðµ ÑĢÐ°
Ð½Ð¾Ð² ÐµÐ½Ð¸Ðµ
ĠÑĢÐµÐ· ÑĥÐ»ÑĮ
ÑĤÐµÐ» ÑģÑĤÐ²Ð°
Ð² ÑĪÐµÐ³Ð¾ÑģÑı
ĠÐķ ÐºÐ°ÑĤÐµÑĢÐ¸
ĠÐºÐ²Ð°Ð»Ð¸ ÑĦÐ¸ÐºÐ°
Ð¾Ð² ÑĥÑİ
ĠÐ¿ÑĢÐ¸ Ð±Ðµ
Ðĳ Ñĭ
ÑĤ Ð½Ð¾Ð¼
ÐºÐ¸ Ð½Ð°
Ð¾ÑıÑĤ Ð½Ð¾
ĠÐ±ÑĥÐ¼Ð° Ð³
Ġ Ð¾Ð·Ð½Ð°
ĠÐ½Ð°Ñģ Ð»Ðµ
ĠÑģÐ¾Ð±ÑĢÐ° Ð½Ð¸Ñı
ĠÐ¿ÑĢÐ¸Ð²ÐµÐ´ÐµÐ½ Ñĭ
ĠÐ¾ÑĢÑĥÐ¶ Ð¸Ñı
ĠÐ²Ð¾Ð· Ð³Ð»Ð°
Ð¾Ð¿Ð¾Ð» Ð°Ð³Ð°
ĠÐ²Ð½ÐµÑĪ Ð½Ð¸Ðµ
ĠÐ¿ÑĢÐ¾ÑĦ ÑģÐ¾
ĠÐ¤ Ð¸Ð½Ð»ÑıÐ½
ĠÑħÐ°ÑĢÐ°ÐºÑĤÐµÑĢÐ¸ÑģÑĤÐ¸ ÐºÐ°
ĠÐ²ÑĭÐ´ÐµÐ»Ñı ÑİÑĤ
ĠÐ¾Ð± ÑĢÐ°Ð±Ð¾ÑĤÐºÐ¸
ĠÐĺ Ð¼
ĠÐºÑĢÐ° Ðµ
ĠÑĤÐµÐ¾ÑĢÐ¸ Ð¹
ĠÐ¿ÑĢÐ¾ÑĦÐ¸ Ð»Ð°Ðº
ÑĩÐµ ÑģÑĤÐ²Ðµ
ĠÐ¿ÐµÑĢÐµÐ½ Ð¾Ñģ
ĠÐ¿Ð° ÑģÑģÐ¸Ð²
Ð·Ñĥ ÑİÑĤÑģÑı
Ð¾Ð» ÐµÐ¼
ĠÑģÑĤÑĢÐµÐ¼ ÑıÑĤÑģÑı
ĠÐ¸Ð·Ð´Ð° Ð½Ð¸Ñı
ĠÐ°Ð² ÑĤÐ¾ÑĢÐ¾Ð¼
ĠÑģÑĤÐ¸ Ñħ
ĠÐ¡Ð¾ Ð¾ÑĤÐ²ÐµÑĤÑģÑĤÐ²ÐµÐ½Ð½Ð¾
ĠÐ³Ð¾ÑĤÐ¾Ð² Ð½Ð¾ÑģÑĤÑĮ
ĠÑĤÐµ Ð¼Ðµ
ĠÐ¿ÐµÑĢÐµ Ð¿
ĠÐºÐ°ÑĤÐµÐ³Ð¾ ÑĢÐ¸Ñı
ĠÐ¶Ð¸Ð²Ð¾ÑĤ Ð½ÑĭÑħ
ĠÐ²ÑĭÑģÐ¾Ðº Ð¸Ñħ
ĠÐ¾ÑģÐ¾Ð±ÐµÐ½ Ð½Ð¾ÑģÑĤÑĮ
ĠÐ¿ ÑģÐ»ÐµÐ´
ĠÑĢÐ°ÑģÑģÐ¼Ð¾ÑĤ ÑĢÐ¸Ð¼
ĠÐ¿ÑĢÐ¾Ð²ÐµÐ´ÐµÐ½ Ð½Ð¾Ð³Ð¾
Ð¼ÐµÑĤ Ð¾Ð´
ĠÐ¿ÑĢÐµÐ´Ð¿Ð¾ÑģÑĭ Ð»ÐºÐ¸
ĠÐ·Ð»Ð¾ ÑĥÐ¿Ð¾ÑĤÑĢÐµÐ±
ĠÐ²Ñģ ÐµÐ¼Ñĥ
ĠÑĤÐµÐ¾ÑĢÐµ ÑĤÐ¸ÑĩÐµÑģÐºÐ¾Ð¹
ĠÑĥÐ´Ðµ Ð»ÑıÐµÑĤÑģÑı
ĠÐ¾ÑĤÑģÑĥÑĤÑģÑĤÐ² Ð¸ÐµÐ¼
ÑĢÐ° Ð½ÐµÐµ
ÑĢÐ¾Ð²Ð° Ð»ÑģÑı
Ð½ÐµÐ½ Ð½ÑĭÐµ
ĠÐ¼Ð¸ÑĢÐ¾Ð² ÑĭÑħ
ĠÑįÐºÐ·Ð° Ð¼ÐµÐ½
Ðĵ Ð»Ð°Ð²
ĠÐ¼Ð¾Ð½Ð° ÑĢÑħ
ÑĢÐ¾Ð²Ð° Ñı
Ð± Ñİ
Ġ 1
ĠÐļ Ð¸
ĠÐ½Ð°Ð¿ÑĢÐ°Ð² Ð»ÐµÐ½Ð½ÑĭÐµ
ĠÑģÐ¸ Ð±Ð¸ÑĢ
ĠÐ¿ÑĢÐ¸Ð²Ð¾Ð´ ÑıÑĤ
ĠÑĢÐ°Ð±Ð¾ ÑĩÐ¸Ðµ
ĠÐ¿Ð¾ÑĤ Ð¾ÐºÐ¾Ð²
Ð²ÐµÐ´ ÐµÐ¼
ĠÐ¸Ð½Ð½Ð¾Ð²Ð° ÑĨÐ¸Ð¾Ð½Ð½Ð¾Ð³Ð¾
ĠÐ¼ÐµÑĤÐ¾Ð´ Ð¾Ð¼
ĠÑĥÐ³Ð¾Ð»Ð¾Ð² Ð½Ð¾Ð¹
ĠÐ¾Ð± Ð»ÐµÐ³
ĠÐ´Ðµ Ð»Ð¸
ĠÐ£ ÑĢÐ°
ĠÐ²ÑĭÑģ ÑĪÐ¸Ð¼
__ __
Ð»Ñı ÑĨÐ¸Ñı
ĠÐ´Ð¸Ñģ ÑĨÐ¸Ð¿
ĠÑģÑĢÐµÐ´ ÑģÑĤÐ²Ð¾
ÐĹ Ð°Ðº
Ð¾Ð½ Ð´
ĠÐ¸Ð·Ð´ÐµÑĢÐ¶ ÐºÐ¸
Ð¾Ð¶Ð¸ Ð´Ð°Ð½
ĠÐ°Ð´Ð°Ð¿ ÑĤÐ¸
ĠÐ°Ð³ ÐµÐ½ÑĤÐ¾Ð²
ĠÑĢÐ°Ð· ÑĬÑıÑģ
ĠÐ¿Ð¾Ð²ÑĤÐ¾ÑĢ Ñı
ÑĤÑĥ Ð¸
ĠÑģÑĥÑī Ð½Ð¾ÑģÑĤÑĮ
ĠÐ²ÑģÑĤÑĢÐµÑĩÐ° ÐµÑĤÑģÑı
ĠÐ¿ Ð¾Ð¶
ĠÐĲ Ð½Ð°Ð»Ð¸Ð·
ÐµÐ· Ð´Ðµ
ĠÑģÐ¸Ð» Ð¾Ð¹
Ð½Ð¾ Ð¾Ð±ÑĢÐ°Ð·
ĠÐ´ÐµÑĤ ÑıÐ¼
ÑĤÐ¸ Ð·Ð¼Ð°
ĠÐºÐ¾Ð½ Ð²ÐµÑĢ
ĠÑģÐ¾ÑģÑĤÐ° Ð²Ð»ÐµÐ½
Ðľ Ð°
ĠÐºÑĥÐ»ÑĮÑĤÑĥÑĢ Ð½ÑĭÐµ
ĠÐ¿ÐµÑĢÐµÐ¼ÐµÐ½ Ð½ÑĭÐµ
ĠÐ´Ð¾ÑģÑĤÑĥÐ¿ Ð½Ð¾ÑģÑĤÐ¸
ĠÐ²Ð¾Ð·Ð½Ð° Ð³ÑĢÐ°
ĠÐ¼ Ð¾Ð´Ñĥ
ĠÐ¾ÐºÐ°Ð·ÑĭÐ²Ð° ÑĤÑĮ
ĠÑģÐ½Ð¸ Ð¶ÐµÐ½Ð¸Ñİ
ĠÐ¸Ð½ÑģÑĤÑĢÑĥ Ð¼ÐµÐ½ÑĤ
ĠÐ² ÑģÑĤÑĥÐ¿Ð¸
ĠÐ¿ÑĢÐ°Ð² Ð»ÐµÐ½Ð¸Ñı
ĠÐ²Ð·Ð³Ð»Ñı Ð´Ñĭ
ĠÐ¼Ð¾Ð±Ð¸ Ð»ÑĮÐ½Ð¾ÑģÑĤÑĮ
ĠÐ·Ð° Ð²Ð¾Ð´
ĠÑħÐ°ÑĢÐ°ÐºÑĤÐµÑĢ Ð½Ñĭ
ÑĢÑĭ Ð¹
ĠÐ¿ÑĢÐ°Ðº ÑĤÐ¸ÑĩÐµÑģÐºÐ¸Ñħ
Ð¾ÑĢ Ñĥ
ĠÑĥ ÑĢÐ¾Ðº
Ð½ÑĥÑĤ ÑĭÑħ
ĠÑĥÑĩÐ°ÑģÑĤ Ð½Ð¸ÐºÐ°
ĠÑĢÐµÐ³ÑĥÐ»ÑıÑĢ Ð½Ð¾
ĠÐ±Ðµ ÑģÑģ
ĠÑįÐ²Ð¾Ð»Ñİ ÑĨÐ¸Ð¸
ĠÑģÐ°Ð¼Ð¾ Ð¾Ð¿ÑĢÐµÐ´Ðµ
ĠÑĩÐ°ÑģÑĤ Ð½ÑĭÐµ
ĠÐ¿ÐµÐ´Ð°Ð³Ð¾Ð³Ð¸ÑĩÐµÑģÐº Ð¾Ð³Ð¾
ĠÐ¿Ð¾Ð´Ð´ÐµÑĢÐ¶Ð° Ð½Ð¸Ñı
ĠÑģÑĢÐµÐ´ Ð½Ð¸Ð¼
ĠÑĥÑģÐ¿Ðµ ÑħÐ°
ĠÐ¿ÐµÑĢÐµÐ¼ÐµÐ½ Ð½Ð¾Ð¹
ĠÐ² ÑģÑĤÐ°
ĠÐ¸Ð·Ð¼ÐµÐ½Ð¸ ÑĤÑĮ
ĠÐ¿ÑĢÐ¸Ðº Ð»Ð°Ð´
ĠÐ²Ð¾ÑģÐ¿ Ð¾Ð¼Ð¸Ð½Ð°
ĠÐ¿ÑĢÐµ ÑģÐµ
ĠÐ¿ÑĢÐµÐ´ Ð»
ĠÐ²Ð½ÐµÐ´ ÑĢÐµÐ½Ð¸Ðµ
ĠÐ¾ÑģÐ½Ð¾Ð² Ð½Ð°Ñı
ĠÐ¸ÑģÑģÐ»ÐµÐ´Ð¾Ð²Ð° ÑĤÐµÐ»Ñı
ĠÐºÐ¾Ð» Ð»ÐµÐ³
ĠÐ²ÑĭÐ´Ðµ Ð»Ð¸
ĠÐ¿ÑĥÐ±Ð»Ð¸Ñĩ Ð½Ð¾
ÑĪ Ð¸Ð²
ĠÐ¿Ð¾Ð» Ð°
ĠÐĳ Ð¾Ð³
ĠÐ´ Ð¾Ñģ
ĠÐ½Ð° ÑģÑĤÐ°
ĠÐ¿Ð¾ÑıÐ²Ð»Ñı ÑİÑĤÑģÑı
ĠÑĢÐµÐ·ÑĥÐ»ÑĮÑĤÐ° ÑĤÐ°Ñħ
ĠÐ¿ÑĢÐ¸ÑĢÐ¾Ð´ Ð½ÑĭÑħ
ĠÑģÐµ Ð¼Ð¸Ð½Ð°
ĠÑĨÐµ Ð»Ð¾Ð³Ð¾
ĠÐ¾Ð¿ÑĢÐµÐ´ÐµÐ»Ñı ÑİÑĤÑģÑı
ĠÐļÐ° Ð²
ĠÐ¸Ð½Ð´Ð¸Ð²Ð¸Ð´Ñĥ Ð°Ð»ÑĮÐ½Ð¾Ð³Ð¾
ĠÑĢÐ¸Ñģ ÑĥÐ½
ĠÐ´ÐµÐ¹ÑģÑĤÐ²Ð¸Ñı Ð¼Ð¸
ĠÐ¿ÑĢÐ¸Ð²Ðµ Ð»Ð¸
ĠÐ¼ÑĥÑģÑĥÐ»ÑĮ Ð¼Ð°Ð½
ĠÑĨÐµ Ð»ÐµÐ½Ð°Ð¿ÑĢÐ°Ð²
Ðĳ ÐµÐ·
ĠÐ¡Ð»ÐµÐ´ ÑĥÐµÑĤ
ĠÐ¿Ð¾ÑıÐ²Ð»Ñı ÐµÑĤÑģÑı
ĠÑģ ÑģÑĤÐµÐ¼
ĠÑĥ ÑģÑĭ
ĠÐ¸ÑģÐ¿Ð¾Ð»ÑĮÐ·Ð¾Ð²Ð° Ð»Ð¸
ĠÐ¿Ð¾Ð´ÑĩÐµÑĢÐºÐ¸ Ð²Ð°ÐµÑĤ
ĠÐĹÐ°Ðº Ð¾Ð½Ð°
ÑĩÐ¸ Ð²Ð°ÐµÑĤÑģÑı
Ð³ ÐµÐ¹
ĠÐ¾ÑĤ ÐºÐ°Ð·ÑĭÐ²Ð°
ĠÐ¸Ð½ÑģÑĤÑĢÑĥ Ð¼ÐµÐ½ÑĤÐ¾Ð¼
ÑĦ ÐµÐºÑĤÐ¸Ð²
ĠÐ¸Ð½Ð¶ÐµÐ½ ÐµÑĢ
ĠÐ¼ÑĥÐ·Ñĭ ÐºÐ°
ĠÐ¶ Ð¸Ð»
ĠÑģÐ¾ÑħÑĢÐ°Ð½ ÑıÐµÑĤÑģÑı
ĠÐ° ÑģÐ¸Ð¼
ĠÐ±Ð¾ÑĢÑĮ Ð±Ð°
) .
ĠÐ´Ðµ Ð²Ð¾
ĠÐ´ÐµÑĤ ÑģÐºÐ¸Ñħ
ĠÐ½ ÐµÑĢ
ĠÑģÐ²Ð¾Ð± Ð¾Ð´Ð°
ĠÐ¿Ð»Ð° ÑĤÐ°
ĠÐ½Ðµ ÑģÑĤÐ°Ð±Ð¸
ĠÑģÐº Ð¾Ð½
ĠÐ½ÐµÐ¾Ð¿ÑĢÐµÐ´Ðµ Ð»ÐµÐ½Ð½Ð¾ÑģÑĤÐ¸
ĠÐ¿ÐµÑĢÐµ Ð³Ð¾Ð²Ð¾ÑĢÐ¾Ð²
ĠÐ¾Ð¿Ð¸ÑģÐ° ÑĤÑĮ
ĠÐ¼ÐµÐ´Ð¸ÑĨÐ¸Ð½ ÑģÐºÐ¸Ñħ
ĠÐ´Ð¸ÑĦÑĦÐµÑĢÐµÐ½ÑĨÐ¸Ð° ÑĨÐ¸Ð¸
ĠÐľÐŀ ÐŀÐļ
ĠÐ²Ñģ Ñĳ
ĠÐ¿ÑĥÐ±Ð»Ð¸Ñĩ Ð½Ð¾Ð³Ð¾
ĠÐ²Ð¾ÑģÑĤÑĢÐµÐ± Ð¾Ð²Ð°Ð½
ĠÐ´Ð¾Ð» Ð³Ð°
ĠÐºÐ¾ÑĢ Ð¾Ð»ÐµÐ²
ĠÐ½Ð°ÑģÐ¸ Ð»Ð¸Ñı
ĠÐµÐ´ Ð²Ð°
ĠÐ´ÐµÐ¹ÑģÑĤÐ² ÑĥÑİÑīÐ¸Ñħ
ĠÐ½ÑĥÐ¶Ð´Ð° ÐµÑĤÑģÑı
ÐĲ Ð¡
ÑĦÐµ ÑĢÐ°
Ð½Ñı ÑİÑĤ
Ð±Ð¸ Ð»Ð¸
ĠÑģÐ¿ÐµÑĨÐ¸Ð°Ð»Ð¸ ÑģÑĤÑĭ
Ð½ ÑģÑĤÑĮÑİ
ĠÐ±Ð¾Ð»ÑĮÑĪ ÐµÐµ
ĠÑįÑĤÐ° Ð¿Ð¾Ð²
ĠÐ¶Ð°Ð» Ð¾Ð±
ĠÑģÑĥÑīÐµÑģÑĤÐ² Ñĥ
ĠÑĢÐµÐ³Ð¸ ÑģÑĤÑĢÐ°ÑĨÐ¸Ð¸
ĠÐ°ÑģÐ¿ ÐµÐºÑĤÐµ
ĠÐ½ÐµÐ¸Ð· Ð¼ÐµÐ½
ĠÐł ÐµÐ·ÑĥÐ»ÑĮÑĤÐ°ÑĤÑĭ
ĠÐ´ÐµÐ¹ÑģÑĤÐ² ÑĥÑİÑĤ
ĠÑĥÐ³ÑĢÐ¾Ð· Ñĭ
ĠÑģÐµÑĢÑĮÐµÐ· Ð½ÑĭÐµ
ĠÐºÑĢÐµÐ´ Ð¸ÑĤÐ°
ĠÐ£ Ð½Ð¸Ð²ÐµÑĢÑģÐ¸ÑĤÐµ
ĠÑĥÑģÑĤÐ°Ð½Ð¾Ð² Ð»ÐµÐ½Ð¾
ÑĨÐµ Ð´ÐµÐ½
Ð¾Ð·Ð¸ ÑĨÐ¸Ð¸
ĠÐ½Ð°Ð³ÑĢÑĥÐ· ÐºÐ¸
ĠÐ½Ðµ Ð²
Ð· Ð´
ĠÐ¸ÑģÐ¿Ð¾Ð»ÑĮÐ· ÑĥÐµÑĤ
ÑīÐµÐ½ Ð¾
ĠÐ¿ Ð¾ÐºÑĥÐ¿
ĠÐ²Ð¾Ð·ÑĢÐ°ÑģÑĤ Ð½ÑĭÑħ
ĠÐ·Ð°Ð½Ð¸Ð¼Ð° ÑİÑĤ
Ð»Ð°Ð½ Ð´
ĠÐ¸Ð· Ð±ÑĢÐ°Ð½
ĠÑĥÐ¿Ð¾ÑĤÑĢÐµÐ± Ð»ÐµÐ½Ð¸Ðµ
ĠÐ³Ð¾ÑģÑĥÐ´Ð°ÑĢ ÑģÑĤÐ²ÐµÐ½Ð½Ð¾
ĠÑģÐ´ÐµÐ»Ð° Ð½
ĠÐºÐ°ÑĢÑĤÐ¸ Ð½Ñĭ
Ðŀ Ð±ÑĢÐ°
ĠÐ°Ð¿Ð¿Ð°ÑĢÐ° ÑĤÐ°
Ð½Ð³ Ðµ
ĠÑģÐ»ÐµÐ´ÑĥÑİÑī Ð¸Ð¹
ĠÐºÐ° Ñĩ
ĠÐºÐ° Ð¶Ð´Ð°Ñı
ĠÐ´Ð¾Ð»Ð¶ Ð½Ð¾ÑģÑĤÑĮ
ĠÐ²ÑĭÐ´Ðµ Ð»ÐµÐ½Ñĭ
ĠÐ´ Ð²
ĠÐ·Ð°Ð²Ð¸ ÑģÑıÑĤ
ĠÐ¼Ð¸ ÑĢÑĥ
ĠÐłÐ¾ÑģÑģÐ¸ ÐµÐ¹
ĠÑģÑĥÐ±ÑĬ ÐµÐºÑĤÑĭ
ĠÑģÐ¾ÑĨÐ¸ Ð¾Ð»Ð¾Ð³Ð¸Ñı
ĠÐ¿Ð°ÑĢ ÑĤÐ¸Ñı
ÑĤÐ¸ Ð¼Ð°
ĠÑįÐº Ð²Ð¸Ð²Ð°Ð»ÐµÐ½
ĠÑģÐ»Ð¾Ð¶ Ð½Ð¾Ð¹
ĠÑĦ Ð¸Ð½Ð°
ĠÐ¿ÑĢÐ¾Ð¿ Ð¾ÑĢ
ĠÐºÐ¾Ð¼ Ñĥ
Ð³Ð¾Ð²Ð¾ÑĢ Ñĭ
ĠÑģÐ¿ÐµÑĨÐ¸Ð°Ð»ÑĮ Ð½Ð¾Ð³Ð¾
ĠÐ¸Ð½Ð²ÐµÑģÑĤÐ¸ ÑĨÐ¸Ð¸
ĠÐĺÐ²Ð° Ð½Ð¾Ð²
ĠÐ°Ð¼ÐµÑĢÐ¸ÐºÐ°Ð½ ÑģÐºÐ¾Ð¹
ĠÑģÑħÐµÐ¼ Ñĭ
ĠÐ¶ÑĥÑĢ Ð½Ð°Ð»Ð¸
ĠÑģ Ð±ÐµÑĢÐµ
ĠÐ·Ð° Ð³
Ð´Ð¸ ÑĤÑģÑı
ĠÐ¿ÑĢÐµ Ð²Ð¾Ñģ
ÑĩÐ° ÑĤÑĮ
ĠÐ²Ð½ÑĥÑĤÑĢÐµÐ½ Ð½Ð¸Ðµ
ĠÐºÐ¾Ð½Ñģ ÑĥÐ»ÑĮÑĤÐ°
ĠÐ¼Ð¾ Ð½Ð¾
ĠÐºÐ¾Ð´ÐµÐº ÑģÐ°
ĠÐ´ÐµÑıÑĤÐµÐ» Ð½Ð¾ÑģÑĤÐ¸
ĠÑĥ ÑģÑĤÑĢÐ¾
ĠÐ¾ ÑģÑĤ
ĠÐ¾Ðº ÑĢÐ°
ĠÐ³Ð»Ð° Ð²Ñĭ
ĠÐ´Ð¾ÑģÑĤÐ¾ Ð¸Ð½
ÑĩÐ¸ Ð»
ĠÐ½ÐµÐ´ Ð¾Ð¿Ñĥ
ĠÐŀ ÐŃ
ĠÐ¸ÑģÐºÐ»Ñİ ÑĩÐµÐ½Ð¸Ñı
Ð²Ð° Ð½Ð¾
ĠÐºÐ¾Ð»Ð»Ðµ Ð³Ð¸
Ð¾Ð²Ð° ÑĢÐ¸
ĠÐ´Ð¾ ÑģÑĤÐ¾Ð¹
ĠÐºÐ¾Ð½ÑĤÐ°Ðº ÑĤÐ¾Ð²
ĠÐ³ Ð»Ñĥ
ĠÑĢÐµÑĩÐµ Ð²Ð¾Ð³Ð¾
ĠÐ¸Ð½ÑĤÐµ ÑĢÐ°Ðº
ĠÐ¸ÑģÐ¿Ð¾Ð»ÑĮÐ·Ñĥ Ñı
Ġ "
ĠÐ¾Ñģ Ð»Ð¾Ð¶
Ñĥ ÑĨÐ¸
ÑĨÐ° Ñħ
ĠÑģÐ¾ÑĨÐ¸ Ð¾Ð»Ð¾Ð³
ĠÐ°Ð±ÑģÐ¾Ð»ÑİÑĤ Ð½Ð¾
ĠÑģÐ¿ÐµÑĨÐ¸ ÑĦÐ¸ÐºÐ°
ĠÐ¾ÑģÑĥÑīÐµÑģÑĤÐ² Ð»ÐµÐ½Ð¸Ð¸
ĠÐ»Ð¸Ñĩ Ð½Ð¾ÑģÑĤÑĮ
ĠÐºÐ°Ð¿Ð¸ÑĤÐ° Ð»Ð¸
ĠÐ´Ð¾Ð± ÑĢÐ¾ÑģÐ¾Ð²ÐµÑģÑĤ
ĠÐ¿ÑĢÐ¸ ÑĤÑı
ĠÐ´Ð¾Ð±Ð¸ ÑĤÑĮÑģÑı
ĠÑĥ ÑģÐºÐ¾ÑĢ
ĠÐ¾ÑģÐ¾Ð± ÑĭÑħ
ĠÐ¿ÑĢÐ°Ð²Ð° Ñħ
ĠÑįÑĦÑĦ ÐµÐºÑĤÐ¾Ð²
ĠÐ¾ÑĨÐµÐ½Ð¸ Ð²Ð°ÑĤÑĮ
ĠÐ½Ð°ÑĩÐ¸Ð½Ð° ÐµÑĤÑģÑı
ÑĢÐ¸ Ð°ÑĤÐ°
ĠÐĶÐ°Ð½ Ð½ÑĭÐ¹
ĠÐ¿ÐµÑĢÑĦ ÐµÐºÑĤ
ĠÐ·Ð° ÑĢÐ°Ð½ÐµÐµ
ĠÐ¾Ð±Ñī Ð½Ð¾ÑģÑĤÐ¸
ĠÐ½Ð°ÑĩÐ¸Ð½Ð° ÑİÑĤ
ĠÐ¸Ð·Ð¾Ð± ÑĢÐ°Ð¶
ĠÐ²Ð¾ ÑĪÐ»Ð¸
ÑĥÑĩÐ¸ ÑĤÑĮ
ĠÐ¸Ð½Ð¸ ÑĨÐ¸Ð¸
ĠÐĽ Ñĥ
ĠÑĤ ÑĥÑĢ
ĠÑģÐ¾Ð¼ Ð½ÐµÐ½Ð¸Ñı
ĠÑĥ Ð´Ð¸
ĠÑħ ÑĢÐ°
ĠÐ±ÐµÐ·Ð¾Ð¿Ð°Ñģ Ð½Ð¾ÑģÑĤÑĮ
Ð¾Ð² ÑĭÐ¹
Ð»Ð° Ð´Ðµ
ĠÐ½Ð°Ð¿ÑĢÐ°Ð² Ð»ÐµÐ½Ð½Ð¾ÑģÑĤÑĮ
ĠÐ¾ÑĤÐ¼ÐµÑĤ Ð¸Ð¼
Ð²Ð¸ Ð´ÐµÐ½
ĠÐ¿ÐµÑĢÑģ Ð¾Ð½Ð°Ð»ÑĮ
ĠÑĤ Ð¾Ð½
ĠÐºÑĥÐ»ÑĮ ÑĤÑĥÑĢÑĥ
ĠÑģÑĥ Ð´Ð¸ÑĤÑĮ
ĠÐ¼Ð°ÑĤÐµÑĢÐ¸ Ð°Ð»ÑĮÐ½Ð¾Ð³Ð¾
ĠÐ¿Ð¸Ñģ Ð°Ð»
ĠÑį Ð²
ĠÐļ Ð¾Ð³Ð´Ð°
ÐĲ Ð¢Ðŀ
ĠÐ»Ð¸ ÑĩÐ½Ð¾
ĠÐ·Ð½Ð°Ñĩ ÐµÐ½Ð¸Ð¸
ĠÐ½Ð° Ð·Ð°Ð´
ĠÑĩÐµ ÑĪ
ÐĲ Ðº
ĠÑģÐ¾Ð´ÐµÑĢÐ¶Ð° ÑĤ
ĠÑģÑĢÐµÐ´ Ð½ÐµÐµ
ĠÐ¾Ð±ÑīÐµ ÑģÑĤÐ²ÐµÐ½
ĠÐ·Ð½Ð°ÑĩÐ¸ Ð¼ÑĭÐ¼
ĠÐ¼Ð½Ð¾Ð¶Ðµ ÑģÑĤÐ²Ð°
Ð²Ð° ÑİÑīÐ¸Ð¼
ĠÐŀ Ð½Ð¾
ĠÐ¸Ð¼Ðµ ÐµÐ¼
ĠÑĤÑĢÐµ ÑĤÐ¸
ĠÑĤ Ð²ÐµÑĢ
ĠÐ´ÐµÐº Ð»Ð°ÑĢÐ°
ĠÐ¿ÐµÑĢÐµÐ²Ð¾Ð´ Ðµ
ĠÐºÐ¾Ð»Ð»ÐµÐº ÑĤÐ¸Ð²
Ð¾ÑĤ Ð¾ÑĩÐ¸
ĠÐºÐ¾Ð½Ñģ Ð¾Ð»Ð¸
ĠÐ°Ð» ÐºÐ¾Ð³
ĠÐ·Ð° Ð±Ñĭ
ÑģÑĤÐ¸ Ð½
ĠÑħÐ°ÑĢÐ°ÐºÑĤÐµÑĢ Ð½Ð°
ĠÐ»Ð¸Ñĩ Ð½Ð¾Ð¹
ĠÐ¸Ð½ÑģÑĤÑĢÑĥ Ð¼ÐµÐ½ÑĤÑĭ
ĠÐ´Ð¾ÑģÑĤÐ¸Ð³ Ð½Ñĥ
ĠÐ¿Ð¾ÑıÐ²Ð¸ Ð»Ð¸ÑģÑĮ
ĠÑĢÑĥÑģ ÑģÐºÐ¸Ðµ
ĠÑģÑĤÑĢÑĥÐºÑĤÑĥÑĢ Ð½ÑĭÑħ
ĠÑĩÐµÑĢ ÑĤ
ĠÑĤ ÑīÐ°
ĠÑĤÐµÑĢ Ð¼Ð¸Ð½Ð°
ĠÐ»ÑİÐ± ÑĭÐµ
ĠÐ¾ÑĤ Ð¾Ð±
ĠÑĢ Ð¾Ð¶Ð´ÐµÐ½Ð¸Ñı
ĠÐ¤ Ð°Ðº
ĠÑģÐ¾Ð± ÑĢÐ°Ð½
ĠÐ¿ÑĢÐ¾ÑĤÐ¸Ð²Ð¾ÑĢÐµÑĩÐ¸ Ðµ
ĠÐºÑĢÑĥ Ð³Ð°
ÑĤÑĮ ÐµÐ²
ÑĢÐ°Ð±Ð¾ÑĤ Ð°Ð½
ĠÑģÐ»ÑĥÐ¶Ð° ÑīÐ¸Ñħ
ĠÑĤ ÑĢÐµÐ½
ĠÐĳ Ð°ÑĢ
ĠÐ¿Ð¾ÐºÐ°Ð·Ð° ÑĤÐµÐ»ÐµÐ¼
ĠÑģÑĥÑīÐµÑģÑĤÐ² ÑĥÑİÑīÐ¸Ðµ
Ð½Ð¸ÑĩÐµ ÑģÑĤÐ²Ð¾
ĠÐ¸Ñİ Ð»Ñı
Ð¾Ð³Ð¾ Ð¾Ð±
ĠÐ¿ÑĢÐ°Ð² Ð¾Ð²Ð°Ñı
Ð´Ð°Ð½ Ð½ÑĭÑħ
ĠÐ½Ð°Ð»Ð¾Ð³Ð¾Ð² ÑĭÑħ
ĠÑģÐ¾Ð³Ð»Ð°ÑģÐ¸ ÑĤÑĮÑģÑı
ĠÐ²Ñĭ Ð±
Ð¸Ð· Ð¼
ĠÐ¿Ð»Ð° Ð½Ñĭ
ĠÑĥÑĤÐ²ÐµÑĢ Ð¶Ð´ÐµÐ½Ð¸Ñı
ÑĤÐ¸ ÐºÐ¾
ĠÑĢÐ°Ñģ Ð¼Ð°ÑĤÑĢÐ¸
ĠÐ´ÐµÑĤ ÑģÐºÐ¾Ð¹
ĠÑĤÐ¾Ð²Ð° ÑĢ
ĠÐ¾Ð±ÑĥÑĩ ÐµÐ½Ð¸Ñİ
Ð¾ÑĢ ÑĦ
ĠÐ¾Ð± Ð»
ĠÑĢÐµ Ð°Ð»
ĠÐ¼ Ð¶ÐµÑĤ
ĠÐ°ÐºÑĤÐ¸Ð² Ð½Ð¾Ðµ
ĠÐ¿ Ð»Ñĥ
Ð¿ÑĢÐ°Ð² Ð¾Ð²ÑĭÐµ
ĠÐ¿Ð¾Ð· Ð¶Ðµ
ĠÑĦÐ¸Ð½Ð°Ð½ Ñģ
ĠÐ¿Ð¾Ðº ÑĢÑĭ
ĠÐł Ð¡Ð¤
Ð·Ð°Ð½ Ð½ÑĭÑħ
ĠÑİ Ð½Ð¾
ÑĤ Ð½ÑĭÐ¼Ð¸
ĠÐ´Ð°Ð½ Ð½ÑĥÑİ
ĠÑĦÐ¸ Ð»
ĠÐ·Ð°ÐºÐ¾Ð½Ð¾Ð´Ð° ÑĤÐµÐ»ÑĮÐ½Ð¾Ð¹
ĠÐ¾Ð±ÑĬÐµÐ¼ Ð¾Ð²
ĠÐ¿Ð¾Ð´ Ñģ
ĠÐ½Ð°ÑħÐ¾Ð´ Ð¸ÑĤ
ĠÑĢÐµÐ±ÐµÐ½ ÐºÐ¾Ð¼
ĠÐ¼ Ð³
ĠÐļÐ¾Ð½ Ð²ÐµÐ½ÑĨÐ¸Ð¸
ĠÐ²ÐµÑĢÐ¾ÑıÑĤ Ð½Ð¾ÑģÑĤÐ¸
ÑıÐ·Ñĭ ÑĩÐ½ÑĭÑħ
ÑģÐº Ð³Ð¾
ĠÐ¿ÐµÑĢÐµ Ð²Ð¾Ð·
ĠÐ²Ð¾Ð¿ÑĢÐ¾Ñģ Ð¾Ð¼
ĠÑĢÐ¾ÑģÑģÐ¸ ÑıÐ½
ĠÐ²ÐºÐ»ÑİÑĩÐ° ÑİÑĤ
ĠÐ¾ÑĢÐ³Ð°Ð½Ð¸Ð· Ð¾Ð²Ð°Ð½
ÑĤ ÑĢÐµÐ±
ĠÐłÐ¡Ð¤ Ð¡Ðł
ĠÐ¸Ð´ ÑĤÐ¸
Ġ Ð¾Ð³Ð°
ĠÐ³Ð¾ÑģÑĥÐ´Ð°ÑĢ ÑģÑĤÐ²Ñĥ
ĠÑģÑĤÐ°Ð½Ð´Ð°ÑĢ ÑĤÐ°
ĠÐŁ Ð¾Ð¼Ð¸Ð¼Ð¾
ĠÐ¾ÑĤÑĩÐµÑĤ Ð½Ð¾ÑģÑĤÐ¸
ĠÐ¾Ð±Ð¾Ð± ÑīÐµÐ½
ĠÐĿ ÐµÐºÐ¾ÑĤÐ¾ÑĢÑĭÐµ
ĠÐ²Ð¾Ð¿ÑĢÐ¾Ñģ Ðµ
ÑģÑĤÐ¸ÑĩÐµÑģÐº Ð°Ñı
ĠÐ± Ð»Ð°Ð³Ð°
ÑĢÐ¾Ð² Ð½Ð¸Ñı
ĠÐ¼ÐµÑģÑĤ Ð½ÑĭÐµ
ĠÐ¸ÑģÐ¿Ð¾Ð» Ð·
ĠÑĩÑĥÐ² ÑģÑĤÐ²Ð°
ĠÐ¿Ð¾Ð´ÑĢÐ°Ð·ÑĥÐ¼Ðµ Ð²Ð°ÐµÑĤ
ÑĩÐ¸ Ð¹
ĠÐ³Ð»Ð°Ð³Ð¾Ð» Ñĭ
Ð¾Ð¿ Ð¾Ð»ÑĮ
ÑĢÐ°Ð· Ð²Ð¸
ĠÐ¸ÑģÐ¿Ð¾Ð»ÑĮÐ·Ñĥ ÐµÐ¼ÑĭÑħ
ĠÐ³ÑĢÐ°Ð¶Ð´Ð° Ð½Ðµ
ÑĢÑĥ Ð³Ð¸Ð¼Ð¸
ÑģÑĤÐ¾ ÑĢÐ¸Ñı
Ð¼Ñĥ Ð½Ð¸
ÑĨÐ¸ Ð¾
ĠÑģÐ¾Ð±Ð»Ñİ Ð´
ĠÐ¿ÑĢÐ¸Ð¼ÐµÑĢ Ð¾Ð¼
ĠÐ½Ð° ÑĨÐ¸Ð¸
ĠÐ¢ Ð¾Ð»ÑĮÐºÐ¾
ĠÑĦÐ°ÐºÑĥÐ»ÑĮ ÑĤÐµÑĤÐ°
ĠÐ¿ÑĢÐµÐ´Ñĥ Ð¿ÑĢÐµ
Ð¾Ð½ ÑıÑĤ
ĠÐ¿Ð¾Ð» Ð½Ð¾Ðµ
ĠÐ¼Ðµ Ð»
ĠÑįÐ½ÐµÑĢÐ³ ÐµÑĤ
ĠÐ£ÐºÑĢÐ°Ð¸ Ð½Ñĭ
ĠÐļ ÑĥÑĢ
Ñħ Ð¾Ð¶
ĠÐ¿ÑĢÐ¸ Ð¼
ĠÑĢÐ°ÑģÐ¿ ÑĢÐ¾
ĠÑĨÐµ Ð¿Ð¾
ĠÐļÐ¾Ð½ ÑģÑĤÐ°Ð½
ĠÑĢÐ°Ð·Ð´Ðµ Ð»ÐµÐ½Ð¸Ñı
ĠÐ½ÐµÑģÐ¾Ð²ÐµÑĢÑĪÐµÐ½ Ð½Ð¾Ð»ÐµÑĤ
Ð¿ Ð¾Ð¼
ĠÐ¿ÑĢ ÑĨÐµÑģÑģ
ĠÐ¸Ð¼Ðµ Ð»Ð¾
ĠÐ¿Ð¾Ð»ÑĮÐ·Ð¾Ð²Ð° ÑĤÐµÐ»ÐµÐ¹
Ð» ÑĭÐµ
ĠÑĢÐ°Ð²ÐµÐ½ ÑģÑĤÐ²Ð°
ĠÐ±Ð»Ð°Ð³Ð¾ÑģÐ¾ ÑģÑĤÐ¾ÑıÐ½Ð¸Ñı
ĠÐ Ļ
Ð° Ð½Ñĭ
Ñī Ð°Ð»Ð¸
ĠÐ¿ÑĢÐ¾ÑĦÐµÑģÑģ Ð¾ÑĢÐ°
ĠÐ¸ÑģÑĩÐµ Ð·
ĠÐĿ Ð°ÐºÐ¾Ð½ÐµÑĨ
ÑĢÐ¾Ð²Ð°Ð½ Ð½ÑĥÑİ
ĠÐ²Ð¾ÐµÐ½ Ð½ÑĭÐµ
ĠÐ³ÐµÐ½ÐµÑĢÐ° Ð»
ĠÑĥÑģÑĭ Ð½Ð¾Ð²
ĠÐ¸ÑģÑģÐ»ÐµÐ´Ð¾Ð²Ð°ÑĤÐµÐ»ÑĮ ÑģÐºÐ¸Ñħ
Ð¸ ÐºÐ¸
ĠÐ¿ Ð»Ð°ÑģÑĤÐ¸
ÐµÑĢ ÑĮ
Ð³Ñĥ ÑĢÐ°
ĠÐ½Ð°Ð´ Ð»ÐµÐ¶Ð°
ĠÐ¶Ð¸Ð·Ð½Ðµ Ð´ÐµÑıÑĤÐµÐ»ÑĮÐ½Ð¾ÑģÑĤÐ¸
Ð¾ Ñĥ
ÑĤÐµÐ» Ð½Ð¾
ĠÐ¸Ð½ÑĤÐµÑĢÐµÑģ Ð°Ð¼
ĠÐºÐ°ÑĩÐµ ÑģÑĤÐ²
Ð¾Ð» Ð¶
ÑĨÐ¸Ð¾Ð½Ð°Ð»ÑĮ Ð½Ð¾Ð³Ð¾
ĠÑħ Ð¸Ð¼Ð¸
ĠÑģÐµÐ¼Ð°Ð½ ÑĤÐ¸ÐºÐ¸
ĠÐ½Ðµ ÐºÐ¾Ð¼
ÑĦ ÑĥÐ½Ðº
ĠÐĺÐ½ Ð´Ð¸Ð¸
ĠÑĤÐµÑĢÐ¼Ð¸ Ð½Ð¾Ð²
ĠÑĤÐ¾Ð»Ðº Ð¾Ð²Ð°Ð½Ð¸Ñı
ĠÑģÐ¾Ð± Ðµ
ĠÑĢÐ°ÑģÑģÐ¼Ð°ÑĤÑĢÐ¸ Ð²Ð°ÑİÑĤ
ĠÐ¾ÑģÐ¾Ð·Ð½Ð° Ð½
ĠÐ¿Ð¾Ð´ÑĤÐ²ÐµÑĢÐ¶Ð´Ð° ÐµÑĤÑģÑı
ĠÑĥÑĩÑĢÐµÐ¶Ð´ÐµÐ½Ð¸Ñı Ñħ
ĠÑģÐ»ÑĥÑĩÐ°Ð¹ Ð½Ð¾
ĠÐ¾ÑĤÐ´Ðµ Ð»
ĠÐ»Ð¸ÐºÐ²Ð¸Ð´ Ð½Ð¾ÑģÑĤÐ¸
Ð·ÑĭÐ²Ð° ÐµÑĤÑģÑı
ĠÐłÐµÑģÐ¿ÑĥÐ±Ð»Ð¸ ÐºÐµ
ĠÑĪÐµ ÑģÑĤÐ¸
ĠÐº Ð¸Ð±
ĠÐ¿Ð¾Ð± Ðµ
ĠÑĢÐ°Ð·Ð´Ðµ Ð»Ñı
ĠÐ¿ÑĢÐ¾ÑĤÐµ ÑģÑĤ
ĠÑģÐ¾Ð²ÐµÑĢÑĪÐµÐ½ ÑģÑĤÐ²Ð¾Ð²Ð°Ð½Ð¸Ñı
ĠÐ¸Ð½Ð²ÐµÑģÑĤ Ð¾ÑĢÐ¾Ð²
ĠÑģÐ¾ Ð¾Ð²ÐµÑĤ
ĠÐ½ÐµÐ³Ð° ÑĤÐ¸Ð²Ð½ÑĭÐµ
ĠÐłÑĥ ÑģÐ¸
ĠÑģÑĤÑĥ Ð¿
ĠÐ»ÑİÐ± Ð¾Ðµ
ĠÐ¿ÑĢÐµÐ´Ð¾ÑģÑĤÐ° Ð²Ð»ÐµÐ½
ĠÐ¿ÑĢÐµÐ´ÑĥÑģÐ¼Ð°ÑĤÑĢÐ¸ Ð²Ð°ÐµÑĤ
ÑĢÐµÐ³Ð¸ ÑģÑĤÑĢÐ¸
ÑİÑīÐµÐµ ÑģÑı
ĠÑģÐ¿Ð¾ÑģÐ¾Ð± Ð°Ð¼Ð¸
ĠÐ¾Ð±ÑĥÑģÐ»Ð¾Ð² Ð»ÐµÐ½
ĠÐ»Ð° Ð³ÐµÑĢ
ÑĩÑĥ Ð²
ÑĤÐµÐ»ÑĮ ÑģÑĤÐ²Ðµ
ĠÑģÑĥ Ð¶Ð´ÐµÐ½Ð¸Ñı
ÑģÐ¿ ÐµÐº
ĠÑģÑĢÐ°Ð² Ð½ÐµÐ½Ð¸Ðµ
ĠÐ±Ð°Ð»Ð°Ð½ ÑģÐ°
ĠÑĢÐ¾Ð´Ð¸ ÑĤÐµÐ»ÑıÐ¼Ð¸
ĠÐ³Ð°ÑĢÐ°Ð½ ÑĤÐ¸Ð¹
ĠÐ·Ð° ÐµÐ¼
ĠÐ²Ð°ÑĢÐ¸Ð°Ð½ ÑĤÐ°
ĠÐ´Ð¾Ð¼Ð¾ ÑħÐ¾Ð·ÑıÐ¹
ĠÐ½Ð°ÑĩÐ° Ð»ÑĮÐ½Ð¾Ð¹
ĠÐ¾Ð´Ð½Ð¾Ð·Ð½Ð° ÑĩÐ½Ð¾
ĠÑĤ ÑĢÐ°Ð²
ĠÑĢÐ° ÑģÑĤÑĥ
ĠÐķ ÑīÐµ
ĠÑĥÑĩÐµÐ½ Ð¾Ð³Ð¾
ĠÑĤÑĢÐ°ÐµÐº ÑĤÐ¾ÑĢÐ¸Ð¸
ĠÐ·Ð° Ð¿Ð¸ÑģÐ¸
ĠÐ¾Ð±Ñĭ Ð´ÐµÐ½
ĠÐ¿ÑĢÐ¸Ð¼ÐµÐ½ ÑıÑĤÑĮ
ĠÐ¾Ð± Ð¾ÑģÑĤ
ĠÐ³Ð»Ð¾Ð± Ð°Ð»ÑĮÐ½Ð¾Ð¹
ĠÐ²Ð¾Ð·ÑĢÐ°ÑģÑĤ Ð½Ð¾Ð¹
ĠÑģÐ¾Ð¿ÑĢÑı Ð¶ÐµÐ½
ÑĪÐµÐ½ Ð¾
ĠÑģÐ¾Ð·Ð½Ð° Ð½Ð¸Ðµ
Ð¢Ð°Ðº Ð¾Ð¹
ĠÐºÐ°ÑĢÑĤÐ¸ Ð½Ð°
ĠÐ½ÐµÐ¶Ðµ Ð»Ð°
ĠÐµ Ñİ
ĠÐ¢ Ñĥ
ĠÐ´Ð¸ Ð²ÐµÑĢÑģÐ¸
ĠÐ¿ÑĢÐ¾Ð±Ð»ÐµÐ¼ Ð°Ð¼Ð¸
ĠÐ¿Ð¾Ð´ Ð»Ð¸Ð½
ÐĲ ÐŃÐ¡
Ð»Ð¸ Ð·Ð¸
ĠÐºÐ¾Ð½ Ð²ÐµÐ½
ĠÐ¼Ð¸Ð½Ð¸ Ð¼Ð¸
ÑĢÐ¾Ð²Ðµ Ð´ÐµÐ½
ĠÐ¼Ð½Ð¾Ð³Ð¾ÑĩÐ¸Ñģ Ð»ÐµÐ½Ð½ÑĭÐµ
ĠÐ½Ðµ ÑįÑĦÑĦÐµÐºÑĤÐ¸Ð²
ĠÑĥÑĩÐ° ÑīÐ¸ÐµÑģÑı
Ð¾ÑĢ Ð¼Ð¸
Ðļ Ð¾Ð¼
ĠÐ½Ð¾Ð² ÑĭÐ¼Ð¸
ĠÐ²ÐºÐ»Ñİ ÑĩÐµÐ½Ñĭ
ĠÐ³Ð°Ð· ÐµÑĤ
ÐµÑĢ Ð¾Ð¼
ĠÐ½ÐµÑģÐ¾Ð¼ Ð½ÐµÐ½Ð½Ð¾
Ñī Ñĳ
ĠÐ·Ð°ÑĤÑĢÐ° ÑĤÑĭ
Ð°Ð»ÑĮ Ð½Ð¾Ð¼Ñĥ
ĠÑģÐ°Ð¼Ð¾ÑģÑĤÐ¾ÑıÑĤÐµÐ»ÑĮ Ð½Ð¾ÑģÑĤÐ¸
ĠÐ¿ÑĢÐµÐ²ÑĢÐ° ÑĤÐ¸
ĠÐ¾Ð±ÑĬÐµÐºÑĤÐ° Ð¼Ð¸
ĠÐ¾Ð¿Ð¸ÑģÑĭ Ð²Ð°ÐµÑĤ
ĠÐ»Ð¾Ð³Ð¸ ÐºÐµ
ĠÐ¿Ð¾Ð´Ð´ÐµÑĢÐ¶Ð¸ Ð²Ð°ÑĤÑĮ
ĠÑĢÐ°Ñģ ÑĩÐµÑĤÐ°
ĠÑģ Ð¾Ð´Ðµ
ÑĤÐ¸ Ð½Ð°
ĠÐ¡ Ð²Ñı
ĠÐ¿ÑĢÐµÐ´ÑģÑĤÐ°Ð²Ð»ÐµÐ½ Ð¾
ĠÐĶÐ° Ð¶Ðµ
ÐµÑĤ ÑĮ
ÑĢÑĥ ÑİÑīÐµÐ³Ð¾
ĠÑħ Ð¾Ð»
ÑĢÐ¸ ÑģÑĤ
ĠÑģÐ¿ Ð¾ÑĢÐ°
ĠÑģÐ»Ñĥ Ð¶ÐµÐ±
ĠÑĢÐ°Ð² Ð½Ð¾Ð²Ðµ
ĠÑĦÑĢÐ°Ð· Ðµ
ĠÐºÐ¾Ð¼ ÑĦÐ¾ÑĢ
ĠÑĤÑĢÐµÐ± Ð¾Ð²Ð°Ð½Ð¸Ðµ
ĠÐ¿ÑĥÐ½Ðº ÑĤÐ¾Ð²
ĠÐ½Ð°Ð» Ð¾Ð³Ð¾Ð¾Ð±
ĠÐ¿Ð¾Ð² ÐµÑģÑĤ
ÐĿ ÐµÐºÐ¾ÑĤÐ¾ÑĢÑĭÐµ
ĠÑĤÐµÑĢÑĢÐ¸ÑĤÐ¾ÑĢÐ¸ Ñİ
ĠÐ²ÐºÐ»Ñİ ÑĩÐµÐ½Ð¸Ñı
ĠÑģÐ¾ Ð¾ÑĢÑĥÐ¶
ÑĥÑĤ Ð±
ĠÐ»ÑİÐ± ÑĭÑħ
ĠÑĪÐºÐ¾Ð»ÑĮ Ð½Ð¾Ð¹
ĠÑĢÐ°ÑģÑģÐ¼Ð°ÑĤÑĢÐ¸Ð²Ð°ÐµÐ¼ Ð¾Ð¹
ĠÐ²ÑĭÐ´ÐµÐ»Ñı ÑİÑĤÑģÑı
ĠÑĢÐµÐ¶Ð¸Ð¼ Ðµ
ĠÐ½Ð°ÑģÑĤ Ð¾Ð»ÑĮÐºÐ¾
ĠÐ²ÑĢÐµÐ¼ÐµÐ½ Ð½Ð¾Ð¹
ĠÐ¿ÑĢÐ¸ÑģÑĥÑĤÑģÑĤÐ² ÑĥÐµÑĤ
ĠÑģÐ»Ð¾Ð¶Ð¸Ð² ÑĪÐµÐ¹ÑģÑı
ĠÑħÐ¾Ð·ÑıÐ¹ ÑģÑĤÐ²
Ġ2 0
ĠÐ§ ÑĤÐ¾Ð±Ñĭ
ĠÐ¿ÑĢÐ¾ÑĦÐµÑģÑģÐ¸Ð¾Ð½Ð°Ð»ÑĮ Ð½Ð¾Ðµ
ĠÑĥÐ½Ð¸Ð²ÐµÑĢÑģÐ¸ÑĤÐµ ÑĤÐ°Ñħ
ÑĢÐ¸ Ñİ
ĠÐ¿ÑĢÐ¾Ð¸ÑģÑħÐ¾Ð´ Ð¸Ð»Ð¾
ĠÑİ Ð¶
ĠÐ¿Ð¾Ð»ÑĥÑĩ ÐµÐ½Ñĭ
ÑīÐ¸Ð¼Ð¸ ÑģÑı
ĠÑģÑĥÐ¼ Ð¼Ñĥ
ĠÐ¿ÑĢÐ¾ÑĤÐ¸Ð²Ð¾ÑĢÐµÑĩÐ¸ Ð¹
ĠÑģÐ¾Ð³Ð»Ð° ÑģÑĥ
ĠÑĥÑĩÐµ Ð±Ñĭ
ĠÐ·Ð½ ÑĩÐ¸
ÑĤ ÑģÐºÐ¸Ñħ
ĠÐ¿ÑĢÐ¸ Ð³Ð»Ð°
ĠÐŁ Ð°ÑĢÐ¸
ĠÐ¿ÑĢÐµÐ¾Ð±ÑĢÐ°Ð· Ð¾Ð²Ð°Ð½Ð¸Ñı
ĠÐ¿ÑĢÐ¸Ð¼ÐµÐ½ ÐµÐ½Ð¸Ð¸
ÑĨÐ¸Ð°Ð»ÑĮ Ð½Ð¾Ð³Ð¾
ĠÑıÐ²Ð»Ñı Ð»ÑģÑı
ÑĨÐ¸Ð°Ð»ÑĮ Ð½Ð¾Ð¹
ĠÐĿ Ð¾ÑĢ
ÑĢÐ°Ð±Ð¾ÑĤ ÐºÐ°
Ð»Ð¾Ð²Ð° ÐºÐ¸
ĠÐºÐ¾Ð¼Ð¸ ÑĤÐµÑĤÐ°
ĠÑĦ Ð¸Ð½
ĠÑģÐ¿ Ð»Ð¾
ĠÑħÐ°ÑĢÐ°Ðº ÑĤÐµÑĢÐµ
ĠÑĥÐºÐ°Ð·Ð°Ð½ Ð½ÑĭÐµ
Ð¢Ð°Ðº Ð°Ñı
ĠÑģÐµÑĢ Ð²Ð¸
ÑĬÐµÐ¼ Ð»ÐµÐ¼
ĠÑĢÐ°ÑģÑĤ ÐµÑĤ
ĠÑĢÐ¾Ñģ Ð¸Ð¹
ĠÐ³Ð¾Ð´Ð° Ñħ
ĠÐ¸Ð¼Ð¿Ð¾ÑĢ ÑĤ
ĠÑģÑĥÐ¿ ÑĢÑĥ
ÑĩÐ¸ Ð²Ð°ÐµÑĤ
ĠÐ¿Ð¾Ð»Ð¸ÑĤÐ¸ÑĩÐµÑģÐº Ð¾Ðµ
ÑĪ Ð»Ð°
ĠÐ·Ð° Ð´ÐµÐ¹ÑģÑĤÐ²
ĠÑĢÐ°Ð¹ Ð¾Ð½Ð¾Ð²
ĠÐ¾Ð±ÑĬÐµÐºÑĤÐ¸Ð² Ð½Ð¾
ĠÑĥÑģÐ¿ÐµÐ²Ð°ÐµÐ¼ Ð¾ÑģÑĤÐ¸
ÑģÐº ÑĢÐ¸
Ð¼Ð¸Ð½Ð° Ð½
ĠÐ¿Ð¾ÑģÑĤÑĥÐ¿ Ð»ÐµÐ½Ð¸Ñı
ĠÐ°Ð½Ð³ Ð»Ð¾
ĠÑĥ ÑģÑĤÑĥÐ¿Ð°
ĠÐ´Ð¸ÑģÑĨÐ¸Ð¿ Ð»Ð¸Ð½
ĠÐ¾Ð±ÑĢÐ°Ð·Ð¾Ð²Ð° Ð½
ĠÐºÑĢÐ¸ ÑĤÐ¸ÐºÐ¸
ĠÑģÐ¾Ð´ÐµÑĢÐ¶Ð° Ð½Ð¸ÐµÐ¼
ĠÐķ ÐĲÐŃÐ¡
ĠÐ½ÐµÐ·Ð°Ð²Ð¸ÑģÐ¸ Ð¼Ð¾ÑģÑĤÐ¸
ĠÐ¿Ð¾Ð´Ð¿ Ð¸ÑģÐ°
ÑĤÐ¾ ÑĩÐ½ÑĭÑħ
ĠÐºÐ° ÑĢÐ°
ĠÐ¾Ð¿Ð¸ÑĢÐ° ÐµÑĤÑģÑı
ĠÐ°Ð²Ð³Ñĥ ÑģÑĤÐ°
ĠÐ¾Ð±ÐµÑģÐ¿Ðµ ÑĩÐµÐ½Ð¸Ð¸
ĠÐ±ÐµÑģÐ¿ Ð»Ð°
Ð½ ÐºÐ°
Ð´Ð° ÑĩÐ°
ĠÐ±Ñĥ Ñħ
ĠÐ¾Ñģ Ñĥ
ĠÐ¼ÐµÑģÑĤ Ð½Ð¾Ð¹
ĠÑģÐ¾ÑģÑĤÐ°Ð²Ð»Ñı Ð»Ð¸
ĠÑĤÐµÐ»Ðµ ÑĦ
ÐŁÑĢÐµ Ð¶Ð´Ðµ
Ñī Ð°Ð»Ð¸ÑģÑĮ
ĠÑĥÑģÐ»Ð¾Ð² Ð¸Ðµ
ĠÐ¾Ð´Ð½Ð¾ ÑĢÐ¾Ð´
ĠÐ½Ð° ÑĢÐ°ÑģÑĤÐ°
ĠÑıÐ·Ñĭ ÐºÐ¸
ĠÑģÐ»ÑĥÐ¶Ð° ÑĤ
ĠÐ½ÐµÐ±Ð»Ð°Ð³ Ð¾Ð¿ÑĢÐ¸ÑıÑĤ
ĠÐ¼Ð¸Ð½Ð¸ ÑģÑĤÑĢÐ°
ĠÑĥ Ð¼Ðµ
Ð¼ÐµÐ½ Ñı
ĠÐ¿ÑĢÑıÐ¼ ÑĭÑħ
ĠÐ´Ð¾Ð» ÐµÐ¹
ĠÑĦÐ¾Ð½ Ð´Ñĭ
ĠÐ¿ÑĢÐ¸Ð±Ñĭ Ð»ÑĮ
Ð°ÑĢÐ°ÐºÑĤÐµÑĢÐ¸ Ð·
ĠÑģÐ¾Ð±Ðµ ÑģÐµÐ´
Ð¿ ÑĢÐ¾ÑģÑĤÑĢÐ°Ð½
ĠÑĢÐ°Ð±Ð¾ÑĤÐ° ÑİÑīÐ¸Ñħ
ĠÐ¿ÑĢÐµÐ´Ð¿ÑĢÐ¸Ð½Ð¸Ð¼Ð° ÑĤÐµÐ»ÑĮÑģÐºÐ¾Ð¹
Ð± ÑĥÐ´ÑĮ
ĠÐ¿Ð¾Ð½Ð¸Ð¼Ð° Ð½Ð¸Ñİ
ĠÐ¾ÑģÐ½Ð¾Ð²Ð° Ð½Ð¸Ðµ
ĠÑģÑĤÑĥÐ´ÐµÐ½ ÑĤ
ĠÐ´Ð²Ñĥ Ð¼
ÑĤÑĥ Ð°Ð»Ð¸Ð·Ð°ÑĨÐ¸Ð¸
ĠÐ¼Ð°ÑĤÐµÑĢÐ¸ Ð°Ð»ÑĮÐ½ÑĭÑħ
ĠÑģÐ´Ðµ Ð»
ĠÐºÐ¾Ð¼Ð¿ ÐµÐ½ÑģÐ¸
ĠÐ¾Ð½ Ð¾Ð²
ĠÐ³Ð¾ÑĢ Ð¾Ð¶
ĠÐ¿ÑĢÐ¸Ð½Ð°Ð´Ð»ÐµÐ¶ Ð½Ð¾ÑģÑĤÑĮ
Ðµ Ð»ÐµÐ½
ĠÐ½Ð° Ð±Ð¾ÑĢÐ°
Ð³Ð° ÑİÑĤ
ĠÑģÑĤÐ°Ð½Ð´Ð°ÑĢ ÑĤÑĭ
ĠÑĢÐ°Ð· Ð½Ð¾Ð¹
ĠÐ·Ð½Ð°ÑĩÐ¸ ÑĤÐµÐ»ÑĮÐ½ÑĭÐ¹
ĠÐ½ÐµÐ¾Ð±ÑħÐ¾Ð´Ð¸Ð¼ Ñĭ
ĠÐ¿Ð¾ÑģÐ»ÐµÐ´ Ð½ÐµÐ¹
ĠÐ±Ðµ Ñģ
ĠÐ¿ÑĢÐ°Ð²Ð¸Ð»Ð° Ð¼
ÑĤ Ð»ÐµÐ¹
Ñģ Ð½Ð¸ÐºÐ¾Ð²
ĠÐ¿Ñĥ ÑĤÐµÐ¹
ĠÐºÐ°Ðº ÑĥÑİ
ĠÐ²Ð¾Ð·Ð¼Ð¾Ð¶ Ð½Ð¾ÑģÑĤÑıÐ¼Ð¸
ĠÐ·Ð°Ð½Ð¸Ð¼Ð° ÑĤÑĮÑģÑı
ĠÐ¾Ð± Ð·Ð¾ÑĢ
ĠÐ¸Ð·Ð¼ÐµÐ½ÐµÐ½Ð¸Ñı Ð¼
ĠÐ¾ÑĤÐ²ÐµÑĩÐ° ÐµÑĤ
Ñģ Ð½ÑĭÐ¹
ÐµÐ½ ÑģÑĤÐ²Ð°
ĠÐ°Ðº ÑĤÐ°Ð½
ĠÐ¿Ð¾ÐºÐ°Ð·Ð° ÑĤÐµÐ»ÑıÐ¼
ĠÐ»Ð¸ÑĩÐ½Ð¾ÑģÑĤ Ð½ÑĭÑħ
ÑĤÐ¸ ÑĦÐ¸ÐºÐ°ÑĨÐ¸Ð¸
ĠÐ¾ ÑĦ
Ð§ ÐŁ
ĠÐ¿Ð¾ÐºÐ° Ð·
ĠÐ·Ð°Ð¿Ð°Ð´ Ð½Ð¾Ð¹
Ð²Ðµ ÑģÐ¸
ĠÐ°ÐºÑĤÐ¸Ð² Ð½Ð¾Ð³Ð¾
ĠÐ¿ÑĢÐ°Ð²Ð° Ð¼
ĠÑĤÐ²Ð¾ÑĢ ÑĩÐµÑģÑĤÐ²Ð°
ĠÑģ ÑĩÐµÑĤÐµ
ĠÑĤÐ¾Ð²Ð° ÑĢÑĭ
ĠÑģÐ¾Ð¾ÑĤÐ½Ð¾ ÑģÐ¸
ĠÐ²ÑĭÑģÐ¾Ðº Ð¸Ð¼Ð¸
ĠÑįÑĦÑĦÐµÐºÑĤÐ¸Ð² Ð½ÑĭÑħ
ĠÐ³ÑĥÐ±ÐµÑĢ Ð½Ð°
ĠÐ¶Ð¸Ð»Ð¸ Ñī
ĠÐ½Ð° ÑĢÐº
ĠÑĤÐµÑħÐ½Ð¸ ÑĩÐµÑģÐºÐ¸Ñħ
ĠÐ¿ÑĢÐ¾ÑģÐ»Ðµ Ð´Ð¸ÑĤÑĮ
Ñĥ Ð·Ð°
ĠÑĢÐ°ÑģÑģ Ð¼Ð°
ĠÐ¸Ð½Ð´Ð¸Ð²Ð¸Ð´Ñĥ Ð°Ð»ÑĮÐ½ÑĭÐµ
ĠÐ¼ÐµÐ½ ÑıÐµÑĤÑģÑı
ĠÐ¿ÑĢÐ¾Ð³ÑĢÐ°Ð¼ Ð¼Ðµ
ÑĤÑĥ Ð´ÐµÐ½
ĠÐ½ÐµÐ´Ð° Ð²
ĠÐĲ Ð»ÑĮ
ĠÑģÐ¾Ð³Ð»Ð° ÑĪÐµÐ½Ð¸Ð¹
ĠÐ¸ ÑĦÐ¾ÑĢÐ¼Ð°
ĠÐĽ Ð°ÑĤ
ĠÐ·Ð°ÐºÐ¾Ð½ Ð¾Ð¿ÑĢÐ¾
ĠÑģÐ¾Ð±Ñĭ ÑĤÐ¸Ðµ
ĠÑĤÑĭÑģÑı Ñĩ
Ðľ Ð½Ð¾Ð³Ð¸Ðµ
ĠÐ°Ð¿ÑĢÐµ Ð»Ñı
Ñı Ð´Ñĥ
Ð³Ð¸ Ð¾Ð·
ĠÐ¿ÐµÑĢÐµ Ñĩ
ĠÑģÐ°Ð¼ ÑĭÐ¹
Ð»Ð¾Ð¶ ÐµÐ½Ð¸Ð¹
ĠÐ³Ð¾ÑģÑĥÐ´Ð°ÑĢÑģÑĤÐ²ÐµÐ½ Ð½ÑĭÐ¼
ĠÐ½ÐµÐºÐ¾ÑĤÐ¾ÑĢ Ð¾Ð¹
ĠÐ¾Ð³ÑĢÐ°Ð½Ð¸ ÑĩÐµÐ½Ð¸Ðµ
ĠÐ²ÑĭÑıÐ²Ð»ÐµÐ½ Ð¾
ĠÐ±Ð» Ð¾ÐºÐ°
ĠÑģÑĭÑĢ ÑĮÑı
Ð´ Ñı
ÑĨ Ð¾Ð¼
ĠÑı ÑģÐ½Ð¾
ĠÑĢÑĥ Ð±Ðµ
ĠÐ§ ÐµÐ¼
ĠÐ´ÐµÑı Ð½Ð¸Ñı
ÑģÑĤÐ¾ÑĢÐ¾Ð½ Ð½Ð¸Ñħ
Ð»Ð¾Ð² ÐµÐº
ĠÐ¿ÑĢÐ¾Ð¸Ð· Ð²ÐµÐ´ÐµÐ½
ĠÐ½Ð°Ð»Ð¾Ð³Ð¾Ð² Ð¾Ð¹
Ð¾Ð²Ð° Ð»Ð¸ÑģÑĮ
ĠÐ¿ÑĢÐ¸Ð½ÑĨÐ¸ Ð¿Ñĥ
ĠÐ°ÐºÐ°Ð´ÐµÐ¼Ð¸ ÑĩÐµÑģÐºÐ¸Ñħ
ĠÑįÐ½ÐµÑĢ Ð³Ð¸Ð¸
ĠÑĢÐµÑĩÐµ Ð²ÑĭÑħ
Ð¾ÑĢÐ³Ð° Ð½Ð¸Ð·Ð°ÑĨÐ¸Ð¸
ĠÐ¾ÑģÑĤÐ° Ð²Ð»Ñı
ĠÐ¿Ñĥ ÑĤÐµ
ĠÐ¿Ð¾Ð»Ð¸ÑĤÐ¸ ÐºÐ¾
Ñį Ð½ÐµÑĢ
Ð¼Ð¾ÑĤ ÑĢÐ°
ĠÐ¦ Ðļ
ĠÐ¼Ð°ÑģÑģ Ñĭ
ĠÐ½Ðµ Ð¾Ð¶Ð¸Ð´Ð°Ð½
ĠÐ¾Ð±Ð¾Ñģ Ð½Ð¾Ð²Ñĭ
Ð½ Ð¾Ð´
ÑĢÐ¾Ð²Ð° Ð»Ð¾
ĠÐ±Ð° Ð·Ð°
ĠÐº ÑĢÐ¾Ð²
Ð¡Ðµ Ð³Ð¾Ð´Ð½Ñı
ĠÐ´ÑĢÑĥ Ð¶Ðµ
ĠÐ¾Ð±Ñī Ð¸Ð½
ĠÐ¿ÑĢÐ¸Ð½Ð¸Ð¼Ð° ÑİÑĤ
ĠÐ² ÑģÑĤÑĥÐ¿
Ð¾ÑĢ ÐµÐ½
ĠÐ·Ð°ÐºÐ¾Ð½ Ðµ
ĠÐ¾ÐºÐ°Ð·Ð° ÑĤÑĮÑģÑı
ĠÐ´Ð¾ÐºÑĥÐ¼ÐµÐ½ÑĤÐ° Ñħ
ĠÑĢÐ°Ð¹Ð¾Ð½Ð° Ñħ
ĠÐ½ÐµÐ´Ð° Ð²Ð½Ð¾
ĠÐºÐ¾ÑĢÐ¿Ð¾ÑĢÐ° ÑĨÐ¸Ð¸
ĠÑģÐ¼Ð¾Ð³ Ð»Ð¸
ĠÐ·Ð° Ð´
Ð¸Ð¼ ÑĭÑħ
ĠÐ´Ð¸Ð½Ð°Ð¼Ð¸ ÐºÐµ
Ð· Ð¸Ñı
ĠÐ¾Ð±ÑĬÑıÑģ Ð½ÐµÐ½Ð¸Ðµ
ÐŁ Ð¾Ð»Ð¸
ÑĤÐµÑĢ Ð¿Ðµ
ĠÑĢÐ°Ð±Ð¾ÑĤ Ð½Ð¸ÐºÐ¸
ĠÑĤ Ð°Ð½
ÑĩÐ¸ ÐºÐ¸
Ð²Ð¾ ÑģÑĤÐ¸
ĠÐ¿ÐµÑĩÐ° ÑĤÐ¸
ĠÐ¾Ð´ Ð½Ð¸
ÑĪÐµÐ½ Ð°
ĠÐ¿Ð¾Ð´ÑĤÐ²ÐµÑĢ Ð´Ð¸
ĠÑĢÐ°Ð·Ð¼Ðµ ÑĢÐµ
ĠÑģÐ¾ÑģÑĤÐ°Ð²Ð¸ Ð»Ð¸
Ð¾Ð²Ñĭ Ð²Ð°ÑĤÑĮ
ÑĢÐ¸ Ð´
Ð²Ðµ Ð»
ĠÐŀÐ± ÑĢÐ°Ð·
ĠÐ²ÑĭÐ¿Ð¾Ð»Ð½Ñı ÐµÑĤ
ĠÐ¿ÑĢÐ¾ ÐµÐºÑĤÐ¸
ĠÑĤÐµ ÑģÑĤÐ°
ĠÑĤÐ° Ð¶Ðµ
ĠÐ¿Ð¾ÑģÐ²ÑıÑīÐµÐ½ Ð°
" .
ĠÐĵ Ðµ
ĠÐ·Ð°Ð´Ð° Ð½
ĠÐ´ÐµÑĤ Ð°Ð»Ð¸
ĠÐ¿Ð¾Ð¼Ð¾ ÑĩÑĮ
ĠÐ½ ÐµÐ½
Ð»Ðµ Ð³Ð¸
ÑĤÐ¾ Ð¸ÑĤ
ĠÐ²ÑĭÑģÐºÐ° Ð·Ð°
ÐĲ Ðł
ĠÐ½Ð°ÑĩÐ° Ð»Ñĥ
ĠÐ¼ÐµÑĤÐ¾Ð´Ð° Ð¼Ð¸
ĠÐ¼ÑĥÐ· Ðµ
Ð¿ Ð¾Ð´Ð°
ĠÐ¾ ÑģÐºÐ¾ÑĢ
Ð¶Ð° ÐµÑĤ
ĠÐ°Ð´Ð¼Ð¸Ð½Ð¸ÑģÑĤÑĢÐ° ÑĤÐ¸Ð²Ð½ÑĭÑħ
ĠÐ½ÐµÐ³Ð° ÑĤÐ¸Ð²Ð½Ð¾
ĠÐ³ÐµÑĢ Ð¾
ĠÐ¿Ð¸ÑĤÐ° Ð½Ð¸Ñı
Ð¿Ð° Ð»Ð¸
ĠÐ¼ ÑıÐ³
ĠÐ¾ ÑĢÐ°
ĠÐ¿Ð¾Ñģ Ð»Ð°
ĠÑĢÐµÑĩÐµ Ð²Ð¾Ð¹
ĠÐĶÐ°Ð½ Ð½Ð°Ñı
ĠÑĩÐ¸ ÑģÑĤÐ¾
Ð¾Ð¶Ð´Ðµ ÑģÑĤÐ²
ĠÐ¿Ð¾ÑĤÐµÑĢ ÑĮ
ĠÐ¼Ð° Ð»Ð¾Ð³Ð¾
ĠÐ¾Ð±Ñī ÐµÐ½Ð¸Ðµ
ĠÐ½Ð°ÑħÐ¾Ð´ Ð¸Ð»Ð¸ÑģÑĮ
ĠÑģÐ¾Ð¿ ÐµÑĢ
ĠÑĦÐµÐ²ÑĢÐ° Ð»Ñı
ĠÐ´Ð¸Ð°Ð» Ð¾Ð³
ĠÑĤÐ°Ð±Ð»Ð¸ ÑĨÐµ
ÑĩÐ¸ Ð½
ĠÐ²ÑĭÐ´Ðµ Ð»ÐµÐ½Ð¸Ñı
ÑģÐ¸ Ð½
ĠÑģÐ¸ Ð³Ð½Ð°
Ð¿Ð° Ð¼Ð¸
ĠÑģÑĤÑĢÐ° Ð´Ð°
ĠÐ¾Ð±ÑĬÐµÐ´Ð¸ Ð½ÐµÐ½Ð¸Ð¹
ĠÑģÐ¼ ÑıÐ³
ÑĥÑĩÐ° ÑģÑĤ
Ñı Ð·Ð°
Ð°Ðº Ð¸
ĠÐ´Ð¾ ÑĢÐµÐ²Ð¾Ð»Ñİ
Ð¾Ð´Ðµ Ð»ÑĮ
ĠÐ¿ÑĢÐ¾Ð³ÑĢÐ°Ð¼ Ð¼Ñĥ
ĠÐ¸Ð·Ð²ÐµÑģÑĤ Ð½ÑĭÑħ
ĠÐ³ÐµÐ½ ÐµÑĤ
ĠÐ¾ÑĤÐºÐ°Ð·Ð° ÑĤÑĮÑģÑı
Ð¶Ð° Ð»
Ð ¬
ĠÐºÑĢÑĥ Ð¶
ĠÐ±ÐµÐ·ÑĢÐ°Ð±Ð¾ÑĤÐ¸ ÑĨÑĭ
ĠÐ¾Ð´ Ð½Ð¾Ð²ÑĢÐµÐ¼ÐµÐ½
ĠÑĥÐ´Ðµ Ð»Ñı
ĠÐ¾Ð±Ð½Ð°ÑĢÑĥÐ¶Ð¸ ÑĤÑĮ
ĠÐ¿Ð¾ÐºÐ°Ð·Ð° Ð»Ð¾
ĠÐ½Ð°ÑĢÑĥ ÑĪÐµÐ½Ð¸Ð¹
ĠÐ¿ÑĢÐ¾ÑĤÐ¸Ð²Ð¾ÑĢÐµÑĩÐ¸ ÑĤ
Ð½ Ð¾Ð´Ð°
Ð»Ð¸Ñı Ð½Ð¸Ðµ
ĠÑģÐ¾Ð·Ð´Ð° Ð½Ñĭ
ĠÐ¿ÑĢÐ¾Ð¸Ð·Ð²Ð¾Ð´ ÑģÑĤÐ²ÐµÐ½Ð½ÑĭÑħ
ĠÑĢÐµÐ³Ð»Ð° Ð¼ÐµÐ½ÑĤÐ°
ĠÑĥ Ð¿Ð¾Ð»Ð½Ð¾Ð¼Ð¾
Ð´Ðµ Ð»
ÐĴ Ðµ
ĠÑĦÐ¾Ð½ Ð´
ĠÑĦÐ¾Ð½ ÐµÑĤ
ĠÐ² Ð·Ñĭ
ÑĪ ÑĤÐµÐ¹
ĠÐ¢ ÑĢÑĥ
ĠÐ¿ÑĢÐ¸Ð½Ñı ÑĤÑĭÑħ
Ð²ÑĪÐ°Ñı ÑģÑı
ĠÐŁ Ð»Ð°
ĠÑĢÐµÐ°Ð»ÑĮ Ð½Ð¾
ĠÐ´Ð²Ð¸ Ð³Ð°
ĠÐ½ÐµÐ±Ð¾Ð»ÑĮÑĪ Ð¾Ð¹
ĠÐ½ÐµÐ´Ð¾Ð² Ð¾Ð»ÑĮ
Ð¾ ÑĩÐ½ÑĭÑħ
ÑĢÐ¸ ÑĤÐ¾ÑĢÐ¸
ÑģÐº Ñĥ
ĠÐ¸Ð½ Ð²
ĠÐ¯Ð¿Ð¾ Ð½Ð¸Ð¸
Ġ Ð¾Ð»Ð°
ĠÐ· Ð¾Ð½Ðµ
ĠÑģÐ¾ÑģÑĤÐ°Ð²Ð¸ Ð»Ð°
ĠÐ¾Ð¿Ð°Ñģ Ð½Ð¾ÑģÑĤÐ¸
ÐµÐ¿ ÐµÑĢÑĮ
ĠÐłÐµ ÑĩÑĮ
Ð¿Ð¾Ð»Ð¸ ÑĤÐ¸ÑĩÐµÑģÐºÐ¸Ñħ
ĠÑĥÑģÐ»Ð¾Ð² Ð½Ð¾
ĠÐ¿Ð¾ÑĢ Ð¾Ð¹
ĠÐ¸Ð½Ð½Ð¾Ð²Ð° ÑĨÐ¸Ð¾Ð½Ð½ÑĭÑħ
ĠÐ¼Ð¸ Ð»Ð»Ð¸
ĠÐ»Ð¸ÑĨ Ð°Ð¼
ÑĢÐ¸ Ð·Ð°ÑĨÐ¸Ð¸
ĠÑģ Ð´ÐµÑĢÐ¶Ð¸
ĠÑĢÐ°Ð·Ð´Ðµ Ð»ÐµÐ½Ð¸Ðµ
ĠÐ½Ð°Ð±Ð»ÑİÐ´ ÐµÐ½Ð¸Ð¹
Ñĩ Ð½Ð°
ĠÐ¿ÑĢÐµÐ´ÑģÑĤÐ°Ð²Ð»ÐµÐ½ Ð½ÑĭÑħ
ĠÑĤÐµÐ¾ÑĢÐµ ÑĤÐ¸ÑĩÐµÑģÐºÐ¸Ðµ
ĠÑģÑħÐµÐ¼ Ð°
ĠÐ¿ÑĢÐµ Ð¿ÑĢÐ¸
Ð¸ÑĤÐµÐ»ÑĮ ÑģÑĤÐ²Ð°
Ñı Ð²Ð»ÐµÐ½Ð¸Ð¹
Ð»ÐµÐ½Ð¸Ñı Ñħ
ĠÐ¡Ð¸Ð± Ð¸ÑĢ
ĠÐ´ Ð½ÐµÐ²
ĠÑģÐ» ÑĩÐ°
ÐĹ ÐŁ
ĠÐ¾Ð±ÑĢÐ°Ð·Ð¾Ð² Ð½Ð¸Ñı
ĠÑĦÑĢÐ°Ð³ Ð¼ÐµÐ½ÑĤÐ°
ĠÐŀÐŃ Ð¡Ðł
ĠÐ¼ÐµÑĤÐ¾Ð´Ð¸ Ðº
ĠÐºÐ½Ð¸ Ð³Ðµ
ĠÐ¿Ð°ÑĨÐ¸ ÐµÐ½ÑĤÐ¾Ð²
ĠÑıÐ²Ð»Ñı ÑĤÑĮÑģÑı
Ð³ ÑĢÐ¸Ð¸
ĠÑįÐ»ÐµÐ¼ ÐµÐ½ÑĤÐ°Ð¼Ð¸
ĠÑĤÑĢÐµÑĤÑĮ ÐµÐ³Ð¾
ĠÐļÐ° Ð½Ð°
Ñģ Ð²ÐµÐ½
ÑĢÑĥ ÑİÑīÐ¸Ð¼
Ð³ ÑĥÐ±
ĠÐ¿ÑĢÐµ Ð¼
ĠÑıÐ²Ð»Ñı Ð»Ð¾ÑģÑĮ
ĠÐ´Ð¾Ð» Ð»Ð°
ĠÐ±Ð°Ð· Ñĥ
ĠÐ¸Ð½ ÑĤÐµÐ½
ĠÐĵ ÑĢÐ°
ĠÐ½Ð°Ð´ Ð·Ð¾ÑĢ
ĠÑģÐ¾ÐºÑĢÐ° ÑīÐµÐ½Ð¸Ñı
ĠÐ¿ Ñģ
ĠÐ¾Ðº ÑĢÑĥÐ³
ĠÐ¸Ð·Ð¼ÐµÐ½ ÐµÐ½Ð¸Ð¸
ĠÑģÑĤÐ¸ Ð»Ñı
Ð§ ÑĤÐ¾Ð±Ñĭ
ĠÐ¿ÑĢÐ¸Ð¼ÐµÐ½ ÑıÐµÑĤÑģÑı
ĠÐ·Ð°ÑīÐ¸ ÑĤÐ°
ÑĢ Ð½Ð¸
ĠÐ¿ÑĢÐ¾ÑĨÐµÑģÑģ Ð¾Ð¼
ĠÐ¸ÑģÑģÐ»ÐµÐ´Ð¾Ð²Ð° Ð½Ð¸Ñİ
ÐŀÑĤ Ð¼ÐµÑĤÐ¸Ð¼
ĠÐĴÐ° ÑģÐ¸
Ð¾ÑģÑĤ ÐµÐ¹
ĠÑĢÐ°Ð·Ð´Ðµ Ð»Ð¸ÑĤÑĮ
ĠÐ²ÑĭÐ³Ð¾Ð´ Ñĭ
ĠÑģÑĤÑĢÐ° Ð½Ð°
ĠÑĪÐ° Ð³
ĠÑħ Ð¸
ĠÐ¿ÐµÑĢ Ð²Ð°Ñı
ĠÐ½Ð° ÑĪÐµ
ÑĤÐµÐ» Ð½ÑĭÑħ
ĠÑģÐ°Ð½Ðº ÑĨÐ¸Ð¹
Ðº Ð¾Ð¼Ñĥ
Ð½Ð¸ Ð±ÑĥÐ´ÑĮ
ĠÑħ Ð°
ĠÐ´ÑĢÑĥÐ³ ÑĥÑİ
ĠÐºÑĥ Ð»
ĠÑĢÐµÑĦÐ»ÐµÐº ÑģÐ¸Ð²
ÑĤÐ¸ Ð»
Ð°Ðº ÑĢÐ°
ĠÐ·Ð° ÑıÐ²Ð»ÐµÐ½Ð¸Ñı
ĠÑĢÐ°Ð¹ Ð¾Ð½Ðµ
ĠÑĢÐµÐ°Ð»Ð¸Ð· Ð¾Ð²Ð°ÑĤÑĮ
ĠÑģÐ²Ð¾Ð´ Ð¸ÑĤÑģÑı
Ð· Ð¼Ñĥ
ĠÑĢÐµÑĪ ÐµÐ½Ð¸ÐµÐ¼
ĠÑĥÑģÐ¿Ðµ Ñħ
ĠÑģÑĤÑĢÐ°ÑĤÐµÐ³Ð¸ Ñİ
ĠÐŁÑĢÐµÐ·Ð¸Ð´ÐµÐ½ ÑĤÐ°
ĠÐºÐ¾Ð½ ÑĤÐ¸Ð½Ð³
ĠÑģÐ¿ Ð¾ÑĢÐ¾Ð²
ĠÐ¾Ð± Ð¾Ð³Ð°
ĠÐ½ÐµÐ¾Ð± ÑħÐ´
Ð¾Ð²Ð° Ð»Ð¾ÑģÑĮ
ĠÐ½Ð° ÑģÑĭ
ĠÐ±Ð°Ðº Ð°Ð»Ð°
ÑĩÐµÐ½ ÐºÐ¾
ĠÐ°Ð²ÑĤÐ¾Ð½Ð¾Ð¼ Ð¸Ð¸
ĠÑĤÐµ ÑģÑĤÐ¾Ð²
ĠÐ¿Ð¾Ð´ÑħÐ¾Ð´ Ðµ
ĠÐ½ÐµÐ¾Ð±ÑħÐ¾Ð´Ð¸Ð¼ Ð¾Ð¹
ÑĢ Ð¾Ð¹
ĠÑģÑĤ Ð¾Ð»
ĠÐºÐ¾Ð½ÑģÑĤÑĢÑĥÐº ÑĨÐ¸Ñı
Ð¾ Ñħ
Ð»Ðµ Ð¶Ð¸ÑĤ
ĠÐ¿Ð¾Ð¼Ð¾Ð³Ð° ÐµÑĤ
ĠÐ¿ Ð¾Ð³ÑĢÐ°Ð½Ð¸
ÑĩÐ¸ Ð»Ð¸
ĠÐĴ Ð¾ÑĢ
ÐĴ ÐµÑĢ
ĠÑģÐ²ÐµÑĢ Ñħ
ÐĳÐ¾Ð»ÑĮÑĪ Ð¸Ð½ÑģÑĤÐ²Ð¾
ÑĢÐ¸ Ð´Ð¸
ÑģÐµÐ¼ Ð°Ð½
ÐµÐ½Ð¸Ñı Ñħ
ĠÐ·Ð° ÑĢÐµÐ³Ð¸ÑģÑĤÑĢÐ¸
Ð³ ÑĥÑĢ
ĠÐ½Ð°Ð·ÑĭÐ²Ð° ÑİÑĤ
ĠÑģÐ¿ÐµÐº ÑĤÑĢ
ĠÐ¾ÑĤÐ´Ðµ Ð»ÑĮÐ½ÑĭÐ¼
ĠÐĴÐµÐ»Ð¸ ÐºÐ¾Ð¹
ĠÐ·Ð° ÑĤÑĢÐ¾Ð½
ĠÐ¼ Ñı
ĠÑĦ ÑĥÑĤÐ±
Ð¿ÑĢÐµÐ´ Ð¼ÐµÑĤ
ĠÐĴÐµÑĢÑħÐ¾Ð² Ð½Ð¾Ð³Ð¾
ĠÐºÐ°ÑĩÐµ ÑģÑĤÐ²Ð¾Ð¼
Ð³Ð¾Ð² Ð¾Ð¹
ĠÐ²Ñĭ Ð¶Ð¸
Ð½ÐµÑĢ ÑĥÑģ
ĠÐºÐ¾Ð¼Ð¿ÐµÐ½ÑģÐ° ÑĨÐ¸Ð¸
ĠÐľ Ð°Ð½
ĠÑģÐ²Ð¾Ðµ Ð²ÑĢÐµÐ¼ÐµÐ½
ĠÐ´Ð¸Ð°Ð³Ð½Ð¾ÑģÑĤÐ¸ ÐºÐ¸
Ð «
ĠÐ¾ÑģÐ½Ð¾Ð² Ð¾Ð¿Ð¾Ð»Ð°Ð³Ð°
ĠÐ¿ÑĢÐ°ÐºÑĤÐ¸ ÐºÐ¾Ð¹
ĠÐ¿Ð¾ÐºÐ¾Ð» ÐµÐ½Ð¸Ð¹
ĠÑģÐ»Ð¾ ÐµÐ²
ÑĩÐ¸ Ð½Ñĭ
ÑĨÐ¸ Ð¿Ð¸
ĠÐ½Ð¾ÑĢÐ¼Ð° ÑĤÐ¸Ð²Ð½Ð¾Ð³Ð¾
Ð°Ð½ ÑģÐºÐ¾Ð³Ð¾
ĠÑĥÐºÐ°Ð·Ð°Ð½ Ð½Ð¾Ð¹
ĠÐ´Ð¾Ð±Ð° Ð²Ð»ÐµÐ½
Ð»Ðµ ÑĢÐ°
ĠÐ±Ð°ÑĢ ÑĮ
ÑĤÐµ ÑĤÐµ
ĠÐ¼Ð¾Ð»Ð¾Ð´Ðµ Ð¶
ĠÐºÐ²Ð°ÑĢ ÑĤÐ¸
ĠÐ¿Ð¾Ð·Ð²Ð¾Ð»Ð¸ Ð»
ĠÑĢÑĥ ÐºÐ°Ñħ
ÑĢÐ¾Ð¼ Ð¸
ĠÐ¾ÑĢÐ³Ð°Ð½Ð¸Ð·Ð° ÑĨÐ¸ÐµÐ¹
ÑĢ Ð²Ð°ÑĤÑĮ
ĠÐĲ Ð´
ĠÐ¿ÑĢÐ¾ÑĨÐµÐ´Ñĥ ÑĢÐ°
ĠÑģÑĤÐ¾Ð»Ðº Ð½Ñĥ
Ð¾ ÑĩÐ½Ð¾Ð¹
ÑģÑı ÑĤÑģÑı
Ð¾ ÑģÑĤÑĮÑİ
ĠÐ¸Ð· Ð²Ð»Ðµ
ĠÐ¿Ð¾ÑģÐ»ÐµÐ´ Ð½Ð¸Ð¹
ĠÐºÐ¾Ð½ÑĤÐµÐºÑģÑĤÐ° Ñħ
Ð¢Ð°Ðº Ð¾Ðµ
ĠÑģÐ¸Ð»ÑĮ Ð½ÐµÐµ
ĠÐ¾ÑĤ Ð²Ð¾Ð´
Ð±Ð¾ÑĤ Ð°
ĠÑįÐºÐ¾Ð½Ð¾Ð¼Ð¸ÑĩÐµÑģÐº Ð¾Ðµ
ĠÑĤÐ¾Ñĩ ÐºÐ°
ĠÐ²ÑĭÑıÐ²Ð»ÐµÐ½ Ñĭ
ĠÐ½ÐµÐ¾ÑĤ ÑĬÐµÐ¼Ð»ÐµÐ¼
ĠÑĢÐ° ÑģÑģÐ»ÐµÐ´Ð¾Ð²Ð°Ð½Ð¸Ñı
ĠÐ´Ð¸ÑģÐºÑĥÑĢ ÑģÐµ
ÑĤÐ¸ÑĩÐµÑģÐº Ð¾Ð¼Ñĥ
Ð´ ÑĮÐµ
ĠÑģ Ð½Ñı
ĠÐĵ Ð¾Ð»
ĠÐ»Ð¸ÑĨ Ñĥ
ĠÐ¿ÑĢÐ¾Ð´ÑĥÐº ÑĤÐ°
ĠÐ¿Ð¾Ð·Ð½Ð°Ð²Ð° ÑĤÐµÐ»ÑĮÐ½Ð¾Ð¹
Ðĺ ÑģÑģÐ»ÐµÐ´Ð¾Ð²Ð°Ð½Ð¸Ðµ
ĠÐ°Ð½Ð³Ð»Ð¸Ð¹ ÑģÐºÐ¾Ð³Ð¾
ĠÐ´Ð¾Ð²ÐµÑĢÐ¸ Ðµ
Ð¾Ð¶ ÐµÑĤ
ĠÐ¾Ð±ÐµÑģÐ¿Ðµ ÑĩÐµÐ½Ð¸Ñİ
Ð´ Ð½ÐµÐ²
ĠÑĥÐ¿ÑĢÐ°Ð² Ð»ÐµÐ½Ð¸Ñİ
ĠÑįÐºÑģÐ¿Ðµ Ð´Ð¸
ÑĥÑĢÐ¾Ð² Ð½Ðµ
ÑĢÐ° ÑģÑĤ
Ð½Ð¾ ÑĢ
ÑĤÐµ Ð»ÐµÐ½
ĠÐ¼Ð° ÑĪÐ¸
ĠÐ¿Ð°Ð¼ ÑıÑĤÑĮ
ĠÑĨÐ¸ÑĦ ÑĢÐ¾Ð²Ð¾Ð¹
ÐºÑĢÐµÐ´ Ð¸ÑĤ
ĠÐ² ÑģÑĤÑĥÐ¿Ð»ÐµÐ½Ð¸Ñı
ĠÐ¿ÑĢÐ¸ ÑĪÐ»Ð¸
ÑģÐ¸ Ð¼Ð°
Ñĩ ÑĤÐ°
ĠÐ²Ð¾Ñģ Ð¿Ð¾Ð»ÑĮÐ·
ĠÐ¼Ð°ÑĤÐµÑĢÐ¸ Ð°Ð»ÑĮÐ½Ð¾Ð¹
ĠÐ³Ð¾ÑģÑĥÐ´Ð°ÑĢÑģÑĤÐ²Ð° Ñħ
ĠÐ¾Ð± Ñĥ
Ðº ÑĥÐ»ÑĮ
ĠÑĢÐ°Ð±Ð¾ÑĤÐ¾Ð´Ð° ÑĤÐµÐ»ÐµÐ¹
ĠÐ½ÐµÑħ Ð²Ð°ÑĤ
ÑĨ ÐºÐ¸Ð¹
ĠÐ·Ð° Ð¹
ĠÑĢÐµÐ³Ð¸ Ð¾Ð½
ĠÐ¨ ÑĤÐ°
Ð¿Ñĥ ÑģÐº
ĠÑıÐ²Ð» ÐµÑĤÑģÑı
ÑģÐ°Ð¹ Ð´ÐµÑĢ
ĠÐ¿ÑĢÐµÐ´Ð»Ð¾Ð¶ Ð¸ÑĤÑĮ
Ð»Ñı Ð»Ð¸ÑģÑĮ
ĠÐĲÐ¼ÐµÑĢÐ¸ ÐºÐ¸
ĠÐ· Ð²ÐµÐ½
Ñį Ð¹
ÑĪÐ¸Ñħ ÑģÑı
ĠÐ¿Ð¾Ð²ÐµÐ´ ÐµÐ½Ð¸Ð¸
ĠÐĺÐ½ÑģÑĤÐ¸ÑĤÑĥ ÑĤÐ°
ĠÐ¿ÑĢÐ¾ ÑģÑĤÐ¸ÑĤÑĥ
ĠÐ¸Ð· Ñĭ
ĠÐ¾Ð¿ÑĢÐµÐ´ÐµÐ»ÐµÐ½ Ð½Ð¾Ðµ
ĠÐ¾Ð±Ð¾ÑĢÑĥÐ´ Ð¾Ð²Ð°Ð½Ð¸Ñı
ĠÐ¾Ð±ÑĢÐ°Ð·Ð¾Ð²Ð° ÑĤÐµÐ»ÑĮÐ½ÑĭÐ¹
ĠÐ¼Ð¾ÑĤÐ¸Ð² Ñĭ
ÑĦÑĢÐ¸ ÐºÐ°Ð½
ĠÐĲ Ð²ÑĤÐ¾ÑĢ
ĠÐ·Ð°Ð¿ÑĢÐµ ÑĤ
ĠÐ²Ð½ÐµÐ´ ÑĢ
ĠÐºÑĢÐµÐ° ÑĤÐ¸Ð²Ð½Ð¾ÑģÑĤÐ¸
ĠÑįÐºÐ¾Ð½Ð¾Ð¼Ð¸ÑĩÐµÑģÐº Ð¸Ð¼
ĠÐĺÐ½ÑĤÐµÑĢÐ½ÐµÑĤ Ð°
ĠÑĤ ÑĥÑĤ
Ð¿Ð° ÑĢÐ¸
ĠÐ» Ð¾Ð¶
ĠÐ·Ð½Ð°ÑĩÐ¸Ð¼ Ð¾Ð¹
Ñı ÑĢ
ĠÑĦÐ¾ÑĢÐ¼Ð¸ ÑĢÑĥÑİÑĤÑģÑı
ĠÐ·Ð°Ð±Ð¾ÑĤ Ñĭ
ĠÐ²Ð¼ÐµÑĪÐ° ÑĤÐµÐ»ÑĮÑģÑĤÐ²Ð°
ĠÐ¾Ñħ Ð°ÑĢÐ°ÐºÑĤÐµÑĢÐ¸Ð·
ĠÐľÐ°ÑĢ Ðº
ĠÐ¼Ð½Ð¾Ð³Ð¾ÑĩÐ¸Ñģ Ð»ÐµÐ½Ð½ÑĭÑħ
ÐĴÐ°Ð¶ Ð½Ð¾
ĠÐ³ÑĢÐ° ÑĦ
ĠÐ´Ð¾ÑģÑĤÐ¸ ÑĩÑĮ
ĠÐ¸ÑģÑģÐ»ÐµÐ´Ð¾Ð²Ð° ÑĤÐµÐ»ÑıÐ¼Ð¸
ĠÑĢÐµÑģÐ¿ÑĥÐ±Ð»Ð¸ ÐºÐ°Ð½
Ð² ÑģÐµ
ĠÑħ ÑĢÐ¾Ð½
ĠÐ¾Ð±ÑĢÐ°Ð·Ð¾Ð²Ð° Ð½Ð¸Ð¹
ĠÐ¿ÑĢÐ¾Ð¸Ð·Ð²Ð¾Ð´ Ð¸ÑĤÐµÐ»ÑĮÐ½Ð¾ÑģÑĤÐ¸
ĠÑģÐ¾Ð³Ð»Ð° ÑĪÐµÐ½Ð¸Ðµ
ĠÑĢÐµÐ°Ð»ÑĮ Ð½ÑĭÐµ
ĠÑģÐ»Ð¾Ð²Ð° Ð¼
ĠÐ¿ÑĢÐµÐ´Ð»Ð°Ð³Ð° ÑİÑĤ
ĠÑģÐ¿Ð¾ÑģÐ¾Ð±ÑģÑĤÐ² ÑĥÑİÑĤ
ĠÑģ Ð¾ÑĢ
ĠÐ¸Ð½ÑĦ Ð»Ñı
Ð»Ð° ÑģÑģÐ¸
ĠÐ½ÐµÐºÐ¾ÑĤÐ¾ÑĢ Ð¾Ðµ
ĠÐ¨ Ð²Ðµ
ĠÐ½ÐµÐ¼ÐµÑĨ ÐºÐ¸Ñħ
Ð¾Ðº Ð»Ð°ÑģÑģ
ĠÐ´ÐµÐ¹ÑģÑĤÐ²Ð¸Ñı Ñħ
ĠÐ¾ÑĢÐ³Ð°Ð½ Ð¾Ð¼
ĠÐ°Ð¼ Ð±Ð¸
ĠÐ¸Ð½ÑĤÐµÐ» Ð»Ð¸
ĠÐŁÐµÑĤ ÑĢ
Ð¾ÑĤ Ñĥ
ĠÐµÐ¶ÐµÐ³Ð¾Ð´ Ð½Ð¾
ĠÑĤÐµÑģÑĤÐ¸ ÑĢÐ¾Ð²Ð°Ð½Ð¸Ñı
ÑĤÐ¸ ÐºÐ¾Ð²
ĠÑĢÐµ Ð¼Ð¾Ð½
ĠÐ¿Ð¾Ð¿Ðµ ÑĩÐ¸
ĠÐ¾Ðº ÐºÑĥ
ĠÐ¿ÑĢÐ¸ÑģÑĥÑĤÑģÑĤÐ² Ð¸Ðµ
ĠÐ¼ÑĥÐ¶ÑĩÐ¸ Ð½Ñĭ
Ð¾Ð± ÑīÐµ
ĠÐ¾Ð±ÑīÐµ ÑģÑĤÐ²ÐµÐ½Ð½Ð¾Ðµ
ÑīÐµÐ½ Ð½ÑĭÐµ
ĠÐ³Ð»Ð¾Ð± Ð°Ð»ÑĮÐ½Ð¾Ð³Ð¾
ÑĤ Ð¾Ð¼Ñĥ
ĠÑģÐ¿ Ñĥ
ÑĨÐ¸Ð¾Ð½ Ð½Ð¾Ð¼Ñĥ
Ð½ÐµÐ½ Ð½Ð¾Ð³Ð¾
ĠÐ¿ÑĢÐ¾Ð³ÑĢÐµ ÑģÑģÐ°
ĠÑģÐ¾Ð²ÐµÑĢ ÑĪÐ°
ĠÐ¿Ð¾Ð³ Ð»Ð¾
Ñı Ð´
ĠÐ¿ÑĢÐµÐ´Ð¿Ð¾Ð»Ð°Ð³Ð° ÐµÑĤÑģÑı
ĠÑĥÐ´Ð¾Ð²Ð»ÐµÑĤ Ð²Ð¾ÑĢÑı
ÑĤÐ° ÑĨÐ¸Ñİ
ĠÐ¸Ð½ ÑĤÑĥÐ¸
ĠÑįÐºÐ¾Ð½Ð¾Ð¼Ð¸ÑĩÐµÑģÐº Ð°Ñı
ĠÑĥÑĤÐ²ÐµÑĢ Ð¶Ð´ÐµÐ½
Ð¡ ÐĴ
ĠÐ½Ð°ÑĩÐ° Ð»Ð¾Ð¼
ĠÐ¿ÑģÐ¸Ñħ Ð¾Ð»Ð¾Ð³Ð¸ÑĩÐµÑģÐºÐ¸Ñħ
ĠÐ¸Ð½ÑģÑĤÐ¸ÑĤÑĥÑĨÐ¸Ð¾Ð½Ð°Ð»ÑĮ Ð½ÑĭÑħ
ĠÑįÐºÑģÐ¿ÐµÑĢÑĤÐ¸ Ð·Ñĭ
ĠÐºÐ¾Ð½ÐºÑĥÑĢÐµÐ½ÑĤÐ¾ÑģÐ¿Ð¾ÑģÐ¾Ð± Ð½Ð¾ÑģÑĤÐ¸
Ð¿ ÑĢÐ°Ðº
ĠÑĤÐ¾Ñĩ ÐºÑĥ
Ð¾Ð³ÑĢÐ° Ð´
ĠÐºÑĤÐ¾ÑĢ ÑĭÐµ
ÑĦÐ¸ÑĨÐ¸ ÑĢÐ¾Ð²Ð°ÑĤÑĮ
ĠÐ¾Ð¿Ð°Ñģ Ð½Ð¾ÑģÑĤÑĮ
Ð²Ð° ÑĤÐ°
ĠÐ¿ÑĢÐµÐ´Ð¾ÑģÑĤÐ° Ð²Ð»ÐµÐ½Ð¸Ðµ
ĠÐ¿ÑĢÐµÐ¿Ð¾Ð´Ð°Ð²Ð° ÑĤÐµÐ»Ð¸
ÑĤÐ¾ÑĢ Ñĥ
ĠÐ¿ÑĢÐ¸Ð½ÑĨÐ¸Ð¿Ð° Ñħ
ĠÐ¿Ð¾ÑĤÐµÐ½ÑĨÐ¸Ð°Ð»ÑĮ Ð½ÑĭÑħ
ĠÐ± ÑĢÐµÐ½
ĠÐ¿Ð¾ ÐµÐ·Ð´
ĠÐ´Ð¾ÐºÐ°Ð·Ð° ÑĤÐµÐ»ÑĮÑģÑĤÐ²
ĠÑģÑĥÐ²ÐµÑĢ ÐµÐ½Ð¸
ĠÑģÑĤÐ°Ð² Ð¾Ðº
Ðł ÐĲ
Ð¤ Ð°Ðº
ĠÑĥÐ¿ÑĢÐ°Ð²Ð»ÐµÐ½ ÑĩÐµÑģÐºÐ¸Ñħ
ĠÐ²Ð· Ð½Ð¾
ĠÑĥÑģÐ¸ Ð»ÐµÐ½Ð¸Ðµ
ĠÑĢÐ°Ð·Ð²ÐµÑĢ Ð½Ñĥ
ĠÐ¿ÑĢ Ð±Ð»ÐµÐ¼
ĠÐ²ÑĢÐµÐ¼ÐµÐ½ Ð½ÑĭÑħ
ĠÐ¿ÑĢÐ¸ÑģÑĥÑĤÑģÑĤÐ² ÑĥÑİÑĤ
Ð¶ Ð¸Ð²
ĠÐ¿ÑĢ Ð·Ð½Ð°
ĠÐ¾Ñģ ÑīÐµÑģÑĤÐ²
ĠÐł Ðľ
Ð»Ð°Ð³ Ð¾Ð´Ð°ÑĢÑı
ĠÐ¾Ð¿Ð¿Ð¾Ð·Ð¸ ÑĨÐ¸Ð¸
ĠÐŁ Ð¾Ð¿
ÐµÐ½ÑĮ Ñİ
ĠÐºÐ¾Ð»Ð¸ÑĩÐµ ÑģÑĤÐ²Ð¾Ð¼
ĠÑĢÐ°Ð·Ð½Ð¾Ð¾Ð±ÑĢÐ°Ð· Ð¸Ðµ
ĠÐĵÐµÐ½ ÐµÑĢÐ°
ÐµÑĤÐ¸ ÐºÐ¸
ÑĪÐµ Ð²Ð»ÐµÐ½
ĠÐ½ÐµÐ³Ð° ÑĤÐ¸Ð²Ð½ÑĭÑħ
ÑĦÐµ ÑģÑģ
ĠÐ²Ñĭ Ð¸
ĠÐ¼ÐµÐ¶ Ð´Ð¸ÑģÑĨÐ¸Ð¿Ð»Ð¸Ð½Ð°ÑĢ
ĠÐ±Ð°ÑĢ ÑĮÐµÑĢ
Ð¾Ð´ Ð¾Ð²
ĠÑĩÑĥÐ² ÑģÑĤÐ²Ð¾
ĠÐ½ Ð¿ÑĢÐ°Ð²
ĠÐ¾Ð¿ÑĢÐµÐ´ÐµÐ»ÐµÐ½ Ñĭ
ĠÐ¿Ð°ÑĢÐ°Ð´Ð¸Ð³ Ð¼Ñĭ
. ;
Ð¾Ñģ Ð»Ð¾Ð²
ĠÑįÐºÐ¾Ð½Ð¾Ð¼Ð¸ÑĩÐµÑģÐº ÑĥÑİ
ĠÐ½ÐµÑĢÐ°Ð²ÐµÐ½ ÑģÑĤÐ²Ð¾
ĠÐ¿ÑĢÐ°Ð²Ð¾Ð¾ÑĤÐ½Ð¾ ÑĪÐµÐ½Ð¸Ð¹
Ð» Ð¾Ð±
ĠÑĤÐµ Ð»Ð¾
ĠÐ¥ Ð°ÑĢ
ÑĩÐ¸Ñģ Ð»ÐµÐ½Ð½ÑĭÐµ
ĠÑĥÐºÐ°Ð·Ð°Ð½ Ð½Ð¾Ð³Ð¾
ĠÑĦÑĥÐ½ÐºÑĨÐ¸Ð¾Ð½Ð¸ ÑĢÐ¾Ð²Ð°Ð½Ð¸Ðµ
ĠÑģÐ¾Ð³Ð»Ð°ÑģÐ¸ Ðµ
ĠÐ²Ð¾Ð· ÑĢ
ĠÑįÐº ÑģÑĤÑĢÐ°
ĠÐ³Ð»Ð¾Ð± Ð°Ð»Ð¸Ð·Ð°ÑĨÐ¸Ð¸
Ð¾ÑĤ Ð²Ð¾ÑĢÐ¸
Ð°Ð½ Ð³
ÑģÑģÐ¸ Ñı
ĠÑĥÑģ Ð»
ĠÑĥ ÑĤÐ¸Ð»Ð¸
ÑĤÐµÐ»ÑĮ Ð½Ð¾ÑģÑĤÑĮÑİ
ĠÑĤÐ¸ Ð¿Ñĥ
ĠÑĥÑĤÐ²ÐµÑĢÐ¶Ð´Ð° ÐµÑĤ
Ñĥ ÑĩÐµÐ±
ĠÐ¼ ÐµÐ¼
ĠÐ½ÐµÐ¿ ÑĢÐ°Ð²Ð¸
ÑıÐ± ÑĢÑĮ
ĠÐĵ Ð§ÐŁ
ĠÐ¿ÑĢÐ¾Ð³ÑĢÐµ ÑģÑģ
Ð°Ð½ ÐºÐ°
ĠÐ¿ÑĢÐµÐ¾Ð±ÑĢÐ°Ð· Ð¾Ð²Ð°Ð½Ð¸Ð¹
ĠÐºÐ¸Ð± ÐµÑĢ
ĠÑĢÐ°Ð·Ð²Ð¸ Ð²Ð°ÐµÑĤÑģÑı
ĠÑĦÐ¾ÑĢÐ¼Ð¸ ÑĢÑĥÐµÑĤ
ĠÑĤÐµÐ½Ð´ÐµÐ½ ÑĨÐ¸Ñİ
ÑĪ Ð¸Ð½Ð°
Ð¡ Ñĥ
ĠÑģÑĤÐ¸ Ð»ÑĮ
ĠÐ¾ÑĦÐ¸ÑĨÐ¸Ð°Ð»ÑĮ Ð½Ð¾
ĠÐ±ÑĥÐº Ð²Ð°
ĠÐ¿ÑĢÐ¸Ð¿ Ð¸ÑģÑĭ
ÐµÐ½ Ð½Ð¾Ð¼
ĠÑģÐµÐ¼ÐµÐ¹ Ð½ÑĭÑħ
ÑĤ ÑģÐºÐ¾Ð³Ð¾
ĠÑĢÐ°ÑģÑģÐ¼Ð°ÑĤÑĢÐ¸Ð²Ð°ÐµÐ¼ Ð¾Ð³Ð¾
Ð¾ÑĢ Ð¾ÑĤ
ĠÐ¸Ð¼Ñĥ ÑīÐµÑģÑĤÐ²
ĠÑĢÐ°Ð½ Ð½Ð¸Ñħ
ĠÐ²Ñĭ ÑģÑĤÑĥÐ¿
ĠÐŀ ÑĢ
ĠÑģÐ°Ð¼ Ð¾Ñģ
ĠÑĨÐ¸Ð²Ð¸ Ð»Ð¸Ð·Ð°ÑĨÐ¸Ð¸
ĠÐ°ÑĢ ÑħÐ°
ĠÐ²ÐµÐ»Ð¸ÑĩÐ¸ Ð½Ñĭ
ĠÐ²ÐºÐ»ÑİÑĩÐ° ÑĤÑĮ
ĠÐ²Ð¾ÑģÐ¿ÑĢÐ¸ Ñı
ĠÑĥÑģÐ¿ÐµÑĪ Ð½Ð¾Ð¹
ĠÑĥÑģÐ¿ÐµÑĪ Ð½Ð¾ÑģÑĤÐ¸
ĠÑĥÐºÐ°Ð·Ð° Ð½Ð¸Ñı
ĠÐ¿Ð¾Ð»Ð¾Ð¶ ÐµÐ½Ð¸ÐµÐ¼
Ð° Ð»Ð¾Ð²
ÑģÑĤÐ¸ ÐºÐ°
ĠÐ¾ÑĤ Ð¾Ð¶Ð´ÐµÑģÑĤÐ²
ĠÐľ Ñĥ
ĠÐĹ Ð½Ð°ÑĩÐ¸
ĠÐ²Ð·Ð°Ð¸Ð¼Ð¾Ð´ÐµÐ¹ÑģÑĤÐ² Ð¸Ð¹
ĠÑĥÑĢ Ð±Ð°
ĠÑĥÐ½Ð¸ÑĩÑĤ Ð¾Ð¶
Ð» ÑĭÐ¼
ĠÐ¿Ð¾ÑģÐ»ÐµÐ´ Ð¾Ð²Ð°ÑĤÐµÐ»ÑĮÐ½Ð¾
ĠÑħÐ¾Ð·ÑıÐ¹ ÑģÑĤÐ²ÐµÐ½Ð½Ð¾Ð¹
ÐłÐ°ÑģÑģ Ð¼Ð¾ÑĤÑĢÐ¸Ð¼
ĠÐº ÐµÐ¹
ÐµÐ½Ð¸Ñı Ð¼Ð¸
ĠÐ¿ÑĢÐ¾Ð¸Ð· Ð²ÐµÐ´ÐµÐ½Ð¸Ð¹
Ð¼ÐµÐ½Ð¸ ÑĤÑĮ
ĠÑĥÐ³Ð¾Ð»Ð¾Ð² Ð½Ð¾Ð¼
ÑĤÐ¸Ð² Ð½Ð¾Ð¼Ñĥ
ĠÐ·Ð°Ðº ÑĥÐ¿
ĠÐ¿ÑĢÐ°Ð²Ð¸ Ð»ÑĮÐ½Ð¾
ĠÐ¿ÑĢÐ¸ÑħÐ¾Ð´ Ð¸Ð»Ð¾ÑģÑĮ
ĠÑĢÐµÐ³Ð»Ð° Ð¼ÐµÐ½ÑĤÐ¸
Ð¿Ð¸ÑģÐº Ð¾Ð¿
ĠÐ²ÑģÐ¿Ð¾Ð¼ Ð¾Ð³Ð°
Ðº Ð¾Ð»ÑĮ
ĠÐ¿ÑĢÐ¸ ÑĩÐ°ÑģÑĤÐ¸
ĠÑįÐºÐ¾Ð½Ð¾Ð¼Ð¸ÑĩÐµÑģÐº Ð¸
ĠÐ¾Ð¶Ð¸Ð´Ð° ÑĤÑĮ
ĠÑģ Ð±Ñĭ
ÐŁ ÑĢÐ¾Ð±Ð»ÐµÐ¼Ð°
ĠÐ¿Ð¾Ð»Ð¸ÑĤÐ¸ÑĩÐµÑģÐº Ð¾Ð¼
ĠÐ±Ðµ ÑģÐº
ĠÑģÐ¾ÑĨÐ¸ Ð¾Ð»Ð¾Ð³Ð¸ÑĩÐµÑģÐºÐ¸Ñħ
ĠÐ¾Ð¿ÑĢÐµÐ´ÐµÐ»Ñı ÑĤÑĮ
Ð¾Ð»ÐµÑĤ ÑĮ
ĠÐ¿ÐµÑĢÐ² Ð¾
ĠÐ¸Ð½Ð´Ð¸Ð²Ð¸Ð´Ñĥ Ð°Ð»ÑĮÐ½Ð¾Ð¹
ĠÑĢÐµÐºÐ»Ð° Ð¼
ĠÐ¿ÑĢÐ¸Ð½Ñĥ Ð´Ð¸
ĠÐ±ÑĥÑĢ Ð¶Ñĥ
ĠÐ¿ÑĢÐ¾Ð· ÑĢÐ°
ĠÐ¾ÑĤ Ñģ
ĠÐºÐ¾ÑĢÐ¿Ñĥ Ñģ
ÑģÑĤÐ² ÑĥÑİÑīÐ¸Ðµ
ĠÐ±Ð¾Ð»ÐµÐ· Ð½Ð¸
Ðķ Ð³Ð¾
ĠÑģÑĤÑĢÐµ ÑģÑģ
Ñĩ Ð½Ð¾Ð¼Ñĥ
Ñħ Ð¾
ĠÐ¿ÑĢÐ¸ÐµÐ¼ Ð°
ĠÑģ Ð¼Ð¾Ð¶ÐµÑĤ
ĠÑģÑĥÑīÐµ ÑģÑĤÐ²ÐµÐ½Ð½ÑĭÐ¼
ĠÐ·Ð° Ð²Ð¾Ðµ
ĠÐ³Ð¾ÑģÑĥÐ´Ð°ÑĢÑģÑĤÐ²ÐµÐ½ Ð½Ð¾Ð¼
ĠÑģÐ¾ÑģÑĤÐ°Ð²Ð»Ñı ÑİÑīÐ¸Ðµ
ĠÑĥÑģÐ¸ Ð»ÐµÐ½Ð¸Ñı
Ð¸ ÑģÑı
Ð½Ð¾ ÑĢÐ¾Ð´
ĠÐ¸Ð· Ð¼
ÑĢÐ¾ ÑģÑĤÐ°
ĠÐ¼Ð¾ÑĤÐ¸Ð²Ð° ÑĨÐ¸Ñı
Ð²Ð°ÐµÐ¼ ÑĭÐ¹
ĠÐļÐ¾Ð¼ Ð¸Ñģ
ĠÑħÐ°ÑĢÐ°ÐºÑĤÐµÑĢÐ¸Ð· ÑĥÐµÑĤ
ĠÐ¿ÐµÑĢÑĦ ÐµÐºÑĤÐ°
ÑĢ Ð²Ð°Ð½
ĠÐĲ ÐºÐ°Ð´ÐµÐ¼Ð¸
ĠÐ¿ÑĢÐµÐ´Ð¿Ð¾Ð»Ð°Ð³Ð° ÑİÑĤ
ĠÐ¸Ð¼Ð¿ ÑĥÐ»ÑĮ
ĠÑı Ð»ÑıÐµÑĤÑģÑı
ĠÐ¡ Ð¿Ðµ
ĠÑĦÐ¸Ð· Ð¸ÑĩÐµÑģÐºÐ¾Ð³Ð¾
ĠÐ¼ÐµÐ´Ð¸ÑĨÐ¸Ð½ ÑģÐºÐ¾Ð³Ð¾
Ð¡ ÐŁ
ĠÐ¸ÑģÑĩÐµÑĢ Ð¿Ñĭ
ĠÑģÑĤÑĢÐ°Ð½ Ñĥ
Ð¾Ð»Ð¸ÑĩÐµ ÑģÑĤÐ²Ð¾
Ñģ Ð²Ð¾
ĠÐ¸Ð½ ÑĦÐ¾ÑĢÐ¼
ĠÐĵ ÑĢÐµ
ÑĪÑĤÐ° Ð±
ĠÐ¾ÑĤÐ¼Ðµ ÑĩÐµÐ½Ð¾
ÑĤÐ° Ð»ÐºÐ¸
ÑĤÑĢ Ð¾Ð»ÑĮ
ĠÐ¿ÑĢÐ¾Ð°Ð½Ð°Ð»Ð¸ Ð·Ð¸ÑĢÐ¾Ð²Ð°ÑĤÑĮ
ĠÐ¿ÑĢÐ°Ð²Ð¾Ð¾ÑĤÐ½Ð¾ ÑĪÐµÐ½Ð¸Ñı
Ð´ Ð¶Ð°
Ð³Ð¾Ð² ÑĭÑħ
ĠÑĥÐ»ÑĥÑĩ ÑĪÐµÐ½Ð¸Ñı
ĠÐ¸Ð½ÑĦÐ¾ÑĢÐ¼Ð° ÑĨÐ¸Ð¾Ð½Ð½Ð¾Ð³Ð¾
ĠÐ´ÐµÑĤ ÑģÑĤÐ²Ð°
ĠÑģÐ¿ÐµÑĨÐ¸Ð°Ð»ÑĮ Ð½Ð¾Ð¹
ĠÐ»ÐµÐºÑģÐ¸ ÐºÐ¾
ĠÐ¼ÐµÑĤÐ°ÑĦ Ð¾ÑĢÐ¸
ĠÐºÐ¾Ð»Ðµ Ð±Ð°
Ð¼Ñĭ ÑģÐ»Ð¸
ĠÐ´ÐµÐ»Ðµ Ð³Ð¸
ĠÑĥÐ³ÑĢÐ¾Ð· Ñĥ
ĠÑĤÐ¾Ð» ÐºÐ¾
ĠÐ¼Ð°Ð³Ð¸ ÑģÑĤÑĢÐ°
Ð¾Ð»Ð¸Ð½Ð³ Ð²Ð¸ÑģÑĤÐ¸
ĠÐ½ÐµÐ´Ð¾ÑģÑĤÐ° ÑĤÐºÐ¸
ĠÑģÑĥÐ´Ð° Ð¼Ð¸
ĠÐ¸Ð½ÑģÑĤÐ¸ÑĤÑĥÑĨÐ¸Ð¾Ð½Ð°Ð»ÑĮ Ð½Ð¾Ð¹
ĠÐ°ÑĥÐ´Ð¸ ÑĤÐ¾ÑĢÐ¸
ĠÑģÐ¸ Ð»Ð°
ÐĿ Ðļ
ĠÑĢÐ°Ð· Ð½Ð¸ÑĨÐ°
ĠÐ±Ð°Ð» Ð»Ð¾Ð²
ĠÐ±ÑĥÑħ Ð³Ð°Ð»
ĠÑĤÐµ Ñģ
ĠÐ²Ð¾Ð¿ÑĢÐ¾Ñģ Ð°Ñħ
ĠÐ¿ÐµÑĢÐ¸ Ð¾Ð´Ðµ
ĠÐ¾ÑĤÑĢÐ°Ñģ Ð»ÑıÑħ
ĠÑģÐ½Ð¸Ð¶Ð° ÐµÑĤ
Ðĺ Ðĺ
ĠÐ½ÐµÐ´Ð¾ÑģÑĤÐ° ÑĤÐ¾Ðº
ĠÑĩÑĥ ÑĤÑĮ
ÐºÐ¾Ð¼ Ð°
ĠÐ¾Ð±Ð¾Ñģ Ð½Ð¾Ð²Ð°Ð½Ð¸Ñı
ĠÐ°ÑģÑģÐ¾ ÑĨÐ¸Ð¸
ĠÐ½Ðµ Ð´Ðµ
ĠÑįÐ½ÐµÑĢ Ð³Ð¾
Ð²ÑĪÐ¸Ð¼ ÑģÑı
ĠÐ¿ÑĢÐ¸ ÑģÑı
ĠÐ¿ÑĢÐ¾ ÑıÑģ
ĠÐ°ÑģÑģÐ¾ÑĨÐ¸Ð° ÑĨÐ¸Ð¸
ĠÐºÐ»ÑİÑĩÐµ Ð²ÑĭÐ¼
ÑĩÐ¸ Ð¼
ĠÐ¸ÑģÑĤÐ¾ÑĢÐ¸ ÐºÐ¾
ĠÑįÐ»Ð¸ ÑĤ
ĠÐ® Ð¶Ð½Ð¾Ð¹
ĠÐ· Ð¾Ð½
ĠÑĢÐµÐ·ÑĥÐ»ÑĮÑĤÐ° ÑĤÐ¸Ð²Ð½Ð¾ÑģÑĤÐ¸
ĠÑĢÐ°ÑģÐ¿ Ð°Ð´Ð°
ĠÑĥÑĩÐµÐ± Ð½Ð¾
ĠÐµÐ´Ð¸Ð½ ÑģÑĤÐ²ÐµÐ½Ð½ÑĭÐ¼
ĠÑĢÐµÑģÐ¿Ð¾Ð½Ð´ÐµÐ½ ÑĤÑĭ
ĠÐ²ÑĭÐ¿Ð»Ð° ÑĤ
ĠÐ¿ÐµÑĢÐµ ÑĢÐ°ÑģÐ¿
ĠÐ¾ÑģÑĥÑīÐµÑģÑĤÐ²Ð»Ñı ÐµÑĤ
ĠÐ± Ð»ÐµÐµ
Ð¼Ðµ ÑĢÐ°
ĠÐŁ ÑģÐ¸Ñħ
ĠÑģÐ»Ð¾Ð¶ Ð½ÑĭÐµ
ĠÐŁÑĢÐ¸ Ð¼ÐµÑĢ
ĠÐ¾ÑĨÐµÐ½Ð¸ Ð²Ð°ÐµÑĤÑģÑı
ĠÐ¾ÑĤÑģÑĤÐ° Ð¸
ĠÑı Ð·
ĠÐºÑĢÐ¸ÑĤÐµÑĢÐ¸ Ð¹
ĠÐºÐ»ÑİÑĩÐµ Ð²ÑĭÐµ
ĠÐ½Ð¸Ðº ÑĤÐ¾
Ġ Ð¾Ð»Ð¸
ĠÐŀ ÑĢÐ³Ð°
ĠÐ¿ÐµÑĢÐµ Ð¾Ñģ
ÑĢ ÑħÐ¸
ĠÐ·Ð½Ð°ÑĩÐ¸ ÑĤÐµÐ»ÑĮÐ½ÑĥÑİ
ĠÑĢÐ¸ Ð¼
ĠÐ²ÑĭÐ²Ð¾Ð´ Ð¾Ð²
ĠÐ¡ÐµÐ²ÐµÑĢ Ð½Ð¾Ð¹
ÑĤÑĥÑĢ Ð½ÑĭÑħ
Ð¢Ð°Ðº Ð¸Ðµ
ĠÐ¿Ð¾Ð´Ð¾Ð± Ð½Ð¾Ð¹
ĠÑģÐ¾ÑģÑĢÐµÐ´ Ð¾ÑĤÐ¾ÑĩÐ¸
ĠÐ· ÐºÐ¾Ð½
Ðĺ ÑģÑħÐ¾Ð´Ñı
ĠÐ»Ð¸Ñĩ Ð½ÑĭÐµ
ĠÐ½Ð¾ÑĢÐ¼Ð° Ð¼
ĠÐ½Ð°Ð¿ ÑĢÐ°
ĠÑĥÐ´Ð¾Ð²Ð»ÐµÑĤ Ð²Ð¾ÑĢÐ¸
ÑĢÐ°Ð· Ð¸Ð¹
ĠÐ±ÑĥÐ´Ñĥ ÑīÐµÐ¹
ĠÑĪÐºÐ¾Ð»ÑĮ Ð½ÑĭÑħ
ĠÐ¸Ð½Ð½Ð¾Ð²Ð° ÑĨÐ¸Ð¸
ĠÐ±ÑĥÐ¼Ð° Ð³Ð¸
ĠÐ» ÐµÐ²
Ð´Ð¸ ÐºÐ°
ĠÐ¾ÑĤÐºÑĢÑĭ ÑĤÐ¸Ñı
ĠÐ» Ð°Ð½Ð´
ĠÑĤÑĢÐ°Ð´Ð¸ ÑĨÐ¸Ð¾Ð½Ð½ÑĭÐµ
ĠÐºÐ¾Ð¼Ð¼ÑĥÐ½Ð¸ÐºÐ° ÑĤÐ¸Ð²Ð½ÑĭÑħ
ÐµÐ¼ Ð¾Ð¼Ñĥ
Ð¾Ðµ Ð²
ÑĢÐµÐ½Ð´ ÑĤ
ĠÐ¾ÑĨÐµÐ½Ð¸ Ð²Ð°ÑİÑĤ
ĠÑĦÐ¸Ðº ÑģÐ°
ĠÑģÐ½Ð° Ð±
ĠÐ± Ð¾Ñı
ĠÐ²ÐµÑĢ ÑģÐ¸Ð¸
ĠÐ¸ÑģÑĤÐ¾ÑĢÐ¸ ÑĩÐµÑģÐºÐ¸Ð¹
ĠÐ²Ñĭ ÑģÑĤÑĢÐ¾
ĠÑģÑĢÐµÐ´ Ð½ÐµÐ²ÐµÐº
Ñģ Ð¾ÑĢ
ĠÑĤÐµÐ¼ Ð¿Ð¾Ð²
ĠÐºÐ¾Ð½ÑĨÐµÐ¿ ÑĨÐ¸Ð¹
ĠÐ¾ÑģÑĥÑīÐµÑģÑĤÐ²Ð»Ñı ÑĤÑĮÑģÑı
ĠÐ¿ÑĢÐ¾Ð¼ Ñĭ
ĠÐ¡ Ðº
ĠÑĦÐ¸ÑĢ Ð¼
ÑģÐ¸ Ð¾Ð½
ĠÐ¾ÑģÐ½Ð¾Ð²Ñĭ Ð²Ð°ÐµÑĤÑģÑı
ĠÐ¿Ð¾Ð¼ Ð¾Ð³
ĠÐ·Ð°ÐºÐ¾Ð½Ð¾Ð´Ð° ÑĤÐµÐ»ÑĮÐ½ÑĭÑħ
ĠÐ¿ÑĢÐ¸Ð¼ÐµÐ½ ÐµÐ½Ð¸ÐµÐ¼
ĠÐ½Ð°Ñģ ÑĩÐ¸ÑĤÑĭ
ĠÐ°Ðº ÑģÐ¸
ĠÐ¿ÑĢÐµÐ´Ð¼ÐµÑĤ Ð°Ð¼
ĠÐ½ÐµÑĦ ÑĤÐ¸
ĠÐ¢Ð° ÑĤÐ°ÑĢ
ĠÑĢÐ°Ð· Ð¼ÑĭÑĪ
ĠÑģÑĩÐ¸ÑĤÐ° ÐµÐ¼
ĠÑģÑĤÑĢÐ°ÑĤÐµÐ³ Ð¸ÑĩÐµÑģÐºÐ¸Ñħ
ĠÐ¿ÑĢÐ¸Ð±Ð»Ð¸ Ð·Ð¸
ĠÑģÐ²Ðµ ÑĤÐµ
Ðł Ðĵ
ĠÑģÑĤÑĥÐ´ÐµÐ½ ÑĤÐ°Ð¼
ĠÑĪÐ¸ÑĢÐ¾Ðº Ð¾Ð¹
ĠÐ²Ð¾ÑģÐ¿ÑĢÐ¾ Ð¸Ð·
ĠÐ¸Ð½Ð´ÐµÐº Ñģ
ĠÐ¿ÑģÐ¸Ñħ Ð¾Ð»Ð¾Ð³Ð¸ÑĩÐµÑģÐºÐ¾Ð³Ð¾
ĠÑģÑĥÐ±ÑĬÐµÐºÑĤÐ¸Ð² Ð½Ð¾Ð³Ð¾
Ð²ÐµÑĤ Ð°
ĠÐĲÐ»ÐµÐº ÑģÐµ
ĠÑĥÑĩÐ°ÑģÑĤÐ² ÑĥÑİÑĤ
ĠÐ¿Ð»Ð°ÑĤÐµ Ð¶ÐµÐ¹
ĠÑĩÐµ Ð¼Ñĥ
ĠÐ¢ Ð¸
ĠÐ¼ÐµÐ¶Ð´ÑĥÐ½Ð°ÑĢÐ¾Ð´ Ð½Ð¾Ð¼
ĠÑĦÐ¸Ð½Ð°Ð½ÑģÐ¾Ð² Ð¾
ĠÐ´ Ð²Ð¾
Ð»Ð° ÑĢÑĥ
Ð²Ð¸ ÑĤÐµÐ»ÑĮÐ½Ð¾
ÑĢÐ¾Ð´ Ðµ
ÐĲ Ð½Ð°Ð»Ð¾Ð³Ð¸
Ð¸ÑĤÐµÐ»ÑĮ Ð½Ð¾Ðµ
ĠÐ±Ð»Ð°Ð³ Ð¾ÑĤÐ²Ð¾ÑĢÐ¸
ĠÐ¡ Ð¾Ð±
ĠÐ¿Ð¾Ð»Ð¸ ÑĨÐµÐ¹
ĠÐ¸ÑģÐ¿Ð¾Ð»ÑĮÐ·Ð¾Ð²Ð° Ð½Ð¸Ñİ
ĠÑģÐ²Ð¸Ð´Ðµ ÑĤÐµÐ»ÑĮÑģÑĤÐ²Ð°
ÑīÐµÐ½ Ð½Ð¾Ð¹
ĠÐ¿ÑĢÐµÐ´Ð¾ÑģÑĤÐ°Ð²Ð»Ñı ÐµÑĤ
ĠÐ¼Ð¸ ÑĢÐ¾Ð¼
ĠÑģÑĢÐ¾Ðº Ð¸
ĠÐĺ Ðļ
ĠÑģÑĤÐ°ÑĢ ÑĪÐµÐ³Ð¾
ĠÑģÐ¾Ð³Ð»Ð°Ñģ Ð¾Ð²Ð°Ð½Ð¸Ðµ
ĠÐ¿ÑĢÐ¸ ÑħÐ¾Ð´Ð¸ÑĤ
ĠÐ°Ðº ÑĤÐ°Ñħ
ĠÐ·Ð°ÐºÐ¾Ð½ Ð¾Ð´
ĠÐ¿ÑĢÐ¸Ð·Ð½Ð° Ðº
ĠÑģÑĤÐ¾ÑĢÐ¾Ð½ Ð¾Ð¹
ĠÑĢÐ°Ð² Ð½ÑĭÑħ
ĠÑģÐ¸ÑģÑĤÐµÐ¼ Ð°Ñħ
ĠÑĦÐ¸Ð· Ð¸ÑĩÐµÑģÐºÐ¸Ñħ
ÑĪÐ° ÑĦ
ĠÑģÑĥÑīÐµ ÑģÑĤÐ²ÐµÐ½Ð½ÑĭÑħ
Ð½Ð¾ÑģÑĤ Ð¾ÑĢÐ¾Ð½
ĠÑĢÑĭ Ð±
ĠÑĢÑĥÑģ ÑģÐºÐ¸Ð¼
ĠÑģÐ¾Ð¿ÑĢÐ¾Ð² Ð¾Ð¶Ð´ÐµÐ½Ð¸Ñı
ĠÐºÐ¾Ð½ Ð³ÑĢÐµ
ĠÐ¢ Ñİ
ĠÐ¾Ð±ÑīÐµ ÑģÑĤÐ²ÐµÐ½Ð½Ð¾ÑģÑĤÐ¸
ĠÑĥÑĢÐ¾Ð² Ð½Ð¸
ĠÑģÐ¿Ð¾ÑĢ ÑĤÐ°
ĠÐ´Ð²Ð¾ÑĢÑı Ð½
Ð»Ð¸ ÑĨÐ¸
ĠÐ¿Ð¾Ð¿ ÑĢÐ°Ð²
ĠÐ¿Ð¾Ð·Ð²Ð¾Ð»Ð¸ Ð»Ð¸
ĠÐ½ÐµÐ¼Ð° Ð»Ð¾
ĠÐ¡ Ð¾Ð²
ĠÐ¼Ð¾Ð´ÐµÐ»Ð¸ ÑĢÐ¾Ð²Ð°Ð½Ð¸Ñı
ĠÑĢÐ°Ð·Ð½Ð¾Ð¾Ð±ÑĢÐ°Ð· Ð½ÑĭÑħ
ĠÑįÑĤÐ½Ð¸ ÑĩÐµÑģÐºÐ¸Ñħ
ĠÐ·Ð°Ð±Ð¾Ð»Ðµ Ð²Ð°Ð½Ð¸Ñı
ĠÑģ Ð°ÐºÑĢÐ°
Ð¶ÐµÐ½ Ñĭ
ĠÐ¾Ð±Ñĭ ÑĩÐ°
ĠÐ½ÐµÑģÐ¾ Ð¾ÑĤÐ²ÐµÑĤ
ĠÐļ ÑĢÑĭ
ĠÑĢÐµÐ³Ð¸Ð¾Ð½Ð°Ð»ÑĮ Ð½ÑĭÐµ
ĠÐ¿Ð°ÑĢÐ°Ð´Ð¾Ðº Ñģ
Ð¿ ÑĤÐ¾Ð¼
ÑīÐµÐ½ Ð°
ĠÑģÑĤÐ¾ÑĢÐ¾Ð½ Ð½Ð¸ÐºÐ¾Ð²
ĠÐ¿ÑĢÐµÐ¿Ð¾Ð´Ð°Ð²Ð° ÑĤÐµÐ»Ñı
ÑģÐ¿Ð¾ÑģÐ¾Ð± Ð½Ð¾ÑģÑĤÐ¸
ĠÑĢÐµÑĦÐ»ÐµÐº ÑģÐ¸Ð¸
ĠÐ²Ñĭ ÑħÐ¾Ð´Ð¸ÑĤ
ĠÑģÑĤ ÑĢÑĥ
ĠÐ¾ÑĨÐµÐ½ ÐºÐ°Ð¼
ÑģÐº Ð¾Ð»
ĠÑģÐ¸ Ð½Ð¾
ĠÐ¶Ð¸ ÑĤÐµÐ»Ð¸
ĠÑĢÐ°Ð·ÑĢÐµ ÑĪÐµÐ½Ð¸Ðµ
ĠÐ°ÐºÑĤÐ¸Ð² Ð½Ð¾Ð¹
ĠÐ³Ð¾ÑģÑĥÐ´Ð°ÑĢÑģÑĤÐ²Ð° Ð¼Ð¸
Ð»ÐµÐ½ Ð½ÑĥÑİ
ĠÐ²Ð¾Ð· Ð»Ð¾Ð¶
ĠÑģÐ²Ð¾Ð±Ð¾Ð´ Ð½Ð¾Ð³Ð¾
ĠÑĥÑģÑĤ Ð½Ð¾Ð¹
ĠÑĥ Ð²Ð¾Ð»ÑĮ
Ð´ÐµÐ½ ÑĤÐ¾Ð²
ĠÑģÐ¿Ð¾ÑĢ ÑĤ
ĠÑģÑĨÐµÐ½ Ð°ÑĢÐ¸
ĠÑįÐºÑģÑĤÑĢÐµ Ð¼Ð¸
ÑĩÐ¸ ÑĤ
ĠÐ¡ Ð¾Ð²ÑĢÐµÐ¼ÐµÐ½
ÑĢÐ¾Ð² Ð¾Ðº
Ð¿ÑĢÐ¾ Ð¸Ð·Ð²Ð¾Ð´
ĠÑħÐ¾Ð·ÑıÐ¹ ÑģÑĤÐ²Ð¾
ĠÐ½Ð°ÑģÑĤÐ° Ð¸
ĠÑģ ÐºÐ°Ð·
ĠÐ¿ÑĢÐ¾ ÑıÐ²Ð»ÐµÐ½Ð¸Ðµ
ÑĨÐ¸Ð°Ð»ÑĮ Ð½Ð¾
ĠÐ¿ÑĢÐ¾Ð´Ð° Ð¶Ð¸
ĠÑĥÑĩÐ°ÑģÑĤÐ¸ Ð¸
ĠÐ²Ð¸Ð´ Ð¸Ð¼Ð¾ÑģÑĤÐ¸
ĠÐ¿ÐµÑĢÐµÐ´Ð° ÑĩÐµ
ĠÐ¾ÑĤ ÑĢÑı
ÑģÑģ Ñĭ
ĠÐ·Ð½Ð° ÑĤÑĮ
ĠÑģÐ¾Ð²ÐµÑĢ ÑĪÐµÐ½Ð¸Ðµ
ĠÐºÐ¾Ð½ÑĨÐµÐ¿ ÑĨÐ¸Ñİ
ĠÐ¾Ð±ÑĬÑıÑģÐ½Ñı ÐµÑĤ
ĠÐ´Ð°Ð»ÑĮÐ½ÐµÐ¹ÑĪ ÐµÐµ
ĠÐ¸Ð½ÑĤÐµÑĢÐµÑģÐ° Ð¼Ð¸
ĠÐºÐ°ÑĢÑĮÐµÑĢ Ñĭ
Ð¿ ÑĤÐ°
ĠÐ·Ð° ÑıÐ²Ð»ÐµÐ½
ĠÐ²Ð¸ Ð´Ð¸ÑĤ
ĠÐ¿ÑĢÐ¸ Ð´
ĠÐ¿Ð¾Ð»Ð¸ÑĤÐ¸ÑĩÐµÑģÐº Ð¸Ð¼Ð¸
ĠÐ³Ð¸Ð¿Ð¾ÑĤÐµ Ð·Ñĥ
ĠÑģ Ð¾Ðº
ĠÑĤÐµ Ð°
ĠÐ¾Ð¿ÑĢÐµÐ´ÐµÐ»ÐµÐ½ Ð½Ð¾Ð¼
Ð½Ñİ Ð´ÑĮ
ÑĢ Ð²Ð°Ð½Ð¸Ñı
Ð» Ð½Ð¸Ðµ
ÑįÐºÐ¾Ð½Ð¾Ð¼ Ð¸ÑĩÐµÑģÐºÐ¸Ðµ
ĠÐ²Ð»Ðµ ÑĩÐµÑĤ
ÑĨÐ¸Ð¾Ð½Ð° Ð»Ð¸Ð·Ð°ÑĨÐ¸Ð¸
ĠÐ¶Ð¸Ð·Ð½ÐµÐ½ Ð½ÑĭÑħ
ĠÐ·Ð°Ð²Ð¸ Ñģ
Ð²Ð° ÑİÑīÐ°Ñı
ĠÐ¼Ðµ Ð´Ñĥ
ĠÑģÐ°Ð¼Ð¾ÑģÑĤÐ¾ÑıÑĤÐµÐ»ÑĮ Ð½Ð¾Ð¹
ĠÐ²ÑĭÑĤÐµ Ñģ
ĠÐ¿ÑĢ Ð¾Ð¿Ñĥ
ĠÐ¦ÐµÐ½ÑĤÑĢÐ° Ð»ÑĮÐ½Ð¾Ð¹
ĠÐ¼Ð°ÑĢÐºÐµÑĤ Ð¸Ð½
Ð½Ñı ÑİÑĤÑģÑı
ÑĪ Ð»Ð¾
ĠÐŁ Ð¾Ñģ
ĠÐł Ð¸Ð¼
ĠÐ¾ÑģÐ½Ð¾Ð² Ð½Ð¾Ðµ
ĠÐ°ÐºÑĤÑĥÐ°Ð»ÑĮ Ð½Ð¾Ð¹
ĠÐ´Ð¾ÐºÑĥ Ð¼ÐµÐ½ÑĤ
ĠÐ¡ ÐµÐ¼
ĠÑĢÑĥÐºÐ¾Ð²Ð¾Ð´ ÑģÑĤÐ²Ñĥ
ĠÐ¿ÑĢÐ°Ð²Ð¾Ð² ÑĥÑİ
ĠÐºÐ¾Ð½ÑģÑĤÐ¸ÑĤÑĥ ÑĨÐ¸Ð¾Ð½Ð½Ð¾Ð¹
ÑĨÐ¸Ð¾Ð½Ð° Ð»Ð¸Ð·Ð¼Ð°
ĠÐ¾Ð¿Ð¸ÑģÐ° Ð½Ð¸Ð¸
ĠÐ¿Ð¾Ð´ÑĤÐ²ÐµÑĢÐ¶Ð´Ð° ÑİÑĤ
ÑĤÐµ ÑĢÐ¾Ð²
ĠÑģÑĥ Ð´Ðµ
ÑĢÐ¾Ð² ÐºÐµ
ĠÐ¿Ð¾Ð»Ð¸ÑĤÐ¸ ÐºÐ¾Ð¹
ĠÐ¿ÑĥÐ±Ð»Ð¸ ÑĨÐ¸
ĠÑĦÐ¾ÐºÑĥ Ñģ
ĠÐ¿Ð¾ ÑıÑģ
ĠÐ¿Ð¾Ð´ Ð·
ĠÐ¾ÑĦÐ¸ÑĨÐ¸Ð°Ð»ÑĮ Ð½Ð¾Ð¹
ĠÐ¸ÑĤÐ¾Ð³ Ð°Ð¼
ĠÐºÐ¾Ð» Ð¾
ĠÐ¾ÑĩÐµ ÑĢ
ĠÑĥÑģÐ¿ÐµÑĪ Ð½Ð¾Ð³Ð¾
ĠÐ¿Ð¾Ð»ÑĥÑĩÐ° Ð»Ð¸
ĠÐ½Ð°Ð¿ÑĢÐ°Ð²Ð»ÐµÐ½Ð¸Ñı Ð¼
ĠÐ¿Ð¾Ð²ÑģÐµÐ´Ð½ÐµÐ² Ð½Ð¾ÑģÑĤÐ¸
ĠÐ¾ÑĤ Ð´ÑĭÑħ
ĠÐ½ÐµÐ¸Ð· Ð²ÐµÑģÑĤ
ĠÐ¸ Ð±Ð¾
ĠÑĢÐ°Ð²Ð¸ ÑĤÐ¸Ñı
ĠÐ¿ÑĢÐ¸ÑĪ Ð»Ð¾ÑģÑĮ
ĠÐ¿ÑĢ Ð¾Ðº
ĠÐ¾ÑĢÐ³Ð°Ð½Ð¸Ð·Ð° ÑĨÐ¸Ð¾Ð½Ð½Ð¾
ÐŁÐµÑĤÐµÑĢÐ±ÑĥÑĢ Ð³
ĠÐ¸ÑģÑĤÐ¾ÑĢÐ¸ ÑĩÐµÑģÐºÐ¸
ĠÐ¾Ð±ÐµÑģÐ¿ÐµÑĩÐ¸ Ð²Ð°ÑİÑĤ
ĠÐ·Ð°ÐºÐ»Ñİ ÑĩÐ¸ÑĤÑĮ
ĠÐ°Ð±ÑģÐ¾Ð» Ñİ
Ð°Ð»Ð¸ Ð·
ĠÐ·Ð°ÐºÐ¾Ð½ Ð½ÑĭÑħ
Ð¼Ð¸ ÑĤ
Ð´Ð¾Ð² Ð»ÐµÑĤ
ĠÐĺÑĤÐ° Ð»Ð¸Ð¸
Ð½Ð¸ÑĨ Ñĥ
ĠÑģÐºÐ° Ð·Ñĥ
ĠÐ¾Ð¿ ÑĢÐ¾Ð²ÐµÑĢ
ĠÐĲ ÑĢÐµÐ½Ð´ÑĤ
ĠÐ²Ð¾Ð·ÑĢÐ°ÑģÑĤÐ° ÐµÑĤ
ĠÐ¶Ð¸Ð·Ð½ÐµÐ½ Ð½Ð¾Ð³Ð¾
ĠÐ¿ÑĢÐ¾Ð´Ð¾Ð»Ð¶Ð¸ ÑĤÐµÐ»ÑĮÐ½Ð¾ÑģÑĤÐ¸
Ð¾ Ð½Ð¸Ð¼Ð°
ĠÐ¿ÑĢÐ¸ Ð·ÑĭÐ²Ð°
ĠÐ¿ÑĢÐ¸Ð²Ðµ Ð´ÐµÑĤ
ĠÐ¸Ð·Ð´Ð° Ð½Ð¸Ð¹
ĠÐ¿ÑĢÐ¸ Ð¼Ð¸
ĠÐ»Ð¾Ð³Ð¸ ÐºÐ¸
ÑĤÐ¸Ð¼ ÑģÑı
ÑĢÐµ ÐºÐ¸
ĠÑħÐ¾Ð´ Ð°ÑĤÐ°
ĠÐºÐ¾Ð½ÑĦÐ»Ð¸Ðº ÑĤÑĭ
ĠÐ¿ÑĢÐ¾ÑģÐ»ÐµÐ¶Ð¸ Ð²Ð°ÐµÑĤÑģÑı
ÑĤÐµÐ»ÑĮ ÑģÐºÐ¸Ðµ
ĠÐ·Ð½Ð°ÑĩÐ¸ ÑĤÐµÐ»ÑĮÐ½Ð°Ñı
ĠÐ±Ð°Ð» Ð»
Ð¾ÑĢ Ð¾Ð¼
ĠÐ´ÑĢÑĥÐ³ Ð¾Ð¼Ñĥ
ĠÐºÑĢÐ¸ ÑĤÐ¸ÐºÑĥ
ĠÐ½Ð°ÑĢÐ¾Ð´ Ð½ÑĭÑħ
ĠÐ·Ð²Ñĥ ÑĩÐ°
ĠÐ¾Ð±ÑĬÐµÐºÑĤÐ¸Ð² Ð½ÑĭÑħ
ĠÑĤÐµÑĢÐ¼Ð¸ Ð½Ð°Ñħ
ĠÑĢÐ°Ð±Ð¾ÑĤÐ¾Ð´Ð° ÑĤÐµÐ»Ñı
Ð·Ð° Ð¸Ð¼
ĠÑģÐ¾Ð³Ð»Ð°Ñģ Ð¾Ð²Ð°Ð½
ĠÐºÐ»Ð¸Ð¼Ð° ÑĤÐ°
ĠÐ°Ð½Ð°Ð»Ð¾Ð³ Ð¸Ð¸
ĠÐ³ ÑĢÑĥÐ·
ĠÑģÐ¾ ÑģÑĤÐ¾
Ð¾Ð±ÑħÐ¾Ð´ Ð¸Ð¼Ð¾ÑģÑĤÑĮ
ĠÑĢÐ°Ð¹ Ð¾Ð½
ĠÐºÐ½Ñı Ð·Ñı
ĠÐ´ÐµÐ¼Ð¾Ð½ ÑģÑĤÑĢÐ°
ĠÑĥÑģÑĤÐ°Ð½Ð¾Ð² Ð»ÐµÐ½Ð½ÑĭÑħ
ĠÑģÐ¾ÑĤÑĢÑĥÐ´ Ð½Ð¸ÐºÐ¸
. -
ÑĩÐµÐ½ Ð½Ð¾Ðµ
ÑĤÑĥ Ð°Ð»
ĠÐ½Ð¾Ð² Ð¾Ð¼
ÐŁÑĢÐ¸ ÑĩÐµÐ¼
ĠÐŀ ÑĤÐµÑĩÐµ
ĠÐ½ÐµÑģ ÐµÑĤ
ĠÑģÑĢÐµÐ´ Ð½Ð¸Ðµ
ĠÑĢÐµÐ·ÑĥÐ»ÑĮ ÑĤ
Ð¾ Ñĩ
ĠÐ¸ÑģÐ¿ ÑĢÐ°Ð²
ĠÐ¿ÑĢÐ¸ÑĩÐ¸ Ð½Ð°
ĠÐ¿ÑĢÐ¾ÑĤÐ¸Ð²Ð¾ ÑģÑĤÐ¾Ñı
ÑģÐµ Ð»
ĠÐ¼Ð¾Ð½ ÐµÑĤ
ĠÐ»Ð¸ÐºÐ²Ð¸ Ð´Ð°ÑĨÐ¸Ð¸
ĠÐĲ Ð±
ĠÐ¾ÑĤ ÑĨÐ°
ĠÐ¾ÑĢÐ°Ð· Ð¾Ð²Ð°Ð½Ð¸Ñı
ĠÐ¿ÑĢÐ¾ ÑıÐ²Ð»
ĠÐ¿ÑĢÐµÑģÑĤÑĥÐ¿ Ð½Ð¾ÑģÑĤÐ¸
ĠÐºÐ¾Ð½ÑģÑĤÐ° ÑĤÐ¸ÑĢÐ¾Ð²Ð°ÑĤÑĮ
ĠÐ² Ð¸Ð½
ĠÐ½Ðµ ÑĩÑĤÐ¾
ÑĨÐ¸Ð°Ð»ÑĮ Ð½Ð°Ñı
ĠÐ°Ð´ Ð¼Ð¸Ð½Ð¸
ĠÑģÐ¿Ð¾Ð½ ÑĤÐ°Ð½
ĠÑģÐ¾Ð¼ Ð½ÐµÐ½Ð¸Ðµ
ĠÐ·Ð°ÐºÐ¾Ð½Ð¾Ð¼ÐµÑĢ Ð½Ð¾ÑģÑĤÐ¸
ĠÐ°ÑĤ Ð¼Ð¾Ñģ
ĠÐ² ÑĤÐ¾ÑĢÐ°Ñı
Ð²Ð° Ñħ
ĠÐ¿ÑĢÐµÐ´ÑģÑĤÐ°Ð²Ð»Ñı ÑĤÑĮ
ĠÐºÐ°Ð½Ð´Ð¸Ð´Ð° ÑĤÐ¾Ð²
ĠÐ´Ð¾Ð¿Ð¾Ð»Ð½Ð¸ ÑĤÐµÐ»ÑĮÐ½Ð¾Ð¹
ĠÐ¾ÑĦÐ¸ÑĨÐ¸Ð°Ð»ÑĮ Ð½ÑĭÑħ
ĠÐ¿ÑĢÐµÐ¾Ð´ Ð¾Ð»ÐµÑĤÑĮ
ĠÐ´ÐµÑģÑıÑĤÐ¸Ð»ÐµÑĤ Ð¸Ð¹
ĠÐĴ Ð°ÑĢ
ĠÐļ ÑĥÐ·
ĠÐĿÐĺ Ð£
ĠÐ¼ÐµÑģÑĤ Ð¾Ð¼
ĠÑģÑĦÐ¾ÑĢÐ¼ÑĥÐ»Ð¸ ÑĢÐ¾Ð²Ð°ÑĤÑĮ
ĠÑĢÐµÑĦÐ¾ÑĢÐ¼Ð¸ ÑĢÐ¾Ð²Ð°Ð½Ð¸Ñı
ĠÐ°Ðº ÑĤÐ°Ð¼Ð¸
ĠÐ½ÐµÐ¾Ð±ÑħÐ¾Ð´ Ð¸Ð¼Ð°
Ð¾Ð¿Ð¾Ð» Ð½Ð¸
ĠÐ¼Ð¾Ð»Ð¾Ð´ ÑĭÐµ
ĠÐ¶ÐµÐ»Ð° Ð½Ð¸Ñı
ĠÑĥÑģÑĤÐ°Ð½Ð°Ð²Ð»Ð¸ Ð²Ð°ÐµÑĤ
Ð½Ðµ ÑĤÐµ
ĠÑģÐ¿Ð¾ÑģÐ¾Ð± ÐµÐ½
ĠÐ²ÑĭÑģÐ¾Ðº Ð¾Ð¼
ĠÐ´ÑĥÑħÐ¾Ð² Ð½Ð¾Ð¹
ÑģÑĤ ÐµÐ½
ĠÑģ Ð±Ð°Ð»Ð°Ð½ÑģÐ¸
Ð´Ð¸ Ð½Ð¸
ĠÐºÐ¾Ð½ÑģÑĤÐ¸ÑĤÑĥ ÑĨÐ¸Ð¸
ĠÐ¸Ð½ÑĤÐµÐ»Ð»ÐµÐº ÑĤÐ°
ĠÐ´ÑĢÑĥÐ³Ð° Ñı
ĠÐ¿ÑĢÐ¾Ð³ÑĢÐ°Ð¼Ð¼Ð° Ñħ
ĠÑģÐ²Ð¾Ð±Ð¾Ð´ Ð½Ð¾Ð¹
ĠÐ¾Ð¿ ÐµÑĢÐµ
ĠÐ»Ð¸Ð½Ð³ Ð²
ĠÑģÐ¾Ð²Ð¼ÐµÑģÑĤ Ð½Ð¾Ð³Ð¾
ĠÐ¶Ð°Ð½ ÑĢÐ¾Ð²
Ð¸Ð¼ Ð¾Ð¹
ĠÐ²Ð¾Ð·Ð½Ð¸ÐºÐ½Ð¾Ð² ÐµÐ½Ð¸Ðµ
Ð³Ð¾ÑģÑĥÐ´Ð°ÑĢ ÑģÑĤÐ²ÐµÐ½Ð½ÑĭÑħ
ĠÐ² ÑĢÐ°Ð¶
Ðŀ ÐĴ
ĠÐ¸Ð½Ð²ÐµÑģÑĤÐ¸ ÑĨÐ¸Ð¾Ð½Ð½ÑĭÑħ
ĠÐ¿ÑĢÐ¾Ð¸ÑģÑħÐ¾Ð´ ÑıÑĤ
ÐŁÐµÑĢ Ð²ÑĭÐ¹
Ðº Ð¾Ð»
ÑĨÐµÐ½ ÐºÐ°
ÑĨÐ¸Ð°Ð»ÑĮ Ð½ÑĭÐ¹
ĠÐ¸Ð·Ð¾Ð± ÑĢÐ°Ð¶ÐµÐ½Ð¸Ñı
ĠÐºÐ²Ð°ÑĢ ÑĤÐ°
ĠÐ² Ð½Ñĥ
ĠÐº Ð²
ĠÑı Ñģ
Ð²ÑĪ ÑĥÑİ
ĠÐºÑĥÐ»ÑĮÑĤÑĥÑĢ Ð¾Ð¹
Ð¾Ð¶Ðµ Ð»Ð°
ĠÑĨÐµÐ½ÑĤ ÑĢÑĭ
ĠÐ½ÐµÐºÐ¾ÑĤÐ¾ÑĢ ÑĭÐ¼
ĠÐºÐ¾Ð»Ð»ÐµÐº ÑĤÐ¸Ð²Ð°
ĠÑĤÑĥ ÑĢÐµÑĨ
ĠÐ¿ÑĢÐ¸ÑģÑĥÑĤÑģÑĤÐ² Ð¸Ñı
ĠÐĶÐ° Ð»ÐµÐµ
ĠÐ¿Ð¾ÑĤÐµÐ½ÑĨÐ¸Ð°Ð»ÑĮ Ð½Ð¾
Ð¼Ð¸ ÑĤÐ°
ĠÐ´Ð° Ð²
ĠÑĦÐ¾ÐºÑĥ ÑģÐ¸
ĠÐ¿Ð¾Ð´Ð¾Ð· ÑĢÐµ
ĠÐ³ ÑĢ
Ð¸ÑĤÐµÐ»ÑĮ Ð½ÑĭÐ¼
ĠÐ¿ÑĢÐ°Ð²Ð¾Ð¼ ÐµÑĢ
Ñĩ ÑģÐºÐ¸Ðµ
ĠÐºÐ¸ Ð½Ð¾
ĠÑģÐ¿ Ð¸ÑģÐºÐ°
ĠÐ¶Ð¸Ð· Ð½ÑĮÑİ
ĠÐ±Ðµ Ð¶ÐµÐ½
Ð¼ÐµÑĩÐ° ÑĤÐµÐ»ÑĮÐ½Ð¾
Ð¿ ÑĢÐ°
ÑĢÐ¾Ð¼ ÑĭÑĪ
ĠÑģÐ¾ÑĤ Ð²ÐµÑĤ
ĠÑĥÐ´Ð¾Ð²Ð»ÐµÑĤÐ²Ð¾ÑĢ ÐµÐ½Ð¸Ñı
Ñı ÑīÐµÐ¹
ĠÐ·Ð° ÑıÐ²Ð»Ñı
ĠÐ¸Ð³ÑĢÐ° ÑĤÑĮ
Ð± Ð¾Ð»ÐµÐµ
ĠÐ¿Ð¸ÑģÑĮ Ð¼Ð¾
ĠÐ´ÐµÑĤÐµÑĢ Ð¼Ð¸Ð½Ð°Ð½
ĠÐ² Ð»
ĠÑİ ÑģÑĤÐ¸
Ð¾Ð³ÑĢÐ°ÑĦÐ¸ÑĩÐµÑģÐº Ð¸Ðµ
ĠÐ´ Ð½Ð¸
ĠÐ½Ð° ÑĨÐ¸
Ð²Ð¸ ÑĩÐ°
Ð»Ñĥ Ð¹
ÑĪÐ¸ Ð±Ð¾
ĠÐºÐ°Ð¶Ð´ Ð¾Ðµ
ĠÐ¸ÑĤ Ð¾Ð³Ð¸
ĠÐºÑĢÐ¸ÑĤÐµÑĢÐ¸ ÑıÐ¼
ĠÐ³Ð°ÑĢÐ°Ð½ ÑĤÐ¸Ð¸
ÑĨ ÐµÐ¼
ĠÐ¾ÑĤ Ð¿ÑĢÐ°Ð²Ð¸
ÑĤÐµ ÑĤÐ¾Ð¼
ĠÐ¿ÑĢ Ð¾ÐºÑĥÑĢ
ĠÑĢÐµÐ³Ð¸Ð¾Ð½Ð°Ð»ÑĮ Ð½Ð¾Ð¼
ĠÐ»Ð¸Ð½Ð³Ð²Ð¸ÑģÑĤÐ¸ ÑĩÐµÑģÐºÐ¾Ð¹
Ð´ÐµÐ¼ Ð¾ÐºÑĢÐ°
Ð² Ð½Ðµ
ĠÑģÐ¾ÑĨÐ¸ Ð¾Ð»Ð¾Ð³Ð¸
ĠÐ¿Ð¾ÑģÐ²ÑıÑīÐµÐ½ Ð½ÑĭÐµ
ĠÐ¿ÑĢÐ¾Ð²ÐµÐ´ÐµÐ½ Ð¾
ĠÑĥÑĩÐµÐ½ ÑĭÐ¼Ð¸
ĠÐ¿Ð¾Ð»Ð°Ð³Ð° ÐµÐ¼
Ġ Ð¾Ð³Ð¾Ð²Ð¾ÑĢ
Ð´Ñĥ ÑģÑĤÑĢÐ¸
ĠÑģÑĥ ÑĦ
ĠÑģÐ¾Ð·Ð´Ð° Ð½Ð°
ĠÑģÑĩÐ¸ÑĤÐ° Ð»Ð¸
ĠÐ¿Ð¾ÑĤÐµÑĢ Ñı
ĠÐºÐ° Ð½Ð¾
ĠÐ½Ð°Ð¼ Ð½Ð¾Ð³Ð¾
ĠÐ¾ÑĤ Ð±Ð¾ÑĢ
ÑĢÐ¾Ð² ÐµÐ½ÑĮ
ĠÐ¿ÑĢÐ¸Ñģ Ð²Ð¾
Ñı ÑīÐ¸Ðµ
ĠÐ´ Ð°ÑĢ
ÐŁ Ð¾ÐºÐ°Ð·Ð°
ĠÐ½ÐµÐ¼ Ð°Ð»
ĠÑģÐ¾Ð±Ð»Ñİ Ð´ÐµÐ½Ð¸Ñı
ĠÐ³Ð¾Ð»Ð¾Ñģ Ð¾Ð²
ĠÐ¸Ð½ ÑĥÑİ
ĠÐ°ÐºÑĨÐµÐ½ ÑĤÐ¸
ĠÐ½Ð° Ð¼Ðµ
ĠÐ° Ð½Ð¾
ĠÐ²Ð¸Ð´ Ð¸Ð¼Ð¾
ĠÑģÑģÑĭ Ð»Ð°
ĠÐ½Ðµ Ð»ÐµÐ³
ĠÐ¾ÑģÐ¾Ð±ÐµÐ½ Ð½Ð¾ÑģÑĤÑıÑħ
ĠÐ´Ð²Ð¸ Ð¶ÐµÐ½Ð¸Ð¹
ĠÑĤÐ¾Ð²Ð° ÑĢÐ°
ĠÐ¿Ð»Ð¾ÑīÐ° Ð´Ð¸
ĠÐ·Ð°Ð¸Ð¼ ÑģÑĤÐ²Ð¾Ð²Ð°
ĠÐ¼Ðµ Ð³Ð°
ĠÐ¿ÐµÑĢÐµ Ð¹ÑĤÐ¸
ĠÐ²ÑĭÐ´Ðµ Ð»ÐµÐ½Ð¸Ðµ
ĠÑĤÑĢÐ°Ðº ÑĤÑĥ
ÐºÐ¾ÑĢ ÑĢÑĥÐ¿
Ð¾Ð·Ð´Ð° Ð½Ð¸Ðµ
Ðº Ð¾ÑĤÐ¾ÑĢ
ĠÑĤÑĢÐµÐ±Ð¾Ð²Ð°Ð½Ð¸Ñı Ð¼Ð¸
ĠÑĥÐ´Ð¾Ð²Ð»ÐµÑĤÐ²Ð¾ÑĢ ÐµÐ½Ð½Ð¾ÑģÑĤÐ¸
ĠÐ¸Ð´ÐµÐ½ÑĤÐ¸ ÑĦÐ¸ÐºÐ°ÑĨÐ¸Ð¸
ĠÐ¿Ð¾ÑĢÐ¾Ð¶Ð´Ð° ÐµÑĤ
ĠÑįÐºÑģÐ¿Ð»Ñĥ Ð°
ĠÐ¾ ÑģÑĤÑĢÐ¾
ĠÐ¿ÑĢÐ¾Ð¼ÑĭÑĪ Ð»ÐµÐ½Ð½ÑĭÑħ
ĠÐºÐ¾Ð½ÑĤÑĢÐ¾Ð»Ð¸ ÑĢÐ¾Ð²Ð°ÑĤÑĮ
ĠÐ°Ðº ÐºÑĥ
ĠÐ²Ð°Ð¶ Ð½Ð¾ÑģÑĤÐ¸
Ð½ÐµÐ½ Ð¾
ĠÐºÐ¾Ð½ÐºÑĢÐµÑĤ Ð½Ð¾Ð¼
ĠÐ¿Ð¾ÑģÑĤÐ¾ÑıÐ½ Ð½Ð¾Ð³Ð¾
ĠÐ²ÑĢÐ° ÑĩÐ°
ĠÑĩÑĢÐµÐ· Ð¼ÐµÑĢ
ĠÐ¿ÑĢÐ¾ ÑħÐ¾Ð´Ð¸ÑĤ
ĠÐ¸Ð³ ÑĢÐµ
ĠÐ²ÐºÐ»Ñİ ÑĩÐµÐ½Ð¸Ðµ
ĠÐ¿Ð°ÑĢÑĤÐ½ÐµÑĢ Ð¾Ð²
ÐµÐ½ÑĤÐ° Ð±Ðµ
ĠÑĤÐ¾ÑĢÐ³Ð¾Ð² Ð»Ðµ
ĠÐŀÐ´ Ð½Ð¸Ð¼
ĠÐ½Ð° ÑĢÐ°ÑīÐ¸
ĠÐ¿ÐµÑĢÐµÐ¼Ðµ ÑīÐµÐ½Ð¸Ñı
ĠÐ½Ð° ÐµÐ¼
ĠÐ½Ð° ÑģÑĤÐ°Ð²
ÑĢÑĥ ÑİÑīÐ¸Ð¹
ĠÐ¡ Ð¾ÐµÐ´Ð¸
ĠÑħ Ð¾Ð·Ñı
ĠÐ¸Ð¼ Ð¿Ð»Ð¸
ĠÐ½Ð¸Ð· ÐºÐ¸Ðµ
ĠÐ±Ð¾ÑĢÑĮ Ð±Ñĥ
ĠÐ¿Ð¾Ð²ÐµÐ´ ÐµÐ½Ð¸ÐµÐ¼
ĠÐ¿ÑĢÐ¸Ð¼Ðµ ÑĢÐ°Ñħ
ĠÐ¾ÑĦÐ¾ÑĢÐ¼ Ð»ÐµÐ½Ð¸Ñı
Ð¾Ð´ Ð¾Ð±
ĠÐ¿ÑĢ ÑģÑĤÑĢÐ°Ð½
ĠÑĤÐ¾ ÑĩÐµÐº
Ð³ÑĢÐ° Ð¼Ð¼Ð°
ĠÐ¿ÑĢÐ°Ð²Ð° Ð¼Ð¸
ĠÐ¿ÑĢÐ¸Ð¼ÐµÐ½Ñı ÑİÑĤÑģÑı
ÑĢÐµ Ñģ
ĠÑįÐºÐ¾Ð½Ð¾Ð¼Ð¸ ÐºÐ¾Ð¹
ĠÑģÐ»Ð¾Ð²Ð° ÑĢÑĮ
ĠÑĨÐ¸ ÑĢÐºÑĥ
ĠÑĥÐ²ÐµÐ»Ð¸Ñĩ ÐµÐ½Ð¸Ñİ
Ð¡Ð¾ Ð¾ÑĤÐ²ÐµÑĤÑģÑĤÐ²ÐµÐ½Ð½Ð¾
ĠÐ¿Ð¾Ð´ ÐµÑĢ
ÑĢÑı Ð·
ĠÑĢÑĥÐºÐ¾Ð²Ð¾Ð´Ð¸ ÑĤÐµÐ»Ñı
ĠÐ¾ÑĤ Ð½ÑİÐ´ÑĮ
ĠÐ» Ð¾Ñı
ĠÐ²Ð·Ð°Ð¸Ð¼ Ð¾Ð¿
ĠÐ½ÐµÐ¼ÐµÑĨ ÐºÐ¾Ð³Ð¾
ĠÐ¸Ð½Ð¸ÑĨÐ¸Ð°ÑĤÐ¸Ð² Ðµ
ĠÐ¼Ð°ÑĤÐµÑĢÐ¸ Ð°Ð»ÑĮÐ½Ð¾
ĠÐ¼Ð°ÑģÑģ Ð¾Ð²Ð¾Ð³Ð¾
ĠÐ²ÑħÐ¾Ð´Ñı ÑīÐ¸Ñħ
ÐµÐ´ Ñĭ
ĠÐ´Ð¾Ð¼ Ð¾Ð²
ĠÐ¿ÑĢÐ¸Ð²Ð»Ðµ ÑĩÑĮ
ĠÐ°ÐºÐ°Ð´ÐµÐ¼Ð¸ Ð¸
ĠÑĢ Ð¾Ð»
Ð»Ð¾Ñģ Ð¾ÑĦ
ĠÐ´ÐµÐ¹ÑģÑĤÐ² ÑĥÑİÑīÐµÐ³Ð¾
Ð³ ÑĢ
ĠÐ½Ð° Ð½ÐµÑģ
ĠÐ¿ÑĢÐ¸ ÑĢÐ¾Ð´Ð°
Ð´Ð¸ Ð°
ĠÐ¸ÑģÑĤÐ¾ÑĢÐ¸ ÑĩÐµÑģÐºÐ¸Ðµ
Ð½ÐµÐ½ Ð°
ĠÐ¸Ð·Ð²ÐµÑģÑĤ Ð½Ñĭ
ĠÐ½Ð°Ð· Ð²Ð°Ð½
ĠÐ¼ÑĥÐ»ÑĮ ÑĤÐ¸
ĠÐ¾Ñģ Ð¿Ð°ÑĢÐ¸
ĠÐ¢ ÐµÑĢ
ĠÐ´Ð¾Ð»Ð¶ Ð½Ð¸ÐºÐ°
ĠÐ¿ÑĢÐ¸Ð·Ð½Ð° ÐµÑĤÑģÑı
Ð¾Ð² Ð¾ÑĢÑı
Ðĺ Ñħ
ĠÐ²Ð½ÐµÑĪ Ð½Ð¸Ð¼
ĠÑĢÑĭÐ½Ð¾ ÑĩÐ½ÑĭÑħ
ĠÐ¼Ð¾ÑĤÐ¸Ð² Ð¾Ð²
Ð´Ð° Ð½Ð¸Ðµ
ĠÐºÐ¾Ð½ ÑĨÐµÐ½ÑĤÑĢÐ¸
ĠÐºÐ°ÑĩÐµ ÑģÑĤÐ²ÐµÐ½Ð½Ð¾
Ð¾Ð¶Ð´ ÐµÐ½Ð¸Ð¸
Ð¾Ð± Ð½Ð¾Ð²
ÐĶ Ðł
ĠÑĥÑĩÐ°ÑģÑĤ ÐºÐ°
ĠÐ²Ð¾ÑģÐ¿ÑĢÐ¸Ð½Ð¸Ð¼Ð° ÐµÑĤÑģÑı
ÑĢÐ° ÑĤ
ĠÐ¨ Ð²ÐµÐ¹
ÐµÐ½ ÑģÑĥ
ÑĩÐµ Ð»Ð¾Ð²Ðµ
ÐĴ ÑĤÐ¾ÑĢÐ¾Ð¹
Ð³Ð¸ Ð½
ÑĢÑĥ ÐµÐ¼ÑĭÐµ
Ð½Ð¾Ð² Ð¾Ð¹
ĠÐĴ ÐĺÐ§
ĠÐŀÑĤ Ð´Ðµ
ĠÐ· Ð¾Ð»Ð¾ÑĤ
ĠÐ°Ðº ÑĤÐ¸Ð²Ð°
ĠÐ¸Ð½ÑģÑĤÐ°Ð½ ÑĨÐ¸Ð¸
ĠÐ¸Ð½Ð´Ð¸Ð²Ð¸Ð´Ñĥ Ð°Ð»Ð¸
ĠÐ°ÐºÑĤÑĥÐ°Ð»ÑĮ Ð½ÑĭÐ¼
ĠÐĴÑģÐµ Ð¼Ð¸ÑĢ
ĠÐ½Ð°ÑģÐ»Ðµ Ð´Ð¸Ñı
ĠÐĹ ÐµÐ¼
ĠÐ¾Ð±ÑĬÐµÐ¼ Ñĭ
Ð»Ð¸Ð²Ð¾ ÑģÑĤÐ¸
ĠÑĢÑĥ ÐºÐ¸
ĠÑģÑĤÐ¾ÑĢÐ¾Ð½Ð° Ð¼Ð¸
ĠÑĥ ÑıÐ·
ĠÐ¡ ÐŁÐŀ
ĠÐ¿ÑĢÐµ ÑĤÐµÑĢÐ¿Ðµ
ĠÐ²Ð¾Ð·Ð¼Ð¾Ð¶ Ð½Ð°
ĠÐĳÐ¾Ð»ÑĮÑĪ Ð¸Ð½ÑģÑĤÐ²Ð¾
ĠÑģÐ¸Ð½ Ñħ
ÑĤÐ°Ð»ÑĮ ÑıÐ½
ĠÑĥÑĩÐ¸ ÑĤÑĮÑģÑı
ĠÐ¸Ð½Ð´Ð¸ÐºÐ° ÑĤÐ¾ÑĢÐ¾Ð²
ĠÐ» ÐµÐ¹
ĠÐĴ Ð¾Ð»
ÐŁ ÑĢÐ°Ðº
ĠÑĪ ÑĤÑĢÐ°
Ðĺ Ð½ÑĭÐ¼Ð¸
ĠÐ¸Ð·Ð¼ÐµÐ½ÐµÐ½Ð¸Ñı Ð¼Ð¸
Ð·Ð¸ÑĢÑĥ Ñı
ĠÑģÐ¼ÐµÑĢ ÑĤÐ½Ð¾ÑģÑĤÐ¸
ĠÐ²Ð¾Ð· Ð´Ñĥ
ĠÑĢÐ°ÑģÑģÑĥ Ð¶Ð´ÐµÐ½Ð¸Ñı
ÐĲÐ² ÑĤÐ¾ÑĢÑĭ
ĠÐ³Ð¾ÑģÑĥÐ´Ð°ÑĢÑģÑĤÐ²ÐµÐ½ Ð½ÑĭÐ¼Ð¸
ĠÐºÐ»Ð°ÑģÑģÐ¸ ÑĩÐµÑģÐºÐ¾Ð¹
Ð¸Ñģ ÐµÐ¹
ÑĢÐ¾Ð²Ð°Ð½ Ð½Ð¾Ð¼
ĠÐĽÐµ Ð¾Ð½
ĠÐĺÑģÐ¿Ð° Ð½Ð¸Ð¸
ĠÐ·Ð½Ð° ÐµÑĤ
ÑĪÐµÐ½ Ð½ÑĭÐµ
ĠÐ³Ð¾ÑĢÐ¸Ð·Ð¾Ð½ ÑĤÐ°
ĠÐ¸Ð· Ð¾Ð»Ñı
ĠÐ´Ð°Ð»ÑĮ ÑĪÐµ
ĠÑĥÐ¿Ð¾Ð¼Ñı Ð½Ñĥ
ĠÐ¿ÑĢÐµÐ²Ð¾Ñģ ÑħÐ¾Ð´
Ð± Ð°ÑĢ
Ð»Ð¾ ÑģÑĤÐ¸
Ð»Ð¸Ñĩ Ð½ÑĭÑħ
ĠÐ²Ð·ÑĢÐ¾Ñģ Ð»Ð¾Ð³Ð¾
ĠÐ² Ð¾Ðµ
ĠÐ¿ÑĢÐµ ÑģÑĤÐ°
Ð³Ñĥ Ð±Ð¾
ĠÑħÐ°ÑĢÐ°ÐºÑĤÐµÑĢÐ¸ Ð·ÑĥÑİÑĤÑģÑı
ÑģÑĤÐ¸ÑĩÐµÑģÐº Ð¾Ðµ
ĠÐ³Ðµ ÑĤÐµÑĢ
ĠÐ¶ Ð¸ÑĤÑĮ
ĠÑĩÐ¸ÑĤÐ° ÑĤÐµÐ»Ñı
Ð½ Ð¼Ð°
ĠÐ·Ð°ÐºÐ¾Ð½ Ð½Ð¾ÑģÑĤÐ¸
ĠÐ²Ð°Ð¶ Ð½Ñĭ
Ðĵ Ð¾ÑģÑĥÐ´Ð°ÑĢ
ĠÐ¸Ð½ÑĤÐµÑĢÐ¿ÑĢÐµÑĤÐ° ÑĨÐ¸Ñı
ĠÐ¿ÑĢÐ¸ ÐºÐ°Ð·
ĠÐ´Ð¾Ð¿Ð¾Ð»Ð½Ð¸ ÑĤÐµÐ»ÑĮÐ½Ð¾
ĠÐ´Ð°Ð»ÑĮÐ½ÐµÐ¹ ÑĪÐµÐ¹
ĠÐ²ÐµÐ»Ð¸ÑĩÐ¸ Ð½Ð°
Ð²Ð°Ð»Ð¸ ÑĦÐ¸ÑĨÐ¸
Ðķ ÐĿ
ĠÐ¿ÑĢÐ¾Ñģ Ð²ÐµÑĤ
ĠÐºÑĢÐµÐ´Ð¸ÑĤ Ð¾Ð²Ð°Ð½Ð¸Ñı
ĠÐ°ÐºÑĨÐ¸Ð¾Ð½ ÐµÑĢ
ĠÑģÑĤÑĢÐ¾ Ð¸ÑĤÑģÑı
ÑİÐ½ Ðº
ÐŁÑĢÐ¸ Ð¼ÐµÑĢ
ĠÑįÐ¼Ð¸ Ð³ÑĢÐ°ÑĨÐ¸Ð¸
ĠÑĥÑĩÐ°ÑģÑĤ ÐºÐ¾Ð²
ĠÐ¶ÐµÐ½Ñī Ð¸Ð½Ð°
ÐĴÑĭ Ð±Ð¾ÑĢ
ĠÐ´Ð°Ð»ÑĮÐ½ÐµÐ¹ ÑĪÐ¸Ñħ
Ð²Ð¸ Ð»Ð¸
ĠÐ¿ÑĢÐ¾Ð´Ð¾Ð»Ð¶Ð° ÑİÑĤ
ĠÐ¿ÐµÐ½ÑģÐ¸Ð¾Ð½ Ð½ÑĭÑħ
ĠÐ¿ÑģÐ¸Ñħ Ð¾Ð»Ð¾Ð³Ð¾
ĠÐ¡ ÑĥÑīÐµÑģÑĤÐ²
ĠÐ¾ÑĢ ÑĥÐ´Ð¸
ĠÑģÑĥÑīÐµÑģÑĤÐ² Ð¾Ð²Ð°ÑĤÑĮ
ĠÐ¿ÐµÑĢÐµÑĩÐ¸Ñģ Ð»ÐµÐ½Ð½ÑĭÑħ
ĠÑıÐ²Ð»Ñı Ð»Ð°ÑģÑĮ
ĠÐ»Ðµ ÑĩÐµÐ½Ð¸Ñı
ÑģÐµÐ¼ ÐµÑģÑĤ
Ð¾Ð´ Ð¾Ð¼
ĠÐĴÐ¾ÑģÑĤ Ð¾ÐºÐ°
ĠÑģÐ¸ÑĤÑĥÐ° ÑĨÐ¸ÐµÐ¹
ĠÐ¿Ð¾Ð´Ð¾Ð± Ð½Ð¾Ðµ
ÑĤÐ¸Ð½ ÐµÐ½ÑĤÐ°
ÐµÐ½ ÑĭÑħ
ÑīÐ¸Ð¼ ÑģÑı
ĠÐ½Ð°ÐºÐ°Ð·Ð° Ð½Ð¸Ðµ
Ð½Ð°Ð½ ÑģÐ¸
ÑĢÐµ Ð»
ĠÐ¿ÑĢÐ¸ ÑģÑĤÐ°
ĠÐ´ÐµÐ»Ð° ÐµÑĤÑģÑı
ĠÐ¼Ð¾Ð½ Ð¾Ð¿Ð¾Ð»Ð¸
ĠÐ¿Ð¾Ð¿Ñĥ Ð»Ñı
Ð³ÐµÐ½ ÑĨÐ¸Ð¸
ÐĽ Ñİ
ĠÐ¸Ð½ÑĤÐµÑĢÐ¿ÑĢÐµ ÑĤÐ¸
ĠÑĦ Ð¾Ð¼
ĠÐ¾Ð±ÑĢÐ°Ð· ÑĥÑİÑĤ
ĠÐ¿ÑĢÐµÐ´Ð»Ð¾Ð¶ Ð¸Ð»
ÐŁ Ðł
ĠÐºÑĢÑĥÐ¿ Ð½ÐµÐ¹ÑĪÐ¸Ñħ
ÑĢ Ñİ
ĠÐ¿ÑĢÐ¾ Ð½Ð¸Ðº
ĠÐ¼Ð° ÑĪÐ¸Ð½
ĠÐ·Ð½Ð°ÑĩÐ¸ Ð¼ÑĭÐ¼Ð¸
ĠÐ¸Ð½ÑĦÐ¾ÑĢÐ¼Ð° ÑĨÐ¸Ð¾Ð½Ð½Ð¾
ĠÐºÑĢÐ¸ÑĤÐµÑĢÐ¸ Ñı
ÑĪ ÐºÐ°
ĠÐ²Ð¾Ð¹ Ð½Ñĥ
ĠÑĤÐµÑĢÑĢÐ¾ ÑĢÐ¸ÑģÑĤÐ¸
ĠÐ´ÐµÑĤ Ð°
ĠÐ¾ÑģÐ¼ÑĭÑģ Ð»ÐµÐ½Ð¸Ñı
ĠÐ² ÐºÑĥ
ĠÐ¾ÑģÐ¾Ð±ÐµÐ½ Ð½Ð¾ÑģÑĤÑĮÑİ
ĠÐ¸Ð½ Ð¾Ð¼
ĠÐ¾Ð±ÑĢÐ° ÑīÐ°ÐµÑĤÑģÑı
ĠÐ¸Ð¼Ð¿Ð¾ÑĢ ÑĤÐ°
ĠÐºÐ¾Ð½ÑĤÑĢÐ°Ðº ÑĤÐ°
ĠÐ¿ÑĢ Ð²
ĠÐ¾Ð¿ Ñĥ
ĠÐºÐ¾Ð¼ Ð°Ð½Ð´Ð¸
ĠÑĥÐ¿ ÑĢÐ°
ĠÐ½Ð°Ð¿ Ð¾Ð¼Ð¸Ð½Ð°
ĠÑįÐºÑģÐ¿ÐµÑĢ ÑĤÑĭ
ĠÐ½ÐµÐ¾ ÑħÐ¾Ð´
ĠÑĦ Ð¾Ð»ÑĮ
ĠÑģÑĤÐ°ÑĢ ÑĪÐµ
ĠÐ¾ÑĢÐ¸ÐµÐ½ÑĤÐ° ÑĨÐ¸Ñı
ĠÑģÐ¾Ð´ÐµÑĢÐ¶ Ð¸ÑĤÑģÑı
ĠÐ¿Ð¾ÑģÐ»Ðµ Ð²Ð¾
ÑīÐ°Ñı ÑģÑĮ
ĠÐ¡ÐŁ Ð±
Ð²Ðµ ÑĢÐ°
ĠÐķ Ðµ
ĠÑĥÑīÐµÑĢ Ð±Ð°
ĠÐ¿ÑĢÐ¸Ð·Ð½Ð° Ð½Ð¸Ð¸
ĠÐ´Ñĥ ÑĪÑĥ
ĠÐ·Ð°ÐºÑĢÐµÐ¿ Ð»ÐµÐ½Ð¸Ñı
ÑĦ Ð»Ð¸Ðº
Ðļ Ð¾Ð½ÐµÑĩÐ½Ð¾
ĠÑģÐ¾ÑģÑĤÐ°Ð²Ð»Ñı Ð»Ð°
ĠÐĴÐ°Ð¶ Ð½Ð¾
ĠÑģÐ¾Ð´ÐµÑĢÐ¶Ð° Ð½Ð¸Ð¸
ĠÐºÐ°ÑĢ ÑĤ
ĠÐ²ÑĭÐ· Ð¾Ð²
ĠÐ½Ð°Ð·Ð½Ð° ÑĩÐµÐ½Ð¸Ðµ
ĠÐ² Ð°Ð»Ð¸
Ð»ÑĮ Ñİ
ĠÐ¿ÐµÑĢÐµ Ðº
ĠÑĦÐ¾ÑĢÐ¼Ð¸ ÑĢÑĥÑİÑĤ
ĠÐ¾ÐºÐ°Ð·Ð° ÑĤÑĮ
Ð´Ñĥ Ð¼Ð°
ĠÐ´Ð¾ÑģÑĤÐ¸ Ð¶ÐµÐ½Ð¸Ñİ
ĠÑĥÑĩÐµÐ½Ð¸ ÐºÐ°
ĠÐ·Ð°Ð» Ð¾Ð³Ð°
ĠÐ¿ÑĢÐ¾Ð¸Ð·Ð¾ ÑĪÐµÐ´
ĠÐ¿ÑĢÐ¾ÑĦÐµÑģÑģÐ¸Ð¾Ð½Ð°Ð»ÑĮ Ð½Ð¾
ĠÐ¾Ð±Ð²Ð¸ Ð½ÐµÐ½Ð¸Ñı
ĠÑĢÐµÐ¿ÑĢÐµÐ·ÐµÐ½ÑĤÐ° ÑĨÐ¸Ð¸
ÑĩÐ¸ Ð²Ð°ÑĤÑĮ
Ñı ÑİÑĤ
ĠÐ¾Ð±Ñī ÐµÐ¼Ñĥ
ĠÑģÐ¾Ð±ÑģÑĤÐ²ÐµÐ½ Ð½ÑĥÑİ
ĠÐ´Ð¾Ð³Ð¾Ð²Ð¾ÑĢ Ñĭ
ĠÐ¾Ð² Ð»Ð°Ð´
ĠÐ¿ Ð°Ðº
ĠÑģ Ð½Ð¾Ð²Ð°
ĠÐ¼Ðµ ÑģÑĤÑĥ
ĠÐ²Ð¾ Ð¸Ð½
ĠÐ±ÐµÐ» Ð¾ÑĢÑĥÑģ
ÐĿ Ð°ÑĢ
ĠÐ±Ð°ÐºÐ°Ð»Ð° Ð²
ĠÐ»Ð°Ð½Ð´ ÑĪÐ°ÑĦ
ĠÐ¸ ÑĤÐ°Ð»ÑĮÑıÐ½
ĠÐ¸Ð½ÑĦ Ð¾Ð¼Ð°
ĠÐ²Ð¾Ð· Ð»Ð°Ð³Ð°
ĠÐ¾Ð±ÑĢÐ· Ð¾Ð²Ð°Ð½Ð¸Ñı
ĠÑģÐ¿Ð¾ÑģÐ¾Ð±ÑģÑĤÐ²Ð¾Ð²Ð° Ð»Ð¾
ĠÑģÐ²ÑıÐ·Ð°Ð½ Ð½Ð¾Ð¹
ĠÐ¼Ð¾Ð´ÐµÑĢ Ð½Ð¸
ĠÐ¿ÑĢÐ°Ð²Ð¾Ð¿ Ð¾ÑĢÑıÐ´
ĠÑģÐ¾Ð²ÐµÑĢÑĪÐµÐ½ ÑģÑĤÐ²Ð¾Ð²Ð°
ĠÐ»Ð¸ÑĨÐµÐ½ Ð·Ð¸
ĠÐ½Ðµ Ð¾Ð»Ð¸
ĠÐºÐ°Ðº Ð¸Ð¼Ð¸
ÑĩÐµÐ½ Ð½ÑĭÐ¼Ð¸
ĠÐ²Ð°Ð¶ Ð½ÑĭÐ¼Ð¸
ĠÑĢÐ¾Ð´ Ð¾Ð²
ĠÑĤÑĢÐµÑĤÑĮ ÐµÐ¹
ĠÐ°Ð²ÑĤÐ¾ÑĢÐ¸ ÑĤÐµÑĤ
ÑĤ Ð»Ð¸
ĠÑĢÐµ Ð³
ĠÐ°ÐºÐ°Ð´ÐµÐ¼Ð¸ ÑĩÐµÑģÐºÐ¾Ð³Ð¾
ĠÑĦÐ¾ÑĢÐ¼Ð° Ð»ÑĮÐ½ÑĭÑħ
ĠÐ¼Ð»Ð°Ð´ ÑĪÐ¸Ñħ
ĠÐ½ÐµÐ²Ñĭ ÑģÐ¾Ðº
Ð¾Ð´Ðµ Ð»Ð¸
ĠÐŁ Ð¾Ð²
ĠÐ¾ÑĤÐ´Ðµ Ð»ÐµÐ½Ð¸Ñı
ĠÐ»ÐµÐºÑģÐ¸ Ðº
ĠÐºÐ¾ÑĢÑĢÐµ Ð»Ð¸
ĠÑĤ Ð¾Ð¶Ð´Ðµ
ĠÑĢÐµÐ²Ð¾Ð»Ñİ ÑĨÐ¸Ñı
ĠÑįÐ¼Ð¾ ÑĨÐ¸Ð¸
ĠÑħÐ¾Ð´Ð°ÑĤÐ° Ð¹
ÑģÐ¸ ÐµÐ¹
ĠÑģÑĤÐ°Ð±Ð¸ Ð»ÑĮÐ½Ð¾ÑģÑĤÑĮ
ÑģÑģÐ»ÐµÐ´Ð¾Ð²Ð° ÑĤÐµÐ»Ð¸
ĠÐ·Ð°Ðº ÑĢÐµÐ¿Ð¸
Ð¾Ð·Ð½Ð° Ð½Ð¸Ðµ
ĠÐŁÐµÑĢ Ð¼
ĠÐºÑĥ Ð¿
Ñĥ Ð¶Ðµ
Ð»Ð° Ð²ÑıÐ½
ÑĥÑĤ ÑģÑı
ÑĤÑĢ Ð¾Ð¼
ĠÑĥÑģÑĤÐ¾Ð¹ÑĩÐ¸Ð²Ð¾ ÑģÑĤÑĮ
ĠÐ²Ñĭ ÑģÑĤÑĥÐ¿Ð»ÐµÐ½Ð¸Ñı
ĠÑĢÐ°Ð· Ð´
ĠÐ²Ð¾Ð·Ð¼Ð¾Ð¶ Ð½Ð¾Ð¹
ĠÐ¿ÑĢÐ°Ð²Ð¾Ð² ÑĭÐ¼
ĠÑģÐ¾Ð±ÑģÑĤÐ²ÐµÐ½ Ð½Ð¾ÑģÑĤÑĮ
Ð·Ð° Ð²Ð¸ÑģÐ¸
ĠÐ¸Ð¼ÐµÐ½ Ð°
Ðĺ ÐĿ
Ð½ÐµÐ¹ ÑĪÐµÐ¹
ĠÐ¿ÑĢÐ¾Ð¸Ð·Ð²Ð¾Ð´ Ð¸ÑĤÐµÐ»ÐµÐ¹
ĠÑħÐ°ÑĢÐ°ÐºÑĤÐµÑĢ Ð½ÑĭÐµ
ĠÐŁÐµÑĢ Ð²Ð°Ñı
ĠÐ´ÑĢÐµÐ² Ð½ÐµÑĢÑĥÑģ
Ð¾ÑģÑĤÐ° ÑĤÐ¾ÑĩÐ½Ð¾
ĠÐ¾ÑģÑĤÐ° Ð²Ð°ÑĤÑĮÑģÑı
ĠÑģÐ¾ÑħÑĢÐ°Ð½ ÐµÐ½Ð¸Ð¸
ĠÑħÑĥÐ´ Ð¾Ð¶
ĠÐ·Ð½Ð° Ðº
ĠÐ°Ð½Ð°Ð»Ð¸ Ð·Ð¸ÑĢÐ¾Ð²Ð°ÑĤÑĮ
ĠÐĹ Ð½Ð°
ÑĤÐµÐ» Ð½Ð¾Ð¹
ĠÐ¼ÐµÑĤÐ¾Ð´Ð¸ ÐºÐ°
ÑģÑĤ ÑģÐºÐ¸Ðµ
ĠÐ¿ÑĢÐ¾ÑĦÐµÑģÑģÐ¸ Ð¹
ĠÐ³Ð»Ð¾Ð± Ð°Ð»ÑĮÐ½ÑĭÑħ
ĠÐ¾Ð±Ð¾ÑģÐ½Ð¾Ð²Ð° Ð½Ð¸Ðµ
ĠÐĳÐµ Ð»Ð°ÑĢÑĥ
ĠÑĩ ÑĮÐ¸
ĠÑģÑĥ Ð³ÑĥÐ±Ð¾
ĠÐ¼Ð¸ Ð»Ð¸
ĠÐĽÐ° ÑĤÑĥÑĢ
Ð¡ Ð¿Ðµ
ĠÑĢÐ°Ð±Ð¾ÑĤ Ð°Ð»Ð¸
ĠÐºÐ¾Ð½ÐºÑĥ ÑĢÐ¸
Ðµ ÑĤÐµ
ĠÐ½Ð° Ð»Ð°
ĠÐµ ÑīÑĳ
ĠÐ¸Ð¼Ðµ Ñı
ĠÐ´ÐµÐºÐ°Ð± ÑĢÐµ
ÑĪ ÑĢÑĥ
ĠÐ¸ÑģÐ¿Ð¾Ð»ÑĮÐ·Ð¾Ð²Ð° Ð½
Ð´ ÑĢÐ¾
ĠÑĤÐ¾Ñĩ ÐºÐ¾Ð¹
ĠÐ±Ð¾Ð»ÑĮ Ð½ÑĭÑħ
ĠÐ¸Ð½ÑĦÐ¾ÑĢÐ¼Ð°Ð½ ÑĤÐ¾Ð²
ĠÐ¾Ð±ÑĢÐ°Ð· Ð²Ð°Ð½Ð¸Ñı
ĠÑİÑģÑĤÐ¸ ÑĨÐ¸Ð¸
ĠÑģ Ð»Ð¸Ñı
ĠÐĳ Ðł
ĠÐ½Ð°ÑĥÑĩ Ð½ÑĭÐ¼
ĠÐ¾Ð±ÑīÐµÑģÑĤÐ² Ñĥ
ĠÐ²ÑĭÐ¿Ð»Ð° ÑĤÑĭ
ĠÐ²Ñĭ Ð²Ð¾Ð´Ð°
ĠÑģÐ¾Ð¾ÑĤÐ²ÐµÑĤÑģÑĤÐ² Ð¾Ð²Ð°ÑĤÑĮ
ĠÑįÐºÑģÐ¿ ÑĢÐµ
Ð¡ÑĤÐ° ÑĤÑĮÑı
ĠÐ½ÐµÐ´Ð¾Ð¿Ñĥ ÑģÑĤÐ¸
Ð·Ð° Ð½Ñĭ
ĠÐĵ ÑĢÐ¸
ĠÐ¿ÑĢÐ¾ÑĨÐµÑģÑģ Ð°Ð¼Ð¸
ĠÐ°Ð¿Ðµ Ð»
Ð½Ð¸ÐºÐ° ÐµÑĤ
ĠÑģÑĥÑīÐµÑģÑĤÐ² Ð¾Ð²Ð°
ĠÑĥÑģÑĤÐ°Ð½Ð¾Ð² Ð»ÐµÐ½Ð¸Ð¸
ĠÑģÐ¾ÑģÑĤÐ¾Ñı Ð½Ð¸Ñİ
Ð´Ð° ÐµÑĤ
ĠÐ³Ð¾Ð² Ð¾ÑĢÐ°
ĠÐ¸ÑģÑĤÐ¾Ñĩ Ð½Ð¸ÐºÐ°Ñħ
ĠÐºÐ¾Ð»Ð»Ðµ Ð³Ð°Ð¼Ð¸
ĠÐŀÑģÐ¾Ð± ÐµÐ½Ð½Ð¾
ĠÐ¿Ð¾Ð´ ÐºÑĢÐµÐ¿
Ðļ ÐŁ
ĠÑĢÐ°Ð·Ð»Ð¸Ñĩ Ð½Ð¾Ð³Ð¾
ĠÐ¾Ð±ÑĢÐ° ÑĤÐ½Ð¾Ð¹
ĠÑĢÐµÐ´ ÑĥÐ¿
ĠÐłÐ¾Ñģ Ð¸Ð¸
ĠÐ¸Ð»Ð»Ñİ ÑģÑĤÑĢÐ¸
ĠÐ²Ð·Ñĭ ÑģÐºÐ°
ĠÑģ ÑĩÐµÑĤÐ°
ĠÐºÐ¾Ð½Ñģ ÐµÐ½ÑģÑĥ
ĠÑĨÐµÐ½ÑĤÑĢ Ð¾Ð¼
Ð¾Ð¹ Ð´ÐµÑĤ
ĠÐ½Ð°Ð¿ÑĢÐ°Ð² Ð»ÐµÐ½Ð¾
ĠÐ¾Ñģ Ð²Ð°Ð¸
ĠÑģÐµÐ¼ÑĮ ÑıÑħ
ĠÐ¾Ñģ Ð½Ð¾
ĠÑģÐµÐ¼ÐµÐ¹ Ð½Ð¾Ð³Ð¾
ĠÑģÐ¾ÑĩÐµÑĤÐ° Ð½Ð¸Ð¸
ĠÐ¿Ð¾ÑģÑĤÐ°Ð½Ð¾Ð² Ð»ÐµÐ½Ð¸Ñı
ĠÑģÑĤÐ°ÑĤÐ¸ÑģÑĤÐ¸ ÑĩÐµÑģÐºÐ¸Ñħ
ĠÑĦÐ° Ð±ÑĢÐ¸
ĠÐ²Ð¾ÑģÐ¿ÑĢÐ¾Ð¸Ð·Ð²Ð¾Ð´ ÑģÑĤÐ²Ð°
ĠÐ¦ÐµÑĢ ÐºÐ²Ð¸
ĠÐ¿ ÑıÑĤ
ĠÐ°Ð´Ð¼Ð¸Ð½Ð¸ÑģÑĤÑĢÐ° ÑĤÐ¸Ð²Ð½Ð¾Ð³Ð¾
ĠÐ¾ÑħÑĢÐ° Ð½Ðµ
ĠÑģÐ¾Ð²Ðµ ÑīÐ°
Ð» Ð½ÑĭÑħ
ĠÐ²ÑĭÑģÑĤÑĥÐ¿Ð° Ð»Ð¸
ĠÐ¿ÑĢÐ¸ ÑģÐ¿Ð¾ÑģÐ¾Ð±
ĠÐ½Ð°Ð· Ð²Ð°Ð½Ð¸Ðµ
ĠÐ½ÐµÐ³Ð° ÑĤÐ¸Ð²Ð½Ð¾Ðµ
ĠÐ°Ð¼ÐµÑĢÐ¸ÐºÐ°Ð½ ÑģÐºÐ¾Ð³Ð¾
ĠÐĴÑĭ Ð±Ð¾ÑĢ
ĠÐ½Ð°ÑģÐ¸ Ð»Ð¸
ĠÐ½Ð° Ð²Ñı
ĠÑĢÑĥÐ± Ð»ÐµÐ¹
ĠÑĪÐºÐ° Ð»Ðµ
Ð¾ ÑĩÐµ
ĠÐºÐ¸ÑĤÐ°Ð¹ ÑģÐºÐ¸Ñħ
Ð¾ÑĢ ÑĤÐ°
ÑģÐ¸ ÑĤÐµÐ»ÑĮÐ½Ð¾
ĠÐŁ ÑĢÐ°
ĠÐ°ÑĢÐ³Ñĥ Ð¼ÐµÐ½ÑĤÑĭ
ĠÑģÐ¼ÐµÑĢ ÑĤÑĮ
ĠÐ·Ð²Ñĥ ÐºÐ¾Ð²
ĠÑĢÐµÐºÐ¾Ð¼ÐµÐ½Ð´Ð° ÑĨÐ¸Ð¹
ĠÑĢÐ°Ð· Ð»Ð¸
ĠÐ¼ÐµÐ¶ Ð»Ð¸ÑĩÐ½Ð¾ÑģÑĤ
ĠÐºÐ°Ð¿Ð¸ÑĤÐ° Ð»Ð¸Ð·Ð¼Ð°
ĠÐºÐ»Ð°ÑģÑģ Ð°Ñħ
ĠÑİÑĢÐ¸Ð´Ð¸ ÑĩÐµÑģÐºÐ¸Ðµ
ĠÑĪÐµ ÑģÑĤÑĮ
ĠÐ¼ÐµÐ¶ ÐºÑĥÐ»ÑĮÑĤÑĥÑĢ
ĠÐ¾ÑģÐ¾Ð± ÑĭÐµ
ĠÐ¿ÐµÑĢÐµÑģÐµ Ð»ÐµÐ½
ĠÐ¿ÑĢ Ð²Ð¸
ĠÐ¸ÑģÐ¿ÑĭÑĤÑĭ Ð²Ð°ÑİÑĤ
ÑĮ ÐµÐ²
ĠÐ¿ÑĢÐµÐ´ ÑģÑĤÐ¾Ñı
ĠÐ¿ÑĢÐ¾ÑĨÐµÑģÑģ Ð°Ñħ
ĠÐ¿ÑĢÐ¾Ð´ÑĥÐº ÑĤÑĭ
ÑģÐ¿Ð¾ÑģÐ¾Ð± Ð½Ð¾ÑģÑĤÑĮ
ĠÐ¿ÑĢÐ°Ð²Ð¾Ð½Ð°ÑĢÑĥ ÑĪÐµÐ½Ð¸Ñı
ĠÑģÐ½Ð¸Ð¶Ð° ÐµÑĤÑģÑı
ĠÐ· Ð²
Ð¾Ð½Ðµ Ð¶
Ð£ ÑĩÐ¸ÑĤÑĭÐ²Ð°Ñı
ÑĤÐµÑĢÐµ ÑģÐ½Ð¾
ĠÐĶ Ñİ
ĠÑģÐ¾ÑĨÐ¸ ÑĥÐ¼Ð°
ĠÑĤÑĢÐ°Ð´Ð¸ ÑĨÐ¸Ñı
ĠÐ¿ÑĢÐ¸Ð²Ð»Ðµ ÑĩÐµÐ½Ð¸Ðµ
ĠÑĨÐµ Ð»ÑıÐ¼Ð¸
ĠÐ¿Ð¾ÑĤ Ð¾ÐºÐ°
ĠÐµÐ´Ð¸ Ð½ÑĭÐ¹
ĠÐºÐ¾Ð»Ð»ÐµÐº ÑĤÐ¸Ð²Ð½ÑĭÑħ
ĠÐŁÐµÑĢ Ð²ÑĭÐ¹
ĠÐ°ÑĢÐ¼ ÑıÐ½
ĠÐ¿ÑĢÐ¸ ÑĢÐ¾ÑģÑĤ
ĠÑĪ Ð»Ð°
ĠÐ½ÐµÐ¿ ÑĢÐµÐ´
ĠÐ¿ÑĢÐ¾Ð¼ÐµÐ¶Ñĥ ÑĤÐ¾Ñĩ
ĠÐ¾Ð±Ñī ÐµÐ½Ð¸Ð¸
ĠÐºÐ°Ð¶Ð´ ÑĭÐ¼
ĠÐ¾Ð±ÑīÐµÑģÑĤÐ²Ð° Ñħ
ĠÑģÑĦÐ¾ÑĢÐ¼Ð¸ ÑĢÐ¾Ð²Ð°ÑĤÑĮ
ĠÐ¾Ð» Ð¸Ð¼
ĠÐ¿ ÑĤÐ¸
ĠÐ¾Ð± Ð¸ÑĤÐ°
ĠÐ´ÐµÑıÑĤÐµÐ»ÑĮ Ð½ÑģÑĤÐ¸
ĠÐºÐ¾Ð½Ðº ÑĢÐµÐ½
ÑĨ ÐµÑĢ
ÑīÐµÐ½ Ð½Ð¾Ð³Ð¾
ĠÐºÐ°ÑĢ Ð´Ð¸Ð½Ð°
Ġ ÑĨÐ°
ÑĬ ÑİÐ½Ðº
ÑīÐ¸Ð¹ ÑģÑı
ĠÑĢÐµÐ¶Ð¸Ð¼ Ð¾Ð²
ĠÐ°ÑĤ ÑĤÐµÑģÑĤÐ°
ĠÐ¿Ð¾ÑģÐ»ÐµÐ´ ÑĥÑİÑīÐ¸Ñħ
ĠÑĤÐ¾ÑĢÐ³Ð¾Ð² ÑĭÑħ
ĠÐ¿ÑĥÑĤÐµ ÑĪÐµ
ĠÑĤÑĢÑĥÐ´ Ð¾Ð¼
ĠÑĥÑıÐ· Ð²Ð¸
ĠÐŁ ÑĢÐ°Ðº
ĠÐ´Ð¸Ð° Ð¿Ð°
ÑģÑĤÐ°Ð½ Ð´Ð°ÑĢ
ĠÐ»Ð¾Ðº Ð°Ð»ÑĮÐ½ÑĭÑħ
ÑģÑĤÐ¸ Ñı
ĠÑģÐ¾Ð² ÑĢÐ¼ÐµÐ½
ĠÑģÑĢÐµÐ´ Ð¾Ð¹
ĠÐ²Ð¿ ÑĢÐ¾Ñģ
Ð»Ð¸ÑĩÐ¸ Ñı
ĠÐ³Ð¸ Ð¿ÐµÑĢ
ĠÐ½ÐµÐ·Ð°Ð²Ð¸ÑģÐ¸ Ð¼Ð¾ÑģÑĤÑĮ
ĠÐ¿ÑĢÐµÐ±Ñĭ Ð²Ð°Ð½Ð¸Ñı
Ð½ Ð½Ð¸Ñı
ÑĤÑĥ Ñģ
ĠÐķ Ð³Ð¸
ĠÐ·Ð°Ñģ Ð»Ñĥ
Ð¼Ð¸ ÑĤÑĢÐ¸
ĠÐĴ Ð¿ÑĢÐ¾ÑĩÐµÐ¼
ĠÐ´Ð¸ Ð·Ð°
ĠÑĤÐµÐºÑĥ ÑīÐµÐ³Ð¾
Ð» ÐºÐ¾Ð¹
ÐµÐµ Ð²
Ð¸ÑĤÐµÐ»ÑĮ Ð½ÑĭÐ¹
ĠÐ³Ð»Ð° Ð·Ð°Ñħ
ĠÐ½ÐµÐº Ð¾ÑĤ
ĠÑĦÐ¸ Ð»Ð¸
ÑĢÑĥ ÐµÐ¼
ĠÑĢÐµ Ð¿Ð»Ð¸
ĠÑģÑĤÑĢÑĥÐºÑĤÑĥÑĢ Ð¾Ð¹
ĠÑģÐºÐ° Ð·Ð°Ð½
ĠÑĤÑĢÐ°Ð½ÑģÐ¿Ð¾ÑĢ ÑĤÐ°
ĠÐľÐ¾ÑģÐºÐ¾Ð² ÑģÐºÐ¾Ð³Ð¾
ĠÐ°Ð³ÑĢÐµ ÑģÑģÐ¸Ð²
ÑģÑĤÐ° ÑĤÐ¸
ĠÑģÐ¸ Ð»Ð°Ð¼Ð¸
ĠÐ¾ÑģÐ²Ð¾ ÐµÐ½Ð¸Ðµ
ĠÐ¿ÑĢÐ¾Ð³ÑĢÐµ ÑģÑģÐ¸Ð²
Ñģ ÐµÐ¹
Ð¾Ð¶Ð° Ð»ÑĥÐ¹
Ð» Ð¾Ð³Ð¸
ĠÑĤÑĢÑĥÐ´Ð¾Ñĥ ÑģÑĤÑĢÐ¾Ð¹ÑģÑĤÐ²Ð°
ĠÐ´Ð¸ÑģÐºÑĢÐ¸ Ð¼Ð¸Ð½Ð°ÑĨÐ¸Ð¸
Ð±Ð¾ ÑĢÐ¸
ĠÐºÐ°ÑĤÐ° ÑģÑĤÑĢÐ¾
ĠÐ¿ ÐºÐ°Ð·Ð°
ÑĤÐ¸ Ð·Ð¼
Ð½Ð¸ÑĨÐ° Ð¼Ð¸
ĠÐĵÐµÑĢÐ¼Ð° Ð½Ð¸Ñı
ĠÐ»Ð¸ÑĤÐµÑĢÐ°ÑĤÑĥÑĢ Ð½Ð¾Ð³Ð¾
ĠÐ¤Ð¸Ð½Ð»ÑıÐ½ Ð´Ð¸Ð¸
ĠÑĢÐ°Ð· Ð¼Ñĭ
ÐµÐº ÑģÐ¸
ÑĢÐ°Ð±Ð¾ÑĤ ÐºÐµ
ÑĤÐ¾ÑĢÐ° Ð¼
ĠÐ´Ðµ ÑĢÐµ
ĠÑıÐ²Ð»Ñı ÑıÑģÑĮ
ĠÐ¤ Ðĵ
ĠÑĢÑĥÑģ ÑģÐºÐ¾Ð¼Ñĥ
ĠÐ²Ð¾ÑģÑģÑĤÐ°Ð½Ð¾Ð² Ð»ÐµÐ½Ð¸Ñı
ĠÑģÐ²Ð¾Ð¹ ÑģÑĤÐ²ÐµÐ½
ĠÐ¡Ð¾Ð²ÐµÑĤ ÑģÐºÐ¾Ð³Ð¾
ĠÑĢÐµÐ¿ÑĢÐµ Ð·
ĠÐ¿Ð¾Ð´ ÑĬÐµÐ¼
ĠÐ¸Ð·Ð¼ÐµÐ½ ÐµÐ½Ð¸Ñİ
ĠÐ¿ÑĢÐ¾Ð´Ð¾Ð»Ð¶Ð¸ ÑĤÐµÐ»ÑĮÐ½Ð¾ÑģÑĤÑĮ
ĠÐ°ÑģÐ¿ÐµÐºÑĤÐ° Ñħ
Ñĩ ÑĥÑĢ
Ð¾Ð´ Ð½Ð¾Ð¹
ĠÐ·Ð° Ð²Ðµ
ĠÐ²ÑĢÐµÐ¼ÐµÐ½ Ð°
ĠÐ·Ð°ÐºÐ¾Ð½Ð° Ð¼Ð¸
Ð¾Ð± ÑĢÑıÐ´
ĠÐ±Ñĭ ÑģÑĤÑĢ
ĠÑĩÐµ ÑģÑĤ
Ð½ÐµÐ½ Ð½ÑĭÐ¹
ĠÑıÐ·ÑĭÐºÐ¾Ð² ÑĭÐµ
ĠÐ¾Ð±ÑĥÑģÐ»Ð¾Ð² Ð»ÐµÐ½Ñĭ
ĠÐºÐ¾Ð¾Ð¿ÐµÑĢÐ° ÑĨÐ¸Ð¸
Ð½Ð¸ Ð»
Ð»ÐµÐ½ ÑĮ
ĠÐ·Ð°Ðº Ð°Ð½
Ð¸Ð± Ð¸ÑĢ
ĠÐ¿ÑĢÐ¾ÑĤÐµ ÐºÐ°
ĠÐ¿ÑĢÐ°Ð²Ð¾Ð² Ð¾Ð¼
ĠÑģÐ» Ð´
ĠÐ¾ÑģÑĥÑīÐµÑģÑĤÐ² Ð¸ÑĤÑĮ
ĠÑģÐµÐº ÑĢÐµÑĤ
ĠÐ¿ÐµÐ½ÑģÐ¸ Ð¸
ĠÑĤÑĢÑĥÐ´Ð° Ñħ
Ð² ÐºÐ¸
ĠÐ·Ð°Ñħ Ð²Ð°
ĠÑĨÐµÐ½ÑĤÑĢÐ° Ð»ÑĮÐ½Ð¾Ð¹
ĠÑģÐµÐ¼Ð°Ð½ ÑĤÐ¸ÑĩÐµÑģÐºÐ¸Ñħ
ĠÐ²ÑĭÑģÐºÐ°Ð·ÑĭÐ²Ð° Ð½Ð¸Ð¹
ĠÐ½Ð°ÑħÐ¾Ð´Ñı ÑīÐ¸ÑħÑģÑı
ĠÑĥ ÑģÑĤÑĥÐ¿
ĠÐ¸Ð½ ÑģÑĤÑĢÑĥÐº
ĠÐ´ÐµÑĦÐ¸ÑĨÐ¸ ÑĤ
ĠÐ¿ÑĢÐ°Ð² Ð¾ÑĤÐ²Ð¾ÑĢ
ĠÑģÐµÑĢÑĮÐµÐ· Ð½ÑĭÑħ
ĠÐ·Ð°Ð¼Ðµ ÑģÑĤÐ¸
ĠÐ³Ð¾ÑĢÐ¾Ð¶ Ð°Ð½
ĠÐ¡ÐµÐ²ÐµÑĢ Ð¾
ÑģÑĤÑĮ Ñı
ĠÐ²Ñĭ ÑĢÑĥ
ÑĢÐ¾ ÑĢÐ°
ĠÑĥÐºÑĢÐµÐ¿ Ð»ÐµÐ½Ð¸Ñı
Ðº ÐµÑĤ
ĠÐ¾Ð±ÑĢÐ°Ð· Ñĭ
ĠÐ´ÑĢÑĥ Ð¶
ÐŁÑĢÐµÐ´ ÑģÑĤÐ°Ð²Ð»ÑıÐµÑĤÑģÑı
ĠÐ¼Ð°ÑĤÐµÐ¼Ð° ÑĤÐ¸ÐºÐµ
ĠÑĢÐ°ÑģÑģÐ¼Ð° ÑĤÑĢ
ĠÐ¿ÐµÑĢÐµÑħÐ¾Ð´ Ðµ
ĠÑģÑĦÐ¾ÑĢÐ¼Ð¸ ÑĢÐ¾Ð²Ð°Ð½Ð½Ð¾ÑģÑĤÐ¸
ĠÐ¾ÑĢÐ°Ð· Ð¾Ð²Ð°
ĠÑĥÑģÐ¿ÐµÐ²Ð°ÐµÐ¼ Ð¾ÑģÑĤÑĮ
ĠÑĢ Ð¾Ð¼Ð°Ð½
ĠÐ¶Ð¸ Ð»ÑĮÑı
ÑĨÐµÐ¿ ÑĨÐ¸Ð¸
ĠÐºÐ°Ð¼Ð¿Ð° Ð½Ð¸Ð¸
Ð¶ Ð´Ñĥ
ĠÐĲ ÑĢÑħ
ĠÐ²Ð¾Ð·Ð½Ð¸Ðº Ð»Ð°
ĠÐ¿ÑĢÐµÐ´Ð¿ÑĢÐ¸ÑıÑĤÐ¸Ñı Ñħ
Ñĭ ÑĪÐµ
ĠÐ±Ñĭ ÑĤÐ¸Ñı
ÐºÐ¾ Ð½Ð¸
ĠÐ¿Ð¾Ð´ ÑģÑĥÐ´
ĠÐł Ð¾
ĠÐ³ÑĢÐ°Ð¶Ð´Ð° Ð½Ð°Ð¼Ð¸
ĠÐ¾ Ñĩ
ĠÐºÐ¾Ð½ ÑĤÐ¸
ĠÑĩÐ¸Ð½Ð¾Ð² Ð½Ð¸ÐºÐ¾Ð²
ĠÐ¶ Ð¸ÑĤÐµÐ»ÑĮÑģÑĤÐ²Ð°
ĠÐĺ ÑģÑģÐ»ÐµÐ´Ð¾Ð²Ð°Ð½Ð¸Ðµ
ĠÐ¾ÑĤÐ´Ðµ Ð»ÑĮÐ½Ð¾Ð¹
ĠÐ½Ð¸ÐºÐ°Ðº Ð¾Ð¹
ĠÐ½ÐµÑĦ ÑĤÐµ
ĠÐ¡ Ð²ÐµÑĢ
ĠÑģÑĤÐ°ÑĤÐ¸ÑģÑĤÐ¸ ÐºÐ°
ĠÐ¼Ð¾Ð±Ð¸Ð»Ð¸ Ð·Ð°ÑĨÐ¸Ð¸
ĠÑģÐ¾Ð·Ð´Ð° ÐµÑĤÑģÑı
ÑĦÐµÑĢ ÐµÐ½ÑĤ
ĠÐºÐ»ÑİÑĩÐµ Ð²Ð¾Ð¹
ÑĢÐµÐ³Ð¸ Ð¾Ð½Ð°Ð»ÑĮ
ĠÐ·Ð°ÑģÐµÐ´Ð° Ð½Ð¸Ð¸
ĠÐ½Ð°Ð¸Ð±Ð¾Ð»ÑĮÑĪ ÐµÐ¹
Ð¼ Ð¾Ðµ
ĠÐ²Ð½ÑĥÑĤÑĢÐµÐ½ Ð½ÑıÑı
ĠÑĢÐ°Ð·Ð¼Ðµ ÑīÐµÐ½Ð¸Ñı
ĠÐ»ÑĥÑĩ ÑĪÐ¸Ñħ
ĠÐ½Ð°Ð³Ð»ÑıÐ´ Ð½Ð¾
Ð½ ÑģÑĤÐµÐ¹
ÑĤÐµÐ»ÑĮ Ð½Ñĭ
ÑĢÐµ ÑģÑĥÑĢ
ĠÑĤÐµÐ¾ÑĢÐµ ÑĤÐ¸ÑĩÐµÑģÐºÐ¾Ð³Ð¾
ĠÐºÐ»Ð°ÑģÑģÐ¸ ÑĦÐ¸ÐºÐ°
ĠÐ²Ð¾ÑģÐ¿Ð¸ÑĤÐ° Ð½Ð¸Ðµ
ĠÐ¼ÑĭÑĪ Ð»ÐµÐ½Ð¸Ðµ
ĠÐºÐ¾ÑįÑĦÑĦÐ¸ÑĨÐ¸ ÐµÐ½ÑĤÐ°
ĠÑģ Ð´ÐµÑĢÐ¶Ð°
ĠÐ¿Ð¾Ð¿ÑĭÑĤ ÐºÑĥ
ÐłÐµ ÑĩÑĮ
ĠÑĢÐ°ÑģÑģÐ¼Ð¾ÑĤÑĢÐµÐ½ Ð½ÑĭÑħ
ĠÐ¿ÑĢÐµÐ´ÑĭÐ´Ñĥ ÑīÐ¸Ñħ
ĠÐ°Ð´ÑĢÐµÑģÐ° ÑĤÐ°
ÑĨÐ¸ Ð½
Ð²Ð¸ Ð°
ĠÐ¿ÑĢÐ¾Ð´ÑĥÐº ÑĤ
ĠÐ½Ð°ÑģÑĤÐ¾Ñı ÑīÐ¸Ð¹
ĠÑĢÐ°ÑģÑĪÐ¸ ÑĢÐ¸ÑĤÑĮ
ĠÐºÐ¾Ð½ ÐµÑĨ
ĠÐ¦ ÐµÐ»ÑĮ
ĠÑĤÐµÑħÐ½ Ð¾Ð»Ð¾Ð³Ð¸ÑĩÐµÑģÐºÐ¸Ñħ
ĠÐ¿ÑĢÐ¸Ð¾Ð±ÑĢÐµÑĤ ÐµÐ½Ð¸Ñı
ĠÑģÐ°Ð½Ðº ÑĨÐ¸Ð¸
Ð½ ÐµÑĤÑģÑı
ÑĤÐµ Ð»Ðµ
ĠÑģÐ¾ÑĨÐ¸Ð°Ð»ÑĮ Ð½
ĠÐ¾ÑĤÐ¼ÐµÑĩÐ° Ð»
ĠÐ¿ÑĢÐ¸Ð· Ð¼Ñĥ
ĠÐ¿Ð¾Ð± ÐµÐ´Ð¸
ĠÐ¿ÑĢÐµ Ñĥ
Ðł Ð¾ÑģÑģÐ¸Ð¹
ĠÐ¾ÑĤÐ¼ÐµÑĩÐ° Ð»Ð¸
ĠÑģÐ¿ÐµÑĨÐ¸ÑĦÐ¸ ÐºÐ¾Ð¹
ĠÑĢÐ°Ð·Ð² ÑĤÐ¸Ñı
ĠÐºÐ¾Ð¼Ð°Ð½ Ð´Ñĭ
ĠÐ¿Ð¾Ð·Ð²Ð¾Ð»Ñı ÑİÑīÐ¸Ðµ
ĠÐ¾Ð±ÐµÑģÐ¿ÐµÑĩÐ¸ Ð²Ð°ÑĤÑĮ
ĠÑĦÐ¸Ð· Ð¸ÑĩÐµÑģÐºÐ¾Ð¹
ĠÐ¾ÑĤ ÑĢÐ°Ð¶ÐµÐ½Ð¸Ñı
ĠÐ¿Ð¾Ð´ Ð´Ð°
ĠÐ¿ÑĢÐ°Ðº ÑĤÐ¸ÑĩÐµÑģÐºÐ¾Ð³Ð¾
ĠÑħÐ°ÑĢÐ°ÐºÑĤÐµÑĢÐ¸ÑģÑĤÐ¸ ÐºÐ°Ð¼
ĠÐ¸Ð³ ÑĢÑĥ
ĠÐ¿Ð¾Ð´ Ð½Ð¸Ð¼Ð°
ÑĤÐµ ÑĤÑĭ
ÑģÐ¸ Ð¾Ð½Ð°Ð»ÑĮ
Ð»ÐµÐ½ Ð½Ð¾ÑģÑĤÑĮÑİ
Ð³Ð° ÐµÑĤÑģÑı
ĠÑģÑĩÐ¸ÑĤÐ° ÑĤÑĮÑģÑı
Ð¾ÑģÐ¾ ÑĩÐµÑĤÐ°
ĠÐ·ÐµÐ¼ Ð»Ñİ
ĠÐ¿Ð¾ÑģÑĤÑĢÐ¾ ÐµÐ½Ð¸Ðµ
ĠÑģÐ»Ð¾Ð² Ðµ
ĠÐ¸Ð·ÑĥÑĩÐ° ÑĤÑĮ
ĠÐ¶Ð°Ð» Ð¾Ð±Ñĭ
ĠÑģÐ¿ Ð¾ÑģÐ¾
ĠÑĢÐ°ÑģÑĩÐµÑĤ Ð¾Ð²
ĠÑģÐ¾Ð¿ÑĢÐ¾Ð²Ð¾Ð¶Ð´Ð° ÐµÑĤÑģÑı
Ð¾ ÑĩÐ°
Ð·Ð°Ð½ Ð½ÑĭÐµ
ĠÑĥÑĩÐµÐ½ ÑĭÐ¹
ĠÐºÐ¾ÑįÑĦÑĦÐ¸ÑĨÐ¸ ÐµÐ½ÑĤÐ¾Ð²
ĠÑĨÐ¸Ð²Ð¸ Ð»Ð¸Ð·Ð°
Ġ ,
ĠÑĢ Ð³Ð¸
Ð½Ñı ÑĤÑĮÑģÑı
ĠÐ½Ð°Ð¿ÑĢÐ°Ð² Ð»ÐµÐ½Ð¸ÐµÐ¼
ĠÐ²ÐµÐ´Ñĥ ÑĤ
ĠÐ½ÐµÐ¾Ð´ Ð½Ð¾ÑĢÐ¾Ð´
ĠÐ¸ÑģÐ¿Ð¾Ð»ÑĮÐ·Ñĥ ÐµÐ¼ÑĭÐµ
ĠÐ¿ÑĢÐ¾Ð´Ð²Ð¸ Ð¶ÐµÐ½Ð¸Ñı
ĠÐ¿ Ð»Ðµ
ĠÐĶ ÐµÐ¼
ĠÑģÐ¾ÑĤÑĢÑĥÐ´Ð½Ð¸ÑĩÐµ ÑģÑĤÐ²Ðµ
ĠÐ»Ð¾Ð³Ð¸ ÐºÐ°
ĠÐ²ÑĭÑĤÐµ ÐºÐ°
ĠÐ¸Ð´Ðµ Ðµ
ĠÑĥÑģÑĤÐ°Ð½Ð¾Ð² Ð»ÐµÐ½Ñĭ
ĠÑĥÑĩÐ°ÑģÑĤ Ð½Ð¸Ðº
Ð·Ñĥ Ð¼Ð¿
ĠÑįÐºÑģÐ¿ Ð°Ð½
ĠÑĥÐ±Ðµ Ð¶Ð´ÐµÐ½Ð¸Ñı
ĠÐ¼ÐµÐ½ÐµÐ´Ð¶ Ð¼ÐµÐ½ÑĤÐ°
Ð¿ ÑĢÐ¾Ñģ
ĠÐ½Ð°Ð¿ ÑĢ
ĠÐ´ÐµÐ½ÐµÐ¶ Ð½Ð¾Ð¹
ĠÑĪÐ°Ð½ ÑģÑĭ
Ð»ÑĮ Ð½Ð¾ÑģÑĤÑĮÑİ
ĠÐ½Ð° Ð¸
ĠÐ·Ð°ÑĢÑĥÐ±ÐµÐ¶ Ð½Ð¾Ð¹
ÐŁ ÑĢ
ĠÑģÐµÐ¼ ÑĮÑı
ĠÐ¿Ð¾Ð¿ Ð°
ĠÐ¿ÑĢÐµÐ´ÑģÑĤÐ°Ð²Ð¸ ÑĤÐµÐ»Ñı
ĠÑģÐ¾Ð¿ ÑĥÑĤÑģÑĤÐ²
ĠÑģÐ¸Ð¼ Ð¿ÑĤÐ¾Ð¼
ĠÐ²Ð»Ð¸Ñı Ð½Ð¸Ð¸
ĠÐ¿ÑĢ Ð³ÑĢÐ°Ð¼
ĠÐ±Ð»Ð¸ Ð¶Ðµ
ĠÐ°ÑĢÐ³ÑĥÐ¼ÐµÐ½ÑĤÐ° ÑĨÐ¸Ð¸
Ñĥ Ð»Ð¸
ÑĨ ÐºÐ¾Ð¹
ĠÑĩÐµÑĢ ÑĤÐ¾Ð¹
ĠÐ²ÑĭÐ±ÑĢÐ° ÑĤÑĮ
ĠÐ¿ÑĢÐµÐ´Ð²Ð°ÑĢÐ¸ ÑĤÐµÐ»ÑĮÐ½Ð¾Ð³Ð¾
ĠÐ¿Ð»Ð¾Ñħ Ð¾
ĠÐ¿ÐµÑĢÐµ Ð³Ð¾Ð²Ð¾ÑĢÑĭ
ĠÐ¼Ð½ ÐµÐ½Ð¸Ð¹
ĠÑģÐ»ÐµÐ´ ÑģÑĤÐ²Ð¸Ñı
ĠÐ½Ð¸Ð· ÐºÐ°Ñı
Ð»Ð° ÑĢÐ¸
ĠÐ²Ð¾Ð· Ð¾Ð±Ð½Ð¾Ð²
ĠÐ¼ Ð¾Ð·
ĠÐ°Ðº ÑĨÐ¸Ð¸
ĠÑģÐ¾ÑĩÐµÑĤÐ° Ð½Ð¸Ðµ
ĠÐ¿Ð¸ÑģÑĮÐ¼ÐµÐ½ Ð½Ð¾Ð¹
ĠÐ¸Ð½ÑģÑĤÐ¸ÑĤÑĥ ÑĤÐ°Ð¼Ð¸
ĠÐ»Ð¸Ð½Ð³Ð²Ð¸ÑģÑĤÐ¸ ÑĩÐµÑģÐºÐ¸Ñħ
ĠÐ¿ÑĢÐ¾Ð³Ð½Ð¾Ð·Ð¸ ÑĢÐ¾Ð²Ð°Ð½Ð¸Ñı
ĠÐ· Ð¾Ð½Ð°
ÑĪÐ° ÑİÑĤÑģÑı
ĠÑģÑĤÑĢÐ°ÑĤÐµÐ³ Ð¸ÑĩÐµÑģÐºÐ¾Ð³Ð¾
Ð¸Ð¼ ÑģÑı
ĠÐ²Ñĭ ÑĢ
ĠÐĲ Ð¡
ĠÐ¿ÐµÑĢÐµÐ²Ð¾Ð´ Ð¾Ð²
ĠÑģÐ¾Ð±ÑģÑĤÐ²ÐµÐ½ Ð½ÑĭÐ¹
ĠÑĨÐµÐ»Ðµ Ð²ÑĭÑħ
ÐĶÐ°Ð½ Ð½Ð¾Ðµ
ĠÐ¾Ð¿Ð¸ÑĢÐ° ÑıÑģÑĮ
ĠÐ¾ÑģÐºÐ¾ÑĢ Ð±
ĠÑģÐ»ÐµÐ´ Ð¾Ð²Ð°ÑĤÑĮ
ÑĪÐ¸Ð½ Ð³
ÑĤÐµÑħÐ½Ð¸ ÑĩÐµÑģÐºÐ¾Ð³Ð¾
ĠÑģÐµÐ»ÑĮÑģÐºÐ¾ÑħÐ¾Ð·ÑıÐ¹ ÑģÑĤÐ²ÐµÐ½Ð½ÑĭÑħ
ĠÑģÐ°Ð¼ Ð¾Ð¼Ñĥ
ĠÑģÐ¾ Ð¾
ĠÐ´ÑĢÑĥ Ð·ÐµÐ¹
ĠÑģÐµÑĤ ÑıÑħ
ĠÐºÐ° Ð±Ð¸Ð½
ĠÐ´Ð¾Ð³Ð¾Ð²Ð¾ÑĢ Ñĥ
ĠÐ³Ð° Ð·Ð°
ĠÐ´Ð¸ÑģÑĨÐ¸Ð¿Ð»Ð¸ Ð½Ð°ÑĢ
ĠÑģÐ¿Ð¾ÑģÐ¾Ð±ÑģÑĤÐ²Ð¾Ð²Ð° Ð»Ð¸
ĠÐº ÑĥÐ±
ĠÐ²ÑĭÐ´Ð²Ð¸ Ð½Ñĥ
ĠÐ¾ÑģÐ½Ð¾Ð² Ð½ÑĥÑİ
ĠÑĢÐ°Ð·ÑĢÐ°Ð±Ð¾ÑĤ ÐºÑĥ
ĠÐ½Ð°ÑĪ Ð»Ð¸
ĠÑģÐ»ÑĥÐ¶ Ð±Ñĥ
ĠÑģÐ¾Ð²Ð¿Ð°Ð´Ð° ÑİÑĤ
ĠÐºÐ¾Ð½ÑĨÐµÐ½ÑĤÑĢÐ° ÑĨÐ¸Ð¸
ĠÑĥÐ½ Ð²ÐµÑĢÑģÐ¸ÑĤÐµ
ÑĢÐµ ÑģÑĤ
Ð´Ðµ Ñı
ĠÐ¿Ð¾ÑĤÑĢÐµÐ± Ð»ÐµÐ½Ð¸Ðµ
ĠÑĢÐ°ÑģÐ¿ÑĢÐµÐ´Ðµ Ð»ÐµÐ½Ð¸Ð¸
Ðŀ Ñģ
ĠÐ²Ð°Ð¶ ÐµÐ½
ĠÐ³ÑĢÐ° Ð½Ð¸ÑĨÐ°Ñħ
ĠÑģÐ»Ð¾Ð¶ Ð½Ð¾ÑģÑĤÑĮ
ĠÑĢÐµÐ¿ ÑĢÐ¾Ð´ÑĥÐº
Ð¸ÑģÐ¿Ð¾Ð» Ð½Ð¸
ĠÐ¼ÐµÐ¼ Ð¾ÑĢÐ¸
ĠÑĥ Ð²
ĠÑģÐ² ÑĭÑĪÐµ
ĠÐ¾ÑĢÐ³Ð° Ð½Ð°Ð¼
ĠÐºÐ¾Ð½ÑĨÐµÐ¿ ÑĤ
ĠÐ²Ð½ÑĥÑĤÑĢÐµÐ½ Ð½ÑİÑİ
Ñħ Ð¾Ð»
ĠÐ¼Ð¸ÑĢÐ¾Ð² Ð¾Ð¼
Ð´Ñĥ ÐµÑĤ
ĠÐ¿ÑĢÐ¾ ÑģÑĤÐ¾Ð¹
ĠÐ½Ð°Ð±Ð»ÑİÐ´Ð° ÑĤÑĮ
ĠÑĢÐ°ÑģÑģÐ¼Ð¾ÑĤÑĢÐµÐ½ Ñĭ
Ñĩ ÐºÑĥ
Ð²Ð¾Ð´ Ñĭ
ĠÑĤÑĢÑĥÐ´ Ð½Ð¾ÑģÑĤÐµÐ¹
Ð»Ð°Ð½ Ð´Ð¸Ð¸
ĠÐ¾Ñģ Ð±ÐµÐ½
ĠÐ²Ð»Ð¸ ÑıÑĤÐµÐ»ÑĮ
Ġ +
ÑĨÐ¸Ð¾Ð½Ð°Ð»ÑĮ Ð½ÑĭÑħ
ĠÑįÑĦÑĦ ÐµÑĤÐ¸Ð²
ĠÐ² Ð¾Ð»Ðµ
Ð¾Ð± Ð°
ĠÐ¾Ñģ ÑĥÑīÐµ
ĠÐŀÐ± ÑĬ
ĠÑģÐµÐ¼Ð°Ð½ ÑĤÐ¸ÑĩÐµÑģÐºÐ¾Ð¹
ÑģÑĤÐ²Ð° Ñħ
ĠÑģÐ¾Ð¾ÑĤÐ²ÐµÑĤÑģÑĤÐ² ÑĥÑİÑīÐ¸Ð¼
ÑģÑĤÑĢÐµ Ðµ
ĠÑĤÑı Ð¶
ĠÐ¾ÑĤÐ»Ð¸ÑĩÐ¸ Ñı
ĠÐ¾ÑĦÐ¸ÑĨ ÐµÑĢÐ¾Ð²
ĠÐº Ð¾ÑĢÐµ
ĠÐ¿Ð°ÑĢÑĤ Ð½Ðµ
ĠÐºÐ°Ð·Ð° Ð»Ð¾ÑģÑĮ
ĠÐ¿Ð¾Ñħ Ð¾Ð¶
ĠÐ¾Ð± ÑĥÑģ
ĠÑĤÐµ ÑĢÐ°
ĠÐºÐ¾Ð³Ð½Ð¸ ÑĤÐ¸Ð²Ð½ÑĭÑħ
ĠÐ½Ð° ÑĨÐ¸Ð¾Ð½Ð°Ð»
ĠÐ¸Ð· Ð»Ð¸ÑĪ
ÐµÐº ÑĤÐ¸Ð²Ð¸
ĠÐ¸Ð½ÑĤÐµÐ½ÑģÐ¸Ð² Ð½Ð¾ÑģÑĤÑĮ
ĠÐ²Ð¾Ð·ÑĢÐ°ÑģÑĤ Ð¾Ð¼
ĠÐ¿Ð¾Ð´ Ð»ÐµÐ¶Ð¸ÑĤ
Ð°Ð¼ Ð±
ĠÐ·Ð°ÐºÐ¾Ð½ Ñĥ
ĠÐ´Ð¾ÐºÐ°Ð·Ð° ÑĤÐµÐ»ÑĮÑģÑĤÐ²Ð°
ĠÐ¿ÑĢÐ¸Ð¾Ð±ÑĢÐµÑĤÐ° ÑİÑĤ
ĠÐ¸ ÑĢ
Ð¾ÑĤ Ð¾Ð¼
ĠÐ¾Ð± ÑĢÑı
ĠÐ¿Ð¾Ð²Ñĭ ÑĪÐ°ÐµÑĤ
ĠÑĢÐµÐ±ÐµÐ½ ÐºÑĥ
ĠÑĤ Ð°Ð»Ð°Ð½
ĠÐ¾ ÑĤÐµ
ĠÑĢÐ°Ð· ÑĢÑĭÐ²Ð°
ĠÐ£ Ð¿ÑĢÐ°Ð²
ĠÑĥÑĩÐµÐ± Ð½ÑĭÐ¹
ĠÑģÐ°Ð¼Ð¾ÑģÑĤÐ¾ÑıÑĤÐµÐ»ÑĮ Ð½Ð¾Ð³Ð¾
ĠÑħÐ¾ÑĢ Ð¾
ĠÐ¿ÐµÑĢÐµÐ¶Ð¸ Ð²Ð°Ð½Ð¸Ñı
Ð± Ð¾Ð»ÑĮÑĪ
ĠÐ° ÑĦÑĢÐ¸ÐºÐ°Ð½
ĠÐ²Ð°Ð¶ Ð½Ð°
ĠÐ½Ð°ÑģÐµ Ð»ÐµÐ½Ð½ÑĭÑħ
ĠÐºÐ°Ð½Ð´Ð¸Ð´Ð° ÑĤ
ĠÐ»ÐµÐ¶Ð° ÑĤ
ĠÐ¿Ð¾Ð²Ð»Ð¸Ñı ÑĤÑĮ
Ð¾ÑĢÐ¸ Ñı
ĠÐ¾ÑĢÐ³Ð°Ð½Ð¸Ð· Ð¾Ð²Ð°ÑĤÑĮ
Ð¾Ñģ Ð»Ñĥ
ÐºÐ¾Ð² Ð¾Ð´
ĠÑħ Ð»Ðµ
ĠÑĤÑĢÐµ ÑĤÐ¸Ð¹
ĠÐºÐ¾Ð¼Ð¿Ð° Ð½Ð¸Ñı
ÑİÑīÑĥÑİ ÑģÑı
ĠÐ¼ÑĥÐ½Ð¸ÑĨÐ¸Ð¿ Ð°Ð»ÑĮÐ½Ð¾Ð³Ð¾
Ð¿Ð° Ñħ
ĠÐ¿ÑĢÐ°Ð²Ð¸ ÑĤÐµÐ»ÑĮÑģÑĤÐ²Ð¾Ð¼
ĠÐ¿ÑĢÐ¾Ð¸Ð·Ð²Ð¾Ð´ Ð¸ÑĤÑģÑı
ĠÐ¿Ð¾ÑģÑĤÐ° Ð²Ð¸ÑĤÑĮ
ĠÐ¼Ð°ÑĢ ÑĪÑĢÑĥ
ĠÐĴÐ¾Ð¿ÑĢÐ¾Ñģ Ñĭ
Ð² Ð¾Ð¼Ñĥ
ĠÐĿ ÐĲÐ¢Ðŀ
ĠÐ³Ð¾ÑģÑĥÐ´Ð°ÑĢÑģÑĤÐ²ÐµÐ½ Ð½Ð°Ñı
ĠÐ¾Ð±Ð¾Ð·Ð½Ð° ÑĩÐµÐ½Ð¸Ñı
ÑģÑĤÐ²ÐµÐ½ Ð½Ð¸ÐºÐ¾Ð²
Ð¾Ð² Ð½Ð¸Ñı
Ð¾Ð½ Ð¾Ð¹
ĠÑįÐºÐ¾Ð½Ð¾Ð¼Ð¸ Ðº
ĠÑĦÐµÐ´ÐµÑĢÐ° Ð»ÑĮÐ½Ð¾Ð¼
ĠÑĦ Ð¾Ð¼Ð¸
ĠÐļ Ð¾Ð½ÐµÑĩÐ½Ð¾
ĠÐ²Ð¾Ð·Ð¼Ð¾Ð¶ Ð½Ð¾ÑģÑĤÑĮÑİ
ĠÐ¿ Ð¾Ð¿Ð¾Ð»
ĠÑĢÑĭÐ½ ÐºÐ¸
ĠÐ½Ð¾ÑĢÐ¼Ð° ÑĤÐ¸Ð²Ð½ÑĭÐµ
ĠÑĤÐµÑĢÑĢÐ¸ÑĤÐ¾ÑĢÐ¸ ÑıÑħ
ÑĤÐ¸ ÑĢÐ¾Ð²Ð°Ð½Ð¸Ñı
ĠÑĥ ÑģÐº
ÑĤÑĥÐ° ÑĨÐ¸Ñı
ĠÑĥÐ´Ð¾Ð² Ð¾Ð»ÑĮ
ĠÐ´Ð¾Ðº Ð»Ð°Ð´
ĠÐ´ÐµÐ½ÐµÐ¶ Ð½Ð¾
ĠÐ¼Ð°ÑĤÐµÑĢÐ¸Ð°Ð»Ð° Ñħ
ĠÐ°ÑĢÑħ Ð¸Ðµ
ĠÐ¼Ð¾ ÑĪÐµÐ½
ĠÐ¿ÐµÐ½ÑģÐ¸Ð¾Ð½ Ð½Ð¾Ð¹
ÑĦÐ¸ Ð½Ð°Ð½ÑģÐ¾Ð²
ÐĶ Ð¸
ĠÐ¸Ð¼ Ð¼Ð¸Ð³ÑĢÐ°Ð½
ĠÑģÐºÐ°Ð·Ð° Ð½Ð¾
ĠÑįÐ»ÐµÐº ÑĤÐ¾ÑĢÐ°
ĠÐ¼ÐµÑĤÐ°ÑĦÐ¾ÑĢ Ñĭ
Ð»Ð° Ñı
ĠÐĿÐ° ÑĥÑĩ
ĠÑĤÐ° ÑĢÐ¸ÑĦ
ĠÐ´Ð¸ Ð½Ð°
ĠÐ¿Ð°ÑĢÑĤ Ð½ÐµÑĢÐ°
ĠÐºÐ¾Ð¾ÑĢÐ´Ð¸Ð½Ð° ÑĨÐ¸Ð¸
ĠÐ° Ð³Ð¸
ĠÐºÐ¾Ð½ ÑĬÑİÐ½Ðº
ĠÐ¸ÑģÑĤÐ¾ÑĢÐ¸ ÐµÐ¹
) ,
ĠÑģÑĤÐ¾ Ð¸Ð¼Ð¾
ĠÐ¼Ð°ÑģÑģ Ð¾Ð²ÑĭÑħ
ĠÐºÐ¾Ð´ÐµÐº Ñģ
ĠÐĴ ÐµÐ´ÑĮ
Ð»Ð¸Ñĩ Ð½ÑĭÐµ
ÑģÑĥ Ð³ÑĥÐ±
ĠÑįÑĦÑĦÐµÐºÑĤÐ¸Ð² Ð½ÑĭÐ¼
ĠÑģÐ²Ð¾Ð±Ð¾Ð´ Ð½Ð¾
ĠÐ¸Ð¼Ð¿ÐµÑĢÐ° ÑĤÐ¾ÑĢ
ĠÐ°Ð½ÑĤÐ¸ ÐºÐ¾ÑĢÑĢÑĥÐ¿
ĠÐ¿Ð¾Ð´ÑĢÐ°Ð·Ð´Ðµ Ð»ÐµÐ½Ð¸Ð¹
ÑĤÐ° Ð½Ð°
ĠÐ¸Ð· Ð±Ð°
ĠÑģÐ»ÐµÐ´ ÑģÑĤÐ²ÐµÐ½Ð½ÑĭÑħ
ĠÑģÐ¾Ð¾ÑĤ Ð½ÐµÑģ
ĠÐºÑĢÐ¸ ÑĤÐ¸ÐºÐµ
ĠÐ³Ð»Ð°Ð² Ð½ÑĭÐ¹
ĠÑĥÐºÐ°Ð·Ð° Ð½Ð¸Ðµ
ĠÐ³Ð»ÑĥÐ± Ð¸Ð½
ĠÐºÐ¾ÑĢ Ð¾Ð»Ñı
ĠÑģÐ¾Ð²ÐµÑĤ ÑģÐºÐ¸Ð¹
ĠÐ¼ÐµÐ¶Ð´ÑĥÐ½Ð°ÑĢÐ¾Ð´ Ð½ÑĭÐ¼
ĠÐ¾Ð±ÐµÑģÐ¿ÐµÑĩÐ¸ Ð²Ð°ÑİÑīÐ¸Ñħ
ĠÑģÐ²Ð¾Ð¹ ÑģÑĤÐ²Ð¾
ĠÐļÐ¾Ð½ÑģÑĤÐ¸ÑĤÑĥ ÑĨÐ¸Ñı
ĠÐ½Ð°Ð»Ð¾Ð³Ð¾Ð² Ð¾Ð³Ð¾
ĠÐ³Ð»Ð° Ð·Ð°
ĠÐ¿ÑĢÐ¸Ð²Ðµ Ð»Ð°
ĠÑĢÐµÐ³Ð¸ ÑģÑĤÑĢÐ°
ĠÐ²ÐµÐº Ð¾Ð²
ĠÐ² Ð¿ÑĢÐ¾ÑĩÐµÐ¼
ĠÑĦ Ð°Ð¼Ð¸
ĠÐ¿ÑĢÐµ Ð¿Ð°ÑĢÐ°
ĠÑģÐ¾Ð¾ÑĤÐ²ÐµÑĤÑģÑĤÐ² ÑĥÑİÑīÐ¸Ð¹
ĠÐ²Ðº Ð»Ð°Ð´Ð°
ĠÐ¸ÑģÑĤÐ¾ÑĢÐ¸ Ðº
ĠÐ´Ð¾ÑģÑĤÑĥÐ¿ Ð½Ð¾ÑģÑĤÑĮ
ĠÐ²ÐµÐº ÑĤÐ¾ÑĢ
ÑģÑĤÐ° Ð¼
ÑĨÐ¸Ð°Ð»ÑĮ Ð½Ð¾Ðµ
ĠÐºÐ¾Ð½ÐºÑĢÐµÑĤ Ð½ÑĭÐ¼
ĠÑĤÐ¾Ð²Ð° ÑĢÐ¸
ĠÐ¾ÑĤÐ½Ð¾ÑģÑı ÑĤ
ĠÐ¿ÑĢÐ¾Ð³ÑĢÐ°Ð¼Ð¼Ð° Ð¼
Ð¾ÑĢÐ¼Ð¸ ÑĢÐ¾Ð²Ð°Ð½Ð¸Ðµ
ĠÐº Ð¾Ðº
ĠÐŁ Ð¾ÑĢ
ĠÑģÐ»ÐµÐ´ Ð¾Ð²Ð°Ð»Ð¾
ĠÑĨÐ¸ Ðº
ĠÐ¿ÑĢÐ¾Ð²Ð¾Ð´Ð¸ Ð»Ð¾ÑģÑĮ
ĠÐ·Ð°ÑĤÑĢÑĥÐ´ Ð½Ð¸
ÑĤÐ¸ Ð¼Ð¸
Ðļ Ð¾Ð³Ð´Ð°
ĠÐºÐ¾Ð¼Ð¿ ÑĢÐ¾Ð¼Ð¸
Ð´ÐµÑĤ Ð¾Ð²
ĠÐ½Ð°Ð±Ð»Ñİ Ð´ÐµÐ½Ð¸Ðµ
ĠÐ·Ð°ÐºÑĢÐµÐ¿ Ð»ÐµÐ½Ð¸Ðµ
ĠÐ²Ð¸Ð´Ð° Ð¼
Ð¸Ð¼ ÑĭÐµ
ĠÐ¿ÑĢÐ¸Ð· Ð²Ð°Ð½
ĠÑģÐ»ÑĥÐ¶ Ð±Ðµ
ĠÐ¿ÑĢÐµÐ´ÑĥÑģÐ¼Ð¾ÑĤÑĢÐµÐ½ Ð½ÑĭÑħ
ĠÐ¿Ð¾Ð» Ð½ÑĭÐ¹
ĠÑģÑĤÐ°ÑĤÑĥ ÑģÐµ
ĠÐ°ÐºÑĤÑĥÐ°Ð»ÑĮ Ð½ÑĭÑħ
ĠÐ²Ð¾Ð¾Ð± ÑĢÐ°Ð¶ÐµÐ½Ð¸Ñı
ĠÐ¼ÑĥÐ½Ð¸ ÑĨÐ¸
ÑĢ Ð½ÑĭÐ¹
ĠÐ¿Ñĥ ÑģÑĤÑĮ
ĠÐ²Ð° Ð»Ð¾Ð²
ĠÐĹÐ° ÑĤÐµÐ¼
ĠÐ³ÑĥÐ¼Ð°Ð½Ð¸ÑĤÐ°ÑĢ Ð½ÑĭÑħ
ĠÐ¸Ð·Ð´Ðµ Ð»Ð¸Ð¹
ĠÑĤ ÐºÐ°
ĠÑĢ ÐµÐ½ÑĤÐ°Ð±Ðµ
ĠÐ¾Ð±Ñĭ ÑĩÐ½ÑĭÑħ
ĠÐ¿ÑĭÑĤÐ° ÐµÑĤÑģÑı
ĠÐ½Ð°Ð»Ð¾Ð³Ð¾Ð¾Ð± Ð»Ð¾Ð¶ÐµÐ½Ð¸Ñı
ÑĢÑĭ Ð²Ð½Ð¾
ĠÐ²Ð»Ð°ÑģÑĤ Ð½ÑĭÑħ
Ð¾Ð±Ðµ ÑģÐ¿Ðµ
ÑĤ Ð¾Ð²Ð°
Ð» ÑĩÐ°
ĠÐ´Ðµ ÑģÑĤÐ²Ð¸Ñı
ĠÐ¿Ð¾ÑģÐµ ÑģÑģ
ĠÐ¿ÑĢÐ°Ð²Ð¸Ð»Ð° Ð¼Ð¸
ĠÑĢÐµÐ°Ðº ÑĨÐ¸Ñı
ĠÐ½Ð°Ð¸Ð¼ ÐµÐ½ÑĮ
ĠÐ¸ÑģÐ¿ÑĭÑĤÑĥ ÐµÐ¼ÑĭÑħ
ÑĤÐ¸Ð² Ðµ
ĠÑĢÐ¾ÑģÑģÐ¸Ð¹ ÑģÐºÐ¾Ðµ
ĠÐ¿ÐµÑĢÑģÐ¿ ÐµÐºÑĤÐ¸Ð²Ð°
ĠÐ¿ÑĢÐ¸Ð½Ñĥ Ð¶Ð´ÐµÐ½Ð¸Ñı
ĠÐ´Ð° Ð²Ð°ÑĤÑĮ
ĠÐĴÐµ Ð±ÐµÑĢÐ°
ĠÐº ÐµÑĢÐ°Ð¼Ð¸
ĠÐ¿ÑĢÐ¸ ÑĢÐ¾ÑģÑĤÐ°
ĠÐ²Ð¾Ð·Ð½Ð¸ÐºÐ° ÑİÑīÐ¸Ðµ
ÑĤÐµÑĢÐµ Ð¹
ĠÐ·Ð°Ð´Ð°ÑĩÐ° Ð¼Ð¸
ĠÐ½Ð¸ÐºÐ°Ðº Ð¾Ð³Ð¾
ĠÑģÐ¾Ð±Ð»Ñİ Ð´ÐµÐ½Ð¸Ðµ
ĠÐ¸Ð½ÑĤÐµÐ½ÑģÐ¸Ð² Ð½Ð¾ÑģÑĤÐ¸
ÑĤÐµÐ»ÑĮ Ð½Ð°
ĠÑĨÐµÐ½ Ð°
ĠÐĽ Ð¾Ð½Ð´
ĠÐ¿ÑĢÑıÐ¼ Ð¾Ðµ
ĠÐŁÐ¾Ð»ÑĮÑĪ Ð¸
ĠÐºÐ° Ð·Ð°Ñħ
ĠÐĶ Ð¼Ð¸ÑĤÑĢÐ¸
ÑĢÐ°Ð¶ Ð¸
ĠÐ¾ÑĤÐ´Ðµ Ð»Ð°
ĠÐ¾ÑģÐ¾Ð·Ð½Ð° Ð½Ð¸Ðµ
Ð» ÑĩÐ¸
Ð¾Ð³ Ðµ
ĠÐ¾Ð± ÑĢÐµ
ĠÐĵ Ð°ÑĢ
ĠÑĤÑĢÐ°Ð´Ð¸ ÑĨÐ¸Ð¾Ð½Ð½Ð¾Ð³Ð¾
ĠÑĢÐµÑģÐ¿ÑĥÐ±Ð»Ð¸ Ðº
ĠÐĲÑĢ Ð¼
ĠÐ´Ð¸Ð°Ð» Ð¾Ð³Ð°
ÑģÐºÑĢÐ¸ Ð¿
ĠÑĢÐ°Ð·Ð²Ð¸ Ð²Ð°ÑĤÑĮ
Ð²Ð¾ ÑģÑĤ
ĠÐ¿Ð¾ÑģÐ»ÐµÐ´ ÑĥÑİÑīÐ¸Ðµ
ĠÐ¾Ð±ÑĢÐ· Ð¾Ð¼
Ð±Ð°Ð¹ ÐºÐ°
Ð»Ð¸ Ð·Ð°ÑĨÐ¸Ñİ
ÑģÑģ Ð¾
ĠÐ¢ Ð¾Ð³Ð´Ð°
ĠÐ¿Ð¾Ð² ÑģÐµÐ¼ÐµÑģÑĤ
ĠÑģÐ¸ÑģÑĤÐµÐ¼ Ð½Ð¾Ð³Ð¾
ĠÐ²Ð¾Ð·Ð¼Ð¾Ð¶ Ð½Ð¾Ð³Ð¾
ĠÑģÑĥÐ±ÑĬÐµÐºÑĤÐ¸Ð² Ð½ÑĭÑħ
ÑĤÐµ Ð¾ÑĢÐµ
ÐºÐ° ÑĨÐ¸Ð¸
ĠÑĥÑĩÐ°ÑģÑĤ Ð½Ð¸ÐºÐ°Ð¼
ĠÐ¸Ð½Ð´Ð¸Ð²Ð¸ Ð´
ĠÐºÐ°ÑģÐ° ÑİÑīÐ¸ÐµÑģÑı
ĠÑģÑĤÐ¸Ð¼Ñĥ Ð»Ñĭ
ÐĿ Ð¸
ĠÐ¸Ð³ÑĢÐ¾Ðº Ð¾Ð²
ÑĢ Ð´Ð¸
ĠÐ±Ñĭ Ð²ÑĪÐ¸Ñħ
ĠÐŀ Ð´Ð¸Ð½
ÐºÐ¾Ð¼ Ð¼ÑĥÐ½Ð¸ÐºÐ°
Ð¾Ð³ Ð½Ð¸
ĠÐ½Ð° ÐºÐ»Ð°Ð´Ñĭ
ĠÐ½Ð¾Ð² ÐµÐ¹
ÑĨÐ¸Ð¾Ð½Ð°Ð»ÑĮ Ð½ÑĭÐµ
ĠÐ½Ð°Ð±Ð»ÑİÐ´Ð° ÑİÑĤÑģÑı
ĠÐ¼Ð¾ÑĤÐ¸Ð²Ð° ÑĨÐ¸Ñİ
ĠÐ¿Ð¾Ð»Ð°Ð³Ð° ÐµÑĤ
ÑĪÐ°Ñı ÑģÑı
ĠÐ½ÐµÐ´Ð²Ð¸Ð¶ Ð¸Ð¼Ð¾ÑģÑĤÐ¸
ÐµÐ¹ Ð½
ĠÑģÑĥÑīÐµÑģÑĤÐ² ÑĥÑİÑīÐµÐ¹
ĠÐ¸Ð½Ð¸ÑĨÐ¸Ð° ÑĤÐ¸Ð²Ð°
ĠÑĤÐµ Ð·
ĠÐ£ Ð³Ð¾Ð»Ð¾Ð²
ĠÐ¿ÑĢÐ¸Ð½Ð¸Ð¼Ð° Ð»Ð¸
ĠÐºÐ¾Ð½ÑĤÑĢÐ°Ðº ÑĤÐ¾Ð²
ĠÐ¾ÑĤÐºÐ»Ð¾Ð½ ÐµÐ½Ð¸Ñı
ĠÑĢÐ¾ÑģÑģÐ¸Ð¹ ÑģÐºÐ¸Ð¼
ĠÐ½Ð°ÑĢÑĥ ÑĪÐµÐ½Ð¸ÐµÐ¼
ĠÑĤÐµÐºÑĥ ÑīÐµÐ¹
Ð¾Ñģ Ðµ
ĠÐ¿ÑĢ ÑĤÐ¸Ð²
ĠÐ¿Ð¾Ð»Ð¾Ð¶Ð¸ÑĤÐµÐ»ÑĮ Ð½ÑĭÐµ
ĠÑģÐ¾Ð»Ð´Ð° ÑĤ
Ð¼ Ð¿Ð¸ÑĢÐ¸
Ð»Ð° ÑĤÑĮ
ĠÑģÑĥ Ð¶Ð´ÐµÐ½Ð¸Ð¹
ÑĢÐ¾Ð² ÐºÑĥ
ĠÐ¿Ð° ÑģÑģÐ°
ĠÐ²ÑĭÐ±Ð¾ÑĢ ÐºÑĥ
ĠÑĥÐºÐ°Ð·Ð° ÑĤÑĮ
ĠÑĢÐµÐ°Ðº ÑĨÐ¸Ð¹
ĠÐ¿Ð¾Ð»Ð¾Ð² Ð¸Ð½Ð°
Ñģ ÐµÐº
ĠÑħ ÑĢÐ°Ð½Ð¸
ĠÐºÐ¾Ð½ÐºÑĢÐµÑĤ Ð½ÑĭÐ¹
ĠÐ¿Ð°ÑĢÐ°Ð´Ð¸ Ð³Ð¼Ð°
ĠÐ¿ÑĢÐ¾ÑĤ Ð¾Ðº
ĠÐ¼ÑĥÐ· ÐµÐ¹
ĠÐºÐ°ÑĦÐµÐ´ ÑĢÑĭ
ĠÐ¿ÑĢÐ¸Ð½Ñı Ð»
ĠÐ¶ÐµÐ½ ÑģÐºÐ¾Ð³Ð¾
ĠÐ¿ÑĢÐ¸Ð½ÑĨÐ¸Ð¿ Ð°Ð¼
ĠÐ¿ÑĢÐµÐ´ÑĥÑģÐ¼Ð¾ÑĤÑĢÐµÐ½ Ð¾
Ð³ ÐµÑĤ
ĠÐ¿ÑĢÐ¸ Ð½Ð¾ÑģÐ¸
ĠÐ¿ÑĢÐ¸Ð·Ð½Ð° ÐºÐ¾Ð¼
Ð¾Ð»Ðµ ÑĢÐ°Ð½
ĠÐĵÐ¾ÑģÑĥÐ´Ð°ÑĢ ÑģÑĤÐ²ÐµÐ½Ð½Ð¾Ð¹
ĠÐ¾ ÑĪÐ¸Ð±Ð¾
ĠÑģÑĤÐ°Ð½Ð¾Ð² Ð»ÐµÐ½Ð¸Ðµ
ĠÑĦ Ð°Ð·
Ð¸ÑģÐ° Ð½Ð¸Ðµ
ĠÐ´Ð¾ÑĢ Ð¾Ð¶
ĠÐĿÐ¸ Ð¶Ðµ
ĠÑĢÐ°ÑģÑģÐ¼Ð¾ÑĤÑĢ ÐµÐ½Ð¸Ñİ
ĠÐ¸Ð¼Ðµ ÑİÑīÐ¸ÐµÑģÑı
ÑĨÐ¸Ð¾Ð½Ð°Ð»ÑĮ Ð½ÑĭÐ¹
ÐŀÐ± ÑĬ
Ġ Ð¾Ð²ÐµÑĤ
ĠÐ¿ÑĢÐ¸ Ð²Ð°
ĠÐ¿Ð¾Ð»ÑĮÐ· Ð¾Ð²Ð°Ð½Ð¸Ñı
ĠÑĦ ÐµÑĢ
ĠÐĲ Ð¢
ĠÐ¾Ð±ÑĢÐ°Ð·Ð¾Ð²Ð° ÑĤÐµÐ»ÑĮÐ½ÑĭÐ¼
ĠÐ¸Ð½Ð²ÐµÑģÑĤÐ¸ ÑĨÐ¸Ð¾Ð½Ð½Ð¾Ð¹
ĠÑĥÐ´Ð° ÐµÑĤÑģÑı
ĠÐ²ÑĢÐ° ÑĩÐµÐ¹
Ð³ÑĢÐ°Ð´ ÑģÐºÐ¾Ð¹
ĠÐ²Ð¾Ð» Ð¾Ð½
ĠÐºÐ¾Ñģ Ð¼Ð¸
ĠÑģÐºÐ»Ð°Ð´Ñĭ Ð²Ð°ÐµÑĤÑģÑı
ĠÐľ Ð¾ÑĢ
ĠÐ°Ð±Ð¸ÑĤÑĥÑĢÐ¸ ÐµÐ½ÑĤÐ¾Ð²
ÑĪ Ð°Ð»Ð¸
ĠÑģÐµÐ²ÐµÑĢ Ð¾
ĠÐķ ÑģÑĤÑĮ
ĠÐ±Ð¸Ð±Ð»Ð¸Ð¾ÑĤÐµ ÐºÐ¸
Ðµ Ð»Ð¸
ÑĤÐ¸ Ð½Ð¾
Ð»Ð° Ð´Ð¾Ð²
ÐŁ ÑĢÐ¾Ð²ÐµÐ´ÐµÐ½
ĠÐ¼Ð° ÑģÑģÐ¸
ĠÑĨÐµÐ½ÑĤÑĢÐ° Ð»ÑĮÐ½ÑĭÑħ
ĠÑģÐµÑĢÑĮÐµÐ· Ð½Ð¾
ĠÐ½ÑĥÐ¶Ð´Ð° ÑİÑĤÑģÑı
ĠÐ¾Ð±ÑģÑĤÐ¾ÑıÑĤÐµÐ»ÑĮÑģÑĤÐ²Ð° Ñħ
ĠÐ±Ð°Ð»Ð°Ð½ Ñģ
ÑģÐº ÑĥÑĢ
ĠÐ¿ÑĢÐ°Ð²Ð¾Ð² ÑĭÐ¼Ð¸
ĠÑģÐ¾Ð²ÑĢÐµÐ¼ÐµÐ½ Ð½ÑĭÐ¼
Ð·Ð¸ Ñİ
ĠÑģÐ¿Ñĥ ÑģÑĤÑı
Ð¾ ÑĨÐµÐ½Ð¸
Ð´ Ð¾Ð¹
Ð´Ð¸ Ñİ
ĠÐ·Ð°ÐºÐ¾Ð½Ð¾Ð´Ð° ÑĤÐµÐ»ÑĮÐ½Ð¾Ð³Ð¾
ĠÐ¿Ð¾Ðº Ð·Ð°
ĠÐ½ÐµÐ´Ð¾ÑģÑĤÐ° ÑĤ
ĠÐ¡Ð¾ ÑĨÐ¸
ĠÐ½Ð°Ðº Ð»Ð¾Ð½
ĠÐ¿ÑĢÐ¾Ð²ÐµÐ´ÐµÐ½ Ð½ÑĭÑħ
ĠÐ³ÑĢÐ°Ð¼Ð¼Ð° ÑĤÐ¸ÑĩÐµÑģÐºÐ¸Ñħ
ĠÑĤÑĢ Ð±
Ð¶ Ð½Ð¾
ĠÐľ Ð¡
ĠÐ¾Ð±ÑĬ ÐµÐ¼Ñĥ
ĠÐºÐ¾Ð»Ð¸ÑĩÐµ ÑģÑĤÐ²Ñĥ
ĠÐ¿ÑĢÐµÑģÑĤÑĥÐ¿ Ð»ÐµÐ½Ð¸Ðµ
ÐµÐ½ ÐºÐ¾
ĠÑĢÐ°Ð· Ð³
ÐŁ Ð¡Ð¡
ÑģÐ¾Ð² Ð¾Ð¹
ĠÐ¼Ð¾Ð³ Ð¸Ð»ÑĮ
ĠÑģÐ¾ÑģÑĤÐ°Ð²Ð»Ñı ÑİÑīÐ°Ñı
ĠÐ°Ð¿ ÑĢÐ¾Ð±
ĠÐºÐ°Ð½Ð´Ð¸Ð´Ð° ÑĤÐ°
ĠÐ½Ð° Ð·ÑĭÐ²Ð°ÐµÑĤ
Ð°Ð½ ÑĤ
ĠÑģÐ¾ÑĨÐ¸ Ð¾Ð»Ð¾Ð³Ð¸ÑĩÐµÑģÐºÐ¾Ð¹
ĠÐ¾Ð±Ð¾ÑĢ Ð¾Ð½Ñĭ
ĠÐĴÑģÐµ Ð³Ð¾
ÐŀÐ´ Ð½Ð¾Ð¹
Ð²Ð° Ð¼
ĠÑģÐ¾Ð´ÐµÑĢÐ¶Ð° ÑĤÑģÑı
ĠÑĦÐ¸Ð½Ð°Ð½ÑģÐ¾Ð² ÑĭÐ¹
ĠÐ¿ÑĢÐ¸ÐµÐ¼ Ð¾Ð²
ĠÑĥÐ²ÐµÐ»Ð¸ÑĩÐ¸ Ð²Ð°ÐµÑĤÑģÑı
ĠÐŁÑĢÐµ Ð¶Ð´Ðµ
ĠÐ¿ÑĢÐ¾Ð¸Ñģ ÑħÐ¾Ð¶Ð´
ĠÐºÐ¾Ð½ÑĤÐ°Ðº ÑĤÑĭ
Ð½Ðµ ÑĨ
ĠÐ¾Ñģ Ð½
ĠÑĤÑĢÑĥÐ´ Ð¾ÑģÐ¿Ð¾ÑģÐ¾Ð±
ĠÐ¿ÑĢÐµÐ´Ð¿Ð¾Ð»Ð¾Ð¶ ÐµÐ½Ð¸Ñı
ĠÑĢÐ°Ð½ Ð½ÐµÐ³Ð¾
ĠÐ»ÐµÐºÑģÐµÐ¼ Ñĭ
ÑģÐ¿ ÐµÑĢ
ĠÑĩÐµÐ»Ð¾Ð²Ðµ ÑĩÐµÑģÑĤÐ²Ð°
ÐµÑĤÐ¸ ÑĢÐ¾Ð²Ð°Ð½Ð¸Ñı
ĠÐĿÐµ Ð¾Ð±ÑħÐ¾Ð´Ð¸Ð¼Ð¾
ĠÐ¿Ð¾ÑģÐµ Ð»ÐµÐ½Ð¸Ñı
ĠÐ´ÐµÐ¼Ð¾ÐºÑĢÐ° ÑĤÐ¸ÑĩÐµÑģÐºÐ¸Ñħ
Ð¾ÑĢ Ð´Ð¸Ð½Ð¸
ĠÐ¿ÑĢÐµÐ´ÑģÑĤÐ° Ð²Ð»
ĠÐ¿ÑĢÐ¸Ð½Ñı ÑĤÑĭ
ĠÐ¿ÑĢÐµÐ´ÑģÑĤÐ°Ð²Ð»ÐµÐ½ Ð½ÑĭÐµ
ĠÑĢÐµÐ»Ð¸Ð³Ð¸Ð¾Ð· Ð½ÑĭÐµ
ĠÐ¿ÑĢÐµÑģÐµ ÑĩÐµÐ½Ð¸Ñı
ĠÐµÐ²ÑĢÐ¾Ð¿ÐµÐ¹ ÑģÐºÐ¾Ð³Ð¾
ĠÐ¾ÑĩÐµÐ²Ð¸Ð´ Ð½ÑĭÐ¼
ĠÑĥÐ²ÐµÐ»Ð¸ÑĩÐ¸ ÑĤÑĮ
ĠÑģÑĤÐ°Ð»ÐºÐ¸ Ð²Ð°ÑİÑĤÑģÑı
ĠÐ¾Ð±ÑīÐµÐ¾Ð±ÑĢÐ°Ð·Ð¾Ð²Ð° ÑĤÐµÐ»ÑĮÐ½ÑĭÑħ
ĠÐ¡ÑĤÑĢÐ° ÑĤÐµ
ĠÐŀ ÑģÑĤÐ°
ĠÐºÑĢÐµ Ð¿Ð¾ÑģÑĤ
ĠÐ°ÐºÑĤÑĥÐ°Ð»Ð¸ Ð·Ð¸
ĠÐ¾ÑĤ ÑĩÑĥ
Ð¡ Ð¾Ð²
ĠÐºÐ»Ð°ÑģÑģ Ñĭ
ĠÐºÐ½Ñı Ð·ÑĮ
ĠÐ¿ÑĢÐ¾ÑģÐ²Ðµ ÑīÐµÐ½Ð¸Ñı
ĠÑĢÐ° ÑģÑĤÐ¸
Ð¸Ð² ÑĪÐ¸Ð¹
ĠÑģÑĤÑĢ Ð¾Ð¹
ĠÑĥÐ»ÑĥÑĩ ÑĪÐµÐ½Ð¸Ðµ
ĠÑģÐ¿ÐµÑĨÐ¸ÑĦÐ¸ÑĩÐµÑģÐº Ð¸Ñħ
ĠÐ¤Ðĵ ÐŀÐ¡
ÑĤÐ¸ ÑĦÐ¸ÑĨÐ¸
ĠÐºÐ°Ðº Ð°Ñı
ĠÐ´Ðµ ÑĦÐ¸Ð½Ð¸
Ð»Ð¾Ð²Ð°ÐºÐ¸ Ð¸
ĠÐ¨Ð²ÐµÐ¹ ÑĨÐ°
Ð²Ñĭ Ð±Ð¾ÑĢ
ĠÐ¾ÐºÐ¾Ð½ÑĩÐ° ÑĤÐµÐ»ÑĮÐ½Ð¾
ĠÐĽÑİ Ð±
ĠÐ¤ ÐłÐĵ
ĠÐ¼Ð¾Ð»Ð¾Ð´ Ð¾Ð³Ð¾
ĠÑģÐ¾Ð¾Ð±ÑīÐµÑģÑĤÐ² Ðµ
ĠÐ²ÑģÐº Ð¾ÑĢÐµ
Ñħ Ð°ÑĢ
ĠÐº Ð¸Ð½
ĠÐ½Ðµ ÑģÐ¿
ĠÐ½Ðµ Ð¿ÑĢÐ°Ð²
ĠÐ¿Ð»Ð° ÑĤÑĥ
ĠÑĥÑĩ ÑĢÐµÐ´
ĠÐ± Ð¸ÑĤ
ÑģÑĤÐ¾ÑĢ Ð¾Ð¶
Ð³ Ð½Ñĥ
ĠÐĿ Ð°Ð»Ð¸ÑĩÐ¸Ðµ
ĠÐ¾Ð±ÑīÐµ ÑģÑĤÐ²ÐµÐ½Ð½Ð¾Ð¼
ĠÐ¿ÑĢÐ¸Ð·Ð½Ð° Ð½
ĠÐ»Ð¸Ð½Ð³Ð²Ð¸ÑģÑĤÐ¸ ÐºÐ¸
ĠÐļ ÑĢÐµÐ¼
ĠÐ¤ Ð¸
ĠÑħÐ°ÑĢÐ°ÐºÑĤÐµÑĢ Ð¾Ð¼
ĠÑĪÐºÐ¾Ð»ÑĮ Ð½Ð¸ÐºÐ°
ĠÐ·Ð°ÑĢÐ°Ð±Ð¾ÑĤ Ð½Ð°Ñı
ĠÑģÑĤ Ðµ
ĠÑģÐº ÑĢÐ¾Ð¼
ĠÑģ ÑĩÐ°
ĠÐ´Ðµ Ð²Ñı
ĠÐ²Ð¾Ð·Ð¼Ð¾Ð¶ Ð½Ñĭ
ĠÐ¾Ð±ÑĢÐ°Ð·Ð¾Ð²Ð° ÑĤÐµÐ»ÑĮÐ½Ð¾Ð¼
ĠÑĪÐºÐ¾Ð»ÑĮ Ð½Ð¸ÐºÐ¸
ĠÐĹÐ° Ð¿Ð°Ð´Ð°
ĠÐ³Ð»Ð°Ð² Ð½Ð¾Ð³Ð¾
ĠÐ½Ð°Ð·Ð½Ð° ÑĩÐ°
ĠÐ½Ð°ÑģÐ¸ Ð»ÑĮ
ĠÑĢÐµÐ´Ð°Ðº ÑĨÐ¸Ð¸
ĠÐ²Ð°Ð¶Ð½ÐµÐ¹ÑĪ Ð¸Ð¼
ĠÐ¿ÑĢÐ¾ÑĦÑģÐ¾ ÑİÐ·
ĠÐ°ÑĢ ÑĤÐ¸ÐºÑĥ
ĠÑĤÐµÑħÐ½ Ð¾Ð»Ð¾Ð³Ð¸ÑĩÐµÑģÐºÐ¾Ð³Ð¾
ĠÐ½Ð°ÑģÑĤÐ¾Ñı ÑīÐµÐ¼
ĠÐ¿ÑĢÐ¸ÑĩÐ¸ Ð½Ð°Ð¼Ð¸
ĠÐ¾Ð¶Ð¸Ð´Ð° Ð½Ð¸Ð¹
ĠÑĨÐµÐ»Ðµ Ð²Ð¾Ð¹
ĠÑĢÐ°Ð·Ð½ Ð¾Ð³Ð»Ð°
ĠÑģ Ð¸Ñģ
ĠÐ¿ÑĢ ÑĦÐµÑģÑģÐ¸Ð¾Ð½Ð°Ð»ÑĮ
ĠÐ¾ ÑīÐµ
ÑģÑĤÑĢÐ° Ð½Ð¸
ĠÐ´ÐµÑĤ ÑģÐºÐ¾Ð³Ð¾
ĠÐºÐ¾Ð»Ð»ÐµÐº ÑĤÐ¸Ð²Ð½Ð¾Ð³Ð¾
ĠÑĦ Ð°ÑĢ
ĠÐºÐ¾Ð½ ÑĤÐ¸Ð½ÐµÐ½ÑĤÐ°
ÑĦ ÐµÐºÑĤÐ°
ĠÐ¿Ð¾Ð·Ð¸ ÑĨÐ¸ÐµÐ¹
ĠÐºÐ¾Ð½Ñģ ÑĥÐ»ÑĮ
ĠÐ¸ Ñı
ĠÐ¼Ðµ ÑĢÐ°
ĠÐŁ Ð¾ÐºÐ°Ð·Ð°
ĠÐ¾Ð±ÑĬÐµÐºÑĤÐ¸Ð² Ð½Ð¾Ð¹
ĠÐ¿Ð¾Ð»Ð°Ð³Ð° ÑİÑĤ
ĠÐ¢ ÑĢÐµÑĤÑĮ
ĠÑĢÐ¾ÑģÑģÐ¸Ð¹ ÑģÐºÐ¸Ð¼Ð¸
ĠÐ¾ÑĢÐ³Ð°Ð½Ð¸Ð·Ð° ÑĨÐ¸Ð¾Ð½Ð½ÑĭÑħ
ĠÑģÐµÑĤÐµ Ð²Ð¾Ð³Ð¾
ĠÑĢÑĥÑģÑģÐºÐ¾ ÑıÐ·Ñĭ
ĠÐĽÐ°ÑĤ Ð²Ð¸Ð¸
Ð¾Ð² Ð¾
ĠÑģÐ¸ ÑĤÑĥ
ĠÐĵ Ñĥ
ĠÐ³Ð¾Ð»Ð¾Ñģ Ð°
ĠÐ¿Ð°ÑĤÑĢÐ¸ Ð¾ÑĤ
ĠÑĥ ÑĢÐ¾Ð½
ĠÑģÐ¾ ÑĢÐµÐ²
ĠÐ¼Ð¾Ð´Ðµ Ð»ÑıÑħ
ĠÐ¼Ð½Ð¾Ð³ Ð¸Ð¼Ð¸
ĠÐ·Ð°Ð½Ð¸Ð¼Ð° ÑİÑĤÑģÑı
ĠÐ°ÑĢÐ³Ñĥ Ð¼ÐµÐ½ÑĤ
ĠÑģÑĤÐ¸Ð¼ÑĥÐ»Ð¸ ÑĢÐ¾Ð²Ð°Ð½Ð¸Ñı
ĠÐĳ Ð¸Ð±
ĠÐ¤ÐµÐ´ÐµÑĢÐ° Ð»ÑĮÐ½Ð¾Ð³Ð¾
ÑģÑĤÐ¸ÑĩÐµÑģÐº Ð¸
ĠÐ°Ð´Ð¼Ð¸Ð½Ð¸ÑģÑĤÑĢÐ° ÑĤÐ¸Ð²Ð½Ð¾
ĠÐ´Ð¸ÑĢÐµÐº ÑĤÐ¾ÑĢ
ĠÐ¿Ð¾Ð½ÑıÑĤ Ð½Ð¾
ÑĢÐµ Ð°
Ð½Ð¾ ÑģÑıÑĤ
ĠÑĢÐµ ÑĨÐµÐ½
ĠÐ¾ÑģÐ¾Ð± ÑĭÐ¼
ĠÐ¿ÑĢÐ¸Ð½Ñı ÑĤ
ÐŁÐ¾Ð» ÑĥÑĩÐµÐ½Ð½ÑĭÐµ
ĠÑĢÐµÐºÐ¾Ð½ ÑģÑĤÑĢÑĥÐºÑĨÐ¸Ð¸
ĠÑİÑĢÐ¸ÑģÐ´Ð¸Ðº ÑĨÐ¸Ð¸
ĠÑĤÑĢÐµÐ² Ð¾Ð¶
Ð½ ÑĢÐ¾Ð´
ĠÑģÐ² ÑĢÐµÐ¼ÐµÐ½
ĠÑįÐºÐ¾Ð½Ð¾Ð¼ Ð¸Ð¸
ĠÑģÐ¼ÑĭÑģ Ð»Ñĭ
ĠÑģÑĤÑĢÐµÐ¼ Ð»ÐµÐ½Ð¸ÐµÐ¼
ĠÑģÐ¾Ð²Ð¼ÐµÑģÑĤ Ð½ÑĭÑħ
Ð·ÐµÑĢ Ð±Ð°Ð¹
ĠÑģÑĥÑĦ ÑĦÐ¸Ðº
ĠÐ²ÑĭÐ´Ðµ Ð»ÑıÐµÑĤÑģÑı
ÐµÐº ÑĤÑĥÐ°Ð»ÑĮ
ĠÐ¾ÑĤÐºÑĢÑĭ ÑĤÐ¾ÑģÑĤÐ¸
ĠÐ²Ð¸Ð´Ð° Ñħ
Ð½Ñı Ð»Ð¸
Ð¾ÑĢÐ¸ ÑĤÑĮ
ĠÑĥÐ³ Ð»Ð¾Ð²
ĠÐĿÐ¸ Ð¶
ĠÐ¿ÑĢÐµÐ´Ð¿Ð¾ ÑĩÑĤÐ¸
ĠÑĨÐµÐ½Ð½Ð¾ÑģÑĤ Ð½ÑĭÑħ
Ð· Ð°Ðº
ĠÐ½Ð° Ñĩ
ĠÐ´ÐµÐ¹ÑģÑĤÐ² Ð¸ÐµÐ¼
ĠÐ²Ð¾Ð·Ð´ÐµÐ¹ÑģÑĤÐ² Ð¸ÐµÐ¼
ĠÐºÐ¾Ð¼Ð¼ÐµÑĢ ÑĩÐµÑģÐºÐ¸Ñħ
ĠÐ¿Ð¾Ð´ÑĢÐ°Ð·Ð´Ðµ Ð»ÐµÐ½Ð¸Ñı
ĠÐ³ ÑĢÐ¾Ð¼
ĠÐµÑģÑĤÐµ ÑģÑĤÐ²ÐµÐ½Ð½ÑĭÑħ
ĠÐ²ÑĭÑĢÐ°Ð¶Ð° ÐµÑĤ
Ð±ÐµÑĢ Ð³
ĠÐ³ÑĢÐ°Ð½Ð¸ÑĨ Ñĥ
ĠÐľÐ¾ÑģÐºÐ¾Ð² ÑģÐºÐ¾Ð¹
ĠÐ¡ Ð¿
ĠÐ¿ÐµÑĢ ÐµÐ½Ðµ
ĠÐ½Ð°ÑĩÐ° Ð»ÑĮÐ½Ð¾Ð³Ð¾
ÑģÑĤÐ²Ð¾Ð²Ð° Ð»Ð¸
ĠÑįÐ¼Ð¾ÑĨÐ¸Ð¾Ð½Ð°Ð»ÑĮ Ð½Ð¾Ð¹
ĠÑĢÐ°ÑģÑĪÐ¸ ÑĢÐµÐ½
Ð¡ Ð¸ÑģÑĤÐµÐ¼
ĠÑĪÐ¸ ÑĢÐµ
Ð°Ñģ ÑĪÑĤÐ°Ð±
ĠÑģÐ²ÑıÐ·Ð°Ð½ Ð½ÑĭÐ¹
ĠÑģÐ²ÑıÐ·Ð°Ð½ Ð½Ð°Ñı
ĠÐ¸ÑģÑģÐ»ÐµÐ´Ñĥ ÐµÐ¼ÑĭÑħ
ĠÐ¸Ð½ÐºÐ»ÑİÐ·Ð¸Ð² Ð½Ð¾Ð³Ð¾
Ð»Ð¸ Ð²Ð°
ÑĪ Ð½Ð¸Ñı
Ð¾Ð½Ð¸ Ð¼Ð¸
ĠÐ³Ð¾Ð² Ð¾ÑĢÐ¾Ð²
ĠÐ½Ð°Ð¼ÐµÑĢ ÐµÐ½Ð¸Ñı
ĠÐ¿ÑĢÐ¸Ð·Ð½Ð° ÐºÑĥ
ĠÐ¾Ð±ÑıÐ·Ð° ÑĤÐµÐ»ÑĮÐ½ÑĭÐ¼
ĠÑĢÐµÐ³ÑĥÐ»Ð¸ ÑĢÐ¾Ð²Ð°Ð½Ð¸Ð¸
ÑĩÐ¸Ñģ Ð»ÐµÐ½Ð½ÑĭÑħ
ĠÐºÐ¾ÑģÐ²ÐµÐ½ Ð½Ð¾
ĠÑĩÐ°ÑģÑĤ Ð½ÑĭÐ¼
Ð½Ð¾Ð² ÑĭÑħ
ĠÐ¸Ð½ÑĤÐµÑĢ Ð½Ð°
ĠÐ²ÑĭÐ±Ð¾ÑĢ Ñĭ
ĠÐ²ÐµÑĢÐ¾ÑıÑĤ Ð½Ð¾ÑģÑĤÑĮÑİ
ĠÐ°Ð´Ð²Ð¾ÐºÐ° ÑĤÐ°
ĠÐ»ÑİÐ± Ð°Ñı
ĠÐ²Ð½ÑĥÑĤÑĢÐµÐ½ Ð½Ð¸Ð¹
ĠÐ°Ð½Ðº ÐµÑĤ
ĠÐĲ Ð½Ð°Ð»Ð¾Ð³Ð¸
ĠÑģÐ¾ÑĨÐ¸ Ð¾Ð»Ð¾Ð³Ð¾Ð²
ĠÐ°Ð´Ð¼Ð¸Ð½Ð¸ÑģÑĤÑĢÐ° ÑĤÐ¸Ð²Ð½Ð¾Ð¹
ĠÐ¸Ð¼Ð¿Ð¾ÑĢÑĤ Ð¾Ð·Ð°
ĠÐ²Ð· ÑıÑĤÑĮ
ĠÐ½Ð°Ð²Ñĭ ÐºÐ°Ð¼Ð¸
ĠÐ½Ð° Ð¸Ð²
ĠÐ¼Ð°ÑĤÐµÑĢÐ¸ Ð°Ð»ÑĮÐ½ÑĭÐµ
ĠÐºÐ¾Ð³ Ð¾ÑĢ
ĠÐ¾Ð¿ÑĢÐ°Ð² Ð´Ð°Ð½
Ð¶Ð° ÐµÑĤÑģÑı
ĠÐ¿ÑĢÐ¾ÑĦÐµÑģÑģÐ¸ Ð½Ð°
ĠÑĨÐ¸ ÑĤÐ°
Ð½Ð°Ð´ ÑĨÐ°
ĠÐ¾Ð±ÑĥÑģÐ»Ð¾Ð²Ð»Ð¸ Ð²Ð°ÐµÑĤ
ĠÐ¿ Ð·
ĠÐ¸ ÑģÑĤÑĢÐ¸
Ð´Ñĥ Ðº
ĠÑģÐ»ÐµÐ´ Ñĭ
ĠÑģÐ¿Ð¾ÑģÐ¾Ð± Ð½Ð°
ĠÐ²ÑĢÐµÐ¼ÐµÐ½ Ð½Ð¾Ð³Ð¾
ĠÐ¾Ð±ÑĬÐµÐ´Ð¸ Ð½ÐµÐ½Ð¸Ðµ
ĠÑįÐ¼Ð¸ Ð³ÑĢÐ°Ð½
Ð¾Ð³ Ð»
ÑģÐ¿ ÐµÐºÑĤÐ¸Ð²
ĠÐ´Ð° Ð²Ð»ÐµÐ½Ð¸Ðµ
ĠÐ½ÐµÐ¼ ÑĨÐµÐ²
ĠÐ²ÑĭÐ· Ð²Ð°Ð½
ĠÐ¿ÑĢÐ¾ ÐµÐºÑĤÐµ
ĠÐ¾Ð¿ Ð¿Ð¾Ð½
ĠÐ½Ð°ÑĥÑĩ Ð½Ð¾Ð¼
ĠÐ¾ÑĤÐºÑĢÑĭ ÑĤÐ¾
ĠÐ¾Ð±Ð»Ð°Ð´Ð° ÑĤÑĮ
ĠÐ¸Ð¼Ð¿ÐµÑĢÐ° ÑĤÐ¾ÑĢÐ°
ÐļÐ¾Ð½ ÑģÑĤÐ¸ÑĤÑĥ
ĠÑĥÑĩÐ°ÑģÑĤÐ²Ð¾Ð²Ð° Ð»Ð¸
Ñĥ ÑīÐ¸Ñħ
ĠÐ¾Ð±Ñī Ð°
ĠÐ²ÑĭÐ·ÑĭÐ²Ð° ÑİÑĤ
ĠÐºÐ¾Ð½ÑĨÐµÐ¿ ÑĤÐ°
ĠÐ¢ÑĥÑĢ ÑĨÐ¸Ð¸
ĠÐļÐ¾Ð½ÑģÑĤÐ¸ÑĤÑĥ ÑĨÐ¸Ð¾Ð½Ð½ÑĭÐ¹
ĠÑįÐ¿Ð¸ ÑģÑĤÐµÐ¼
ĠÐºÐ»Ð°ÑģÑĤÐµ ÑĢÐ°
Ðŀ ÑĤÐ½Ð¾
ÑĥÑİÑī ÐµÐ¼Ñĥ
ĠÐ¸ÑģÑģÐ»ÐµÐ´Ð¾Ð²Ð° ÑĤÑĮ
ĠÑģÐ¾Ð²ÐµÑĢ ÑĪÐµÐ½Ð¸Ð¸
ĠÐ¾ÑĤÐ½Ð¾ÑģÐ¸ ÑĤÑĮÑģÑı
ĠÐ½Ð°Ð¿ ÑĢÐ°Ð²Ð¸
ĠÐ¿ÑĢÐ¾ÑĪ Ð»Ð¾Ðµ
ÑģÑĤÐ°Ð²Ð¸ ÑĤÐµÐ»Ð¸
ĠÑģÑĤÑĢÐ°Ñħ Ð¾Ð²Ð°Ð½Ð¸Ñı
ĠÑĥ ÑģÑĥÐ³ÑĥÐ±
ĠÑĤÐµÐ¼ Ð¿Ð¾ÑĢÐ°
ĠÐ¸Ð·Ð¼ÐµÐ½ ÐµÐ½Ð¸ÐµÐ¼
ĠÐ½ÐµÐ´ Ð¾Ð±
ĠÐºÐ°ÑĢ ÑĤÐ¸Ð½
ĠÐ±Ð° ÑĪÐºÐ¸
ĠÐ¶Ð°Ð½ Ð´Ð°ÑĢ
ĠÑģÐ¼Ð¾Ð³ ÑĥÑĤ
ĠÐ¿ÑĢÐ¾ÑĦÐµ ÑģÐ¸Ð¾Ð½Ð°Ð»ÑĮ
ĠÑĩÐµÐ»Ð¾Ð²Ðµ ÑĩÐµÑģÐºÐ¸Ñħ
ĠÐºÐ¾Ð³Ð½Ð¸ ÑĤÐ¸Ð²Ð½Ð¾Ð¹
ĠÐ²Ð° Ð»Ñİ
ĠÑĥÑģÑĤ Ð½Ð¾Ð²
Ð¼Ðµ ÑģÑĤÐ¾
ĠÑģÑħÐ¾Ð´ ÑģÑĤÐ²Ð¾
ĠÐ¿ÑĢÐ¾ÑĨÐµÐ½ ÑĤÐ½ÑĭÑħ
ĠÐ±Ð»Ð¾Ðº Ð¸
ĠÑħÐ¾ ÑĤÐµÐ»Ð¸
ĠÐ° ÑĤÐ¾Ð¼
ĠÐ²Ð¾Ð¿ÑĢÐ¾Ñģ Ð°Ð¼Ð¸
ĠÐ°ÑģÐ¿ ÐµÐºÑĤÑĥÐ°Ð»ÑĮ
ÑĥÐ±ÐµÑĢ Ð½Ð°
ĠÐ´Ð¾ÑĢ Ð¾Ð³Ð¸
ĠÐ¼Ð¾Ð½Ð¸ÑĤÐ¾ÑĢÐ¸ Ð½Ð³
ÑĩÐ¸ Ð½Ð°
ĠÐ·Ð° Ð¿Ð¸
ĠÑħ Ð°Ð½
ĠÐ»Ð¾Ð³Ð¸ ÐºÑĥ
ĠÑģÑĤÐ°ÑĢÐ¾ Ð¾Ð±ÑĢÑıÐ´
ĠÑĢÐ¾ÑģÑģÐ¸Ð¹ ÑģÐºÐ¸Ð¹
ĠÑģÑĤÐ¸Ð¼Ñĥ Ð»Ð¾Ð²
ĠÐ¾Ð±ÑīÐµÐ¿ÑĢÐ¸ Ð½Ñı
ĠÐł Ð°Ð½
ĠÑĥ Ð´Ð¾
ĠÐ¿Ð¾Ð½Ð¸Ð¼Ð° ÑİÑĤ
ĠÑģÐ¾ÑģÑĤÐ¾Ñı Ð»Ð°
ĠÐ¿ÑĢÐ¾Ð± Ðµ
ĠÐ·Ð½Ð°ÑĩÐ¸ ÑĤÐµÐ»ÑĮÐ½ÑĭÑħ
ĠÐłÐ¾ÑģÑģÐ¸Ð¹ ÑģÐºÐ°Ñı
Ð¾Ð· Ð´
ĠÐ¡ Ð¾Ð³Ð»Ð°
ĠÐ¾Ð±ÑĢÐ°Ð·Ð¾Ð²Ð° ÑĤÐµÐ»ÑĮÐ½ÑĭÐ¼Ð¸
ĠÐ½Ð°ÑĩÐ° ÑĤÑĮ
ĠÐ¡Ð¸ ÑģÑĤÐµÐ¼
ĠÐ¿Ð°ÑĤ ÑĤÐµÑĢ
ÑģÑĤ ÑģÐºÐ¸Ð¹
ĠÐ³ÑĢÐ° Ð´Ð°Ð½
ĠÐºÐ»Ð°ÑģÑĤÐµÑĢ Ð¾Ð²
ĠÐ¾ÐºÐ° Ð·
ĠÐĲÑĦÑĢÐ¸ ÐºÐ¸
Ðł ÐŁ
ĠÐ²Ð½Ðµ ÑģÑĤÐ¸
ĠÐ¾Ð¿ÑĢÐµÐ´ÐµÐ»Ñı ÑİÑīÐ¸Ñħ
ĠÐ¿Ð¾Ð± ÑĥÐ¶Ð´Ð°
ĠÐ¿Ð¾Ð»Ð½Ð¾Ð¼Ð¾ÑĩÐ¸ ÑıÐ¼Ð¸
ĠÐ°Ð²ÑĤÐ¾ÑĢÐ¸ ÑĤÐ°ÑĢ
ÑĢÐ¾Ð±Ð»ÐµÐ¼ Ñĭ
ĠÐ²ÑĭÐ±Ð¸ÑĢÐ° ÑĤÑĮ
ÑĢÐ¾Ð´ Ð¾Ð»
ĠÐ½Ð°ÑħÐ¾Ð´ ÑıÑĤ
ĠÑĢÐ°ÑģÑģÐ¼Ð°ÑĤÑĢÐ¸Ð²Ð°ÐµÐ¼ ÑĭÐ¹
ĠÐ¿ÑĢÐ¸Ð½ÑĨÐ¸Ð¿Ð° Ð¼Ð¸
ĠÐ½ÐµÐºÐ¾Ð¼ Ð¼ÐµÑĢ
Ð² Ð½Ð¾Ð¹
ĠÐºÐ¾ÑįÑĦÑĦÐ¸ÑĨÐ¸ ÐµÐ½ÑĤÑĭ
Ð¿Ð¾Ð´Ð° Ð²Ð°
ĠÐ±Ñĭ Ð²Ð°ÐµÑĤ
ĠÑĥÑĩÐ¸ÑĤÑĭ Ð²Ð°ÐµÑĤ
ĠÐ¿ÑĥÐ±Ð»Ð¸ ÐºÑĥ
ĠÐ²ÑĭÐ¿Ð¾Ð»Ð½Ñı ÑİÑĤ
ĠÐ·Ð´Ð° Ð½Ð¸Ñı
ĠÑĤÑİ ÑĢÐº
ĠÑĢÐµÐ·ÐµÑĢ Ð²Ð¾Ð²
ĠÐ¸Ð·Ð²ÐµÑģÑĤ Ð½ÑĭÐµ
ĠÐºÐ¾ÑĢÑĢÐµÐ»Ñı ÑĨÐ¸Ñı
ĠÐ²ÑĭÐ¸ Ð³ÑĢÑĭ
ÑĦ ÐµÐºÑĤ
Ð¾Ð»Ð¸ Ð¸
ĠÑĤÑĢÑĥ Ð´Ñĥ
ĠÐ³ÑĢÐ°Ð¶Ð´Ð°Ð½ ÑģÐºÐ¾Ðµ
ĠÑĦÐ¾ÑĢÐ¼Ð° Ð¼
ĠÐºÐ»Ð°ÑģÑģÐ¸ ÑĦÐ¸ÐºÐ°ÑĨÐ¸Ñı
ĠÑģÐ¿ÐµÑĨÐ¸ÑĦÐ¸ÑĩÐµÑģÐº Ð¸Ðµ
ĠÐ¸Ð» Ð»
ĠÐ±Ð°ÑĢÑĮ ÐµÑĢÐ¾Ð²
ĠÐ¿ÑĢÐ¸ ÑĤÐ¾Ðº
ĠÑĢÐµ Ð¼Ðµ
ĠÐłÐ° ÑģÐ¿
ĠÐ°Ð»ÑĮÑĤÐµÑĢÐ½Ð° ÑĤÐ¸Ð²
ĠÐ¿ÑĢÐ¾Ð¿Ð°Ð³Ð°Ð½ Ð´Ð¸
ĠÐĿ Ð¡ÐĴ
ĠÑģÐµ Ð»
Ð¾Ð½Ðµ Ñģ
ĠÑįÐºÑģÐ¿ Ð»Ð¸ÑĨÐ¸
ĠÐ²Ð¾Ð·Ð½Ð¸ÐºÐ° ÑİÑīÐ¸Ñħ
Ð´ Ð°Ðº
ĠÐŃ Ð½
ĠÑĦÐ¾ÑĢÐ¼Ð¸ ÑĢÐ¾Ð²Ð°ÑĤÑĮ
ĠÐ¿Ð¾Ð·Ð²Ð¾Ð»Ñı ÑİÑīÐ¸Ñħ
ĠÐ¿ÑĢÐ¾ÑıÐ²Ð»Ñı ÑİÑĤÑģÑı
ĠÐļÑĢÐ° ÑģÐ½Ð¾
ÑĪÐº Ð¾Ð»
ĠÐ¿Ð¾Ð¿ÑĥÐ»ÑıÑĢ Ð½Ð¾ÑģÑĤÐ¸
ĠÐ½Ð°ÐºÐ¾Ð¿ Ð»ÐµÐ½Ð¸Ñı
ĠÐ°Ð½Ð³Ð»Ð¸Ð¹ ÑģÐºÐ¾Ð¼
ĠÐ¿ÑĢÐµ Ð·ÑĥÐ¼Ð¿
ĠÑģÐ»Ð¾Ð¶ Ð¸Ð»Ð°ÑģÑĮ
ĠÐ½Ð°Ð´ Ð·Ð¾ÑĢÐ°
ĠÐ¿ÑĢÐµÐ´Ð¿ÑĢÐ¸Ð½Ð¸Ð¼Ð° ÑĤÐµÐ»ÐµÐ¹
ĠÐ²Ð¸Ð´Ð° Ð¼Ð¸
Ñģ Ð½ÑĭÐ¼
ĠÑģÐ¾Ð²ÐµÑĤ ÑģÐºÐ¾Ðµ
ĠÑģÑĤÐ°ÑĢ ÑĪÐµÐº
ĠÐľÐ° ÑĤÐµÑĢÐ¸
ĠÐ¿ÑĢÐµÑĤÐµÐ½ Ð´
Ð°Ð¼ÐµÑĤ Ð¸Ð¼
ĠÐ¿ÑĢÐ¾ÑĤÐ¸Ð²Ð¾Ð´ÐµÐ¹ÑģÑĤÐ² Ð¸Ñı
ĠÐ·Ð°Ð¼ Ðº
ÑĢÑĥ Ð´ÐµÐ½
ĠÑħÐ°ÑĢÐ°ÐºÑĤÐµÑĢ ÐµÐ½
ĠÑĥÑĩÐ°ÑģÑĤÐ¸ Ñİ
ĠÐ¾Ð±ÐµÑģÐ¿ÐµÑĩÐ¸ Ð²Ð°ÐµÑĤÑģÑı
ĠÐ´Ð¸ÑģÑģÐµÑĢ ÑĤÐ°
ĠÐ¼ÐµÑģÑĤ Ð½ÑĭÐ¼
ĠÐ´ÐµÐ½ÐµÐ¶ Ð½ÑĭÐµ
ĠÐ´Ð¾ÑĪÐºÐ¾Ð»ÑĮ Ð½Ð¸ÐºÐ¾Ð²
ĠÑĨÐµÑĢÐºÐ¾Ð² ÑĮ
ĠÐ² ÑģÑĤÑĢÐ¾
ĠÐ½Ðµ Ð°Ðº
ĠÐ¾ ÑĨ
Ð²Ð°ÐµÐ¼ Ð¾ÑģÑĤÐ¸
ĠÐ½Ð°Ð¿ Ð¸ÑģÐ°Ð½
ĠÑĢÐµÐºÐ¾Ð¼ÐµÐ½ Ð´
ĠÐ¿ÑĢÐ¾Ð²Ð¾Ð´Ð¸ Ð»Ð¸ÑģÑĮ
ĠÑĥÑĢ Ð¾ÐºÐ°
ĠÐ¾Ð±Ð½Ð°ÑĢÑĥÐ¶ÐµÐ½ Ð¾
Ð¸ ÑĤÐµÐ»
ĠÑĦ Ð½Ð°Ð½ÑģÐ¾Ð²
ĠÐ¸Ð· Ð¾Ð»Ð¸
ÑģÑĤÑĢÐ° Ñħ
ĠÑĥÐ³ ÑĢ
ĠÐ¾Ð±ÑģÐ»ÑĥÐ¶Ð¸ Ð²Ð°Ð½Ð¸Ñı
ĠÐĴ Ð¾ÑĤ
Ð¶Ðµ ÑģÑĤÐ²Ð°
Ðļ ÑĢÐ¸
ĠÑįÑĤÐ° Ð¿Ñĭ
ĠÐ½ÐµÐºÐ¾ÑĤÐ¾ÑĢ ÑĭÐ¼Ð¸
ĠÐ½Ð¾ÑĢÐ¼ Ð¾Ð¹
ÐłÐ°ÑģÑģ Ð¼Ð°ÑĤÑĢÐ¸
ĠÑģ Ð²Ð¸
ĠÐ½Ð° Ð¼ÐµÑĤ
ĠÐºÐ»Ð° Ð´
ĠÐ½Ð°ÑĨÐ¸Ð¾Ð½Ð°Ð»ÑĮ Ð½Ð¾Ð¼
ÑĨÐµÐ¿ ÑĨÐ¸Ñı
ĠÑģÐ¼ÐµÐ½ Ñĥ
ĠÑĢÐµÐ°Ð»Ð¸Ð·Ñĥ ÑİÑĤÑģÑı
ĠÐŃ ÑģÑĤÐ¾
ÑīÐ¸ ÐºÐ¸
ĠÐ²Ðº Ð»Ð°Ð´Ñĭ
ĠÐ´Ð¾Ð±Ñĭ ÑĩÐ¸
ĠÐ¾Ð±Ð²Ð¸Ð½Ñı ÐµÐ¼Ð¾Ð³Ð¾
ĠÐº Ð¾ÑĢÐ°
ĠÐ¿ÑĢÐµ ÑĨÐµÐ´ÐµÐ½
Ð¢ Ð¾Ð»ÑĮÐºÐ¾
Ð¾Ð½ Ð½Ð¾Ð¹
ĠÑģÐ¿Ð¾ÑģÐ¾Ð± Ð½ÑĭÑħ
ĠÐ²Ð»Ð° Ð´ÐµÐ½Ð¸Ðµ
ÑĤÐµÑħÐ½Ð¸ ÑĩÐµÑģÐºÐ¾Ð¹
ĠÐº ÑĢÑĭ
ĠÐ¼Ð° Ð»ÐµÐ½ÑĮ
ĠÐ³Ð¾ÑģÑĥÐ´Ð°ÑĢÑģÑĤÐ²ÐµÐ½ Ð½Ð¾Ðµ
ĠÐ¾Ð±ÑĬÐµÐ´Ð¸ Ð½ÑıÐµÑĤ
ĠÐ±Ð¾Ð» Ð³Ð°ÑĢ
ĠÐ¿ÑĥÐ½Ðº ÑĤÐ°
ĠÐ´Ð¾ÑħÐ¾Ð´ Ð½Ð¾ÑģÑĤÑĮ
ĠÐĳ Ð¾ÑĢÐ¸
ÑĢÐ¸ Ð°
ĠÑģÑĥ Ð¼Ðµ
ÑĩÐµÐ½ Ð½Ð°Ñı
ĠÑĢÐ°ÑģÑĪÐ¸ ÑĢÐ¸
ĠÑģÐ¼ÐµÐ½ Ñĭ
ĠÐ¿ÑĢÐ¾ÐºÑĥ ÑĢÐ°
ĠÐŀ ÑĢÐµÐ½
ĠÐĺ ÑĢ
ÑīÐ¸ Ðº
ĠÑģÐ»ÑĥÐ¶ Ð±
ĠÑĤÐµÐ° ÑĤÑĢÐ°
ĠÑĢÐµÐ· Ð¾Ð»Ñİ
ÐĶ ÐµÐ¹ÑģÑĤÐ²Ð¸ÑĤÐµÐ»ÑĮÐ½Ð¾
ĠÐ´ÑĥÑħÐ¾Ð² ÐµÐ½ÑģÑĤÐ²Ð°
ĠÐ¿Ð¾Ð»ÑĮÐ·Ð¾Ð²Ð° ÑĤÑĮÑģÑı
ĠÐ¿ Ð»ÐµÐ½
ĠÐ¸Ð·ÑĥÑĩ ÐµÐ½Ð¸ÐµÐ¼
ÑĤÑĢÑĥ Ð´Ð¾Ð²
ĠÐµÐ²ÑĢÐµ ÐµÐ²
Ð¸ Ð½Ð¾
ĠÐ¿Ð¾ Ð½Ð¸
ĠÐ²Ñĭ ÑĢÐ°Ð±Ð¾ÑĤÐºÐ¸
ĠÐ¿Ð¾Ð´ Ð²Ð¾Ð´
ÑĢÐ¾Ñģ Ð¿
ĠÐ³Ð¾Ð²Ð¾ÑĢÐ¸ Ð»Ð¾ÑģÑĮ
ĠÐ¼Ð¸Ð½Ð¸ ÑģÑĤÑĢÐ¾Ð²
ĠÑĢÐ°Ð² Ð½Ð¾Ð¹
ĠÐ¿ÑĢÐµÐ¼ ÑĮÐµÑĢ
ĠÐļ Ð»ÑİÑĩÐµ
ĠÐ¾ÑģÑĤÐ° Ð»Ð¸ÑģÑĮ
ĠÐ³Ð¸Ð¿Ð¾ÑĤÐµ Ð·
ĠÐ¸Ð·Ð±Ñĭ ÑĤÐ¾Ñĩ
ÑĢ Ð½ÑĭÐµ
ĠÑĢÐ°Ð· Ð³Ð¾Ð²Ð¾ÑĢÐ°
ĠÑģÐ¿ Ð°Ñģ
ĠÐºÐ¾Ð¼ Ð¼
ĠÐ²ÑĭÑģ ÑĪÐµÐ¼
ĠÐ¿ÑĢÐ¾ÑĦÐµÑģÑģÐ¸Ð¾Ð½Ð°Ð»ÑĮ Ð½ÑĭÐ¼
ÑĢÐ¸ ÐºÐ°
ĠÐ¾ÐºÑĤ ÑıÐ±ÑĢÐµ
ĠÐ¡ ÑĤÑĥÐ´ÐµÐ½
ĠÐĲÐ² ÑĤÐ¾ÑĢÑĭ
ĠÐ¾Ð± Ð»Ð¸
ĠÐĶ ÑĢÐµÐ²
ĠÐ²Ð·Ð° Ð¼
ĠÐºÑĥÐ»ÑĮÑĤÑĥÑĢ Ð½ÑĭÐ¼
ĠÐ²ÑĭÐ±Ð¾ÑĢ Ñĥ
ĠÐ´ÐµÑĦÐ¸ÑĨÐ¸ ÑĤÐ°
ĠÑģÐ¾Ð¾Ð± ÑĢÐ°Ð¶ÐµÐ½Ð¸Ñı
ĠÑģÐ¾ÑģÑĤÐ°Ð²Ð¸ Ð»Ð¾
ĠÐ±Ð»Ð¸Ð· ÐºÐ¸Ñħ
ĠÐ½Ðµ ÑıÑģ
ĠÑĥÑģÑĤÐ°Ð½Ð¾Ð² Ð»ÐµÐ½
ĠÑĥÑħÐ¾Ð´ Ð°
ĠÐ¿Ð¾Ð¶Ð¸ Ð»ÑĭÑħ
Ñĥ Ð¼Ð°Ð½
ÑĤÐµ ÑĢÑĥ
Ð¾Ð» ÐµÐ½
ĠÐ´Ðµ Ð¿Ð°ÑĢÑĤÐ°
ĠÐ½Ð¾Ð² Ð¾Ð¼Ñĥ
ĠÑĢÐ°Ð·Ð»Ð¸Ñĩ Ð½Ð¾Ð¹
ĠÐºÐ°ÑĤÐµÐ³Ð¾ÑĢÐ¸ Ñİ
ĠÑĦÑĢÐ°Ð½ÑĨÑĥÐ· ÑģÐºÐ¾Ð³Ð¾
ĠÐ½Ð°Ð¸Ð¼ÐµÐ½ ÐµÐµ
ĠÑģÐ¾ÑģÑĥ ÑīÐµÑģÑĤÐ²
ĠÐ²Ñĭ Ð¹ÑĤÐ¸
ĠÑģÑĤ Ñĭ
ÑĢÐ¾Ñģ Ð¾
ĠÑĪÐºÐ° Ð»Ñĭ
ĠÐ°Ð³ÑĢÐµ ÑģÑģÐ¸Ð¸
Ð¦ÐµÐ»ÑĮ Ñİ
ÑģÑĤÐµ ÑģÑĤÐ²ÐµÐ½Ð½Ð¾
Ð½Ð¸Ðº Ð¾Ð²Ð°
ĠÐ¾ÑĤÑĢÐ¸ÑĨÐ° ÑĤÐµÐ»ÑĮÐ½Ð¾
ĠÐļ Ð°Ð»Ð¸
ĠÐ¿ÑĢÐ¾Ð¸Ð·Ð²Ð¾Ð´ ÑģÑĤÐ²
ÑĢÐ¾Ð¿ ÐµÐ¹
ĠÐ³Ð¾Ð²Ð¾ÑĢÑı ÑīÐ¸Ð¹
ĠÐĲÐ»ÐµÐºÑģÐ°Ð½Ð´ ÑĢÐ¾Ð²
Ġ20 1
ÑĢÐ° Ñı
ĠÐ· ÐµÐ»ÐµÐ½
ĠÐ¾ÑģÑĥÑīÐµÑģÑĤÐ² Ð»ÐµÐ½Ð¸Ñİ
Ð°Ð½ Ð½ÑĭÑħ
ĠÑħ Ð¾ÑĤÐµ
ĠÑĢÐ°Ð·Ð²Ð¸ Ð²Ð°ÑĤÑĮÑģÑı
Ð¿ Ð»ÐµÐº
ĠÐ²Ñĭ ÑģÑĤÐ°Ð²
ÐĴ ÑĭÑģ
Ð¡ Ð¸
ĠÑıÐ²Ð»Ñı ÐµÑģÑı
ĠÑĢÐ°Ñģ ÑĩÐµÑĤÐµ
ĠÑģÐ¿ÐµÑĨÐ¸ Ð°Ð»
ĠÐ¼Ð¾Ð´ÐµÐ»ÑĮ Ñİ
ĠÐ¾ÑĤÐ½Ð¾ÑģÑı ÑīÐ¸ÑħÑģÑı
ĠÐºÐ¾ÑĢÑĢÐµ ÑģÐ¿Ð¾Ð½Ð´ÐµÐ½
ĠÐ¿Ð» Ð¾Ð´
Ð½ Ð¾Ð·
ÑĨ Ð¾
ĠÐ²ÐµÑĢ Ð¾
ĠÐ±Ð»Ð°Ð³ Ð¾Ð´Ð°
ĠÑģÐ´ÐµÐ»Ð° Ð»
ĠÐ´Ð¾Ð³Ð¾Ð²Ð¾ÑĢ Ð¾Ð¼
ĠÐ¿Ð»Ð¾ÑīÐ°Ð´ ÐºÐ¸
Ð¾Ð¼ ÐµÑĢ
Ð»Ñĥ Ð¶Ð°
ĠÐ½ÐµÐ¾Ð±ÑħÐ¾Ð´Ð¸Ð¼ Ð¾Ð³Ð¾
ĠÐ½Ð°Ð· Ð²Ð°Ð½Ð½ÑĭÑħ
ĠÑģÐ¾Ð²Ð¿Ð°Ð´Ð° ÐµÑĤ
Ð¼ Ð¾Ð´ÐµÑĢ
ĠÐ¿ÑĢÐ¸ Ð²ÐµÐ´
ÑĩÐµÑĤ Ð²ÐµÑĢ
ĠÐ¾Ð¿ÑĢÐµÐ´ÐµÐ»ÐµÐ½ Ð½ÑĭÐ¼Ð¸
ĠÑĥÐºÐ° Ð·
Ð²ÐµÐ´ÐµÐ½ Ð½ÑĭÐµ
ĠÐ½Ð°ÑĢÑĢÐ° ÑĤÐ¸Ð²Ð°
Ñĥ Ð³Ð¾Ð»ÑĮ
ĠÐŀ Ð¼
ĠÐĲÐ»ÐµÐºÑģÐ°Ð½Ð´ ÑĢÐ°
ĠÐ³Ð°ÑĢÐ¼Ð¾ Ð½Ð¸
ĠÐ¿ÑĢÐ¸ÑĩÐ¸Ð½ Ð½Ð¾
ĠÐ²Ð°Ð»Ð¸ Ð´
ĠÐ± ÐµÑĢ
ĠÐ²Ð»Ð¸Ñı ÑİÑīÐ¸Ñħ
ĠÐ¾ÑĤÐ´Ðµ Ð»ÑĮÐ½ÑĭÐ¼Ð¸
ĠÑĢÐ°Ð·ÑĢÐ°Ð±Ð¾ÑĤ Ð°ÑĤÑĮ
ÑģÑĤÐ¸ÑĩÐµÑģÐº Ð¸Ð¼
ĠÑĥÑģÑĤÐ°Ð½Ð°Ð²Ð»Ð¸ Ð²Ð°ÐµÑĤÑģÑı
ĠÐ¾ÑĤ ÑģÐ»Ðµ
ĠÐ¼Ð° Ðµ
ÑģÑĥ ÑīÐµÑģÑĤÐ²
ĠÐ»Ð¸ÐºÐ²Ð¸ Ð´Ð¸
Ñĩ Ð½Ð¸Ñı
ĠÑĥ ÑģÑĤÐ°Ð½
ĠÐ¿ÑĢÐ¸ ÑĩÐ°ÑģÑĤ
ĠÐ¾Ð¿ ÑıÑĤÑĮ
ĠÑģÐ¸ Ð»ÑĮÐ½Ð¾Ðµ
ĠÐ¾Ð±ÑĢÐ°Ð· Ð²Ð°
ĠÐ¾Ð±Ñī Ð¸Ð¼Ð¸
ĠÐ½Ð°Ñĥ ÐºÐ°Ñħ
ĠÐ¸Ð·Ð±Ð¸ÑĢÐ° ÑĤÐµÐ»ÐµÐ¹
ĠÐ½Ð°Ð¿Ð¸ÑģÐ° Ð½Ð¸Ñı
ĠÐ¿Ð¾Ð´ Ð³ÑĢÑĥÐ¿
ĠÑħ Ð²Ð°ÑĤÐ°
ĠÑģÐ»ÐµÐ´ Ð¾Ð²
ĠÐ¾ÑĨÐµÐ½ ÐºÐ¾Ð¹
ĠÐ½Ð°ÑĨÐ¸Ð¾Ð½Ð°Ð»ÑĮ Ð½Ð¾
ĠÐ½Ð°ÑĪ Ð¸Ð¼
ĠÐ·Ð°ÐºÐ»Ñİ ÑĩÐµÐ½Ð¸Ð¸
ĠÐºÐ¾Ð»Ð»ÐµÐº ÑĤÐ¸Ð²Ð½Ð¾Ð¹
ĠÐ¿Ð¸ÑģÑĮ Ð¼Ðµ
ĠÐ¾Ð± ÑīÐ¸Ð½Ñĭ
ĠÐ¿ÑĢÐµÐ´ Ð¸Ðº
ĠÐºÐ° ÑĥÐ·Ð°
ĠÑģÐ»Ð¾Ð¶ Ð½ÑĭÐ¹
Ð¼ÐµÐ½Ð¸ ÑĤÐµÐ»ÑĮÐ½Ð¾
ĠÐ¾Ð±ÑıÐ·Ð° Ð½Ñĭ
ĠÑģÐ¿Ð¾ÑĢ Ñĭ
ĠÐ½Ñĥ Ð¶Ð´
ĠÐ¾ÑĢÐ³Ð° Ð½Ð°Ñħ
ĠÐ¾ÑĢÐ³Ð°Ð½Ð¸Ð·Ð° ÑĨÐ¸Ð¾Ð½Ð½Ð¾Ð¹
ĠÑİÑĢÐ¸ ÑģÑĤÐ¾Ð²
ĠÐ¿ÑĢÐ¸ÐµÐ¼ Ñĭ
ÐµÑĤ Ð¾Ð¼
ĠÐ½Ð° ÑģÑĤÑĥÐ¿
ĠÐ¾Ð± Ð¾ÑģÐ¾Ð±
ÑĢÐ°Ð¶ ÐµÐ½Ð¸Ð¹
ĠÐ·Ð½Ð°ÑĩÐ¸ ÑĤÐµÐ»ÑĮÐ½ÑĭÐ¼
ĠÐ¾Ð±Ñı Ð·
ĠÑĤÑĢÐ°Ð½ ÑģÐ»Ð¸
ĠÐ²ÑĭÐ´Ðµ Ð»ÐµÐ½Ð½ÑĭÑħ
ĠÐ¿ÑĢÐ¾ÑĨÐµÐ´Ñĥ ÑĢÑĥ
ĠÑĥÑĩÐµÐ½Ð¸ ÐºÐ¸
ĠÐ´Ð¸ÑģÐºÑĥÑģÑģÐ¸ Ð¹
ĠÐºÐ¾Ð½ÑģÑĤÑĢÑĥÐ¸ ÑĢÐ¾Ð²Ð°Ð½Ð¸Ñı
ĠÐ·ÐµÐ¼Ðµ Ð»ÑĮÐ½ÑĭÑħ
Ð¸Ð¼ ÐµÐ½
Ð¿Ð¾Ð» Ð½Ð¸
ĠÐ´ÐµÐ¹ÑģÑĤÐ²Ð¸Ñı Ð¼
ĠÐ²Ð¿ÐµÑĩÐ°ÑĤ Ð»ÐµÐ½Ð¸Ðµ
ĠÑį ÑģÑĤÐµÑĤ
ĠÐ¾ÑĤ ÑģÐµ
Ð²ÑĪ ÐµÐ¼Ñĥ
ĠÑĥÐ²ÐµÐ»Ð¸Ñĩ ÐµÐ½Ð¸ÐµÐ¼
ÑģÑĤÐ¾ÑĢÐ¾Ð½ Ð½ÐµÐ³Ð¾
ĠÐ¿ÑĢÐ¾Ð²Ð¸Ð½ ÑĨÐ¸Ð¸
ĠÑĦÑĢÐ¾Ð½ ÑĤÐ°
ĠÑĤÑĢÐµ ÑĤÐµÐ¹
ÑĤ ÑĢÑĭ
ĠÐ» Ð¾
ĠÐµÑģÑĤÐµ ÑģÑĤÐ²ÐµÐ½Ð½ÑĭÐ¼
ĠÐ³ÐµÐ½ ÐµÑĢÐ¸
ĠÐ²ÐµÐº Ðµ
Ð´ ÑĢÑĥÐ³
ĠÐ·Ð° ÑģÑĤÐ°Ð²Ð»ÑıÐµÑĤ
ĠÑģÐ¸ Ð»ÑĮÐ½Ð¾Ð¹
ĠÑĢÐ¸ ÑĤÑĥÐ°
ĠÐºÐ°Ð¿Ð¸ÑĤÐ° Ð»Ð¾Ð¼
ĠÐ°Ð»ÑĮÑĤÐµÑĢÐ½Ð° ÑĤÐ¸Ð²Ð½ÑĭÑħ
ĠÐ° Ð¾ÑĢÐ¸
ĠÐĺ Ðĵ
Ð°ÑĢ Ð½Ð¾Ð¹
ĠÐ¿ÐµÑĢÐµÐ´ Ð²Ð¸
ĠÐ·Ð°Ð¼Ðµ Ð´
ĠÐ¼ÐµÑģÑı ÑĨ
ÑĤÐµ Ð³ÑĢÐ°
ÑĢÐ¾Ð²Ð° Ð²
ĠÑģÐ¾ÑĨÐ¸ Ð¾Ð»Ð¾Ð³Ð¸ÑĩÐµÑģÐºÐ¾Ð³Ð¾
Ð½ÐµÐ¹ÑĪ Ð¸Ð¼
ĠÐ¿Ð¾Ð¿ÑĥÐ»ÑıÑĢ Ð½Ð¾ÑģÑĤÑĮ
Ðĳ Ðł
ĠÐ²ÑĭÐ±Ð¾ÑĢ Ð¾Ð¼
Ð¼ÐµÑĢÐ¸ ÐºÐ°
ĠÐ¿ÑĢÐµÐ¸Ð¼ÑĥÑīÐµ ÑģÑĤÐ²Ð¾
ĠÐ¾ÑīÑĥ ÑīÐµÐ½Ð¸Ðµ
ĠÐ´Ðµ Ð²Ð¸
ÑģÑĤÐ¸ÑĩÐµÑģÐº ÑĥÑİ
ÐŀÑĤ Ð´Ðµ
ĠÐ¿ÑĢÐµÐ²Ñĭ ÑĪÐ°
ĠÑģ ÑīÐµÑģÑĤÐ²
ĠÐ° Ð½Ð°
ĠÐ» Ð°ÑĤ
ĠÑĤÐ¸Ð¿ Ð¾Ð¼
ĠÐºÐ½Ð¸ Ð³Ð°
ĠÐ´ÐµÑĤÐµÑĢ Ð¼Ð¸Ð½Ð¸
ĠÐ¸ÑģÑĤÐ¾ÑĢÐ¸ ÐºÐ°
ĠÑģÑĤÑĢÐ¾ Ð¸ÑĤÑĮ
ĠÐ½Ð° ÑģÑĤÑĥÐ¿Ð°
ÑĢÑĥ ÐµÐ¼Ð¾Ð¹
ĠÐ¾ ÑģÑĤÑĢÐ¾Ð²
ĠÐ¾Ð±ÑĢÐ° Ð±Ð°ÑĤÑĭ
ĠÐ·Ð°Ð½Ð¸Ð¼Ð° Ð»Ð¸ÑģÑĮ
ĠÐ· Ð¾
ĠÐºÐ¾Ð½ Ð½Ð¾
ĠÐ½Ð°ÑħÐ¾Ð´ Ð¸Ð»ÑģÑı
ĠÐ¾ÑĤÐºÑĢÑĭ ÑĤÐ¾Ð¹
ĠÐľÐ¾ÑģÐº Ð²Ð°
ĠÐ½Ðµ Ð¾Ð±Ñĭ
Ð°Ð» Ð¾Ð¼
Ð±ÐµÐ¶ Ð´ÐµÐ½
ĠÐ²Ð¾Ð·Ð½Ð¸Ðº Ð»Ð¸
Ð¾Ð± Ð±
Ð¿Ð¾Ð» Ð¾Ð¶
ĠÐ¿Ð¾Ð·Ð¸ ÑĨÐ¸Ð¾Ð½Ð¸
ĠÑİÑĢÐ¸Ð´Ð¸ ÑĩÐµÑģÐºÐ¸
ĠÐ²Ð¸Ð´ ÑıÑĤ
ĠÑģÐ¾ÑģÑĤÐ°Ð²Ð¸ ÑĤÑĮ
ĠÐºÐ¾ÑĢÐ¿Ð¾ÑĢÐ° ÑĤÐ¸Ð²Ð½Ð¾Ð³Ð¾
ĠÐĴÐµÑĢ Ð¾ÑıÑĤÐ½Ð¾
ĠÑįÐ¼Ð¾ÑĨÐ¸Ð¾Ð½Ð°Ð»ÑĮ Ð½Ð¾
Ðĺ ÐĶ
ĠÑĨÐµÐ½ Ð½Ð¾ÑģÑĤÑıÐ¼Ð¸
ĠÐ¿ÑģÐ¸Ñħ Ð¾Ð»Ð¾Ð³
ĠÐ¼Ð¾Ð¼ ÐµÐ½ÑĤÑĥ
ĠÐµÐ¶Ðµ Ð´Ð½ÐµÐ²
ĠÐ§ÐµÑħ Ð¾Ñģ
ÐĲ Ð½
ĠÑĪÐºÐ¾Ð» Ð¾Ð¹
ĠÑĢÐµÐºÐ»Ð° Ð¼Ñĭ
Ð²ÑĪÐµÐµ ÑģÑı
Ð¾Ð½ÑıÑĤ Ð½Ð¾
Ð»ÑĮ ÑģÐºÐ¾Ð³Ð¾
ĠÐ¿ÑĢÐ¾ÐºÑĥ ÑĢÐ¾ÑĢÐ°
ĠÐ¸Ð½ ÑģÑĤÑĤÑĥ
ĠÐļ ÑĥÐ±
ĠÐ±Ðµ ÑģÐµ
ĠÑĤÑĢÐµÑĤÑĮ ÐµÐ¼
ĠÑĢÐ°Ð·Ð½Ð¾Ð¾Ð±ÑĢÐ°Ð· Ð½ÑĭÐµ
ĠÐ¿Ð°Ð»Ð° ÑĤÑĭ
Ñı ÑİÑĤÑģÑı
Ð½Ð¸ Ð»Ð¸
ÑĤÐ¸ ÑĦÐ¸ÐºÐ°
ÑıÑĤÐµÐ»ÑĮ Ð½Ð¾ÑģÑĤÑĮ
ĠÑģÐ¾Ð·Ð´Ð° ÑİÑĤÑģÑı
ĠÐ¿ÑĢÐ¸Ð·Ð½Ð° ÐºÐ°
ĠÑĤÐµÐ¾ÑĢÐ¸ ÐµÐ¹
ĠÐ´Ð¾Ð» Ð³Ð¾
ÑģÑĤÑĢÑĥÐº ÑĤÑĥÑĢÐ¸
ĠÐŀÐ± ÑĢÐ°
ĠÐŀÑĤ Ð²ÐµÑĤ
ĠÑįÐ¼Ð¾ÑĨÐ¸Ð¾Ð½Ð°Ð»ÑĮ Ð½Ð¾Ð³Ð¾
ĠÐ¿ ÑĥÑĤ
Ð²Ðµ ÑģÑĤÐ¾
ĠÐ³Ð¾Ð²Ð¾ÑĢÐ¸ ÑĤÑģÑı
ĠÐºÑĢÐ¸ÑĤÐµÑĢÐ¸ ÐµÐ¼
ÑĤ Ð¾ÐºÐ°
ĠÑģÐ¾ÑĨÐ¸Ð°Ð»ÑĮ Ð½Ð¾Ð¼Ñĥ
ĠÑĤÐ¾Ñĩ Ð½ÐµÐµ
ĠÐ²ÑĭÐ¿Ð¾Ð» Ð½ÐµÐ½Ð¸Ð¸
ĠÐ´Ð¾Ð¼Ð°ÑĪ Ð½Ð¸Ñħ
ÑģÑĤ ÑĢÑĭ
ĠÑĤ Ð¾Ð»ÐµÑĢÐ°Ð½
ĠÐ¿ÑĢÐ¸Ð¼ÐµÐ½ ÐµÐ½Ð¸Ñİ
ĠÐºÐ¾Ð¼Ð¿Ð»ÐµÐºÑģ Ð½Ð¾Ð³Ð¾
ÑģÑĤ ÑĢÐ¾Ð¼
ĠÐ»Ð¸ ÑĪÐµÐ½Ð¸Ñı
Ð¶Ð° Ñħ
ĠÐ´Ð° ÑĤÑĭ
ĠÑģÐ¾Ð²ÑĢÐµÐ¼ÐµÐ½ Ð½ÑĭÐ¹
ĠÑĢÐ¾Ð¶Ð´Ð° ÐµÐ¼Ð¾ÑģÑĤÐ¸
ĠÐ½Ð¾ÑĢ Ð¼Ðµ
ĠÐ¼ÐµÐ¶Ð´ÑĥÐ½Ð°ÑĢÐ¾Ð´ Ð½Ð¾
ÐĶÑĢÑĥÐ³ Ð¾Ð¹
ĠÐ°ÑģÑģÐ¸ Ð¼Ð¸
ĠÐ¾Ð¿ Ðµ
ĠÐ¾Ð±Ðµ Ð¿Ðµ
Ñĳ ÑĢ
ĠÑĢÑĥÐºÐ¾Ð²Ð¾Ð´Ð¸ ÑĤÐµÐ»Ð¸
ĠÑĢÐµÐ° Ð±Ð¸Ð»Ð¸
ĠÐ¿Ð°ÑĨÐ¸ ÐµÐ½ÑĤÐ°
ĠÑĤÐµÑĢ ÑĢ
Ð¶ÐµÐ½ Ð½ÑĭÑħ
Ð£ ÐºÐ°Ð·Ð°Ð½
ĠÐ·Ð°Ð²ÐµÑĢ ÑĪÐµÐ½Ð¸Ñı
Ñį ÑĢ
ĠÐ²Ð¾Ð¿ ÑĢÐµÐºÐ¸
ĠÑģÐ¾Ð²ÐµÑĤ ÑģÐºÐ¸Ðµ
ĠÑģÐ¾Ð¾Ð±ÑīÐµÑģÑĤÐ² Ð¾Ð¼
ĠÐ¸ÑģÐºÐ»ÑİÑĩÐ° ÐµÑĤ
ĠÐ¿ÐµÑĢÐµÐ¾Ñģ Ð¼ÑĭÑģ
Ð´ Ð¾Ð³
Ð¿ Ð¾Ð·
Ð³Ð¸ Ñİ
ĠÐ¾Ð´ Ð½Ð¾ÑģÑĤÐ¾ÑĢÐ¾Ð½
ÑĤÑĥÑĢ Ð¾Ð¹
ĠÐ²Ð½ÐµÑĪ Ð½ÑıÑı
ĠÐ¾ÐºÑĢÑĥ Ð¶ÐµÐ½Ð¸Ñı
Ð¾Ð³ÑĢÐ°ÑĦÐ¸ÑĩÐµÑģÐº Ð¾Ð¹
ĠÐ¸ Ðº
ĠÐ¾ÑģÐ½Ð¾Ð²Ð° Ð½Ð°
ĠÐ¾ÑĤÐ½Ð¾ÑĪÐµÐ½Ð¸Ñı Ð¼Ð¸
ĠÑĨÐµÐ½ÑĤÑĢÐ° Ð»Ð¸Ð·Ð¾Ð²Ð°Ð½
ĠÐ±ÐµÐ´ Ð½Ð¾ÑģÑĤÐ¸
ĠÐºÐ¾Ð¼Ð¿ Ð¾Ð·Ð¸
ĠÐ¾Ð±ÑıÐ·Ð° ÑĤÐµÐ»ÑĮÐ½Ð¾Ð³Ð¾
ĠÐ´Ð¾Ð² ÐµÑĢ
ĠÐ¿Ð¾Ð´ÑĤÐ²ÐµÑĢ Ð¶Ð´ÐµÐ½
ĠÐ²ÐµÐ´Ð¾Ð¼ ÑģÑĤÐ²Ð°
ĠÑĨÐ¸ÑĦÑĢÐ¾Ð² ÑĭÑħ
ĠÑģÑĤÐ¸Ñħ Ð¸Ð¹
ĠÐ´Ð¾ÑħÐ¾Ð´ Ð°Ð¼Ð¸
ĠÑįÐ¼Ð¿Ð¸ÑĢÐ¸ ÑĩÐµÑģÐºÐ¾Ð³Ð¾
ĠÐ¿Ð¾Ð¼Ðµ ÑīÐµÐ½Ð¸Ñı
ĠÐ¸Ð¼Ð¿Ð»Ð¸ ÑĨÐ¸
ĠÑģÐ¾Ð· Ð´
Ð´ Ð¾ÑĢ
ÑĦÐ¾ÑĢÐ¼Ð° ÑĨÐ¸Ñı
ĠÐ¿Ð¾Ð´ÑĤÐ²ÐµÑĢ Ð¶Ð´ÐµÐ½Ð¸Ðµ
ĠÑģÑĤÑĢÐµÐ¼Ð¸ Ð»Ð¸ÑģÑĮ
Ð» Ð¾Ð´
Ð¹ ÑģÐºÐ¾Ð³Ð¾
ĠÐ·Ð°Ðº Ð½Ð¾Ð´Ð°
ĠÐºÐ¾Ð½ÑĤÐµÐº ÑģÑĤÐ¾Ð²
ĠÑģÑĤÑĢÑĥÐºÑĤÑĥÑĢ Ð½ÑĭÐµ
Ð³Ð° ÑĨÐ¸Ð¸
ĠÑģÑĥÐ±ÑĬÐµÐºÑĤÐ° Ñħ
ĠÑĥ Ð¼ÐµÑģÑĤ
ĠÐ³Ð¾ÑģÑĥÐ´Ð°ÑĢÑģÑĤÐ²ÐµÐ½ Ð½Ð¾ÑģÑĤÐ¸
ĠÐºÐ¾Ð½ÑĤÑĢ Ð¾Ð»ÐµÐ¼
ĠÐ½Ð°ÑħÐ¾Ð´ Ð¸ÑĤÑĮÑģÑı
ĠÐ¿Ð¾Ð´Ð¾Ð± Ð½Ð°Ñı
ĠÐ¿Ð¾ÑģÐ»ÐµÐ´Ð¾Ð²Ð° ÑĤÐµÐ»ÑĮÐ½Ð¾ÑģÑĤÑĮ
ĠÑĢÐ¾ ÑģÑĤÐµ
ÐŁÑĢÐ¸ Ð½ÑĨÐ¸
Ð£ Ð¶Ðµ
ĠÑĩÐ»ÐµÐ½ Ð°
ĠÑģÐ»ÑĥÑĪÐ° ÑĤÐµÐ»ÐµÐ¹
ĠÑĤÐ°Ðº Ð¾Ð¼Ñĥ
Ð¶Ð° ÑİÑĤ
ĠÐ»Ðµ ÐºÐ°ÑĢ
ĠÐļÐ° Ð·Ð°
ĠÐ¾ÑĤÐºÑĢÑĭ ÑĤÑĭÐ¼
ĠÐ¼Ð¾Ð½ Ð³Ð¾Ð»ÑĮ
ĠÐ¿ÑĢÐ¸ Ð³ÑĢÐ°Ð½Ð¸
ÐĶ Ð¡
ĠÐ¿ÑĢÐ¸Ð²Ð¸ Ð»ÐµÐ³Ð¸
ĠÐ´ Ð¾Ð·
ĠÐ¾Ð¿Ð¸ÑģÐ° Ð½Ñĭ
ĠÐ½Ð°ÑĩÐ° Ð»Ð¾ÑģÑĮ
ĠÐ¿ÑĢÐ¾ ÑıÐ²Ð»ÐµÐ½Ð¸Ð¹
ĠÐºÑĢÐ¸ ÑĤÐ¸ÐºÐ°
ĠÐ½ÐµÑģ ÑĥÑĤ
ĠÐ²ÑģÑĤÑĢÐµ ÑĩÐ¸
ÐŀÐ´ Ð½Ð¾Ð²ÑĢÐµÐ¼ÐµÐ½Ð½Ð¾
ĠÐ²Ð¾Ð´ Ñĭ
ĠÑģÑĥÑīÐµÑģÑĤÐ² Ð¾Ð²Ð°Ð»Ð¸
ĠÐºÑĢÑĥÐ¿ Ð½Ð¾Ð³Ð¾
ĠÐµÑģÑĤÐµ ÑģÑĤÐ²ÐµÐ½Ð½Ð¾Ð³Ð¾
ĠÐ¾Ð±ÑĢÐ· Ð¾Ð²Ð°
ĠÐ¾Ð¿ÑĢÐ°Ð² Ð´Ð°
ĠÐ²ÐµÑī ÑĮ
ĠÐ¾Ð¿ÑĤÐ¸Ð¼Ð¸ Ð·Ð°ÑĨÐ¸Ð¸
ĠÐ±ÑĥÑĢÐ¶Ñĥ Ð°Ð·
ÐĿÐ°ÑĢ ÑıÐ´Ñĥ
ĠÑĦÐµÐ´ÐµÑĢÐ° Ð»ÑĮÐ½ÑĭÐ¼
ĠÐĴÐ¾Ð· Ð¼Ð¾Ð¶
ĠÐ¿ Ð¾Ð³Ð°
ĠÐºÐ° ÑģÑģÐ°
ĠÐ¼ÐµÐ´Ð¸ÑĨÐ¸ Ð½Ñĭ
ĠÐ²Ð¾ÑģÑģÑĤÐ°Ð½Ð¾Ð² Ð»ÐµÐ½Ð¸Ðµ
ĠÐ³Ð»ÑĥÐ±Ð¾Ðº Ð¾
ÐĴÐ°Ð¶ Ð½ÑĭÐ¼
ĠÐŁ ÑĢÐ¾Ð±Ð»ÐµÐ¼Ð°
ĠÐ¿ÑĢÐ¾Ð¸Ñģ ÑħÐ¾Ð¶Ð´ÐµÐ½Ð¸Ðµ
ĠÑĥÑģÐ¿Ðµ ÑħÐ¸
ĠÐ¿ÑĢÐµÐ´Ð¿Ð¾Ð»Ð°Ð³Ð° ÑĤÑĮ
Ð½Ð¸ÑĨ ÐµÐ¹
ĠÐ¿Ð¾ÑģÑĤÑĢÐ¾ Ð¸ÑĤÑĮ
ĠÐĴ ÑĢÐµÐ¼ÐµÐ½
ÐĿ Ð°Ð»Ð¸ÑĩÐ¸Ðµ
Ð½ÑĥÑĤ Ð¾Ð¹
ĠÑĥÐ¿ Ð¾ÑĢ
Ð¾Ð³ÑĢÐ°Ð¼ Ð¼Ñĭ
ĠÐ±Ð°Ð· Ð¾Ð²ÑĭÐµ
ĠÐ½Ð°ÑģÑĤÑĢÐ¾ ÐµÐ½Ð¸Ñı
ĠÐ²ÐµÐ½ ÑĩÑĥÑĢ
Ð³Ð° Ð»Ð¸
Ð¡ ÑĢÐµÐ´
ÑģÑĤÑĢÐ° Ð½Ð¸ÑĤÑĮ
ĠÑĤÐµÑĢÐ¼Ð¸Ð½ Ð¾Ð»Ð¾Ð³Ð¸Ð¸
ĠÐ¿Ð¾Ñģ ÐµÑĤÐ¸
ĠÐ²Ð·Ð°Ð¸Ð¼ Ð¾Ð´Ðµ
ĠÐ²Ð· Ð²Ðµ
ĠÐ²ÑĭÐ¿ÑĥÑģÐº Ð½Ð¸ÐºÐ¸
ĠÐļÑĢÐ° Ñģ
ĠÐ°ÑĢÐµ ÑģÑĤ
ĠÐ½Ð° ÑĨÐ¸Ð¾Ð½Ð°Ð»Ð¸
ÑĢÐ°Ð² ÐµÐ´
ÑģÐµ ÑĤÐµ
ĠÐ¼Ð° Ð³Ð°
ĠÐ½Ð°ÑĩÐ° Ð»Ð°ÑģÑĮ
ĠÐ½Ð¾ÑĢÐ¼Ð° Ñħ
ÑģÑĤÐ²Ñĥ Ñı
ĠÐ½Ð°Ð¸ Ð»ÑĥÑĩ
ÑģÐ¸ ÑĤ
ĠÐ¡ Ð²
ĠÑģÑĥÑīÐµÑģÑĤÐ² Ð¾Ð²Ð°Ð½Ð¸Ð¸
ĠÐ¸Ð½Ð¾ÑģÑĤÑĢÐ°Ð½ Ð½ÑĭÐ¼
ĠÑĢÐµÐ´ÑĥÐ¿ Ð»Ð¸ÐºÐ°
ÐºÑĥ Ð´Ð°
ĠÐ¿ÐµÑĢÐµ Ð¿Ð¸
ĠÐ°ÐºÑĤÐ¸Ð² Ð½ÑĭÑħ
ĠÑģÑĥÑīÐµ ÑģÑĤÐ²ÐµÐ½
ĠÐ¿ÑĢÐ¸Ð¾ÑĢÐ¸ÑĤÐµ ÑĤÐ¾Ð²
ĠÐ¿Ð°ÑĢÐ°Ð»Ð»Ðµ Ð»ÑĮÐ½Ð¾
ĠÐºÐ¾Ð½ÑĦÐ¸ Ð³ÑĥÑĢÐ°
ĠÐºÑĢÐµÑģÑĤÑĮÑı Ð½Ðµ
ÑģÑĤÐ¸ ÐºÐµ
Ð½Ð¸Ð¼Ð° Ñı
Ð¾ÑĢÐ° ÑĩÐ¸
ĠÐ½Ð¾Ð² Ð¾
ĠÑĩÐ¸Ñģ Ð»Ð¾Ð¼
ĠÐ½ÐµÐº Ð¾Ð½
ĠÐ³Ð¾Ð²Ð¾ÑĢÐ¸ Ð»Ð¸
ĠÐ¡Ðµ Ð³Ð¾Ð´Ð½Ñı
ĠÐ¿ÑĢÐµÐ´Ð¿Ð¾ÑĩÑĤ ÐµÐ½Ð¸Ñı
Ð½Ð¾Ð´ Ð¾ÑĢÐ¾Ð¶
ĠÐ¿ÑĢÐ¸ Ð³Ð¾Ð²Ð¾ÑĢÐ°
Ð¿Ð¸ Ð¸
Ð¼Ð°Ð½ ÑģÐºÐ¾Ð¹
ĠÐ·Ð½Ð° Ð¼ÐµÐ½Ð¸
Ð²Ð¾ ÑģÑĤÐ¾
ĠÐ¸Ð½Ð¾ ÑıÐ·Ñĭ
ÐĹÐ°Ðº Ð»ÑİÑĩÐµÐ½Ð¸Ðµ
ĠÐ¸Ð½ ÑģÐ¿ÐµÐº
ĠÐ¢ ÑĢÐ¾
ĠÑģÑĢÐµÐ´ Ð½ÑıÑı
ÑĪÐµÐ½ Ð½Ð¾Ð³Ð¾
ĠÐ·ÐµÐ¼Ðµ Ð»ÑĮÐ½Ð¾Ð³Ð¾
ĠÐ³ Ð¾
Ð»Ðµ Ð²Ð°
ĠÐ° ÑĢÐ°Ð±
Ð·Ð° Ð½Ð¸Ñı
ÐŁÑĢÐ¾ ÑĨÐµÑģÑģ
Ñı ÑĤÑĮÑģÑı
ĠÐ¿ÑĢÐµ ÑģÑĤ
ĠÐ´Ð° Ð²Ð»ÐµÐ½Ð¸Ñı
ĠÐ°ÐºÑĤÐ¸Ð² Ñĭ
ĠÐ·Ð°Ð½Ñı ÑĤÐ¾ÑģÑĤÑĮ
ĠÐ²Ð½ÐµÐ´ ÑĢÑı
ĠÐ¸Ð·Ð¼ÐµÑĢ ÐµÐ½Ð¸Ðµ
ĠÐļÐ¡ Ðŀ
ĠÑĢÐµÑģÐ¿Ð¾Ð½Ð´ÐµÐ½ ÑĤÐ°
ĠÐłÐ¾Ñģ ÑģÑĤÐ°
ÐĴ ÑĤÐ¾ÑĢÐ°Ñı
ĠÐŁ Ð¸
ĠÐ³ÑĢÐ° ÑĦÐ¸
ĠÑģÐ»Ð¾Ð¶ Ð½ÐµÐµ
ĠÐ·Ð°ÐºÐ¾Ð½Ð¾Ð´Ð° ÑĤÐµÐ»Ñı
ĠÐ²ÑĤÐ¾ÑĢ Ð¾Ðµ
ĠÐ¸Ð½Ð´Ñĥ ÑģÑĤÑĢÐ¸Ð¸
ĠÐļÐ¾ÑĢÐµ Ñı
ĠÐ¿ ÑĤÑĢÐµÐ±
ÑĤÐ¸ Ð·
ĠÐ¼ Ð¸ÑĤ
ĠÑĥÐ½Ð¸ Ð²ÐµÑģÐ¸
ĠÐ¾Ð¿Ð¸ÑģÐ° Ð½Ð¸Ñİ
ĠÐ¼Ð¾Ð´ÐµÑĢ Ð½Ð°
ĠÐ´Ð»Ð¸ ÑĤÐµÐ»ÑĮÐ½Ð¾Ð³Ð¾
ĠÐ¸Ð½ÑĤÐµÐ»Ð»ÐµÐºÑĤÑĥÐ°Ð»ÑĮ Ð½Ð¾Ð³Ð¾
ĠÐ°Ð½ÑĤÑĢÐ¾Ð¿ Ð¾Ð»Ð¾Ð³Ð¸Ð¸
ĠÑĨÐµÐ»Ð¾ÑģÑĤ Ð½Ð¾ÑģÑĤÐ¸
ÑĪ Ð¸ÑģÑĮ
ÑĨÐµ Ð²Ð°
Ðł Ð°Ñģ
ĠÐ½Ð°ÑĥÑĩ Ð½Ð¾Ðµ
ĠÐ¿ÑĢÐ¾ÑĪÐµÐ´ ÑĪÐµÐ³Ð¾
ÐĳÐµÐ· ÑĥÑģÐ»Ð¾Ð²Ð½Ð¾
ÑĤÐ¾Ð² ÑĭÑħ
ĠÑģÐ¾Ð² Ð¿Ð°Ð´
ĠÑģÐ¿Ð¾ÑģÐ¾Ð± Ð½Ð¾
ÐĹ Ð½Ð°
ĠÐ½Ð°Ñĥ ÐºÐ¾Ð¹
ĠÑĥÑĤÐ²ÐµÑĢ Ð´Ð¸
ĠÐ²ÑģÑĤÑĢÐµ ÑĤÐ¸
ĠÐ¼Ð°ÑĤÐµÐ¼Ð° ÑĤÐ¸ÐºÐ¸
ĠÑģÐ¾Ð²ÐµÑĢÑĪÐµÐ½ ÑģÑĤÐ²Ð¾Ð²Ð°Ð½Ð¸Ðµ
ĠÐ¿ÑĢÐµÐ´Ð¿Ð¾ÑĩÑĤ ÐµÐ½Ð¸Ðµ
ĠÐ¾Ð´ Ñĥ
ĠÐ¿Ð¾ÑĤ Ð¾Ðº
ĠÑĤÐµÑħÐ½Ð¸ ÑĩÐµÑģÐºÐ¾Ð³Ð¾
ĠÐĴÑĭ Ð³Ð¾ÑĤ
ĠÑĥÑģÑĤÑĢÐ¾Ð¹ ÑģÑĤÐ²Ð¾
ĠÐ³Ð¾Ð»Ð¾Ñģ Ð¾Ð²Ð°Ð½Ð¸Ñı
Ð½ ÑģÐºÐ¸Ð¹
ĠÐ¸ ÑģÑĤÐ¸ÑĤÑĥ
ÑĢÐ¸ Ð½Ð°
ĠÑĤÐ°Ðº Ð¾Ð²Ð¾Ð¹
ĠÐ¿ÑĢÐµ Ðº
Ð»Ð¾Ð¶ Ð¸ÑĤÑĮ
ĠÐ²ÐµÑĢ Ð½Ð¾
ÐµÑĢÑĤ Ð²
ĠÐ¿ÑĢÐ¾ÑĦÐµÑģÑģÐ¸Ð¾Ð½Ð° Ð»
ĠÑĢÐ¾Ð· Ð½Ð¸
ÑģÑĤÐ¸ Ð¸
Ð»Ñı Ð»Ð¸
ĠÐ·Ð°ÑĢÐ¿Ð»Ð° ÑĤÑĭ
ĠÑĢÐ¾Ð» ÐµÐ¹
ÐµÐ½ ÑģÑĤÐ²Ð¾
ĠÑģ ÐºÐµ
ĠÐ´ ÑģÑĤÐ¸
ĠÐ±ÐµÐ· ÑĥÑģÐ»Ð¾Ð²
ĠÐĿÐ° Ð¿ÑĢÐ¾ÑĤÐ¸Ð²
ĠÐ¼ÐµÑħÐ° Ð½Ð¸
ĠÑģÐ²Ð¾Ð¹ÑģÑĤÐ²Ð° Ð¼Ð¸
ĠÐ¼Ð¸Ñģ ÑģÐ¸Ð¸
ĠÐ½Ðµ Ð²Ðµ
ÐµÐ¹ Ðº
ÑĢÐ¾ Ð¸Ð·Ð²Ð¾Ð´
ĠÐ¿ÑĢÐ¾Ð¸Ð· Ð²Ð¾
ĠÐ³ÑĢÐ° ÑĦÐ¸ÑĩÐµÑģÐº
ĠÐ´Ð¾Ð¼ Ð¸Ð½Ð°Ð½
ĠÐ¿ÐµÑĢÐµÐ´Ð° ÑĤÑĮ
ĠÐ°Ð¿Ð¿Ð°ÑĢÐ° ÑĤ
ĠÑħÐ¾ÑĤ ÑıÑĤ
ĠÑģÐ°Ð¼Ð¾Ð¾ÑĨÐµÐ½ ÐºÐ¸
Ð¸ÑĩÐµÑģÐº Ð¾Ð¼Ñĥ
ĠÐ¾Ð±ÑĢÐ°Ð·Ð¾Ð²Ð° ÑĤÐµÐ»ÑĮÐ½ÑĥÑİ
ÑīÐµÐ½ Ð½Ð¾ÑģÑĤÐ¸
ĠÑģÐµÐ»ÑĮÑģÐºÐ¾ÑħÐ¾Ð·ÑıÐ¹ ÑģÑĤÐ²ÐµÐ½Ð½Ð¾Ð¹
Ð¼Ð° Ð¼Ð¸
ĠÑģÐ°Ð¼ Ð¾Ð¿
ĠÑĨÐµ Ð»ÑıÐ¼
ĠÐľÐ¾Ð½ Ð³
ĠÑĥ Ð´ÐµÑĢÐ¶Ð°
Ð´Ð° ÑĩÐ¸
ĠÐ½ÐµÐ´ ÐµÐ¹ÑģÑĤÐ²
ĠÑģÑĥÐ´ ÑĮÑı
ĠÐ¿ÑĢÐ¾Ð±Ð»ÐµÐ¼Ð° ÑĤÐ¸ÐºÐ¸
ĠÐ½ÐµÑĥ Ð´Ð¾Ð²Ð»ÐµÑĤ
ĠÐ´ÐµÑı ÑĤÐµÐ»ÐµÐ¹
ĠÐĿÐ¾Ð² Ð¾Ñģ
ĠÑį Ð³Ð¾
ÑĢÐµÐ· ÑĥÐ»ÑĮÑĤÐ°
ĠÑģÐ¾Ð²ÐµÑĤ Ð¾Ð²
ĠÑģÑĥÐ´ Ñı
ĠÑģÐ½Ð¸Ð·Ð¸ ÑĤÑĮ
ĠÐ´Ðµ Ð¿ÑĢÐµ
ĠÐºÐ¾Ð¼ Ð½Ð°
ĠÐ¸ÑģÐ¿ Ð°Ð½
ĠÐºÐ¾Ð½ÐºÑĥÑĢÐµÐ½ ÑĨÐ¸Ñı
ĠÐ¿ÑĢÐ¾ÑģÑĤ Ð¾Ð³Ð¾
ÐŁÐµÑĤÐµÑĢÐ±ÑĥÑĢ Ð³Ð°
ĠÐ¿ÑĢÐ¾Ð¸Ð· Ð²Ð¾Ð»ÑĮ
Ð¾Ð²Ð°Ð½ Ð½ÑĭÐ¼
ĠÐºÐ¾Ð½ÑĤÐµÐº ÑģÑĤÑĥ
ĠÐ½Ð°Ð¿ÑĢÐ°Ð²Ð»ÐµÐ½Ð¸Ñı Ñħ
ĠÐ³ÐµÑĢ Ð¾ÐµÐ²
ĠÑģÐ¾Ð¿ÑĢÐ¾ÑĤÐ¸Ð² Ð»ÐµÐ½Ð¸Ñı
ĠÐĿÐ¾ÑĢ Ð²Ðµ
ĠÐ¿ ÑģÐºÐ¾Ð»ÑĮÐºÑĥ
ĠÐº ÐµÐ¼
ĠÐ· Ð¸Ð¼
ĠÐ¢ Ð¸Ñħ
ĠÑĢÐ°Ð·Ð²Ð¸ ÑĤÐ¾Ð¹
ÑģÑĤÐ¸ÑĩÐµÑģÐº Ð¾Ð¼
ĠÐ³ÑĢÐ°Ð¶Ð´Ð° Ð½Ð°Ð¼
ĠÐ¸ÑģÐ»ÐµÐ´ Ð¾Ð²Ð°Ð½Ð¸Ñı
ÑĢÐ° Ð¹
ĠÐ·Ð° Ð¼ÑĭÑģ
ĠÐ¼Ð° Ð¹
ĠÐ¿ÑĢÐ¾ÑĤÐ¸Ð² Ð½Ð¾Ð¼
ĠÑĢÐ°Ð¼ ÐºÐ°Ð¼Ð¸
ĠÑģÐ¾ÑĤÑĢÑĥÐ´ Ð½Ð¸
ĠÑĢÐµÐ³ÑĢÐµ ÑģÑģÐ¸Ð¾Ð½
ĠÐ·Ð°Ð´Ð¾Ð» Ð¶ÐµÐ½Ð½Ð¾ÑģÑĤÐ¸
ĠÐ¿Ð¾Ð» Ð½ÑĥÑİ
Ðŀ Ð½Ð¾
ĠÐ¼Ð¾Ð¼ ÐµÐ½ÑĤÑĭ
ĠÐ±Ð°Ð· Ð¾Ð¹
ĠÐ´Ð¾Ð»Ð³Ð¾ÑģÑĢÐ¾ ÑĩÐ½Ð¾Ð¹
ĠÐ²Ð¾ÑģÐ¿ÑĢÐ¸Ñı ÑĤÐ¸Ð¸
ĠÐ² Ð²ÐµÑģÑĤÐ¸
ĠÑģÐ¾ ÑģÑĤÑı
ĠÑħÐ¾Ð·ÑıÐ¹ ÑģÑĤÐ²Ðµ
ĠÐ¿ÑĢÐµÐ´Ð¾ÑģÑĤÐ° Ð²Ð¸ÑĤÑĮ
ĠÐ¿Ð¾Ð± ÑĥÐ´Ð¸
ĠÐ³Ð¸Ð¼Ð½Ð° Ð·Ð¸Ð¸
ÑĢÐ°Ð½ Ñģ
ĠÐ¿Ð¾ÑģÑĤÐ¾ÑıÐ½ Ð½Ð¾Ð¹
ĠÐ¸ Ð¿Ð¾ÑĤÐµ
Ð¡ Ð»Ð¾Ð¶
ĠÐºÐ¾Ð½ÑģÑĤÑĢÑĥÐº ÑĨÐ¸ÑıÑħ
ĠÐ²ÐµÐ´ ÐµÑĤÑģÑı
ĠÐºÐ²Ð° Ð´ÑĢÐ°
ĠÐł Ð°Ñģ
ĠÐ¾ÑĢ Ð½Ð°
ĠÐ¸ÑģÐ¿Ð¾Ð»ÑĮÐ·Ð¾Ð²Ð° Ð»ÑģÑı
ĠÐ²Ð¾Ð²Ð»Ðµ ÑĩÐµÐ½Ð¸Ñı
ĠÐĽÐ° ÑĤÑĥÑĢÐ°
ĠÐ¿Ð°ÑĤÑĢÐ¸ Ð°ÑĢ
Ð¾ÑģÐ½Ð¾Ð²Ð° Ð½
ĠÐ¿Ð¾Ð»Ð¸ÑĤÐ¸ ÐºÐ¾Ð²
ĠÐ°Ð» Ð±Ð°Ð½
ÐºÐ¾Ñģ Ð½Ð¾Ð²
ĠÐ½ Ð¾Ð²Ð°
ĠÐ»Ð¸ Ð´Ð¸
ĠÐ¿ÑĢÐ¾ÑĦÐµÑģÑģÐ¸Ð¾Ð½Ð°Ð»ÑĮ Ð½ÑĥÑİ
Ð§ Ðµ
ĠÐ¿ÑĢÐ¸Ð²Ð¾Ð´ ÑıÑĤÑģÑı
ĠÐ±Ð°Ð½ÐºÐ¾Ð² ÑģÐºÐ¾Ð¹
, .
Ð¿Ð¾Ð» Ð½ÐµÐ½Ð¸Ðµ
ĠÐ²Ð¸ Ð½Ñĭ
ĠÐºÐ¾ÑĤÑĢ ÑĭÑħ
ĠÐ¼Ð³ ÑĥÑĤ
ĠÐ½Ð° Ð¿Ð°Ð´
ĠÐ¿ÑĢÐ¾Ð¸Ð· Ð²
ĠÐ£ Ð¶Ðµ
ĠÐºÐ¾ Ð°Ð»Ð¸
ĠÑĢÐ°Ð·ÑĢÐ°Ð±Ð¾ÑĤ Ð¾Ðº
ÑīÐµÐ¹ ÑģÑı
Ð¾Ð»ÑĮ Ð½ÑĭÑħ
ĠÑģÐ¾Ð¾Ð± Ñī
Ñı ÑĤÐ¸Ð¹
ĠÐ¿Ð¾Ð´ ÑģÐ¸ÑģÑĤÐµÐ¼
ĠÑįÐº Ð¾Ð»Ð¾Ð³Ð¸ÑĩÐµÑģÐºÐ¸Ñħ
ĠÐ³Ð»Ð° ÑģÐ½ÑĭÑħ
ĠÐ²ÑĭÑĢÐ°Ð¶ ÐµÐ½Ð¸Ð¸
ĠÑĤÑĢÐ°ÐµÐºÑĤÐ¾ÑĢÐ¸ Ð¹
Ð±Ñİ Ð´Ð¶ÐµÑĤ
ÑĢÑĥ ÑİÑīÐ°Ñı
ÑĩÐ¸ ÑģÐ»Ð¸
Ð»Ð¾Ð¶ ÐµÐ½Ð¸Ð¸
ĠÐ³Ð¾ÑģÑĥÐ´Ð°ÑĢÑģÑĤÐ²ÐµÐ½ Ð½ÑĥÑİ
ĠÑĥÐ¿ÑĢÐ°Ð² Ð»ÑıÑĤÑĮ
ĠÐ³ÑĢÐ° Ð¼
ĠÐ¾Ð¿Ñĭ ÑĤÐµ
ĠÐ¾Ð± ÑħÐ¾Ð´
Ð¸Ñģ Ð°Ð»
ĠÐ¶Ðµ ÑģÑĤÐ¾Ð²
ÑīÐ° ÑİÑīÐ¸Ñħ
ĠÐ¶ÐµÑĢÑĤ Ð²
ĠÐ¾ÑģÑĥÐ¶Ð´ÐµÐ½ Ð½ÑĭÑħ
Ð¾Ð¼ ÐµÑĤÑĢÐ¸
ĠÐ° Ñĥ
ĠÑĨÐµÐ½Ð½Ð¾ÑģÑĤ ÑıÐ¼
ĠÐ´Ð¾ÑģÑĤÐ¸Ð³Ð° ÐµÑĤÑģÑı
ĠÑħÑĢÐ°Ð½ ÐµÐ½Ð¸Ñı
Ð¾Ð²Ð° Ð»ÑģÑı
Ð²Ð° ÑİÑīÐµÐµ
ĠÐ¿ÑĢÐ¾ ÑģÑĤÑĢÐ°
Ð¾Ð½Ð° Ð½
ĠÐ²Ðµ ÑĢÐ¸
ĠÐºÐ¾Ð½ÑģÑĤÐ¸ÑĤÑĥ ÑĨÐ¸Ð¾Ð½Ð½ÑĭÐµ
ĠÐ¿ÑĢÐ¸Ð²Ð¾Ð´ Ð¸ÑĤÑĮ
ĠÐĴÐµÑĢ Ñħ
ĠÐĲÐ² ÑģÑĤÑĢÐ°
ĠÑĥÑĢ Ð¾Ð¶
Ð¸Ð¼ ÑĭÐ¼
ĠÐļÐ° ÑĢÐ°
ĠÐ¿Ð¾ÑģÐ²ÑıÑīÐµÐ½ Ñĭ
ĠÑĢÐµÐ°Ðº ÑĨÐ¸Ñİ
ĠÐ½ÐµÑĦ ÑĤÑı
ĠÐ°Ð¿ÑĢÐµ Ð»Ðµ
ĠÑįÐºÑģÐ¿Ð»ÑĥÐ° ÑĤÐ°ÑĨÐ¸Ð¸
ĠÐ¿ Ð°Ð½
ĠÑį ÑĦÐµÐºÑĤÐ¸Ð²
ÑĢÐ¾Ð² ÐµÐ´
Ð¡ ÑĤÑĢÐ°
ĠÐ¼Ð½Ð¾Ð³ Ð¸Ð¼
ĠÐ²Ð¿ Ð¸ÑģÑĭ
Ð²Ð° ÑİÑīÐ¸ÑħÑģÑı
Ð¾Ð»Ð¸ Ñĩ
Ð½ÐµÐ½ Ð½ÑĭÐ¼
ĠÑĤÐ¸Ð¿Ð° Ð¼Ð¸
ĠÐ°ÑĢÐ³Ñĥ Ð¼ÐµÐ½ÑĤÐ¾Ð²
ĠÐ±Ð°Ð» Ð»Ð°
ĠÑģÑĤÐ¾Ð»Ðº Ð½Ð¾Ð²ÐµÐ½Ð¸Ñı
ĠÐ´Ð¸ÑģÐ¿ ÐµÑĢ
ĠÐĿ ÐµÑĤ
ĠÐ¾ÑģÑĤÐ° Ð²Ð°Ð»Ð¸ÑģÑĮ
ĠÑĤÑĢÐ°Ðº ÑĤ
ĠÐ± ÑĢÐ¾Ð½
Ð¸ÑģÐ° Ð½Ð¸Ñı
ĠÑĩÑĤ ÐµÐ½Ð¸Ðµ
ĠÐ¿ÑĢÐµÐ¿Ð¾Ð´Ð°Ð²Ð° ÑĤÐµÐ»ÑĮ
ÐĺÑģÐ¿ Ð¾Ð»ÑĮÐ·Ð¾Ð²Ð°Ð½Ð¸Ðµ
ĠÐ±Ñĭ ÑĤ
ĠÐ·Ð°Ðº Ð°
ĠÑĢÐ°ÑģÐ¿ÑĢÐ¾ÑģÑĤÑĢÐ°Ð½ ÑıÐµÑĤÑģÑı
ĠÐ½Ñĥ Ð»Ðµ
ĠÐ·Ð°ÑģÐ»ÑĥÐ¶Ð¸ Ð²Ð°ÐµÑĤ
Ñı Ð³Ð°
ĠÐ´Ð¾Ð» Ð³Ð¾Ðµ
ÑĪÐµÐ½ Ð½Ð¾Ð¹
Ð¶ÐµÐ½ Ð°
ĠÐ¿ÑĢÐµÐ¾Ð´ Ð¾Ð»Ðµ
ĠÐ¿ÑĢÐµÐ´ÑģÐµÐ´Ð° ÑĤÐµÐ»Ñı
ĠÐ³Ð¾Ð¼ Ðµ
ĠÑĥÑĩÐ¸Ð»Ð¸ ÑīÐ°
Ñĥ Ð·Ñĭ
Ð³ Ð³
ĠÐ¿Ð° Ð´ÐµÐ½Ð¸Ðµ
ĠÐ½Ð°ÑģÐµ Ð»ÐµÐ½Ð¸Ñİ
Ð½ÐµÐ½ Ð½Ð¾Ð¹
ĠÐ¿ÐµÑĢÐ¸Ð¾Ð´ Ð¾Ð²
ĠÐ¸Ð½Ð²Ð°Ð»Ð¸Ð´ Ð½Ð¾ÑģÑĤÐ¸
ĠÐ¸ ÑģÑĤÐµ
ĠÑĢÐ°ÑģÑģÐ¼Ð°ÑĤÑĢÐ¸ Ð²Ð°Ð»Ð¸ÑģÑĮ
ĠÐ½ÐµÐ´ Ð²Ð¸
ĠÑģÑĢÐ°Ð² Ð½Ð¸ÑĤÑĮ
ĠÑģÐ¾Ð±ÑģÑĤÐ²ÐµÐ½ Ð½ÑĭÐ¼
ĠÐºÐ°ÑģÐ° ÑİÑīÐ¸ÑħÑģÑı
ĠÐºÐ¾Ð¼Ð¸ ÑĤÐµÑĤ
ĠÑģÑĤÐ°Ð²Ð¸ ÑĤÑģÑı
Ð¼ ÑĤÑĢÐ¸
ĠÐ¿ÑĢ ÑĨÐµ
ÐºÐ¾Ð² Ð¾Ð³Ð¾
ĠÐł ÐµÐ¹
Ð¸Ð½ ÑĤÐµÑĢ
ĠÑģÑĤÑĢÐ° Ð½Ð¾Ð¹
ĠÐºÐ¾Ð½ÑģÑĤÐ¸ÑĤÑĥ Ð¸
ĠÐº Ð°Ð»ÑĮ
ĠÐ¿Ð¾ÐºÐ¾Ð» ÐµÐ½Ð¸Ðµ
ĠÐ¿ÑĭÑĤÐ° ÑİÑĤÑģÑı
ĠÑĢÑĥÐ±Ðµ Ð¶Ðµ
ĠÐ´ÐµÑĤ Ð°Ð»ÑĮÐ½Ð¾
ÐłÐ°Ð· Ð²Ð¸ÑĤÐ¸Ðµ
ĠÑĥÑģÐ²Ð¾ ÐµÐ½Ð¸Ñı
ĠÑĢÐµ Ðµ
ĠÑĤÑĢÐ° Ð³
ĠÐºÐ¾Ð½ÐºÑĥÑĢÐµÐ½ ÑĤÐ½Ð¾Ð¹
ĠÑĥÑĤÐ²ÐµÑĢÐ¶Ð´Ð° ÑİÑĤ
ĠÐ²ÐµÐ»Ð¸ÑĩÐ¸ Ð½Ñĥ
ĠÐ¿Ð¾ÑĤÐµÐ½ÑĨÐ¸Ð°Ð» Ð¾Ð¼
ĠÐ¡Ð°Ð¼ Ð¾
Ð³ Ð¸Ð¹
ĠÑĨÐµ ÑĢÐµÐ¼
ĠÐºÐ¾Ð¼Ð¿Ð° Ð½Ð¸ÑıÐ¼Ð¸
ĠÐ¤ÑĢÐ°Ð½ ÑĨÐ¸Ñı
Ð¸ÑĤÐµÐ»ÑĮ Ð½ÑĭÐ¼Ð¸
Ð¾Ð½Ðµ Ñĩ
ĠÐ¿ÑĢÐ¸ÑħÐ¾Ð´ ÑıÑĤ
ÑģÐ»Ð° Ð²ÑıÐ½
Ð¼Ðµ ÑģÑĤÐ¸
ĠÑģÑĤÑĥÐ´ÐµÐ½ ÑĩÐµÑģÐºÐ¾Ð¹
ĠÑĤÐ²Ð¾ÑĢ ÑĩÐµÑģÐºÐ¾Ð³Ð¾
ĠÐŁÐµÑĤÐµÑĢÐ±ÑĥÑĢ Ð³
ĠÐ± Ð¾Ð»Ð¸
Ð¾Ðº Ð¸Ð¹
ĠÑĥÑĩÐ¸ ÑĤÐµÐ»ÑıÐ¼Ð¸
ĠÐ¸ÑģÑģÐ»ÐµÐ´Ð¾Ð²Ð°ÑĤÐµÐ»ÑĮ ÑģÐºÐ¾Ð³Ð¾
ĠÐ¸ÑģÐºÑĥÑģ ÑģÑĤÐ²
ĠÑģÑĢÐ¾Ðº Ð¾Ð²
ĠÐºÐ¾Ð¼Ð¸Ñģ ÑģÐ¸Ñı
ĠÐ´ÐµÐº Ð»Ð°ÑĢÐ¸
Ð³Ð¾ÑĢÐ¾Ð´ ÑģÐºÐ¾Ð¹
ÑģÑĤÐ² ÑĥÑİÑīÐµÐ³Ð¾
ĠÐ½ÐµÐ¿Ð¾ÑģÑĢÐµÐ´ ÑģÑĤÐ²ÐµÐ½Ð½Ð¾Ðµ
ĠÐ½ÐµÐ·Ð°Ð²Ð¸ÑģÐ¸ Ð¼ÑĭÑħ
ĠÑıÐ²Ð» ÐµÐ½Ð¸ÐµÐ¼
ĠÐ¿Ð¾ÑģÐµÑģÑģÐ¸Ð² Ð½Ð¾ÑģÑĤÐ¸
ĠÐºÐ¾Ðº ÑĢÐµÑĤ
ĠÑĥ Ð±ÐµÐ¶Ð´ÐµÐ½
ĠÐ¿ÑĢÐµÐ´ÑģÑĤÐ° ÐµÑĤ
ĠÐµÐ´Ð¸ Ð½ÑĥÑİ
ĠÑģÐ¾Ð¾ÑĤÐ½Ð¾ ÑĪÐµÐ½Ð¸Ð¸
Ð°Ðº Ð°Ð½
ĠÐ¸Ð½ ÑģÐ°Ð¹Ð´ÐµÑĢ
ĠÐ¼ÐµÑĤÐ¾Ð´ Ð¾Ð»Ð¾Ð³Ð¸Ñı
ĠÐ¿Ð¾Ð»ÑĥÑĩ ÐµÐ½Ð¸Ð¸
ĠÐ¾ÑĤÑĢÐ°Ð¶Ð° ÐµÑĤÑģÑı
ĠÑįÐ»ÐµÐºÑĤÑĢÐ¾Ð½ Ð½ÑĭÑħ
ĠÐ½Ð¾ÑģÐ¸ ÑĤÐµÐ»ÑıÐ¼Ð¸
ÐŁ Ð¡
ĠÑģÐµ ÑĢÐ¸Ð¸
ĠÐ¿ÑĢÐµÐ´Ð¼ÐµÑĤ Ð½Ð¾Ð¹
ĠÐ²ÑħÐ¾Ð´ Ð¸Ð»Ð¸
ĠÐ¾ÑĤÐ²ÐµÑĩÐ° ÑĤÑĮ
ĠÐ½ÐµÐ´Ð²Ð¸ Ð¶Ð¸Ð¼
ĠÐ·Ð½Ð° ÐºÐ°
ĠÐ¥ Ð¾ÑĢ
ĠÐ·Ð°Ð²Ð¸ÑģÐ¸ Ð¼Ð¾Ð¹
ĠÐºÐ°ÑĢ ÑĤÑĭ
ĠÐ¾Ð±Ð¾Ð·Ð½Ð° ÑĩÐ¸ÑĤÑĮ
ĠÐ½Ð° ÑģÑĤÑĥÐ¿Ð»ÐµÐ½Ð¸Ñı
ĠÑģÐºÐ° Ð·ÑĭÐ²Ð°ÐµÑĤÑģÑı
ĠÐ´ÐµÑģÑıÑĤÐ¸Ð»ÐµÑĤ Ð¸Ðµ
ĠÐ¿Ð¾Ð´Ð»ÐµÐ¶Ð° ÑĤ
ĠÐ±Ð»Ð°Ð³Ð¾Ð¿Ð¾Ð»ÑĥÑĩÐ¸ Ðµ
ĠÑĥÐ³ Ð¾Ð´
ĠÐ¸Ð·Ð²ÐµÑģÑĤ Ð½ÑĭÐ¹
ĠÐ¾ÑĦÐ¸ÑĨÐ¸Ð°Ð»ÑĮ Ð½Ð¾Ð³Ð¾
ĠÐļÐ° Ð¶Ð´ÑĭÐ¹
ĠÐ»ÐµÐºÑģÐ¸ ÑĩÐµÑģÐºÐ¸Ñħ
ĠÐ¾Ð¿Ñĭ ÑĤÑĥ
ĠÑģ ÐºÑĥ
ĠÐ½Ð° ÑĨÐ¸Ð½Ð°
ĠÐ¸Ñģ ÑħÐ¾Ð´Ð¸ÑĤ
ĠÐ´Ð¸ÑĦÑĦÐµÑĢÐµÐ½ÑĨÐ¸Ð° ÑĨÐ¸Ñı
ĠÑģ ÐµÐ½Ð°
Ð½Ð¾Ð¼ Ð¾ÑĢ
ĠÐĴÐ° ÑĪÐ¸Ð½Ð³
ĠÑģÐµÐ½ÑĤ ÑıÐ±ÑĢÐµ
ĠÑĥÑģÐ» Ð²Ð¸
Ð¾ Ñį
Ð¾Ð²Ð°Ð½ Ð½Ð¾Ð³Ð¾
ĠÐ¼Ð¾Ð» Ð¸ÑĤ
ĠÐ²ÑĭÑıÑģ Ð½Ð¸ÑĤÑĮ
ĠÐ¸Ð·Ñĭ ÑģÐºÐ°
ÑĢÑĥ ÑİÑīÐ¸Ð¼Ð¸
ĠÑĤÐµÑĢÑĢÐ¸ÑĤÐ¾ÑĢÐ¸ Ñı
ĠÑĤÐµÑĢÐ¼Ð¸ Ð½Ñĭ
ÑĢÐ¸ ÐµÐ²
ĠÐ½Ðµ Ð¿Ð¾
ĠÐŀ ÐĴ
ĠÐĳ Ð°Ð¹
ĠÐºÐ¾Ð½ÑĨÐµÐ¿ ÑĤÑĥÐ°Ð»Ð¸
ĠÑģÐ¾Ð±ÑģÑĤÐ²ÐµÐ½ Ð½Ð¾Ðµ
ĠÑĪÐ° Ð³Ð¾Ð¼
ĠÐ¢ Ðļ
ĠÐºÐ¾Ð½ÐºÑĢÐµÑĤ Ð½Ð¾
ĠÐ½Ð°Ð» Ð¾Ð³Ð¸
ĠÐ¼Ð»Ð°Ð´ ÑĪÐµÐ³Ð¾
ĠÑģÐ¾Ð´ÐµÐ¹ÑģÑĤÐ² Ð¸Ðµ
ĠÐ¿Ð°ÑģÑģÐ° Ð¶Ð¸
ĠÐ¿ Ñı
Ð± Ð¾Ð»
ĠÐ¿ÑĢÐµÐ´ÑģÑĤÐ°Ð²Ð¸ ÑĤÐµÐ»ÑĮ
ĠÐ¸Ð½Ð¾ÑģÑĤÑĢÐ°Ð½ Ð½ÑĭÐµ
ÐŁÐµÑĢ Ð²Ð°Ñı
ĠÑĥ Ð¿Ñĥ
ĠÐ½Ð°ÑĩÐ° Ð»ÑĮÐ½ÑĭÑħ
Ð¾Ð³ÑĢÐ°Ð¼ Ð¼Ð°
Ð¾ÑĢÐ¸ ÐµÐ½ÑĤÐ°
ĠÑģÑĥÐ´Ð° Ñħ
ĠÐ¿ÑĢÐ¾Ð¸Ð·Ð¾ÑĪ Ð»Ð¸
ĠÑĢÐµÐ´Ð°Ðº ÑĨÐ¸Ñİ
ĠÐ¿ÐµÑĢÐµÑĢÐ°ÑģÐ¿ ÑĢÐµÐ´Ðµ
ĠÐ´Ð¾ ÑģÑĤÑĥ
ĠÐ¼Ð°ÑĢ ÑĤÐµ
ĠÐ¿ÑĢÐ¸Ð²ÐµÐ´ÐµÐ½ Ð½ÑĭÑħ
ĠÐ¼Ð¾Ð»Ð¾Ð´ÐµÐ¶ ÑĮ
ĠÑģ Ð¾Ð³Ð»
ĠÐ¼ÐµÐ¶Ð´Ñĥ Ð½ÑĢÐ¾Ð´
Ðĵ Ð¡
ĠÐ¿Ð¾ÑĤÑĢÐµÐ± Ð½Ð¾ÑģÑĤÑıÐ¼Ð¸
ĠÐ·Ð°Ð³ ÑĢÑıÐ·
ĠÐ·ÐºÐ¾Ð½ Ð¾Ð´Ð°
Ð² Ð¾Ð½Ð°ÑĩÐ°
Ð´ Ð¾Ð±
ĠÐ´Ð¾ÑģÑĤÐ° ÑĤÐ¾ÑĩÐ½Ð¾Ð¹
ĠÐ¾ÑĢÐ¸ÐµÐ½ÑĤÐ¸ ÑĢÐ¾Ð²
Ð¡ ÑĥÐ´
ÑģÐ° Ð»
ĠÐ°Ðº ÑĤÐ¾ÑĢ
ĠÐ¡ ÑĤÐµÐ¿
ĠÐĲ ÐŁÐļ
ĠÐ¿ÑĢÐµÐ´ÑģÑĤÐ°Ð²Ð»Ñı Ð»Ð¸
ĠÑĩÐµÑĤÐ²ÐµÑĢ ÑĤÐ¸
ĠÐ¾Ð±ÑģÑĤÐ°Ð½Ð¾Ð² ÐºÐ¸
Ð½ Ð¼Ñĥ
ĠÑģÐ»Ð¾Ð¶ Ð½ÑĭÐ¼
ĠÐ·Ð½Ð° ÑİÑĤ
Ð½Ñĥ Ð½Ðµ
Ð½ÑĥÑĤ Ð¾Ð³Ð¾
ĠÑĨÐ°ÑĢ Ñı
ĠÐ´Ð¾ÑģÑĤÐ¾Ð¸Ð½ ÑģÑĤÐ²Ð°
ĠÑĪÑĤÑĢÐ° ÑĦ
ÐĶ ÑĢÑĥ
ĠÐºÐ¾Ð½ÑģÑĤÐ¸ÑĤÑĥ ÑĨÐ¸Ð¾Ð½
ĠÑģÐ´ÐµÐ»Ð° Ð»Ð¸
ĠÐ²Ð¿Ðµ ÑĢÐµÐ´
ĠÐ°Ð´ÐµÐºÐ²Ð° ÑĤÐ½Ð¾
ĠÐ³ ÑĢÐ¸
Ð½Ð¾ÑģÑĤ Ð½Ð¾Ð³Ð¾
ĠÑģÐ¾Ð·Ð´Ð° Ð½Ð½ÑĭÑħ
ĠÐ¿ÑĭÑĤÐ° Ð»Ð¸ÑģÑĮ
ĠÑĥÐºÑĢÐµÐ¿ Ð»ÐµÐ½Ð¸Ðµ
ÐŁÐµÑĤÐµÑĢÐ±ÑĥÑĢ Ð³Ðµ
ĠÐ°ÑģÐ¸Ð¼ Ð¼ÐµÑĤ
ĠÑĥ ÐµÐ·Ð´
ÑĤÐ¾Ð² Ð¾Ð¹
Ð½Ñı Ð¼Ð¸
ĠÑįÑĦÑĦ ÐµÐºÑĤÐ¸
ĠÑĤÐµÐº ÑģÑĤÑĥ
ĠÑĥÐ³Ð¾Ð»Ð¾Ð² Ð½ÑĭÑħ
ĠÑģÐ¿ÐµÑĨÐ¸Ð°Ð»Ð¸ Ð·Ð°ÑĨÐ¸Ð¸
ĠÐ¿ÑĢ Ð²Ð°
ĠÐĺ Ð¼Ðµ
ÑģÑģÐ¸ Ð¹
Ð¤ Ðŀ
ĠÑĢÐ¾ÑģÑģÐ¸Ð¹ ÑģÐºÐ°Ñı
ÑģÑĤÑĢÑĥÐº ÑĨÐ¸Ñı
ĠÑģÐ¾ÑĤÑĢÑĥÐ´ Ð½Ð¸ÐºÐ°Ð¼Ð¸
ĠÐĹÐ° Ð±Ð°Ð¹ÐºÐ°
ĠÐ¸Ð½ÑĤÐµÑĢÐ¿ÑĢÐµ ÑĤÐ¸ÑĢÐ¾Ð²Ð°ÑĤÑĮ
ĠÐ²Ð½ÐµÑģ ÐµÐ½Ð¸Ñı
ĠÐ²Ð¾Ð·Ð¼Ð¾ Ð½Ð¾ÑģÑĤÑĮ
ĠÐ±Ð°Ð½ÐºÑĢÐ¾ÑĤ ÑģÑĤÐ²Ð°
ÐĴ Ð¿ÑĢÐ¾ÑĩÐµÐ¼
ĠÑģÐ¿ Ð¸ÑĢ
Ð²Ð¾Ð´ Ñı
Ð±Ñĭ ÑĩÐ½Ð¾
ĠÐ¿ÑĢÐ¸Ð·Ð½Ð° ÐºÐ°Ð¼Ð¸
ĠÐ¾Ð³ÑĢÐ°Ð½Ð¸ÑĩÐ¸ Ð²Ð°ÐµÑĤÑģÑı
ĠÑģÐ»Ð°Ð²ÑıÐ½ ÑģÐºÐ¸Ñħ
Ñģ Ð¼ÐµÐ½
Ð»ÑĮ ÑģÐºÐ¾Ð¹
Ð¡ ÑĤÐ¾Ð¸ÑĤ
ĠÑĩÐµÐ»Ð¾Ð²Ðµ ÑĩÐµÑģÐºÐ¸Ð¹
ĠÐ²Ð¸Ð´Ðµ Ð¾
ÑģÑĤÑĢÐ¾Ð¹ ÑģÑĤÐ²Ð¾
ĠÑĢÐ°ÑģÐº Ð¾Ð¿
ĠÐ¼Ð°ÐºÑģÐ¸ Ð¼Ð¸
ÑģÑĤÐ°Ð²Ð»Ñı ÑİÑĤ
ĠÐ´Ð¸Ð°Ð»ÐµÐº ÑĤ
ĠÐ·Ð°Ð¸Ð½ÑĤÐµÑĢÐµÑģ Ð¾Ð²Ð°Ð½Ð½ÑĭÑħ
ĠÐ¿ÑĢÐ°Ð²Ð¾Ñģ Ð»Ð°
ĠÐ´ÐµÐ²Ñĥ ÑĪÐµÐº
Ð³ Ð¾Ð´Ð°
Ð°ÑĢ Ð³
Ðľ Ðŀ
ĠÐŁÑĢÐ°Ð²Ð¸ ÑĤÐµÐ»ÑĮÑģÑĤÐ²Ð°
ÐŃÐº Ð¾Ð½Ð¾Ð¼
ĠÐ¿Ð¾ÑĤ Ð¾ÐºÐ¸
ÑĨÐ¸Ð¾Ð½Ð°Ð»ÑĮ Ð½Ð°Ñı
ĠÐļÐ° ÑĢÐµ
ĠÑĥ ÑģÑĤÑĢÐ°Ð¸
ĠÑĥÑĩÐ° ÑīÐ¸Ð¼Ð¸ÑģÑı
ĠÑģÐ¾ÑĩÐµÑĤÐ° Ð½Ð¸Ñı
ĠÐĶÐ°Ð½ Ð½Ð¾Ðµ
ĠÑĤÐ°Ð±Ð»Ð¸ ÑĨÑĭ
ĠÐ´Ð¾Ð»Ð»Ð° ÑĢÐ¾Ð²
ĠÐ·Ð°ÑĤÑĢÐ¾Ð½ Ñĥ
Ð° Ð³
ĠÐ¸Ð½ Ð²ÐµÑģÑĤÐ¾
Ð´Ñĥ ÑĩÐ¸
ĠÐ½Ð°ÑĥÑĩ Ð½ÑĥÑİ
ĠÐļÐ° Ð·Ð°Ð½
Ð¾Ð³ÑĢÐ°ÑĦÐ¸ÑĩÐµÑģÐº Ð¾Ð³Ð¾
ĠÐ¿Ð¾Ð´ÑĤÐ²ÐµÑĢ Ð¶Ð´ÐµÐ½Ð¸Ñı
ÐĶÐ° Ð¶Ðµ
ÐŀÑģÐ¾Ð± ÐµÐ½Ð½Ð¾
ĠÐ´ÐµÐ²Ð¾ ÑĩÐµÐº
ĠÑģ ÐºÐ¾
ĠÐºÐ°ÑĩÐµ ÑģÑĤÐ²Ñĥ
ĠÑĤÐ²Ð¾ÑĢ ÑĩÐµÑģÐºÐ¾Ð¹
ĠÐ²Ðµ Ð±
ĠÑģÑĤÐ°ÑĤÑĮ ÑıÑħ
ĠÐļÐ¾Ð½ Ð²ÐµÐ½
ĠÑĢÐµÐ°Ð»ÑĮ Ð½Ð¾Ðµ
ĠÐ¿ÑĢÐ¸Ð½ÑĨÐ¸Ð¿ Ð¾Ð¼
ĠÐºÐ¾Ð½ Ð²ÐµÐ½ÑĨÐ¸Ð¸
ÐĹ Ð°ÐºÐ¾Ð½
ĠÐ²Ð½ÐµÑĪ Ð½Ð¸Ð¹
ĠÑĢÐ°Ð² Ð½
ĠÑĤ ÑĢÐµÐ¼Ñı
Ð²Ðµ Ð»Ð¸Ñĩ
ĠÐł Ð¸Ñģ
Ð³Ñĥ Ð»ÑıÑĢ
ĠÐ¾Ð±ÑĢÐ° ÑīÐ°ÐµÑĤ
ĠÑģÐµÐ¼Ð°Ð½ ÑĤÐ¸ÐºÐ¾Ð¹
ĠÐ¿Ð¾Ð´ÑĩÐµÑĢÐºÐ¸ Ð²Ð°ÑİÑĤ
ĠÑĤ ÑĢÐµÐ¼
ĠÐ¾ÑĤ Ñĩ
ĠÐ´Ðµ ÑĢÐ¸
Ð·Ñĭ Ðº
ĠÑĢÐµÐ°Ð»Ð¸ Ð·Ð°ÑĨÐ¸ÐµÐ¹
ĠÐ¿Ð¾Ð»Ð°Ð³Ð° ÑĤÑĮ
ĠÐ¾Ð´Ð¸Ð½Ð°ÐºÐ¾Ð² Ð¾
ĠÐ£ÐºÑĢÐ°Ð¸ Ð½Ðµ
ĠÐ½ÐµÑģÐ¾Ð²ÐµÑĢÑĪÐµÐ½Ð½Ð¾Ð»ÐµÑĤ Ð½Ð¸Ñħ
ĠÐĴÐ¾ÑĢ Ð¾Ð½ÐµÐ¶
ÐµÐ½ Ð½Ð¾Ð¼Ñĥ
ĠÐĶ ÐµÐ¹ÑģÑĤÐ²Ð¸ÑĤÐµÐ»ÑĮÐ½Ð¾
ĠÐ£ Ñĩ
ĠÑĥÑĩ Ñĳ
ĠÑģÐ¾Ð±ÑĭÑĤÐ¸Ñı Ñħ
ĠÐ¼ Ð¾ÑĢÐµ
ĠÑĥ ÑģÐ¿
ĠÐ´Ðµ ÑĪÐµ
Ð¢ ÑĢÐ°Ð´Ð¸
ÐĲ Ð½Ð°Ð»Ð¸
ĠÐ¿Ð¾ÐºÐ°Ð·Ð° Ð»Ð°
ĠÐ¾Ð±ÑĢÐ°Ð·Ð¾Ð²Ð° ÑĤÐµÐ»ÑĮÐ½Ð°Ñı
ĠÐĴÐ¾ ÑģÑĤÐ¾
Ð¢ Ð°
Ð²Ð°ÐµÐ¼ Ð°Ñı
ĠÑħÐ°ÑĢÐ°ÐºÑĤÐµÑĢÐ¸ÑģÑĤÐ¸ ÐºÐ¾Ð¹
ĠÐ¾ÐºÐ°Ð·Ð° Ð½Ð¸Ðµ
Ð¿ÑĢÐ¾ ÑĦÐµÑģÑģÐ¸Ð¾Ð½Ð°Ð»ÑĮ
ĠÑĪÐ¸ÑĢÐ¾Ðº Ð¸Ðµ
Ð¼Ð°Ð½ ÐµÐ½ÑĤ
ÐłÐ° ÑģÐ¿
ÑĮ ÐµÑĢÐ°
ĠÐ· ÑĢÐµ
ĠÐ¿ÑĢÐ¸ ÑĪÐµÐ»
ĠÐ¸Ð· ÑĥÑĩÐ¸ÑĤÑĮ
ÑĢÐ°Ð² Ð½ÐµÐ½Ð¸Ðµ
Ð¶ÐµÐ½ Ð½Ð¾Ð¹
ĠÐ¿ÑĢÐµÐ´Ð»Ð¾Ð¶ ÐµÐ½Ð½Ð¾Ð¹
ĠÑĢÐµÐ¹ÑĤÐ¸ Ð½Ð³Ð°
Ñİ ÑģÑĮ
Ð¿Ð¸ ÑĢÐ°
ĠÑĥÑĩÐµÐ± Ð½Ð¾Ð¼
ĠÑĩÐ»ÐµÐ½ Ð¾Ð¼
ĠÐ±ÑİÐ´Ð¶ÐµÑĤ Ð½Ð¾Ð¹
ĠÐ·Ð°Ð¸Ð¼ ÑģÑĤÐ²Ð¾Ð²Ð°Ð½Ð¸Ñı
ĠÐĴÐ»Ð°Ð´Ð¸ Ð¼Ð¸ÑĢ
ĠÑĢÐ°ÑģÐ¿ ÑĢ
ĠÑĢÐµÐ°Ð»ÑĮ Ð½ÑĭÐ¼
ĠÐ¾ÑĤÐ½Ð¾ÑĪÐµÐ½Ð¸Ñı Ð¼
ĠÐ¿Ð¾Ð»Ð¾Ð¶Ð¸ÑĤÐµÐ»ÑĮ Ð½ÑĭÐ¹
ĠÑħÑĢÐ°Ðº ÑĤÐµÑĢÐ¸
ĠÐĺÐļ Ð¢
ĠÑģÐ¿Ð¾ÑģÐ¾Ð± Ð½Ð¾ÑģÑĤÑĮÑİ
ĠÐ²Ð·Ð°Ð¸Ð¼ Ð¾Ð·Ð°
ĠÑģÑĤÐ°Ð½Ð´Ð°ÑĢ ÑĤ
ĠÐ±Ð°ÑĪÐºÐ¸ ÑĢ
ĠÑĢÐµ ÑĤ
ĠÑģÐ¾Ð·Ð´Ð° Ð½Ð¸ÐµÐ¼
ĠÐºÑĥÐ»ÑĮÑĤÑĥÑĢ Ð½ÑĭÐ¹
ĠÐ¾ÑĢÐ¸ÐµÐ½ÑĤÐ¸ ÑĢÐ¾Ð²Ð°ÑĤÑĮÑģÑı
ÑĤÐ¸Ð½ ÑģÐºÐ¾Ð¹
ÑĢ Ð¾Ð³Ð°
Ð´Ñĥ Ð¼Ñĭ
Ð»Ð¾Ð² ÑĭÑħ
ĠÐ½Ð¾ ÑıÐ±ÑĢÐµ
ĠÑĥÐ³Ð¾Ð»Ð¾Ð² Ð½Ð¾Ðµ
Ð¿Ð¾Ð·Ð¸ ÑĨÐ¸Ð¸
ĠÐ´Ð¾Ð±Ð°Ð²Ð»ÐµÐ½ Ð½Ð¾Ð¹
Ð³ ÑĥÐ±ÐµÑĢÐ½Ð°
ĠÐ½Ð° ÑĤÑĥÑĢÐ°
ĠÐ½Ð¾Ð² Ð¾Ð²
Ð±Ð° Ñħ
ĠÐºÐ¾Ð¼Ð¼ÑĥÐ½Ð¸ÐºÐ° ÑĨÐ¸Ñı
ĠÑģÐ²Ð¸Ð´ÐµÑĤÐµÐ»ÑĮÑģÑĤÐ² Ð¾Ð²Ð°ÑĤÑĮ
ĠÐ¿ÑĢÐ¸Ð¾Ð±ÑĢÐµÑĤ ÐµÐ½Ð¸Ðµ
ĠÑĤÑİ ÑĢÑĮ
ĠÑĦ ÑĢÐ°Ðº
ÐµÐº Ð¾Ð¼
ĠÐ¿Ð¾Ð»Ð¾Ð¶Ð¸ÑĤÐµÐ»ÑĮ Ð½Ð¾Ðµ
ĠÐ¿Ð¾Ð¸ÑģÐº Ðµ
ĠÐ³ÑĥÐ¼Ð° Ð½Ð¸
ĠÑĤÐ¾Ð»Ðº Ð¾Ð²Ð°Ð½Ð¸Ðµ
ÐļÐ° Ð¶Ð´ÑĭÐ¹
ĠÐ¿Ð¾Ð´ Ð¾ÑĤ
ĠÑģÐ¿ ÑĢÐ°Ð²Ð¸
ĠÐ´Ð¾Ð¿Ð¾Ð»Ð½Ð¸ ÑĤÐµÐ»ÑĮÐ½Ð¾Ðµ
ĠÑı Ðº
ĠÐ¿Ðµ ÑĤÐµÑĢÐ±ÑĥÑĢ
ĠÐ¾Ð±Ñī ÐµÐ½Ð°
Ð´Ð¾ ÑģÑĤÐ¸
ĠÐ¿Ð¾Ð»ÑĥÑĩ ÐµÐ½Ð½Ð¾Ð¹
ĠÐºÐ¾ÑĢÐ¿Ð¾ÑĢÐ° ÑĨÐ¸Ð¹
ĠÐ¾Ð·Ð½Ð° ÐºÐ¾Ð¼
ĠÑĦÐ¸ÐºÑģÐ° ÑĨÐ¸Ð¸
Ð¶ Ð½ÑĭÐ¼
Ð¿Ð° Ð´Ðµ
ĠÐ·Ð°Ðº Ð¾Ð½Ð¾
ĠÐ²Ð¸Ð´ Ð¾Ð¼
ĠÐĴÐµ Ð±ÐµÑĢ
ĠÐ²ÑĢÐ° Ñĩ
ĠÐ¡ ÐĴ
ĠÑįÐº Ð¾Ð»Ð¾Ð³Ð¸ÑĩÐµÑģÐºÐ¾Ð¹
ĠÐ²Ðµ ÑģÐ¾Ð¼
Ðľ Ð¸
ĠÑģÑĥÑīÐµ ÑģÑĤÐ²ÐµÐ½Ð½Ð¾Ð¹
ĠÐ²ÐºÐ»Ñİ ÑĩÐ¸ÑĤÑĮ
ĠÐ±Ð»Ð°Ð³Ð¾Ð¿Ð¾Ð» ÑĥÑĩ
ĠÐ¾Ð³ÑĢÐ¾Ð¼ Ð½Ð¾Ðµ
ĠÐĳÑĥÑĢ Ð´ÑĮÐµ
ĠÐ²ÑĭÐ±Ð¾ÑĢ ÐºÐ°
ĠÐ¸ÑģÐ¿Ð¾Ð» Ð½ÐµÐ½Ð¸Ð¸
ĠÐ·Ð°ÐºÐ»Ñİ ÑĩÐ¸
ĠÑĤÑĢÐµÑĤÑĮ Ð¸Ñħ
ĠÐ¿ÑĢÐ¾ÑĤÐ¸Ð² Ð¾Ð¿ÑĢÐ°Ð²
ĠÐ¿ÐµÐ½ÑģÐ¸ Ð¹
ĠÐ¾Ð±Ð¾Ð± ÑīÐµÐ½Ð¸Ñı
ĠÐ¾ÑĤÑħÐ¾Ð´ Ð¾Ð²
ÐºÑĢÐ¸ Ð·Ð¸Ñģ
ĠÐºÐ¾Ð» ÑħÐ¾Ð·
ĠÑģÐ¿ÐµÑĨÐ¸Ð°Ð»Ð¸ ÑģÑĤÐ°Ð¼Ð¸
ĠÐ²ÐµÐ´Ñĥ ÑīÐ¸Ðµ
ĠÐ´ÑĢÐµÐ² Ð½Ð¸Ñħ
ĠÑĢÐµÐ³ÑĢÐµ ÑģÑģÐ¸Ð¸
ĠÐ½Ð° ÑĢÐµÑĩÐ¸
ĠÐ¿ÑĢÐ¾ ÑĩÐµÐ³Ð¾
ĠÑģÐ¿ ÑĢÐ¾Ð²
ĠÐ¿ÑĢÐ¾Ð²Ð¾Ð´ Ð¸ÑĤ
ĠÐ¿Ð¾Ð»Ð¾Ð¶Ð¸ÑĤÐµÐ»ÑĮ Ð½Ð¾Ð¹
ĠÐ¾ÑĤÐ´ÑĭÑħ Ð°
ĠÐ°ÑĤÐ¼Ð¾Ñģ ÑĦÐµÑĢ
Ð¸ ÑĤÐµÐ»ÑıÐ¼Ð¸
ĠÐĿ Ð¾Ð²Ð¾Ð³Ð¾
ĠÐĵ Ð»Ð°
ĠÐĽ Ð¾
ĠÐ¿Ð¾ÑģÐ»ÐµÐ´ Ð½ÐµÐ¼
ĠÐ½ÐµÐ¼ÐµÑĨ ÐºÐ¾Ð¹
ĠÐ¿Ð¾Ð´ÑĩÐµÑĢÐºÐ¸ Ð²Ð°ÐµÑĤÑģÑı
ĠÐ¼ÐµÑģÑı ÑĨÐ°
Ð¾ÑĤ ÐµÐ½
ĠÑģÑĤÑĥÐ¿ ÐµÐ½Ð¸
ĠÐŀÑĢÐµÐ½ Ð±ÑĥÑĢÐ³
Ð» Ð¾ÐºÐ°
Ð²Ð° ÑĨÐ¸Ð¸
Ð¾Ð²Ð°Ð½ Ð½ÑĭÐ¹
ĠÑħÐ°ÑĢÐ°ÐºÑĤÐµÑĢÐ¸ÑģÑĤÐ¸ ÐºÑĥ
ĠÐ¿Ð¾ÑģÑĤÑĢÐ¾ ÐµÐ½Ð¸Ð¸
ĠÑħÐ¾ ÑĤÐµÐ»
ĠÐ¾ÑĤÐ½ÐµÑģ ÐµÐ½Ñĭ
ĠÐŃÐº Ð¾Ð½Ð¾Ð¼
ĠÑĥ ÐµÐ·Ð´Ð°
ĠÐ¿ÑĢÐµ Ð·ÐµÐ½ÑĤÐ°
ĠÑĦÐ¸ Ð³ÑĥÑĢ
ĠÐ²Ð½ÐµÑĪ Ð½Ð¸Ð¼Ð¸
ĠÑĥÑģÐ¿ÐµÑĪ Ð½Ð¾ÑģÑĤÑĮ
ĠÐ¿Ð¾Ð´Ð´ÐµÑĢÐ¶Ð° Ð½Ð¸Ðµ
ĠÐ¶ÐµÐ»ÐµÐ· Ð½Ð¾Ð´Ð¾ÑĢÐ¾Ð¶
Ð¾ÑĩÐµ ÑĢÐµÐ´
ĠÐ²Ð¾ÐµÐ½ Ð½Ð¾Ñģ
Ð¿Ð¾Ð»Ð¸ ÑĤÐ¸ÑĩÐµÑģÐºÐ¾Ð³Ð¾
ÐŀÑģÐ½Ð¾Ð² Ð½ÑĭÐµ
ĠÑģÐ»ÑĩÐ° Ðµ
ĠÐ¾Ð±ÑīÐµ ÑģÑĤÐ²ÐµÐ½Ð½ÑĭÐ¼
ĠÐłÐµÑģÐ¿ÑĥÐ±Ð»Ð¸ ÐºÐ°
ĠÐľÐ¸Ñħ Ð°
Ð½Ð¸ Ð»Ð¾ÑģÑĮ
ĠÐ¿ÑĢÐ°Ðº ÑĤÐ¸ÑĩÐµÑģÐºÐ¸Ðµ
ĠÐł Ðļ
ĠÑĤÐµÑħÐ½Ð¸ ÑĩÐµÑģÐºÐ¸Ðµ
ĠÐ¾ÑĤÑĩÐµÑĤ Ð»Ð¸Ð²Ð¾
ĠÐ½ÐµÑģÐ¾ ÑģÑĤÐ¾ÑıÑĤÐµÐ»ÑĮ
ĠÐļÐ¾Ð¼Ð¸ ÑĤÐµÑĤ
ĠÐ¾Ñģ Ð²ÐµÐ´Ð¾Ð¼
Ð´Ñĥ Ð¼
ĠÑģÐ¸ Ð»ÑĮÐ½ÑĭÑħ
ĠÑģÐµ Ð»Ðµ
ĠÐ¸ÑģÑģÐ»ÐµÐ´Ð¾Ð²Ð°Ð½Ð¸Ñı Ð¼
ĠÑĢÐ°Ð·Ð¼ÐµÑĢ Ñĭ
ĠÑįÐ¿Ð¸ Ð´ÐµÐ¼Ð¸
ĠÐ¿Ð¾Ð²ÐµÑĢÑħ Ð½Ð¾ÑģÑĤÐ¸
ĠÐ½Ðµ Ð³
ĠÐ¾Ð±ÑĬÑıÑģ Ð½Ð¸
ÑģÑĤÐ²Ð¾Ð²Ð° Ð»
ĠÑģÐ°Ð¼Ð¾ÑģÑĤÐ¾ÑıÑĤÐµÐ»ÑĮ Ð½Ð¾ÑģÑĤÑĮ
ĠÐ¾ÑĤ ÑģÑĥ
ÑĤÐ¸Ð² Ð¾Ð¼
ĠÐ¾Ð·Ð½Ð°ÑĩÐ° Ð»Ð¾
ĠÐ·Ð°Ð±Ð¾Ð»Ðµ Ð²Ð°Ð½Ð¸Ð¹
ĠÐº Ð¼
Ð½Ð¾ ÑģÑı
ĠÑĥ Ð²Ð»Ðµ
ĠÐ¾ÑĤ ÑĢ
Ðĵ Ðĳ
ĠÐ¸Ð½ÑĤÐµÑĢ Ð²Ð°
ĠÐºÐ°Ð¿Ð¸ÑĤÐ° Ð»Ð¾Ð²
ĠÐ²Ð¾ÐµÐ½ Ð½ÑĭÐ¹
ĠÑĢÐ°Ð·Ð½Ð¾Ð²Ð¸Ð´ Ð½Ð¾ÑģÑĤÐ¸
ĠÑı ÐºÑĥ
ĠÐł Ð¸
ĠÐ»Ðµ ÑģÐ¾Ð²
ĠÑģÐ¾Ð¾Ð± ÑīÐµÐ½Ð¸Ð¹
ĠÑģÐ»ÐµÐ´ÑĥÑİÑī ÐµÐ¹
ĠÐ¼Ð¾Ð½ Ð¾Ð³ÑĢÐ°ÑĦÐ¸Ð¸
ĠÐ¼Ð°ÑģÑĪÑĤÐ° Ð±Ñĭ
ĠÐ¿Ð¾Ð»ÑĮÐ·Ñĥ ÑİÑĤÑģÑı
ÐµÐ½ÑĤ Ð½Ð¾ÑģÑĤÐ¸
ĠÐ·Ð°Ð¿Ð°Ð´ Ð½Ð¾Ðµ
ĠÐºÐ»Ð°Ð´ Ð±Ð¸
ÑģÐ¸ Ðµ
ÐĿ Ðŀ
ĠÑģÐ»ÑĥÑĩÐ° Ñı
Ð³ÑĢÐ° ÑĦ
ĠÐ±Ð° Ð·Ð¸
ĠÑĢÐ°ÑģÑĩÐµÑĤ Ñĭ
Ð¾Ð¿ ÑĢ
ĠÐ»Ð¸ Ð·Ð¸Ð½
Ð¶Ð´Ð° ÐµÑĤ
ĠÐ¾ÐºÑĢÑĥ Ð³Ð¾Ð²
ÐµÑĢÐµ Ð¶
ĠÐ·Ð´Ð¾ÑĢÐ¾Ð² ÑĮÑİ
Ð¾ ÑĩÐ½ÑĭÐµ
ĠÐ¼Ð° ÑģÑģÐ¸Ð²
ĠÐ½Ð°Ð· Ð²Ð°Ð½Ð¸Ð¹
ĠÑįÐ¼Ð¿Ð¸ÑĢÐ¸ ÑĩÐµÑģÐºÐ¸Ðµ
ĠÐ¿Ð¾ÑıÐ²Ð¸ Ð»Ð°ÑģÑĮ
ĠÑģÐ²ÑıÐ·ÑĭÐ²Ð° ÑİÑĤ
ĠÑģÐµÐ³ Ð¼ÐµÐ½ÑĤÐ°
ĠÐ²Ð¾ÑģÑĤÐ¾ ÑĩÐ½Ð¾
Ðµ Ñħ
Ð¾Ð»ÑĮ Ð½Ð¾Ð¹
Ð½Ñı ÑĤÐ¸Ðµ
ĠÐ¿Ð¾Ð´ÑĢÐ¾Ð± Ð½ÐµÐµ
ĠÐ³Ð»Ð°Ð³Ð¾Ð» Ð°Ð¼Ð¸
ĠÐ¿Ð¾ÑıÐ²Ð» ÐµÐ½Ð¸Ñİ
ĠÐ±ÑĥÐ´ ÑĤÐ¾
ĠÑĢÐ°Ñģ ÑħÐ¾Ð¶Ð´ÐµÐ½Ð¸Ñı
ĠÐ¿Ð¾Ð¿ÑĭÑĤ Ð¾Ðº
ĠÑĢÐ°ÑģÑģ Ðµ
ĠÐµÐ´Ð¸ Ð½Ð¾Ðµ
ĠÐ²Ð¾Ð²Ð»Ðµ ÑĩÐµÐ½Ð½Ð¾ÑģÑĤÑĮ
ĠÐ¾Ñģ Ð½Ð°
ĠÐ¿ÑĢÐµÐ´ÑģÑĤÐ°Ð²Ð»Ñı ÑİÑĤÑģÑı
ĠÐ½ÐµÑģÐºÐ¾Ð»ÑĮ ÐºÐ¸Ð¼Ð¸
ĠÐ¿Ð°ÑĢÑĤÐ¸Ð¹ Ð½ÑĭÑħ
ĠÐ¾ÑĦÐ¸ÑĨ ÐµÑĢ
ĠÐ±Ð¾Ðµ Ð²ÑĭÑħ
ĠÑģ ÑĢÐ¾
ĠÐ¡ ÐµÐ½Ð°
ĠÐł ÐĲ
ĠÐ¾Ð¿ÑĢÐµÐ´Ðµ Ð»ÐµÐ½Ð¸Ð¹
ĠÑįÐºÐ¾Ð½Ð¾Ð¼ ÐµÑĤÑĢÐ¸
ĠÑģÑĥÐ± ÑģÑĤÐ°Ð½
ĠÐ¸ÑģÑĤÐ¾Ñĩ Ð½Ð¸ÐºÐ°Ð¼Ð¸
ĠÐ¾Ð³ ÑĢÐ½Ð¸
ĠÐ±Ð°ÑĢÑĮÐµÑĢ Ñĭ
ĠÑĢÐµÐ¿ÑĢÐµÐ· ÐµÐ½ÑĤÐ¸
ĠÑĦ Ð»
ĠÑģÐ¸ Ð»ÑĮÐ½ÑĭÐµ
ĠÐ¿ÑĢÐ¾Ð¸Ð·Ð²Ð¾Ð´ ÑģÑĤÐ²ÐµÐ½Ð½Ð¾Ð¹
ĠÑĥÑĩÐ°ÑģÑĤ Ð¾Ðº
ĠÐºÐ°ÑĢ ÑĤÐ¾
ĠÐ¿ÑĢÐ¾ÑĦÐ¸ Ð»Ñı
ĠÐ¸Ð»Ð» Ð¾ÐºÑĥ
ĠÐ¾Ð±ÑıÐ·Ð° ÑĤÐµÐ»ÑĮÐ½ÑĭÑħ
ĠÐ¿ÑĢÐ¾Ð´ÑĥÐº ÑĨÐ¸Ñİ
ĠÑĥÐ¿Ð¾ÑĤÑĢÐµÐ± Ð»ÐµÐ½Ð¸Ð¹
ĠÑĤÑĢÐ°Ð½ÑģÐ¿Ð¾ÑĢ ÑĤÐ½ÑĭÑħ
ĠÐ¸ÐµÑĢÐ° ÑĢÑħÐ¸
ĠÑĢÐ¾Ð´ÑģÑĤÐ²ÐµÐ½ Ð½Ð¸ÐºÐ¾Ð²
Ð¸Ð¼ Ð¾Ð³Ð¾
Ð¸Ð½ ÑģÐºÐ¾Ð¹
ĠÐ´Ð¾Ð¿Ð¾Ð» Ð½ÐµÐ½Ð¸Ñı
ĠÑģÐ¾Ð¿ÑĢÐ¾ÑĤÐ¸Ð² Ð»ÐµÐ½Ð¸Ðµ
ĠÐ¿ÑĢÐµÐ´Ð¼ÐµÑĤ Ñĥ
ÑģÑĤÐ¸ÑĩÐµÑģÐº Ð¸Ð¼Ð¸
ĠÐº Ð»Ñĥ
ĠÐ¿ÑĢÐ¾Ð¼ÑĭÑĪ Ð»ÐµÐ½Ð½Ð¾Ð³Ð¾
ĠÐ¸Ð·Ð´Ðµ Ð»Ð¸Ñı
ĠÐļ Ð°Ð½
ĠÐ½Ð°ÑĢÐ¾Ð´ Ð½Ð¾Ð¹
ĠÐ¾ÑĤÑĢÐ¸ÑĨÐ° Ð½Ð¸Ñı
ĠÐ¿ÑĢÐµÐ´Ð¿Ð¾ÑĩÑĤ ÐµÐ½Ð¸Ð¹
ĠÐ¾Ð¿ ÑĢÐ¾ÑģÐ¾Ð²
ĠÑĢÐ°Ñģ ÑĨÐµÐ½Ð¸
ĠÐ´Ð¾Ð¼ Ðµ
ĠÑĥÐ³ÑĢÐ¾Ð· Ð°
ĠÐ»Ð¸ÑĩÐ½Ð¾ÑģÑĤ Ð½Ð¾Ð³Ð¾
ĠÐ¾ÑģÐ½Ð¾Ð²Ð°Ð½ Ð½ÑĭÐµ
ĠÐ¸Ð½ÑĤÐµÑĢÐ¿ÑĢÐµÑĤÐ° ÑĨÐ¸Ñİ
ĠÐ¾Ð¿ÑĢÐµÐ´ÐµÐ» ÑĳÐ½
Ðĳ Ñĥ
ĠÑģÐ¼Ðµ Ð¶Ð½ÑĭÑħ
ĠÑģÑĥÐ´ÑĮ Ð±Ñĭ
ĠÐ½Ð°ÑģÑĤÑĢÐ¾ ÐµÐ½Ð¸Ð¹
ĠÐľÐ¸Ñħ Ð°Ð¹
Ġ ÑĨÑĭ
ĠÐ´ Ð»Ð¸Ð½
ĠÐ¸ÑģÑģÐ»ÐµÐ´ Ð²Ð°Ð½Ð¸Ñı
ĠÑĪÐ¸ÑĢÐ¾Ðº Ð¸Ð¼
ĠÐ·Ð°ÐºÐ¾Ð½Ð° Ð¼
ĠÐ´ÐµÑģÑı ÑĤÑĮ
Ð¾Ð´ÐµÑĢÐ¶Ð° Ð½Ð¸Ðµ
ĠÐ¿Ð¾ÑģÐ¾Ð± Ð¸Ñı
ĠÑĥ ÑĩÐµÐ½Ð¸Ñı
ĠÐ½ÐµÑĥ ÑģÑĤÐ¾Ð¹ÑĩÐ¸
ĠÑĤÑĢÐ°ÐºÑĤÐ¾Ð² ÐºÐ¸
ĠÑģÐ¾Ð³Ð»Ð°ÑģÑĥ ÐµÑĤÑģÑı
Ñı ÑīÐ¸ÑħÑģÑı
ÑģÑĤ ÑģÐºÐ°Ñı
ĠÑĤÐµ Ð¿
ĠÐ¿Ð¾Ð´ Ð³
ĠÐ¼ÐµÐ¶ Ð´
ĠÑĢÐ°Ð·Ð½Ð¾ ÑĢÐ¾Ð´
ÐĺÐ½ ÑĤÐµÑĢÐµÑģ
ĠÐ¿ÑĢÐ¾Ð¿Ð°Ð³Ð°Ð½ Ð´Ñĭ
Ð¼ ÐµÐ¹
ĠÐ´ ÑĢÐµ
ĠÑĢÐµÐ°Ð»ÑĮ Ð½ÑĭÐ¹
ĠÑĤÐµÐºÑĥ ÑīÐ¸Ñħ
ĠÐ²Ð¾Ð·Ð³Ð»Ð° Ð²Ð»Ñı
ĠÐĴÐ°ÑĢ ÑĪÐ°
Ð¾Ð³ ÐµÐ½
ĠÐ·Ð° Ð´ÐµÑĢÐ¶
ĠÐĴ Ð¾Ñģ
ĠÑĤÑĢÑĥ Ð´Ñĭ
ĠÐ½ÐµÐ³Ð° ÑĤÐ¸Ð²Ð½Ð¾Ð³Ð¾
ĠÐ½Ð°Ð¸Ð±Ð¾Ð»ÑĮÑĪ ÐµÐµ
Ð¾Ð¿Ð»Ð° ÑĤÐµÐ»ÑĮ
Ñģ Ð²
ĠÐ´Ðµ Ðµ
ĠÐ²Ð¾Ñģ Ð¿Ð¾Ð»
Ð¾Ð´ÐµÐ¹ÑģÑĤÐ² Ð¸Ðµ
ĠÑĨÐ¸ ÐºÐ»
ĠÑģÑĤÑĢÑĥÐºÑĤÑĥÑĢ Ð½Ð¾
ĠÐ¿Ð»Ð¾ ÑģÐºÐ¾
ĠÐºÐ¾Ñģ Ð¼
ĠÐ¿ÑĢÐ¸Ð¼ÐµÐ½Ñı ÑĤÑĮÑģÑı
ĠÐºÑĢÐµÐ´Ð¸ÑĤ Ð½ÑĭÑħ
Ñģ Ð½Ð¾Ðµ
ĠÐ¿ÑĢÐ¾ ÑĩÐ¸ÑĤÐ°
ĠÐŁ ÑĢÐ¾Ñģ
ĠÑĦÑĥÐ½Ð´Ð°Ð¼ÐµÐ½ÑĤÐ° Ð»ÑĮÐ½ÑĭÑħ
ĠÑģÐ¿ÐµÐº ÑĤÑĢÐ°
ĠÐ¾ÑħÐ²Ð°ÑĤÑĭ Ð²Ð°ÐµÑĤ
Ñģ Ð²Ñı
ĠÐºÐ° Ð¼ÐµÐ½
ĠÐ´Ð¾Ð¿Ð¾Ð» Ð½
ĠÐ¾Ð¿Ð¸ÑģÑĭ Ð²Ð°ÐµÑĤÑģÑı
ĠÐ¿Ð¾ÑģÐ»ÐµÐ´Ð¾Ð²Ð° ÑĤÐµÐ»ÑĮÐ½Ð¾ÑģÑĤÐ¸
ĠÐ¿Ð¾ÑģÑĤÐ°Ð² Ð¾Ðº
ĠÑĨÐµÐ½ Ðµ
ĠÐ¿Ð¾Ð½Ð¸Ð¼Ð° ÐµÑĤ
ĠÐ½ÐµÐ¿Ð¾ÑģÑĢÐµÐ´ ÑģÑĤÐ²ÐµÐ½Ð½Ð¾Ð³Ð¾
ÐŀÐ¿ ÑĢÐµÐ´Ðµ
ĠÐ¼ÑĥÐ·Ðµ Ñı
ĠÐŀÑĤÐµÑĩÐµ ÑģÑĤÐ²ÐµÐ½Ð½Ð¾Ð¹
Ðŀ ÑĢÐ³Ð°
Ð¼ÐµÑĢ Ñĭ
ĠÑİÑĢÐ¸Ð´Ð¸ ÑĩÐµÑģÐºÐ°Ñı
ĠÐ´Ð¾Ð¿ÑĥÑģÐºÐ° ÐµÑĤ
ĠÐ¸Ð¼Ð¿Ð¾ÑĢÑĤÐ¾Ð·Ð° Ð¼Ðµ
Ð¾Ð½ ÑģÐºÐ¾Ð³Ð¾
ĠÐ¿ÑĢ ÐµÐ½Ðµ
ĠÐ·Ð° Ð¼Ñĭ
ĠÐĴ Ð¡
ĠÐĵ Ð¾ÑĦ
ĠÑģÐº Ð²Ð¾Ð·
ÐĺÐ· ÑĥÑĩÐµÐ½Ð¸Ðµ
ĠÐº Ð»ÑĥÐ±
Ð½Ð¾ ÑĪÐµÐ½Ð¸Ñı
ĠÐ¾ÑĤ ÑģÑĤÐ°Ð²
Ð»Ð¾Ð² Ð¸
ĠÐ¾Ð±Ðµ ÑīÐ°
ĠÑģÐ²ÑıÐ·Ð°Ð½ Ð½ÑĭÐ¼
ĠÑĥÑģÑĤÐ°Ð½Ð°Ð²Ð»Ð¸ Ð²Ð°ÑĤÑĮ
ĠÐ¿Ð¾Ð»Ðµ Ð¼Ð¸
ĠÐ¸Ð´ÐµÐ½ÑĤÐ¸ ÑĦÐ¸ÑĨÐ¸
ĠÐĲÐ»ÐµÐºÑģÐ°Ð½Ð´ ÑĢ
ĠÐºÐ°ÑĩÐµ ÑģÑĤÐ²ÐµÐ½Ð½ÑĭÑħ
ĠÐ¿ÑĢÐµÐ¿Ð¾Ð´Ð°Ð²Ð° ÑĤÐµÐ»ÑıÐ¼Ð¸
ĠÑģÑĤÑĢÐµÐ¼ Ð»ÐµÐ½Ð¸Ñı
ĠÑħÐ°ÑĢÐ°ÐºÑĤÐµÑĢÐ¸Ð· ÑĥÑİÑīÐ¸Ñħ
ĠÐ¼Ð¾Ð½Ð°ÑģÑĤÑĭ ÑĢÑı
ĠÐ¿Ð»Ñİ ÑĢÐ°
ĠÐ£Ð½Ð¸Ð²ÐµÑĢÑģÐ¸ÑĤÐµ ÑĤ
ÐŁ Ð£
Ð¡ ÑĥÑīÐµ
ĠÐµÐ´Ð¸ Ð½Ð¾Ð¾Ð±ÑĢÐ°Ð·
ĠÑģÑĥÐ´ÐµÐ± Ð½ÑĭÐµ
ĠÑĢÑĥÐ± Ð»Ñı
ĠÐ»Ð¸ÑĩÐ½Ð¾ÑģÑĤ Ð½ÑĭÐµ
ĠÐ²Ð·Ð½Ð¾ ÑģÐ¾Ð²
ĠÑģ ÑĨÐ¸
ĠÑģ Ð±
ĠÑĤÐ¾ÑĢ Ð¶Ðµ
ĠÐ¾ÑĤÐ¼ÐµÑĤ Ð¸Ð»Ð¸
ĠÐ±ÑİÐ´Ð¶ÐµÑĤ Ð¾Ð²
ĠÑģÑĦÐ¾ÑĢÐ¼Ð¸ ÑĢÐ¾Ð²Ð°
ĠÐ¿Ð¾Ð´Ð° ÑĩÐ¸
ĠÐ½Ð°ÐºÐ° Ð½ÑĥÐ½Ðµ
ĠÐ¿ÐµÑĢÐµÑĩ Ð½Ñı
ÐºÑĢÐµÐ´Ð¸ÑĤ Ð½Ð¾Ð¹
ĠÐ¿ÑĢÐ¾ÑĦÐµÑģÑģÐ¸Ð¾Ð½Ð°Ð»ÑĮ Ð½Ð°Ñı
Ðµ Ð²Ð¸Ñĩ
Ð½Ð° Ð¿ÑĢÐ°Ð²
Ð´Ð° ÑİÑĤ
ĠÑĢÐµ Ð¹
ĠÑģÐ°Ð¼ Ñĥ
ĠÐ¿Ð° Ð´ÐµÐ½Ð¸Ñı
ÑĩÐ¸Ñģ Ð»ÐµÐ½Ð¸Ñı
ĠÑıÐ½Ð²Ð° ÑĢÐµ
Ð¶Ð¸ Ð²Ð°ÑĤÑĮ
Ð¾Ð»Ð¾Ð³Ð¸ÑĩÐµÑģÐº Ð¾Ð¼Ñĥ
ĠÐ½Ð¸ Ð²ÐµÐ»Ð¸
ĠÑĥÑĩÐµ Ð±Ðµ
ĠÑĢÐµÐ»Ð¸Ð³Ð¸Ð¾Ð· Ð½Ð¾Ð³Ð¾
ĠÐ¾Ð±ÑģÑĥÐ¶Ð´Ð° ÐµÑĤÑģÑı
Ð´ Ð¶Ðµ
ĠÐ² Ð²ÐµÑĢ
ÑĤÐµ ÑĦÐ°Ðº
Ð·ÑĭÐ²Ð° ÑİÑĤ
ĠÐ¿ÑĢÐ¾Ð± Ð»
ĠÐ»Ðµ ÑģÐ°
ĠÑģÑĤÑĢÐ¾ Ð½Ñĭ
ĠÐ½Ð°Ðº Ð¾Ð½ÐµÑĩ
ĠÐŀÐ´ Ð½Ð¾Ð¹
ÑĤÐµÐ»ÑĮ ÑģÐºÐ°Ñı
Ð¼ÐµÐ½ ÑĤÑĥ
ĠÐ¸Ð· Ð¼ÐµÑĢÐ¸
ĠÐ¿ÑĢÐ°Ðº ÑĤ
ĠÐ¿Ð¾ÑģÑĤÐ°Ð½Ð¾Ð² ÐºÐ¸
Ð¾Ð³ÑĢÐ°ÑĦ Ð¸Ð¹
ĠÐ¾Ð¿Ð¾ÑĢ Ð¾Ð¹
ÑĩÐµÑĤÐ²ÐµÑĢ ÑĤÑĭÑħ
ÑĮ ÐµÑĤ
Ð´Ð°Ð³ Ð¾Ð³Ð¸
ĠÑģÐ¾ÑģÑĤÐ°Ð²Ð»Ñı Ð»
ĠÐ½ÐµÐ²Ð¾Ð·Ð¼Ð¾Ð¶ Ð½Ð¾ÑģÑĤÐ¸
ÑĤÐ°ÑĢÐ¸ Ð·Ð¼Ð°
ĠÑĥ Ð¶
ĠÐ¾ÑģÐ¾Ð±ÐµÐ½ Ð½Ð¾ÑģÑĤÑıÐ¼
ĠÑĢÐ¸ ÑĤ
ĠÐ±Ðµ ÑĢÐµÑĤ
Ð¸Ð²ÑĪÐ¸Ñħ ÑģÑı
ÑĩÐ»ÐµÐ½ Ð¾Ð²
ĠÑĦÐ°Ðº ÑĤÐ¾Ð¼
ĠÑĢÐ°Ð·Ð´Ðµ Ð»
ÑĢÑĥ ÐµÐ¼Ð¾Ð³Ð¾
ÑĩÐ¸ ÐºÐ¾Ð¼
ĠÐ±Ñĭ ÑģÑĤÑĢÐµÐµ
ĠÑģÐ¸ Ð³
ÐµÐ² Ð¾Ð³Ð¾
ĠÐ¿ÑĢÐ¾ÑĤÐ¸Ð² Ð½Ð¸ÐºÐ°
ĠÑģÑĤÐ°Ð½Ð¾Ð² Ð¸Ð»Ð¸ÑģÑĮ
ĠÐ±Ð»Ð¸Ð· Ð¾ÑģÑĤÐ¸
ĠÐ¾ÑĤÑģÑĭ Ð»Ð°
ĠÐ¾Ð± Ð¾Ð·
Ð¿Ð¸ ÑĤÑĭ
ĠÐ¿Ð¾ÑģÐ»ÐµÐ´ ÑĥÑİÑīÐµÐ³Ð¾
ĠÑģÑĥÑī Ð½Ð¾ÑģÑĤ
ĠÑĢÐ°ÑĨÐ¸Ð¾Ð½Ð°Ð»ÑĮ Ð½Ð¾Ð³Ð¾
Ð²Ð° Ð»ÑĮ
ĠÑĢÐµ Ð²Ð¸
Ð¼ÐµÐ½ ÑĤÐ¸ÑĢÑĥ
ÑīÐ¸ ÐºÐ°Ð¼Ð¸
ĠÐ³Ð»Ð° Ð²Ð°
ĠÑįÐºÐ¾Ð½Ð¾Ð¼Ð¸ÑĩÐµÑģÐº Ð¸Ð¼Ð¸
ÑĢÐ¾Ð¿ Ð¾ÑĢ
ĠÐºÑĥÑĢ ÑģÐµ
[...]
